{
  "version": "1.0",
  "truncation": null,
  "padding": null,
  "added_tokens": [
    {
      "id": 0,
      "content": "<|pad|>",
      "single_word": false,
      "lstrip": false,
      "rstrip": false,
      "normalized": false,
      "special": true
    },
    {
      "id": 1,
      "content": "<|unk|>",
      "single_word": false,
      "lstrip": false,
      "rstrip": false,
      "normalized": false,
      "special": true
    },
    {
      "id": 2,
      "content": "<|mask|>",
      "single_word": false,
      "lstrip": false,
      "rstrip": false,
      "normalized": false,
      "special": true
    },
    {
      "id": 3,
      "content": "<|bos|>",
      "single_word": false,
      "lstrip": false,
      "rstrip": false,
      "normalized": false,
      "special": true
    },
    {
      "id": 4,
      "content": "<|eos|>",
      "single_word": false,
      "lstrip": false,
      "rstrip": false,
      "normalized": false,
      "special": true
    },
    {
      "id": 5,
      "content": "<|system|>",
      "single_word": false,
      "lstrip": false,
      "rstrip": false,
      "normalized": false,
      "special": true
    },
    {
      "id": 6,
      "content": "<|user|>",
      "single_word": false,
      "lstrip": false,
      "rstrip": false,
      "normalized": false,
      "special": true
    },
    {
      "id": 7,
      "content": "<|assistant|>",
      "single_word": false,
      "lstrip": false,
      "rstrip": false,
      "normalized": false,
      "special": true
    },
    {
      "id": 8,
      "content": "<|future1|>",
      "single_word": false,
      "lstrip": false,
      "rstrip": false,
      "normalized": false,
      "special": true
    },
    {
      "id": 9,
      "content": "<|future2|>",
      "single_word": false,
      "lstrip": false,
      "rstrip": false,
      "normalized": false,
      "special": true
    },
    {
      "id": 10,
      "content": "<|future3|>",
      "single_word": false,
      "lstrip": false,
      "rstrip": false,
      "normalized": false,
      "special": true
    },
    {
      "id": 11,
      "content": "<|future4|>",
      "single_word": false,
      "lstrip": false,
      "rstrip": false,
      "normalized": false,
      "special": true
    },
    {
      "id": 12,
      "content": "<|future5|>",
      "single_word": false,
      "lstrip": false,
      "rstrip": false,
      "normalized": false,
      "special": true
    },
    {
      "id": 13,
      "content": "<|future6|>",
      "single_word": false,
      "lstrip": false,
      "rstrip": false,
      "normalized": false,
      "special": true
    },
    {
      "id": 14,
      "content": "<|future7|>",
      "single_word": false,
      "lstrip": false,
      "rstrip": false,
      "normalized": false,
      "special": true
    },
    {
      "id": 15,
      "content": "<|future8|>",
      "single_word": false,
      "lstrip": false,
      "rstrip": false,
      "normalized": false,
      "special": true
    }
  ],
  "normalizer": null,
  "pre_tokenizer": {
    "type": "ByteLevel",
    "add_prefix_space": false,
    "trim_offsets": true,
    "use_regex": true
  },
  "post_processor": {
    "type": "TemplateProcessing",
    "single": [
      {
        "Sequence": {
          "id": "A",
          "type_id": 0
        }
      }
    ],
    "pair": [
      {
        "Sequence": {
          "id": "A",
          "type_id": 0
        }
      },
      {
        "Sequence": {
          "id": "B",
          "type_id": 1
        }
      }
    ],
    "special_tokens": {}
  },
  "decoder": {
    "type": "ByteLevel",
    "add_prefix_space": true,
    "trim_offsets": true,
    "use_regex": true
  },
  "model": {
    "type": "BPE",
    "dropout": null,
    "unk_token": "<|unk|>",
    "continuing_subword_prefix": null,
    "end_of_word_suffix": null,
    "fuse_unk": false,
    "byte_fallback": false,
    "ignore_merges": false,
    "vocab": {
      "<|pad|>": 0,
      "<|unk|>": 1,
      "<|mask|>": 2,
      "<|bos|>": 3,
      "<|eos|>": 4,
      "<|system|>": 5,
      "<|user|>": 6,
      "<|assistant|>": 7,
      "<|future1|>": 8,
      "<|future2|>": 9,
      "<|future3|>": 10,
      "<|future4|>": 11,
      "<|future5|>": 12,
      "<|future6|>": 13,
      "<|future7|>": 14,
      "<|future8|>": 15,
      "!": 16,
      "\"": 17,
      "#": 18,
      "$": 19,
      "%": 20,
      "&": 21,
      "'": 22,
      "(": 23,
      ")": 24,
      "*": 25,
      "+": 26,
      ",": 27,
      "-": 28,
      ".": 29,
      "/": 30,
      "0": 31,
      "1": 32,
      "2": 33,
      "3": 34,
      "4": 35,
      "5": 36,
      "6": 37,
      "7": 38,
      "8": 39,
      "9": 40,
      ":": 41,
      ";": 42,
      "<": 43,
      "=": 44,
      ">": 45,
      "?": 46,
      "@": 47,
      "A": 48,
      "B": 49,
      "C": 50,
      "D": 51,
      "E": 52,
      "F": 53,
      "G": 54,
      "H": 55,
      "I": 56,
      "J": 57,
      "K": 58,
      "L": 59,
      "M": 60,
      "N": 61,
      "O": 62,
      "P": 63,
      "Q": 64,
      "R": 65,
      "S": 66,
      "T": 67,
      "U": 68,
      "V": 69,
      "W": 70,
      "X": 71,
      "Y": 72,
      "Z": 73,
      "[": 74,
      "\\": 75,
      "]": 76,
      "^": 77,
      "_": 78,
      "`": 79,
      "a": 80,
      "b": 81,
      "c": 82,
      "d": 83,
      "e": 84,
      "f": 85,
      "g": 86,
      "h": 87,
      "i": 88,
      "j": 89,
      "k": 90,
      "l": 91,
      "m": 92,
      "n": 93,
      "o": 94,
      "p": 95,
      "q": 96,
      "r": 97,
      "s": 98,
      "t": 99,
      "u": 100,
      "v": 101,
      "w": 102,
      "x": 103,
      "y": 104,
      "z": 105,
      "{": 106,
      "|": 107,
      "}": 108,
      "~": 109,
      "¡": 110,
      "¢": 111,
      "£": 112,
      "¤": 113,
      "¥": 114,
      "¦": 115,
      "§": 116,
      "¨": 117,
      "©": 118,
      "ª": 119,
      "«": 120,
      "¬": 121,
      "®": 122,
      "¯": 123,
      "°": 124,
      "±": 125,
      "²": 126,
      "³": 127,
      "´": 128,
      "µ": 129,
      "¶": 130,
      "·": 131,
      "¸": 132,
      "¹": 133,
      "º": 134,
      "»": 135,
      "¼": 136,
      "½": 137,
      "¾": 138,
      "¿": 139,
      "Â": 140,
      "Ã": 141,
      "Ä": 142,
      "Å": 143,
      "Æ": 144,
      "Ç": 145,
      "È": 146,
      "É": 147,
      "Ê": 148,
      "Ë": 149,
      "Ì": 150,
      "Í": 151,
      "Î": 152,
      "Ï": 153,
      "Ð": 154,
      "Ñ": 155,
      "Ò": 156,
      "Ó": 157,
      "Ô": 158,
      "Õ": 159,
      "Ö": 160,
      "×": 161,
      "Ø": 162,
      "Ù": 163,
      "Ú": 164,
      "Û": 165,
      "Ü": 166,
      "Ý": 167,
      "Þ": 168,
      "ß": 169,
      "à": 170,
      "á": 171,
      "â": 172,
      "ã": 173,
      "ä": 174,
      "å": 175,
      "æ": 176,
      "ç": 177,
      "è": 178,
      "é": 179,
      "ê": 180,
      "ë": 181,
      "ì": 182,
      "í": 183,
      "î": 184,
      "ï": 185,
      "ð": 186,
      "ć": 187,
      "Ĉ": 188,
      "ĉ": 189,
      "Ċ": 190,
      "ď": 191,
      "Ē": 192,
      "ē": 193,
      "ĕ": 194,
      "Ė": 195,
      "Ě": 196,
      "ğ": 197,
      "Ġ": 198,
      "Ģ": 199,
      "ģ": 200,
      "Ĥ": 201,
      "ĥ": 202,
      "Ħ": 203,
      "ħ": 204,
      "Ĩ": 205,
      "ĩ": 206,
      "Ī": 207,
      "ī": 208,
      "Ĭ": 209,
      "ĭ": 210,
      "Į": 211,
      "į": 212,
      "İ": 213,
      "ı": 214,
      "Ĳ": 215,
      "ĳ": 216,
      "Ĵ": 217,
      "ĵ": 218,
      "Ķ": 219,
      "ķ": 220,
      "ĸ": 221,
      "Ĺ": 222,
      "ĺ": 223,
      "Ļ": 224,
      "ļ": 225,
      "Ľ": 226,
      "ľ": 227,
      "Ŀ": 228,
      "ŀ": 229,
      "Ł": 230,
      "ł": 231,
      "Ń": 232,
      "Ġt": 233,
      "he": 234,
      "Ġa": 235,
      "Ġthe": 236,
      "in": 237,
      "Ġo": 238,
      "re": 239,
      "Ġw": 240,
      "Ġs": 241,
      "nd": 242,
      "er": 243,
      "is": 244,
      "at": 245,
      "on": 246,
      "Ġof": 247,
      "it": 248,
      "Ġb": 249,
      "en": 250,
      "ed": 251,
      "ou": 252,
      "es": 253,
      "Ġh": 254,
      "Ġc": 255,
      "Ġf": 256,
      "Ġm": 257,
      "or": 258,
      "Ġand": 259,
      "Ġp": 260,
      "Ġto": 261,
      "ing": 262,
      "ar": 263,
      "an": 264,
      "Ġth": 265,
      "Ġin": 266,
      "Ġd": 267,
      "ll": 268,
      "as": 269,
      "le": 270,
      "ic": 271,
      "Ġn": 272,
      "om": 273,
      "ion": 274,
      "Ġbe": 275,
      "Ġl": 276,
      "ent": 277,
      "st": 278,
      "Ġe": 279,
      "al": 280,
      "ot": 281,
      "Ġhe": 282,
      "se": 283,
      "ut": 284,
      "Ġg": 285,
      "ce": 286,
      "ve": 287,
      "Ġre": 288,
      "Ġwh": 289,
      "ly": 290,
      "ad": 291,
      "Ġthat": 292,
      "im": 293,
      "ow": 294,
      "ĠI": 295,
      "ir": 296,
      "ur": 297,
      "ld": 298,
      "ith": 299,
      "ct": 300,
      "id": 301,
      "gh": 302,
      "ver": 303,
      "Ġu": 304,
      "Ġis": 305,
      "Ġit": 306,
      "ĠT": 307,
      "Ġfor": 308,
      "et": 309,
      "Ġas": 310,
      "Ġ*": 311,
      "ay": 312,
      "ro": 313,
      "Ġon": 314,
      "ch": 315,
      "Ġwith": 316,
      "Ġy": 317,
      "Ġwas": 318,
      "Ġhis": 319,
      "Ġwe": 320,
      "ĠS": 321,
      "her": 322,
      "ĠC": 323,
      "am": 324,
      "ri": 325,
      "ĠA": 326,
      "Ġnot": 327,
      "Ġan": 328,
      "ter": 329,
      "ain": 330,
      "and": 331,
      "all": 332,
      "ill": 333,
      "od": 334,
      "ich": 335,
      "Ġby": 336,
      "Ġst": 337,
      "if": 338,
      "ation": 339,
      "Ġsu": 340,
      "ght": 341,
      "Ġcon": 342,
      "ess": 343,
      "th": 344,
      "il": 345,
      "ĠM": 346,
      "ore": 347,
      "Ġde": 348,
      "Ġha": 349,
      "our": 350,
      "Ġwhich": 351,
      "pe": 352,
      "ul": 353,
      "Ġse": 354,
      "âĢ": 355,
      "Ġat": 356,
      "est": 357,
      "rom": 358,
      "ra": 359,
      "Ġor": 360,
      "ĠH": 361,
      "ke": 362,
      "Ġsh": 363,
      "ould": 364,
      "Ġv": 365,
      "ĠThe": 366,
      "ble": 367,
      "us": 368,
      "res": 369,
      "ĠP": 370,
      "qu": 371,
      "ge": 372,
      "red": 373,
      "Ġthis": 374,
      "ol": 375,
      "ĠB": 376,
      "ist": 377,
      "Ġso": 378,
      "Ġex": 379,
      "em": 380,
      "ĠG": 381,
      "Ġfrom": 382,
      "Ġhad": 383,
      "nt": 384,
      "ous": 385,
      "ers": 386,
      "Ġbut": 387,
      "Ġall": 388,
      "ant": 389,
      "ac": 390,
      "Ġcom": 391,
      "Ġare": 392,
      "Ġhave": 393,
      "um": 394,
      "os": 395,
      "ate": 396,
      "Ġyou": 397,
      "Ġhim": 398,
      "Ġtheir": 399,
      "Ġthey": 400,
      "Ġme": 401,
      "ĠW": 402,
      "ig": 403,
      "ĠL": 404,
      "Ġne": 405,
      "ie": 406,
      "ard": 407,
      "pp": 408,
      "Ġwhe": 409,
      "Ġpro": 410,
      "ity": 411,
      "ust": 412,
      "art": 413,
      "ight": 414,
      "Ġwho": 415,
      "Ġher": 416,
      "ĠF": 417,
      "Ġthem": 418,
      "iv": 419,
      "Ġ1": 420,
      "Ġup": 421,
      "ast": 422,
      "Ġman": 423,
      "ĠE": 424,
      "Ġwere": 425,
      "Ġch": 426,
      "pt": 427,
      "Ġle": 428,
      "ome": 429,
      "ĠD": 430,
      "ies": 431,
      "ure": 432,
      "ord": 433,
      "ru": 434,
      "ive": 435,
      "Ġk": 436,
      "to": 437,
      "Ġal": 438,
      "the": 439,
      "ther": 440,
      "very": 441,
      "el": 442,
      "ost": 443,
      "fe": 444,
      "Ġsa": 445,
      "ort": 446,
      "Ġmy": 447,
      "ong": 448,
      "Ġone": 449,
      "reat": 450,
      "ound": 451,
      "ĠR": 452,
      "'s": 453,
      "ment": 454,
      "ind": 455,
      "sel": 456,
      "ak": 457,
      "ame": 458,
      "ence": 459,
      "ne": 460,
      "Ġno": 461,
      "Ġdo": 462,
      "op": 463,
      "ci": 464,
      "Ġthere": 465,
      "ose": 466,
      "Ġgo": 467,
      "able": 468,
      "Ġr": 469,
      "--": 470,
      "ance": 471,
      "te": 472,
      ".*": 473,
      "ough": 474,
      "Ġwill": 475,
      "Ġ\"": 476,
      "cc": 477,
      ",*": 478,
      "ish": 479,
      "ĠO": 480,
      "The": 481,
      "out": 482,
      "au": 483,
      "Ġour": 484,
      "ine": 485,
      "ĠN": 486,
      "ag": 487,
      "Ġshe": 488,
      "ab": 489,
      "ĠCh": 490,
      "per": 491,
      "Ġab": 492,
      "ry": 493,
      "Ġdis": 494,
      "Ġbeen": 495,
      "Ġar": 496,
      "Ġpl": 497,
      "av": 498,
      "ions": 499,
      "ond": 500,
      "un": 501,
      "Ġwould": 502,
      "Ġfe": 503,
      "Ġun": 504,
      "Ġmore": 505,
      "ud": 506,
      "fore": 507,
      "Ġother": 508,
      "pl": 509,
      "Ġim": 510,
      "one": 511,
      "Ġad": 512,
      "Ġag": 513,
      "Ġaf": 514,
      "Ġwhen": 515,
      "ap": 516,
      "Ġwor": 517,
      "are": 518,
      "Ġupon": 519,
      "ok": 520,
      "Ġsp": 521,
      "ice": 522,
      "Ġper": 523,
      "ake": 524,
      "Ġany": 525,
      "ass": 526,
      "Ġj": 527,
      "Ġen": 528,
      "ĠTh": 529,
      "ĠHe": 530,
      "Ġlo": 531,
      "Ġif": 532,
      "ĠJ": 533,
      "ary": 534,
      "now": 535,
      "ount": 536,
      "hed": 537,
      "Ġqu": 538,
      "ace": 539,
      "Ġus": 540,
      "we": 541,
      "ally": 542,
      "ath": 543,
      "Ġ_": 544,
      "ire": 545,
      "Ġcan": 546,
      "itt": 547,
      "ue": 548,
      "ans": 549,
      "nder": 550,
      "ide": 551,
      "age": 552,
      "Ġout": 553,
      "ime": 554,
      "Ġinto": 555,
      "ings": 556,
      "Ġgreat": 557,
      "Ġam": 558,
      "Ġsome": 559,
      "Ġli": 560,
      "ated": 561,
      "ven": 562,
      "Ġmay": 563,
      "Ġpr": 564,
      "ĠGod": 565,
      "ck": 566,
      "ade": 567,
      "ious": 568,
      "ng": 569,
      "ction": 570,
      "Ġvery": 571,
      "ress": 572,
      "self": 573,
      "Ġits": 574,
      "bl": 575,
      "Ġ(": 576,
      "Ġpre": 577,
      "Ġpart": 578,
      "Ġhas": 579,
      "ert": 580,
      "Ġsuch": 581,
      "Ġsaid": 582,
      "Ġ2": 583,
      "ign": 584,
      "ree": 585,
      "Ġthan": 586,
      "wn": 587,
      "âĢĻ": 588,
      "Ġcont": 589,
      "Ġthese": 590,
      "ible": 591,
      "Ġtr": 592,
      "[^": 593,
      "Ġwhat": 594,
      "Ġgr": 595,
      "of": 596,
      "ars": 597,
      "Ġthen": 598,
      "âĢľ": 599,
      "ite": 600,
      "ise": 601,
      "cl": 602,
      "Ġtw": 603,
      ".\"": 604,
      "Ġyour": 605,
      "ved": 606,
      "ep": 607,
      "uch": 608,
      "Ġcl": 609,
      "own": 610,
      "Ġcomm": 611,
      "Ġshould": 612,
      "Ġdes": 613,
      "âĢĿ": 614,
      "Ġres": 615,
      "oll": 616,
      "Ġknow": 617,
      "ness": 618,
      "ĠIt": 619,
      "ood": 620,
      "Ġtime": 621,
      "ach": 622,
      "ile": 623,
      "Ġagain": 624,
      "Ġbr": 625,
      "ons": 626,
      "Ġob": 627,
      "urn": 628,
      "oth": 629,
      "ought": 630,
      "other": 631,
      "ect": 632,
      "Ġpe": 633,
      "Ġye": 634,
      "ied": 635,
      "ren": 636,
      "Ġwhere": 637,
      "ces": 638,
      "Ġonly": 639,
      "Ġmost": 640,
      "ition": 641,
      "eth": 642,
      "Ġshall": 643,
      "ather": 644,
      "oy": 645,
      "ife": 646,
      "ful": 647,
      "Ġcons": 648,
      "ward": 649,
      "Ġthose": 650,
      "ff": 651,
      "Ġte": 652,
      "act": 653,
      "Ġrem": 654,
      "so": 655,
      "ations": 656,
      "ays": 657,
      "ull": 658,
      "irst": 659,
      "rist": 660,
      "Ġcould": 661,
      "Ġ|": 662,
      "Ġmust": 663,
      "ber": 664,
      "Ġspe": 665,
      "ĠAnd": 666,
      "Ġbl": 667,
      "ult": 668,
      "ip": 669,
      "ang": 670,
      "ack": 671,
      "Ġacc": 672,
      "Ġunder": 673,
      "Ġro": 674,
      "Ġpres": 675,
      "Ġmade": 676,
      "ens": 677,
      "Ġafter": 678,
      "ĠIn": 679,
      "for": 680,
      "eg": 681,
      "Ġnow": 682,
      "Ġgood": 683,
      "ick": 684,
      "Ġbec": 685,
      "Ġbefore": 686,
      "Ġind": 687,
      "be": 688,
      "Ġpo": 689,
      "Ġcomp": 690,
      "ild": 691,
      "oss": 692,
      "old": 693,
      "Ġover": 694,
      "ict": 695,
      "ical": 696,
      "ian": 697,
      "Ġlike": 698,
      "ĠK": 699,
      "Ġbeing": 700,
      "iz": 701,
      "aw": 702,
      "Ġimp": 703,
      "ark": 704,
      "Ġfl": 705,
      "int": 706,
      "Ġmuch": 707,
      "ory": 708,
      "ves": 709,
      "Ġhow": 710,
      "Ġthr": 711,
      "Ġown": 712,
      ",\"": 713,
      "Ġoff": 714,
      "ause": 715,
      "ĠV": 716,
      "Ġtwo": 717,
      "Ġsub": 718,
      "Ġsee": 719,
      "ener": 720,
      "Ġdid": 721,
      "Ġmen": 722,
      "ove": 723,
      "Ġfirst": 724,
      "Ġri": 725,
      "Ġapp": 726,
      "uth": 727,
      "ĠMr": 728,
      "ia": 729,
      "ĠChrist": 730,
      "ors": 731,
      "Ġbet": 732,
      "ced": 733,
      "ĠSt": 734,
      "ĠBut": 735,
      "ase": 736,
      "Ġevery": 737,
      "ittle": 738,
      "Ġsc": 739,
      "Ġhand": 740,
      "ning": 741,
      "ink": 742,
      "Ġ3": 743,
      "end": 744,
      "ty": 745,
      "hes": 746,
      "erv": 747,
      "fect": 748,
      "ents": 749,
      "cess": 750,
      "les": 751,
      "ave": 752,
      "land": 753,
      "Ġabout": 754,
      "ily": 755,
      "iss": 756,
      "Ġmight": 757,
      "Ġmany": 758,
      "ower": 759,
      "Ġwell": 760,
      "Ġap": 761,
      "Ġyet": 762,
      "led": 763,
      "Ġform": 764,
      "ial": 765,
      "Ġsame": 766,
      "Ġsay": 767,
      "ject": 768,
      "pect": 769,
      "Ġrep": 770,
      "Ġent": 771,
      "Ġlong": 772,
      "hat": 773,
      "Ġfa": 774,
      "hen": 775,
      "Ġlittle": 776,
      "man": 777,
      "Ġday": 778,
      "Ġeven": 779,
      "Ġwr": 780,
      "Ġwithout": 781,
      "ater": 782,
      "og": 783,
      "ving": 784,
      "Ġnat": 785,
      "Ġpass": 786,
      "Ġcall": 787,
      "ual": 788,
      "not": 789,
      "Ġlife": 790,
      "Ġatt": 791,
      "Ġagainst": 792,
      "li": 793,
      "atter": 794,
      "Ġdist": 795,
      "irit": 796,
      "ople": 797,
      "Ġwork": 798,
      "Ġend": 799,
      "ĠY": 800,
      "ished": 801,
      "igh": 802,
      "ady": 803,
      "Ġfound": 804,
      "Ġalso": 805,
      "ĠThis": 806,
      "Ġthrough": 807,
      "ates": 808,
      "Ġsin": 809,
      "Ġra": 810,
      "Ġbel": 811,
      "Ġmake": 812,
      "sh": 813,
      "aint": 814,
      "ft": 815,
      "Ġpers": 816,
      "vers": 817,
      "ĠâĢľ": 818,
      "Ġear": 819,
      "Ġrec": 820,
      "Ġgl": 821,
      "Ġstr": 822,
      "ib": 823,
      "Ġem": 824,
      "ained": 825,
      "ple": 826,
      "ĠLord": 827,
      "Ġhere": 828,
      "Ġrel": 829,
      "Ġchar": 830,
      "Ġ&": 831,
      "]:": 832,
      "'d": 833,
      "ouse": 834,
      "Ġlet": 835,
      "illeg": 836,
      "Ġseem": 837,
      "Ġhimself": 838,
      "med": 839,
      "ither": 840,
      "Ġsm": 841,
      "ever": 842,
      "Ġinst": 843,
      "Ġappe": 844,
      "xt": 845,
      "Ġnever": 846,
      "illegible": 847,
      "ph": 848,
      "ently": 849,
      "urch": 850,
      "Ġword": 851,
      "ular": 852,
      "Ġexp": 853,
      "âĢĶ": 854,
      "Ġinte": 855,
      "Ġret": 856,
      "ollow": 857,
      "Ġac": 858,
      "Ġconf": 859,
      "Ġaw": 860,
      "less": 861,
      "Ġsec": 862,
      "Ġway": 863,
      "Ġreg": 864,
      "Ġcount": 865,
      "Ġass": 866,
      "Ġord": 867,
      "cy": 868,
      "ertain": 869,
      "Ġsupp": 870,
      "ubl": 871,
      "ures": 872,
      "und": 873,
      "ret": 874,
      "Ġop": 875,
      "ope": 876,
      "wh": 877,
      "Ġbo": 878,
      "ared": 879,
      "Ġev": 880,
      "Ġpeople": 881,
      "Ġthough": 882,
      "Ġcome": 883,
      "du": 884,
      "Ġ4": 885,
      "Ġold": 886,
      "Ġunt": 887,
      "cept": 888,
      "Ġposs": 889,
      "ont": 890,
      "Ġdown": 891,
      "Ġ[": 892,
      "cri": 893,
      "Ġlook": 894,
      "Ġtru": 895,
      "Ġset": 896,
      "Ġdif": 897,
      "ec": 898,
      "ract": 899,
      "ner": 900,
      "ason": 901,
      "Ġbeg": 902,
      "Ġheart": 903,
      "Ġact": 904,
      "hing": 905,
      "over": 906,
      "Ġplace": 907,
      "Ġtoo": 908,
      "Ġtak": 909,
      "ix": 910,
      "Ġgener": 911,
      "Ġpresent": 912,
      "Ġnor": 913,
      "Ġdisc": 914,
      "ten": 915,
      "Ġ'": 916,
      "riend": 917,
      "ered": 918,
      "imes": 919,
      "rest": 920,
      "Ġhum": 921,
      "Ġjust": 922,
      "ited": 923,
      "Th": 924,
      "Ġsl": 925,
      "Ġinf": 926,
      "Ġthought": 927,
      "Ġke": 928,
      "Ġlast": 929,
      "Ġboth": 930,
      "Ġright": 931,
      "Ġcour": 932,
      "ution": 933,
      "Ġgiv": 934,
      "_,": 935,
      "ĠWe": 936,
      "ters": 937,
      "ĠFor": 938,
      "Ġthink": 939,
      "Ġinc": 940,
      "Ġfollow": 941,
      "Ġworld": 942,
      "ments": 943,
      "me": 944,
      "oc": 945,
      "Ġtake": 946,
      "ants": 947,
      "Ġpower": 948,
      "air": 949,
      "Ġspirit": 950,
      "ange": 951,
      "Ġpur": 952,
      "Ġple": 953,
      "oun": 954,
      "Ġnew": 955,
      "selves": 956,
      "mer": 957,
      "Ġwhile": 958,
      "Ġfar": 959,
      "ĠU": 960,
      "get": 961,
      "Ġfind": 962,
      "Ġru": 963,
      "ived": 964,
      "ific": 965,
      "Ġcar": 966,
      "ene": 967,
      "row": 968,
      "its": 969,
      "ĠEng": 970,
      "that": 971,
      "ined": 972,
      "Ġobs": 973,
      "ities": 974,
      "Ġ18": 975,
      "rent": 976,
      "Ġocc": 977,
      "Ġthings": 978,
      "ider": 979,
      "Ġey": 980,
      "ew": 981,
      "Ġever": 982,
      "Ġest": 983,
      "ute": 984,
      "erm": 985,
      "ned": 986,
      "Ġamong": 987,
      "su": 988,
      "omm": 989,
      "ween": 990,
      "ks": 991,
      "Ġco": 992,
      "ss": 993,
      "00": 994,
      "pos": 995,
      "ried": 996,
      "ody": 997,
      "Ġsur": 998,
      ".âĢĿ": 999,
      "rit": 1000,
      "Ġcond": 1001,
      "uring": 1002,
      "ating": 1003,
      "Ġrest": 1004,
      "Ġsou": 1005,
      "Ġmind": 1006,
      "up": 1007,
      "Ġanother": 1008,
      "##": 1009,
      "Ġnecess": 1010,
      "Ġcame": 1011,
      "Ġadv": 1012,
      "ale": 1013,
      "ĠThey": 1014,
      "ention": 1015,
      "Ġbecause": 1016,
      "Ġstill": 1017,
      "And": 1018,
      "als": 1019,
      "ened": 1020,
      "ains": 1021,
      "Ġwar": 1022,
      "ised": 1023,
      "Ġprof": 1024,
      "de": 1025,
      "orn": 1026,
      "Ġ5": 1027,
      "ĠPr": 1028,
      "ail": 1029,
      "Ġfriend": 1030,
      "ged": 1031,
      "Ġput": 1032,
      "._": 1033,
      "aid": 1034,
      "tern": 1035,
      "uthor": 1036,
      "Ġread": 1037,
      "Ġyears": 1038,
      "ock": 1039,
      "Ġgra": 1040,
      "Ġthree": 1041,
      "by": 1042,
      "Ġbetween": 1043,
      "Ġca": 1044,
      "Ġref": 1045,
      "ĠKing": 1046,
      "It": 1047,
      "Ġrece": 1048,
      "Ġint": 1049,
      "Ġwhom": 1050,
      "tend": 1051,
      "ety": 1052,
      "ired": 1053,
      "with": 1054,
      "Ġgive": 1055,
      "Ġchild": 1056,
      "Ġwhose": 1057,
      "Ġcertain": 1058,
      "Ġpubl": 1059,
      "Ġdel": 1060,
      "here": 1061,
      "Ġhath": 1062,
      "Ġext": 1063,
      "Ġthy": 1064,
      "Ġtrue": 1065,
      "Ġmar": 1066,
      "hy": 1067,
      "ceed": 1068,
      "ob": 1069,
      "oh": 1070,
      "Ġser": 1071,
      "Ġhaving": 1072,
      "Ġart": 1073,
      "Ġaway": 1074,
      "He": 1075,
      "ief": 1076,
      "Ġwhole": 1077,
      "ier": 1078,
      "In": 1079,
      "aking": 1080,
      "Ġlaw": 1081,
      "Ġi": 1082,
      "ament": 1083,
      "ER": 1084,
      "Ġbre": 1085,
      "Ġlove": 1086,
      "arge": 1087,
      "eed": 1088,
      "ands": 1089,
      "Ġhead": 1090,
      "Ġnothing": 1091,
      "lish": 1092,
      "Ġturn": 1093,
      "ines": 1094,
      "Ġcalled": 1095,
      "ĠAr": 1096,
      "ient": 1097,
      "Ġyoung": 1098,
      "iness": 1099,
      "Ġsent": 1100,
      "most": 1101,
      "ours": 1102,
      "bt": 1103,
      "Ġaff": 1104,
      "Ġadd": 1105,
      "vel": 1106,
      "Ġtherefore": 1107,
      "ately": 1108,
      "oman": 1109,
      "Ġthing": 1110,
      "Ġmor": 1111,
      "Ġinv": 1112,
      "ians": 1113,
      "men": 1114,
      "Ġmatter": 1115,
      "Ġcor": 1116,
      "Ġgu": 1117,
      "Ġkind": 1118,
      "wards": 1119,
      "'t": 1120,
      "ĠSp": 1121,
      "ell": 1122,
      "Ġprin": 1123,
      "Ġsel": 1124,
      "ĠRe": 1125,
      "gg": 1126,
      "Ġinter": 1127,
      "Ġthemselves": 1128,
      "form": 1129,
      "Ġsuff": 1130,
      "Ġ6": 1131,
      "Ġcannot": 1132,
      "Ġfew": 1133,
      "Ġback": 1134,
      "Ġsom": 1135,
      "full": 1136,
      "Ġlight": 1137,
      "Ġname": 1138,
      "ĠAs": 1139,
      "Ġadm": 1140,
      "Ġins": 1141,
      "Ġthou": 1142,
      "Ġeach": 1143,
      "den": 1144,
      "Ġhouse": 1145,
      "Ġonce": 1146,
      "Ġarm": 1147,
      "ances": 1148,
      "Ġstre": 1149,
      "ield": 1150,
      "Ġnear": 1151,
      "Ġless": 1152,
      "Ġhon": 1153,
      "ĠDe": 1154,
      "Ġmon": 1155,
      "Ġothers": 1156,
      "Ġpleas": 1157,
      "?\"": 1158,
      "aps": 1159,
      "ĠAn": 1160,
      "Ġcountry": 1161,
      "ured": 1162,
      "Ġnum": 1163,
      "Ġcontin": 1164,
      "Ġtra": 1165,
      "Ġleft": 1166,
      "Ġsmall": 1167,
      "Ġconst": 1168,
      "Ġfull": 1169,
      "Ġcur": 1170,
      "ĠHis": 1171,
      "Ġreturn": 1172,
      "ative": 1173,
      "alk": 1174,
      "ins": 1175,
      "Ġdra": 1176,
      "cer": 1177,
      "Ġconsider": 1178,
      "Ġdone": 1179,
      "ote": 1180,
      "fic": 1181,
      "Ġprom": 1182,
      "Ġoften": 1183,
      "ĠThere": 1184,
      "Ã©": 1185,
      "any": 1186,
      "Ġbelie": 1187,
      "ffect": 1188,
      "cted": 1189,
      "Ġuse": 1190,
      "Ġpri": 1191,
      "Ġopp": 1192,
      "Ġsy": 1193,
      "ĠTo": 1194,
      "ĠIf": 1195,
      "ĠShe": 1196,
      "Ġwithin": 1197,
      "Ġhapp": 1198,
      "Ġmere": 1199,
      "Ġauthor": 1200,
      "ank": 1201,
      "ex": 1202,
      "Ġserv": 1203,
      "Ġrequ": 1204,
      "ways": 1205,
      "Ġfam": 1206,
      "Ġdet": 1207,
      "Ġperson": 1208,
      "ĠPro": 1209,
      "ives": 1210,
      "ool": 1211,
      "Ġhigh": 1212,
      "ĠChurch": 1213,
      "Ġtem": 1214,
      "Ġcle": 1215,
      "Ġbest": 1216,
      "Ġmin": 1217,
      "Ġtaken": 1218,
      "ĠCon": 1219,
      "Ġcare": 1220,
      "Ġthus": 1221,
      "Ġdeath": 1222,
      "ude": 1223,
      "ility": 1224,
      "Ġpoint": 1225,
      "Ġele": 1226,
      "Ġtri": 1227,
      "ages": 1228,
      "Ġnature": 1229,
      "But": 1230,
      "Ġes": 1231,
      "ls": 1232,
      "gether": 1233,
      "Ġreason": 1234,
      "ably": 1235,
      "ense": 1236,
      "alf": 1237,
      "irc": 1238,
      "Ġgiven": 1239,
      "Ġsubject": 1240,
      "Ġwater": 1241,
      "Ġprov": 1242,
      "aring": 1243,
      "ĠThat": 1244,
      "stand": 1245,
      "Ġvis": 1246,
      "Ġdou": 1247,
      "aut": 1248,
      "ism": 1249,
      "oly": 1250,
      "Ġmer": 1251,
      "br": 1252,
      "tle": 1253,
      "Ġsoon": 1254,
      "pr": 1255,
      "Ġpossess": 1256,
      "amp": 1257,
      "Ġwent": 1258,
      "Ġsim": 1259,
      "**": 1260,
      "ius": 1261,
      "ident": 1262,
      "osed": 1263,
      "but": 1264,
      "Ġfore": 1265,
      "ery": 1266,
      "ison": 1267,
      "acter": 1268,
      "ience": 1269,
      "Ġans": 1270,
      "Ġhowever": 1271,
      "Ġlarge": 1272,
      ",âĢĿ": 1273,
      "Ġdep": 1274,
      "ided": 1275,
      "ually": 1276,
      "rence": 1277,
      "iew": 1278,
      "sequ": 1279,
      "Ġtrans": 1280,
      "mon": 1281,
      "hil": 1282,
      "omp": 1283,
      "ues": 1284,
      "Ġfather": 1285,
      "Ġbetter": 1286,
      "ides": 1287,
      "ches": 1288,
      "Ġdec": 1289,
      "ows": 1290,
      "Ġsw": 1291,
      "Ġwords": 1292,
      "Ġtell": 1293,
      "Ġnight": 1294,
      "Ġfeel": 1295,
      "Ġspeak": 1296,
      "ering": 1297,
      "ross": 1298,
      "Ġjud": 1299,
      "Ġpol": 1300,
      "Ġrather": 1301,
      "entle": 1302,
      "ohn": 1303,
      "Ġdire": 1304,
      "Ġhuman": 1305,
      "ird": 1306,
      "ts": 1307,
      "ched": 1308,
      "fort": 1309,
      "ting": 1310,
      "ton": 1311,
      "ury": 1312,
      "ug": 1313,
      "nes": 1314,
      "rew": 1315,
      "Ġdiv": 1316,
      "ural": 1317,
      "Ġstate": 1318,
      "aster": 1319,
      "Ġmom": 1320,
      "Ġprev": 1321,
      "HE": 1322,
      "Ġel": 1323,
      "Ġeyes": 1324,
      "haps": 1325,
      "Ġask": 1326,
      "Ġbu": 1327,
      "ĠSe": 1328,
      "Ġsince": 1329,
      "owed": 1330,
      "ook": 1331,
      "Ġbrought": 1332,
      "Ġsat": 1333,
      "Ġcr": 1334,
      "Ġpartic": 1335,
      "Ġdiffe": 1336,
      "estion": 1337,
      "Ġsever": 1338,
      "ĠAl": 1339,
      "Ġcol": 1340,
      "Ġfaith": 1341,
      "oot": 1342,
      "Ġhands": 1343,
      "Ġplac": 1344,
      "Ġalways": 1345,
      "Ġsign": 1346,
      "Ġgover": 1347,
      "oint": 1348,
      "ĠInd": 1349,
      "Ġorder": 1350,
      "nment": 1351,
      "Ġtre": 1352,
      "Ġside": 1353,
      "ressed": 1354,
      "Ġill": 1355,
      "ording": 1356,
      "Ġcommon": 1357,
      "Ġneed": 1358,
      "Ġeffect": 1359,
      "cript": 1360,
      "con": 1361,
      "Ġtook": 1362,
      "ling": 1363,
      "urther": 1364,
      "Ġinterest": 1365,
      "unt": 1366,
      "az": 1367,
      "Ġbody": 1368,
      "ĠWh": 1369,
      ".,": 1370,
      "Ġseen": 1371,
      "Ġfall": 1372,
      "ub": 1373,
      "pend": 1374,
      "Ġpublic": 1375,
      "ature": 1376,
      "Ġobser": 1377,
      "Ġking": 1378,
      "Ġmod": 1379,
      "Ġmem": 1380,
      "apt": 1381,
      "oud": 1382,
      "arr": 1383,
      "Ġunto": 1384,
      "Ġ16": 1385,
      "ON": 1386,
      "Ġfour": 1387,
      "idence": 1388,
      "Ġfact": 1389,
      "rig": 1390,
      "Ġtruth": 1391,
      "Ġfr": 1392,
      "Ġ17": 1393,
      "bed": 1394,
      "Ġheav": 1395,
      "Ġget": 1396,
      "Ġyear": 1397,
      "aj": 1398,
      "Ġprinci": 1399,
      "Ġcharacter": 1400,
      "Ġproper": 1401,
      "new": 1402,
      "ĠSo": 1403,
      "Ġswe": 1404,
      "dom": 1405,
      "cul": 1406,
      "Ġ8": 1407,
      "ued": 1408,
      "Ġste": 1409,
      "Ġcap": 1410,
      "ccess": 1411,
      "Ġdi": 1412,
      "Ġhard": 1413,
      "Ġfell": 1414,
      "was": 1415,
      "read": 1416,
      "fter": 1417,
      "Ġed": 1418,
      "ination": 1419,
      "Ġsing": 1420,
      "empt": 1421,
      "ĠQ": 1422,
      "Ġdays": 1423,
      "ality": 1424,
      "Ġwant": 1425,
      "Ġvar": 1426,
      "Ġstand": 1427,
      "Ġrespect": 1428,
      "ted": 1429,
      "itted": 1430,
      "Ġ7": 1431,
      "which": 1432,
      "Ġmean": 1433,
      "Ġland": 1434,
      "Ġeither": 1435,
      "used": 1436,
      "aim": 1437,
      "augh": 1438,
      "Ġmil": 1439,
      "use": 1440,
      "ized": 1441,
      "ps": 1442,
      "ister": 1443,
      "!\"": 1444,
      "eng": 1445,
      "Ġsaw": 1446,
      "arch": 1447,
      "Ġfin": 1448,
      "lu": 1449,
      "Ġcirc": 1450,
      "ĠWhen": 1451,
      "Ġearth": 1452,
      "ying": 1453,
      "rie": 1454,
      "right": 1455,
      "Ġmis": 1456,
      "alth": 1457,
      "Ġgeneral": 1458,
      "Ġcase": 1459,
      "Ġopen": 1460,
      "Ġche": 1461,
      "Ġdoes": 1462,
      "Ġmoment": 1463,
      "gr": 1464,
      "ĠFr": 1465,
      "Ġdev": 1466,
      "Ġregard": 1467,
      "Ġalmost": 1468,
      "Ġmanner": 1469,
      "Ġcause": 1470,
      "outh": 1471,
      "ship": 1472,
      "II": 1473,
      "ĠIs": 1474,
      "Ġthee": 1475,
      "Ġsk": 1476,
      "ices": 1477,
      "undred": 1478,
      "Ġaccount": 1479,
      "Ġpat": 1480,
      "Ġstrong": 1481,
      "ledge": 1482,
      "ists": 1483,
      "Ġface": 1484,
      "ets": 1485,
      "ught": 1486,
      "Ġbro": 1487,
      "Ġitself": 1488,
      "Ġequ": 1489,
      "Ġlear": 1490,
      "Ġtill": 1491,
      "Ġcourse": 1492,
      "Ch": 1493,
      "ĠAt": 1494,
      "Ġprop": 1495,
      "Ġhalf": 1496,
      "Ġdoubt": 1497,
      "app": 1498,
      "Ġsil": 1499,
      "Ġmeans": 1500,
      "Ġhome": 1501,
      ";*": 1502,
      "par": 1503,
      "ah": 1504,
      "asion": 1505,
      "Ġabs": 1506,
      "Ġnecessary": 1507,
      "Ġhope": 1508,
      "Ġappear": 1509,
      "Ġseveral": 1510,
      "cial": 1511,
      "Ġkeep": 1512,
      "Ġexam": 1513,
      "ey": 1514,
      "Ġbeh": 1515,
      "ission": 1516,
      "ĠPar": 1517,
      "Ġbeaut": 1518,
      "medi": 1519,
      "Ġabove": 1520,
      "Ġground": 1521,
      "Ġter": 1522,
      "fully": 1523,
      "Ġdecl": 1524,
      "ince": 1525,
      "Ġ-": 1526,
      "Ġheard": 1527,
      "Ġself": 1528,
      "Ġindeed": 1529,
      "Ġseemed": 1530,
      "Ġprodu": 1531,
      "Ġtogether": 1532,
      "Ġpar": 1533,
      "ric": 1534,
      "Ġut": 1535,
      "Ġdest": 1536,
      "elt": 1537,
      "oice": 1538,
      "Ġpract": 1539,
      "oke": 1540,
      "ĠEnglish": 1541,
      "Ġgentle": 1542,
      "Ġmet": 1543,
      "osition": 1544,
      "anger": 1545,
      "Ġsecond": 1546,
      "bers": 1547,
      "Ġwhether": 1548,
      "ĠUn": 1549,
      "âĢĺ": 1550,
      "This": 1551,
      "Ġlead": 1552,
      "ĠSir": 1553,
      "ames": 1554,
      "ified": 1555,
      "ax": 1556,
      "Ġlab": 1557,
      "pro": 1558,
      "Ġhold": 1559,
      "Ġpoor": 1560,
      "Ġmo": 1561,
      "iter": 1562,
      "Ġfre": 1563,
      "Ġfav": 1564,
      "Ġknown": 1565,
      "ĠComm": 1566,
      "Ġtimes": 1567,
      "),": 1568,
      "Ġdut": 1569,
      "ane": 1570,
      "Ġgave": 1571,
      "ern": 1572,
      "Ġce": 1573,
      "Ġdef": 1574,
      "Ġdeep": 1575,
      "iet": 1576,
      "Ġperhaps": 1577,
      "nded": 1578,
      "Ġdr": 1579,
      "Ġver": 1580,
      "uc": 1581,
      "ples": 1582,
      "iving": 1583,
      "Ġappro": 1584,
      "enty": 1585,
      "IN": 1586,
      "ached": 1587,
      "thing": 1588,
      "Ġduring": 1589,
      "Ġview": 1590,
      "Ġleast": 1591,
      "str": 1592,
      "cient": 1593,
      "irm": 1594,
      "Ġeas": 1595,
      "iting": 1596,
      "Ġhundred": 1597,
      "Ġbene": 1598,
      "Ġenough": 1599,
      "Ġcommand": 1600,
      "Ġpray": 1601,
      "ape": 1602,
      "Ġnext": 1603,
      "Ġsuccess": 1604,
      "Ġparticular": 1605,
      "ĠHow": 1606,
      "wer": 1607,
      "ior": 1608,
      "Ġdoth": 1609,
      "Ġaccording": 1610,
      "Ġhor": 1611,
      "rench": 1612,
      "Ġmeet": 1613,
      "itude": 1614,
      "ĠBe": 1615,
      "omen": 1616,
      "ash": 1617,
      "pose": 1618,
      "oney": 1619,
      "ges": 1620,
      "Ġwind": 1621,
      "Ġlay": 1622,
      "atch": 1623,
      "Ġtold": 1624,
      "ns": 1625,
      "iar": 1626,
      "Ġsum": 1627,
      "Ġconcer": 1628,
      "Ġcent": 1629,
      "meric": 1630,
      "Ġsoul": 1631,
      "Ġfree": 1632,
      "sem": 1633,
      "Ġchildren": 1634,
      "Ġmother": 1635,
      "Ġ10": 1636,
      "resent": 1637,
      "ready": 1638,
      "though": 1639,
      "Ġrelig": 1640,
      "Ġeng": 1641,
      "ĠEngland": 1642,
      "Ġquestion": 1643,
      "isf": 1644,
      "Ġfort": 1645,
      "Ġnumber": 1646,
      "ased": 1647,
      "Ġhel": 1648,
      "que": 1649,
      "..": 1650,
      "akes": 1651,
      "Ġsix": 1652,
      "itions": 1653,
      "Ġbus": 1654,
      "ĠOn": 1655,
      "Ġ9": 1656,
      "Ġdem": 1657,
      "ĠNew": 1658,
      "Ġcontr": 1659,
      "well": 1660,
      "une": 1661,
      "Ġshort": 1662,
      "Ġson": 1663,
      "no": 1664,
      "Ġuntil": 1665,
      "Ġhist": 1666,
      "Ġbring": 1667,
      "Ġwoman": 1668,
      "his": 1669,
      "sp": 1670,
      "Ġval": 1671,
      "ĠAp": 1672,
      "Ġused": 1673,
      "Ġobject": 1674,
      "ĠNo": 1675,
      "ring": 1676,
      "day": 1677,
      "ĠYou": 1678,
      "anc": 1679,
      "aining": 1680,
      "Ġbecome": 1681,
      "io": 1682,
      "Ġbelieve": 1683,
      "ĠOr": 1684,
      "Ġmeas": 1685,
      "ĠSh": 1686,
      "Ġimport": 1687,
      "Ġstru": 1688,
      "Ġimmedi": 1689,
      "Ġ15": 1690,
      "---": 1691,
      "Ġsure": 1692,
      "ficult": 1693,
      "Ġbur": 1694,
      "Ġestab": 1695,
      "Ġexper": 1696,
      "Ġsch": 1697,
      "gy": 1698,
      "ĠJohn": 1699,
      "Ġperfect": 1700,
      "Ġ[^": 1701,
      "ĠWhat": 1702,
      "Ġforth": 1703,
      "uss": 1704,
      "ĠChristian": 1705,
      "Ġexpect": 1706,
      "orth": 1707,
      "ases": 1708,
      "ony": 1709,
      "ork": 1710,
      "owing": 1711,
      "Ġbook": 1712,
      ".**": 1713,
      "Ġreceived": 1714,
      "ĠEx": 1715,
      "Ġfire": 1716,
      "Ġformer": 1717,
      "Ġten": 1718,
      "Ġthous": 1719,
      "ething": 1720,
      "AN": 1721,
      "etimes": 1722,
      "inion": 1723,
      "ement": 1724,
      "Ġwee": 1725,
      "alt": 1726,
      "Ġproceed": 1727,
      "Ġ12": 1728,
      "bs": 1729,
      "iled": 1730,
      "Ġheld": 1731,
      "ising": 1732,
      "orm": 1733,
      "overed": 1734,
      "Ġsac": 1735,
      "ency": 1736,
      "Ġsuper": 1737,
      "AR": 1738,
      "irt": 1739,
      "der": 1740,
      "We": 1741,
      "Ġide": 1742,
      "alm": 1743,
      "otion": 1744,
      "Ġworth": 1745,
      "Ġdark": 1746,
      "Ġstud": 1747,
      "Ġcomple": 1748,
      "ann": 1749,
      "Ġbegan": 1750,
      "ĠAmeric": 1751,
      "ĠCl": 1752,
      "fered": 1753,
      "Ġmorning": 1754,
      "ences": 1755,
      "Ġvol": 1756,
      "ration": 1757,
      "iment": 1758,
      "illed": 1759,
      "ĠMar": 1760,
      "Ġknew": 1761,
      "ĠLe": 1762,
      "Ġdifferent": 1763,
      "Ġroom": 1764,
      "Ġtown": 1765,
      "ze": 1766,
      "Ġought": 1767,
      "Ġseems": 1768,
      "ĠAd": 1769,
      "Ġair": 1770,
      "Ġconv": 1771,
      "ploy": 1772,
      "Ġalready": 1773,
      "Ġoccasion": 1774,
      "Ġleg": 1775,
      "Ġcast": 1776,
      "Ġquite": 1777,
      ".]": 1778,
      "OR": 1779,
      "cious": 1780,
      "orts": 1781,
      "Ġmark": 1782,
      "ung": 1783,
      "wise": 1784,
      "ES": 1785,
      "ĠThese": 1786,
      "ĠMrs": 1787,
      "Ġexpress": 1788,
      "Ġenem": 1789,
      "Ġfeet": 1790,
      "Ġir": 1791,
      "ney": 1792,
      "uer": 1793,
      "Ġpeace": 1794,
      "Ġfurther": 1795,
      "EN": 1796,
      "ards": 1797,
      "Ġdifficult": 1798,
      "Ġtowards": 1799,
      "Ġoffic": 1800,
      "Ġsays": 1801,
      "Ġsol": 1802,
      "Ġfear": 1803,
      "ctions": 1804,
      "inal": 1805,
      "Ġpriv": 1806,
      "ishop": 1807,
      "yr": 1808,
      "Ġsit": 1809,
      "ĠLaw": 1810,
      "Ġtreat": 1811,
      "val": 1812,
      "arm": 1813,
      "Ġcity": 1814,
      "Ġarri": 1815,
      "olog": 1816,
      "Ġer": 1817,
      "Ġpurpose": 1818,
      "Ġpast": 1819,
      "isc": 1820,
      "Ġhaue": 1821,
      "Ġalone": 1822,
      "bert": 1823,
      "cell": 1824,
      ".'": 1825,
      "ii": 1826,
      "Ġpassed": 1827,
      "Ġenc": 1828,
      "ils": 1829,
      "ises": 1830,
      "Ġexist": 1831,
      "Ġnation": 1832,
      "pon": 1833,
      "clud": 1834,
      "Ġlive": 1835,
      "arent": 1836,
      "Ġbes": 1837,
      "Ġwit": 1838,
      "Ġage": 1839,
      "Ġexc": 1840,
      "Ġacqu": 1841,
      "Ġentire": 1842,
      "Ġround": 1843,
      "Ġstri": 1844,
      "Ġsun": 1845,
      "ĠSc": 1846,
      "pped": 1847,
      "ics": 1848,
      "Ġcoll": 1849,
      "Ġfollowing": 1850,
      "Ġve": 1851,
      "Ġblood": 1852,
      "Ġresol": 1853,
      "Ġfelt": 1854,
      "ats": 1855,
      "Ġspec": 1856,
      "Ġwa": 1857,
      "ator": 1858,
      "Ġprofound": 1859,
      "Ġ11": 1860,
      "ĠFrench": 1861,
      "Ġport": 1862,
      "ster": 1863,
      "Ġclear": 1864,
      "ctr": 1865,
      "ision": 1866,
      "angu": 1867,
      "ĠAll": 1868,
      "To": 1869,
      "ĠTr": 1870,
      "Ġgrace": 1871,
      "ivid": 1872,
      "owers": 1873,
      "cially": 1874,
      "Ġbar": 1875,
      "ilt": 1876,
      "aving": 1877,
      "Ġunderstand": 1878,
      "Ġleave": 1879,
      "aves": 1880,
      "reg": 1881,
      "Ġwife": 1882,
      "Ġknowledge": 1883,
      "Ġeff": 1884,
      "Ġable": 1885,
      "ument": 1886,
      "Ġforce": 1887,
      "ott": 1888,
      "Ġclose": 1889,
      ",--": 1890,
      "Ġsatisf": 1891,
      "iful": 1892,
      "Ġremark": 1893,
      "Ġdead": 1894,
      "Ġchief": 1895,
      "aged": 1896,
      "inary": 1897,
      "ĠPe": 1898,
      "Ġnatural": 1899,
      "Ġexcept": 1900,
      "mp": 1901,
      "iously": 1902,
      "Ġgoing": 1903,
      "ron": 1904,
      "_.": 1905,
      "Ġbecame": 1906,
      "###": 1907,
      "Ġsomething": 1908,
      "rupt": 1909,
      "Ġhear": 1910,
      "Ġmag": 1911,
      "ustom": 1912,
      "There": 1913,
      "ĠLet": 1914,
      "ciety": 1915,
      "my": 1916,
      "That": 1917,
      "Ġboy": 1918,
      "amed": 1919,
      "cience": 1920,
      "Ġcircum": 1921,
      "ounded": 1922,
      "Ġgreater": 1923,
      ":*": 1924,
      "Ġneither": 1925,
      "eneral": 1926,
      "vere": 1927,
      "ires": 1928,
      "iod": 1929,
      "Ġden": 1930,
      "iam": 1931,
      "You": 1932,
      "ĠMan": 1933,
      "Ġmerely": 1934,
      "Ġsense": 1935,
      "Ġwhite": 1936,
      "ounds": 1937,
      "Ġexpl": 1938,
      "Ġalong": 1939,
      "Ġlooked": 1940,
      "Ġfriends": 1941,
      "Ġbegin": 1942,
      "dden": 1943,
      "Ġdear": 1944,
      "Ġpop": 1945,
      "Ġunc": 1946,
      "Ġstreng": 1947,
      "els": 1948,
      "Ġthousand": 1949,
      "usion": 1950,
      "ken": 1951,
      "Ġmyself": 1952,
      "Ġwond": 1953,
      "Ġinflu": 1954,
      "Ġgot": 1955,
      "Ġsuffic": 1956,
      "ift": 1957,
      "Ġ14": 1958,
      "ole": 1959,
      "joy": 1960,
      "iol": 1961,
      "Ġmaking": 1962,
      "Ġsometimes": 1963,
      "Ġorig": 1964,
      "ĠPl": 1965,
      ".)": 1966,
      "Ġpersons": 1967,
      "Ġletter": 1968,
      "iction": 1969,
      "Ġ13": 1970,
      "fection": 1971,
      "ĠBr": 1972,
      "Ġasked": 1973,
      "Ġresult": 1974,
      "rs": 1975,
      "Ġsugg": 1976,
      "Ġfamily": 1977,
      "Ġhelp": 1978,
      "what": 1979,
      "10": 1980,
      "Ġmount": 1981,
      "Ġmoney": 1982,
      "ize": 1983,
      "inct": 1984,
      "lled": 1985,
      "ĠWill": 1986,
      "ested": 1987,
      "ests": 1988,
      "Ġdon": 1989,
      "Ġprob": 1990,
      "erc": 1991,
      "Ġcommun": 1992,
      "Ġpolit": 1993,
      "ĠDo": 1994,
      "orrow": 1995,
      "stem": 1996,
      "uct": 1997,
      "ĠGover": 1998,
      "Ġpay": 1999,
      "you": 2000,
      "Ġmed": 2001,
      "Ġcreat": 2002,
      "itution": 2003,
      "Ġsudden": 2004,
      "Ġdanger": 2005,
      "Ġhig": 2006,
      "Ġsea": 2007,
      "Ġdeg": 2008,
      "rem": 2009,
      "Ġcoun": 2010,
      "ternal": 2011,
      "ĠFather": 2012,
      "Ġsle": 2013,
      "ger": 2014,
      "ĠTHE": 2015,
      "Ġdraw": 2016,
      "Ġsole": 2017,
      "Ġattend": 2018,
      "ication": 2019,
      "Ġbrother": 2020,
      "Ġvoice": 2021,
      "Ġlost": 2022,
      "Ġchurch": 2023,
      "uous": 2024,
      "esus": 2025,
      "uke": 2026,
      "sec": 2027,
      "Ġanim": 2028,
      "Ġemploy": 2029,
      "por": 2030,
      "Ġobl": 2031,
      "che": 2032,
      "race": 2033,
      "Ġdesire": 2034,
      "ember": 2035,
      "vol": 2036,
      "more": 2037,
      "18": 2038,
      "bit": 2039,
      "As": 2040,
      "Ġfig": 2041,
      "lect": 2042,
      "Ġeye": 2043,
      "ites": 2044,
      "airs": 2045,
      "Ġwalk": 2046,
      "ead": 2047,
      "mn": 2048,
      "aul": 2049,
      "nto": 2050,
      "ĠOf": 2051,
      "att": 2052,
      "HA": 2053,
      "antly": 2054,
      "Ġbless": 2055,
      "Ġhast": 2056,
      "Ġgrand": 2057,
      "Ġdri": 2058,
      "ĠDr": 2059,
      "Ġfive": 2060,
      "ession": 2061,
      "Ġappl": 2062,
      "tered": 2063,
      "ĠThen": 2064,
      "Ġcut": 2065,
      "pecially": 2066,
      "Ġmid": 2067,
      "What": 2068,
      "ondon": 2069,
      "ries": 2070,
      "aughter": 2071,
      "Ġparts": 2072,
      "itten": 2073,
      "Ġneg": 2074,
      "hys": 2075,
      "Ġanswer": 2076,
      "ĠSpirit": 2077,
      "Ġconsequ": 2078,
      "Ġwhy": 2079,
      "Ġobt": 2080,
      "Ġduty": 2081,
      "son": 2082,
      "esty": 2083,
      "Ġpossible": 2084,
      "Ġintell": 2085,
      "ĠHer": 2086,
      "aught": 2087,
      "12": 2088,
      "ones": 2089,
      "Ġtrou": 2090,
      "Ġturned": 2091,
      "Ġav": 2092,
      "Ġgre": 2093,
      "ume": 2094,
      "Ġrepl": 2095,
      "Ġterm": 2096,
      "Ġincre": 2097,
      "Ġdesp": 2098,
      "ĠâĢĺ": 2099,
      "Ġfine": 2100,
      "Ġreal": 2101,
      "Ġfair": 2102,
      "Ġattempt": 2103,
      "Ġparty": 2104,
      "ley": 2105,
      "Ġkept": 2106,
      "ĠBy": 2107,
      "ĠOne": 2108,
      "For": 2109,
      "Ġmonth": 2110,
      "Ġtext": 2111,
      "ital": 2112,
      "acy": 2113,
      "Ġnone": 2114,
      "way": 2115,
      "formed": 2116,
      "Ġholy": 2117,
      "ĠChar": 2118,
      "Ġelse": 2119,
      "ivers": 2120,
      "Ġmention": 2121,
      "Ġgovernment": 2122,
      "ividual": 2123,
      "ĠX": 2124,
      "Ġancient": 2125,
      "Ġfac": 2126,
      "Ġdoor": 2127,
      "com": 2128,
      "Ġplay": 2129,
      "ĠMiss": 2130,
      "Ġmaint": 2131,
      "Ġrun": 2132,
      "fer": 2133,
      "Ġsold": 2134,
      "gment": 2135,
      "Ġperiod": 2136,
      "Ġstood": 2137,
      "ots": 2138,
      "ĠCount": 2139,
      "usb": 2140,
      "yn": 2141,
      "night": 2142,
      "Ġservice": 2143,
      "like": 2144,
      "ĠCol": 2145,
      "ium": 2146,
      "Ġconce": 2147,
      "ength": 2148,
      "Ġsystem": 2149,
      "Ġpen": 2150,
      "Ġwish": 2151,
      "Ġship": 2152,
      "iers": 2153,
      "itable": 2154,
      "Ġda": 2155,
      "Ġrepresent": 2156,
      "Ġhour": 2157,
      "where": 2158,
      "yond": 2159,
      "aching": 2160,
      "Ġsens": 2161,
      "Ġjoy": 2162,
      "Ġprep": 2163,
      "IS": 2164,
      "Ġet": 2165,
      "icate": 2166,
      "ored": 2167,
      "ĠBrit": 2168,
      "atic": 2169,
      "Ġwood": 2170,
      "Ġtwenty": 2171,
      "Ġred": 2172,
      "ĠOF": 2173,
      "Ġgir": 2174,
      "ference": 2175,
      "ĠGr": 2176,
      "Ġmus": 2177,
      "aine": 2178,
      "phe": 2179,
      "Ġquiet": 2180,
      "Ġsal": 2181,
      "Ġdirect": 2182,
      "Ġwis": 2183,
      "Ġcomfort": 2184,
      "ruction": 2185,
      "Ġsight": 2186,
      "cil": 2187,
      "Ġdom": 2188,
      "TER": 2189,
      "16": 2190,
      "Ġcondition": 2191,
      "Ġann": 2192,
      "ys": 2193,
      "Ġdeterm": 2194,
      "from": 2195,
      "Ġclass": 2196,
      "Ġobserv": 2197,
      "Ġled": 2198,
      "Ġwomen": 2199,
      "Ġexh": 2200,
      "Ġvs": 2201,
      "Ġcircumst": 2202,
      "?âĢĿ": 2203,
      "Ġtoward": 2204,
      "15": 2205,
      "Ġtou": 2206,
      "Ġdisp": 2207,
      ".--": 2208,
      "osop": 2209,
      "Ġimag": 2210,
      ".-": 2211,
      "had": 2212,
      "Ġcapt": 2213,
      "bled": 2214,
      "Ġbed": 2215,
      "oe": 2216,
      "Ġund": 2217,
      "Ġaccept": 2218,
      "iety": 2219,
      "Ġline": 2220,
      "Ġsupport": 2221,
      "itary": 2222,
      "If": 2223,
      "ourse": 2224,
      "gress": 2225,
      "aith": 2226,
      "13": 2227,
      "ivil": 2228,
      "Ġarg": 2229,
      "Ġlow": 2230,
      "Ġindividual": 2231,
      "Ġlate": 2232,
      "Ġschool": 2233,
      "Ġbusiness": 2234,
      "Ġvirt": 2235,
      "pel": 2236,
      "uted": 2237,
      "Ġhonour": 2238,
      "Ġhar": 2239,
      "17": 2240,
      "ae": 2241,
      "ighb": 2242,
      "Ġearly": 2243,
      "attle": 2244,
      "Ġopinion": 2245,
      "Ġtest": 2246,
      "Ġemb": 2247,
      "Ġfrequ": 2248,
      "cribed": 2249,
      "Ġdesign": 2250,
      "ingly": 2251,
      "Ġbeyond": 2252,
      "ham": 2253,
      "Ġlim": 2254,
      "let": 2255,
      "14": 2256,
      "ĠYet": 2257,
      "Ġsweet": 2258,
      "idered": 2259,
      "Ġcourt": 2260,
      ",'": 2261,
      "Ġblack": 2262,
      "Wh": 2263,
      "Ġgold": 2264,
      "Ġdepart": 2265,
      "Ġhistory": 2266,
      "ĠWith": 2267,
      "Ġstrength": 2268,
      "Ġant": 2269,
      "Ġherself": 2270,
      "posed": 2271,
      "ror": 2272,
      "Ġlatter": 2273,
      "Ġcru": 2274,
      "ĠAm": 2275,
      "Ġpie": 2276,
      "urope": 2277,
      "Ġespecially": 2278,
      "No": 2279,
      "Ġcompl": 2280,
      "they": 2281,
      "urs": 2282,
      "Ġenter": 2283,
      "Ġpra": 2284,
      "icked": 2285,
      "ords": 2286,
      "Ġcarried": 2287,
      "Ġready": 2288,
      "Ġlength": 2289,
      "Ġende": 2290,
      "ĠStates": 2291,
      "When": 2292,
      "ging": 2293,
      "alls": 2294,
      "nesse": 2295,
      "usband": 2296,
      "Ġsecret": 2297,
      "him": 2298,
      "Ġcontinued": 2299,
      "ĠNow": 2300,
      "anged": 2301,
      "Ġplain": 2302,
      "nding": 2303,
      "ingu": 2304,
      "Ġpun": 2305,
      "Ġcold": 2306,
      "ye": 2307,
      "Ġgone": 2308,
      "hab": 2309,
      "ĠMaj": 2310,
      "Ġwild": 2311,
      "Ġmist": 2312,
      "Ġlangu": 2313,
      "Ġvnto": 2314,
      "Ġappeared": 2315,
      "Ġesc": 2316,
      "Ġlady": 2317,
      "Ġcarry": 2318,
      "Ġmove": 2319,
      "Ġsubst": 2320,
      "king": 2321,
      "Ġpain": 2322,
      "ev": 2323,
      "Ġscar": 2324,
      "Ġlaid": 2325,
      "Ġeight": 2326,
      "ĠEd": 2327,
      "Ġsound": 2328,
      "Ġloc": 2329,
      "aper": 2330,
      "Ġfif": 2331,
      "itting": 2332,
      "Ġobserved": 2333,
      "Ġshew": 2334,
      "Ġplaces": 2335,
      "hilosop": 2336,
      "this": 2337,
      "Ã¦": 2338,
      "Ġdue": 2339,
      "Ġvarious": 2340,
      "Ġremain": 2341,
      "itation": 2342,
      "Ġpost": 2343,
      "aled": 2344,
      "ining": 2345,
      "aven": 2346,
      "ĠBl": 2347,
      "Ġviol": 2348,
      "under": 2349,
      "imate": 2350,
      "riage": 2351,
      "Ġaction": 2352,
      "Ġnoble": 2353,
      "ĠEar": 2354,
      "rop": 2355,
      "lished": 2356,
      "pper": 2357,
      "pre": 2358,
      "oured": 2359,
      "Ġbound": 2360,
      "ented": 2361,
      "aries": 2362,
      "liament": 2363,
      "ĠMin": 2364,
      "rodu": 2365,
      "Ġreve": 2366,
      "Ġclaim": 2367,
      "ĠMy": 2368,
      "oor": 2369,
      "Ġgen": 2370,
      "ogn": 2371,
      "Ġbelong": 2372,
      "Ġdeli": 2373,
      "Ġappoint": 2374,
      "position": 2375,
      "iver": 2376,
      "Ġfoot": 2377,
      "aded": 2378,
      "Ġheaven": 2379,
      "na": 2380,
      "ĠCo": 2381,
      "Ġmaster": 2382,
      "ĠEm": 2383,
      "ĠState": 2384,
      "Ġriver": 2385,
      "Ġchange": 2386,
      "ously": 2387,
      "Ġenjoy": 2388,
      "lict": 2389,
      "Ġplaced": 2390,
      "Ġreturned": 2391,
      "Ġtalk": 2392,
      "AT": 2393,
      "Ġtrust": 2394,
      "ĠQu": 2395,
      "inter": 2396,
      "Ġaffect": 2397,
      "Ġbee": 2398,
      "know": 2399,
      "000": 2400,
      "were": 2401,
      "Ġ20": 2402,
      "AL": 2403,
      "uck": 2404,
      "ops": 2405,
      "Ġauthority": 2406,
      "Ġinfluence": 2407,
      "gan": 2408,
      "oes": 2409,
      "An": 2410,
      "Ġwritten": 2411,
      "Ġbuild": 2412,
      "ulation": 2413,
      "Ġpleasure": 2414,
      "culiar": 2415,
      "have": 2416,
      "eter": 2417,
      "Ġfield": 2418,
      "utes": 2419,
      "aken": 2420,
      "dle": 2421,
      "come": 2422,
      "ream": 2423,
      "Ġfavour": 2424,
      "Ġfru": 2425,
      "wered": 2426,
      "cent": 2427,
      "cing": 2428,
      "hold": 2429,
      "Ġmakes": 2430,
      "Ġexec": 2431,
      "uation": 2432,
      "ĠScript": 2433,
      "ien": 2434,
      "Ġfut": 2435,
      "Ġfollowed": 2436,
      "anch": 2437,
      "Ġcoming": 2438,
      "ancy": 2439,
      "Ġlibert": 2440,
      "Ġmeasure": 2441,
      "Ġgrant": 2442,
      "essel": 2443,
      "Ġquar": 2444,
      "Ġrich": 2445,
      "Ġmiles": 2446,
      "Ġattention": 2447,
      "af": 2448,
      "ĠHouse": 2449,
      "Ġsort": 2450,
      "Ġalthough": 2451,
      "Ġposition": 2452,
      "Ġdefe": 2453,
      "ĠLondon": 2454,
      "ouses": 2455,
      "Ġtaking": 2456,
      "Ġimmediately": 2457,
      "ourt": 2458,
      "oved": 2459,
      "ĠFrance": 2460,
      "Ġdelight": 2461,
      "acher": 2462,
      "ĠApost": 2463,
      "St": 2464,
      "Ġsaith": 2465,
      "Ġcal": 2466,
      "Ġperm": 2467,
      "hip": 2468,
      "pond": 2469,
      "ĠEurope": 2470,
      "Ġlonger": 2471,
      "ification": 2472,
      "Ġconsidered": 2473,
      "Ġwonder": 2474,
      "Ġworks": 2475,
      "action": 2476,
      "ixed": 2477,
      "iqu": 2478,
      "Ġow": 2479,
      "Ġevening": 2480,
      "Ġhorse": 2481,
      "Ġgenerally": 2482,
      "ories": 2483,
      "side": 2484,
      "ech": 2485,
      "Ġdivine": 2486,
      "ina": 2487,
      "Ġarmy": 2488,
      "Ġoper": 2489,
      "ishing": 2490,
      "eness": 2491,
      "lling": 2492,
      "ĠJesus": 2493,
      "Ġliving": 2494,
      "Ġadvant": 2495,
      "Ġnearly": 2496,
      "ĠWor": 2497,
      "Ġoblig": 2498,
      "their": 2499,
      "ection": 2500,
      "roy": 2501,
      "ĠAb": 2502,
      "there": 2503,
      "rove": 2504,
      ",[^": 2505,
      "enth": 2506,
      "ctrine": 2507,
      "wo": 2508,
      "Ġfal": 2509,
      "Ġshow": 2510,
      "oted": 2511,
      "yl": 2512,
      "will": 2513,
      "iding": 2514,
      "Ġhee": 2515,
      "Ġbeautiful": 2516,
      "Ġexcell": 2517,
      "Ġpeculiar": 2518,
      "erve": 2519,
      "Ġpros": 2520,
      "ask": 2521,
      "Ġconne": 2522,
      "uses": 2523,
      "Ġreplied": 2524,
      "ills": 2525,
      "Ġjour": 2526,
      "Ġarr": 2527,
      "bly": 2528,
      "rief": 2529,
      "urg": 2530,
      "iff": 2531,
      "Ġendeav": 2532,
      "orious": 2533,
      "Ġroad": 2534,
      "Ġgod": 2535,
      "ethod": 2536,
      "Ġforg": 2537,
      "ĠCor": 2538,
      "Ġsepar": 2539,
      "Ġnarr": 2540,
      "oul": 2541,
      "'ll": 2542,
      "Ġpresence": 2543,
      "Ġpolitical": 2544,
      "Ġestablished": 2545,
      "ush": 2546,
      "Ġquick": 2547,
      "Ġprot": 2548,
      "Ġneighb": 2549,
      "hood": 2550,
      "isters": 2551,
      "Ġweak": 2552,
      ").": 2553,
      "claim": 2554,
      "Ġperce": 2555,
      "ively": 2556,
      "Ġarms": 2557,
      "emed": 2558,
      "Ġfellow": 2559,
      "Ġ19": 2560,
      "HAP": 2561,
      "Ġpret": 2562,
      "Ġstrange": 2563,
      "rel": 2564,
      "Ġbehind": 2565,
      "go": 2566,
      "She": 2567,
      "Ġthird": 2568,
      "Ġbecom": 2569,
      "nest": 2570,
      "Ġstep": 2571,
      "Ġinqu": 2572,
      "Ġenemy": 2573,
      "Ġgreatest": 2574,
      "Ġign": 2575,
      "Ġpure": 2576,
      "Ġshad": 2577,
      "Ġglory": 2578,
      "ĠGods": 2579,
      "Ġhours": 2580,
      "Ġanswered": 2581,
      "Ġlearned": 2582,
      "Ġbear": 2583,
      "Ġpursu": 2584,
      "Ġreceive": 2585,
      "Ġvisit": 2586,
      "athe": 2587,
      "ĠGeneral": 2588,
      "Ġhappy": 2589,
      "Ġsingle": 2590,
      "Ġcross": 2591,
      "ctor": 2592,
      "Ġoffered": 2593,
      "Ġsociety": 2594,
      "ishment": 2595,
      "Ġfuture": 2596,
      "ayed": 2597,
      "Ġoccup": 2598,
      "Ġmur": 2599,
      "Ġla": 2600,
      "Ġbad": 2601,
      "Ġconcerning": 2602,
      "hest": 2603,
      "Ġvill": 2604,
      "pet": 2605,
      "Ġexerc": 2606,
      "eous": 2607,
      "ĠCar": 2608,
      "erman": 2609,
      "port": 2610,
      "Ġcompany": 2611,
      "light": 2612,
      "Ġprison": 2613,
      "ĠGe": 2614,
      "Ġpot": 2615,
      "ically": 2616,
      "Ġ.": 2617,
      "esse": 2618,
      "resh": 2619,
      "nce": 2620,
      "rif": 2621,
      "Ġmanif": 2622,
      "ĠJud": 2623,
      "she": 2624,
      "ĠBar": 2625,
      "Ġhusband": 2626,
      "Ġphys": 2627,
      "Ġweight": 2628,
      "Ġstat": 2629,
      "Ġcry": 2630,
      "yd": 2631,
      "Ġsufficient": 2632,
      "Ġutter": 2633,
      "Ġvessel": 2634,
      "Ġsaying": 2635,
      "Ġremained": 2636,
      "Mr": 2637,
      "Ġcivil": 2638,
      "nor": 2639,
      "bes": 2640,
      "Ġidea": 2641,
      "Ġfra": 2642,
      "Ġnecessity": 2643,
      "Ġstart": 2644,
      "Ġaround": 2645,
      "ortun": 2646,
      "They": 2647,
      "ĠNe": 2648,
      "ĠAfter": 2649,
      "isted": 2650,
      "formation": 2651,
      "ossible": 2652,
      "Ġdoe": 2653,
      "ĠSu": 2654,
      "Ġhop": 2655,
      "ĠCapt": 2656,
      "cknow": 2657,
      "Ġgrow": 2658,
      "min": 2659,
      "pid": 2660,
      "Ġhur": 2661,
      "Ġanything": 2662,
      "ĠAmerican": 2663,
      "ĠRel": 2664,
      "Ġrepe": 2665,
      "Ġrock": 2666,
      "Ġacross": 2667,
      "anced": 2668,
      "olute": 2669,
      "Ġreport": 2670,
      "Ġdemand": 2671,
      "Ġconsiderable": 2672,
      "Ġmoral": 2673,
      "19": 2674,
      "idge": 2675,
      "Ġdied": 2676,
      "ĠPer": 2677,
      "ĠPres": 2678,
      "Ġpress": 2679,
      "erved": 2680,
      "ilar": 2681,
      "ler": 2682,
      "Ġcomplete": 2683,
      "Ġlist": 2684,
      "Ġinj": 2685,
      "Ġfeeling": 2686,
      "co": 2687,
      "Ġvict": 2688,
      "ike": 2689,
      "Ġacknow": 2690,
      "them": 2691,
      "ĠHere": 2692,
      "Ġincl": 2693,
      "Ġlad": 2694,
      "ĠCan": 2695,
      "Ġtro": 2696,
      "ales": 2697,
      "Ġfast": 2698,
      "reed": 2699,
      "Ġreligion": 2700,
      "cture": 2701,
      "Ġprivate": 2702,
      "Ġcomes": 2703,
      "uments": 2704,
      "Ġmater": 2705,
      "!âĢĿ": 2706,
      "Ġplan": 2707,
      "Ġcases": 2708,
      "Ġpresented": 2709,
      "ox": 2710,
      "vation": 2711,
      "Ġdiss": 2712,
      "At": 2713,
      "oses": 2714,
      "Ġevil": 2715,
      "icated": 2716,
      "Ġscarce": 2717,
      "ral": 2718,
      "Ġfurn": 2719,
      "Ġconvers": 2720,
      "Ġdeal": 2721,
      "arp": 2722,
      "Ġvig": 2723,
      "ms": 2724,
      "ĠPrince": 2725,
      "ribut": 2726,
      "Ġgentleman": 2727,
      "ares": 2728,
      "Ġdistance": 2729,
      "atever": 2730,
      "osp": 2731,
      "Ġconcl": 2732,
      "Ġlater": 2733,
      "istance": 2734,
      "Is": 2735,
      "Ġafterwards": 2736,
      "Eng": 2737,
      "IT": 2738,
      "Ġpoet": 2739,
      "Ġfamil": 2740,
      "Ġmaj": 2741,
      "ĠPers": 2742,
      "who": 2743,
      "20": 2744,
      "Ġappre": 2745,
      "Ġappears": 2746,
      "Ġcult": 2747,
      "Ġbreak": 2748,
      "ĠNor": 2749,
      "Ġdegree": 2750,
      "LE": 2751,
      "Ġsir": 2752,
      "Ġsuffer": 2753,
      "Ġpassage": 2754,
      "gar": 2755,
      "Ġoccur": 2756,
      "Ġsend": 2757,
      "Ġcompan": 2758,
      "Ġcertainly": 2759,
      "Ġreligious": 2760,
      "yp": 2761,
      "ĠZ": 2762,
      "Ġbreat": 2763,
      "Ġmagn": 2764,
      "Ġgirl": 2765,
      "ere": 2766,
      "Ġhealth": 2767,
      "thern": 2768,
      "Ġess": 2769,
      "Ġforward": 2770,
      "Ġpict": 2771,
      "itie": 2772,
      "bles": 2773,
      "Ġâ": 2774,
      "empl": 2775,
      "ĠGovernment": 2776,
      "ially": 2777,
      "ĠRep": 2778,
      "Ġtry": 2779,
      "Ġreally": 2780,
      "Ġcried": 2781,
      "osing": 2782,
      "Ġappearance": 2783,
      "stood": 2784,
      "teen": 2785,
      "Ġextend": 2786,
      "On": 2787,
      "Ġrend": 2788,
      "Ġrequired": 2789,
      "ĠFrom": 2790,
      "Ġeu": 2791,
      "velop": 2792,
      "oid": 2793,
      "Ġmouth": 2794,
      "Ġcustom": 2795,
      "Ġadded": 2796,
      "Ġtable": 2797,
      "Ġeasily": 2798,
      "ĠThus": 2799,
      "My": 2800,
      "Ġphilosop": 2801,
      "ald": 2802,
      "ĠÃ": 2803,
      "Ġwitness": 2804,
      "enry": 2805,
      "ĠCons": 2806,
      "ĠGl": 2807,
      "Ġcontrary": 2808,
      "Ġconduct": 2809,
      "ening": 2810,
      "Ġexperience": 2811,
      "ners": 2812,
      "Ġwat": 2813,
      "Ġcircumstances": 2814,
      "Ġintrodu": 2815,
      "Ġlanguage": 2816,
      "Ġtemper": 2817,
      "ĠQue": 2818,
      "Ġamongst": 2819,
      "Ġcharge": 2820,
      "Ġwise": 2821,
      "Ġbra": 2822,
      "Ġmembers": 2823,
      "room": 2824,
      "Ġworthy": 2825,
      "Ġentirely": 2826,
      "Ġyouth": 2827,
      "cceed": 2828,
      "Ġinn": 2829,
      "Ġx": 2830,
      "Ġslight": 2831,
      "Ġsimple": 2832,
      "ĠBishop": 2833,
      "Ġbit": 2834,
      "Ġdepend": 2835,
      "Ġliberty": 2836,
      "ching": 2837,
      "Ġ25": 2838,
      "Ġvast": 2839,
      "Ġyield": 2840,
      "Ġfalse": 2841,
      "face": 2842,
      "ospel": 2843,
      "Ġattack": 2844,
      "Ġreached": 2845,
      "ĠMen": 2846,
      "irty": 2847,
      "habit": 2848,
      "iles": 2849,
      "ĠLady": 2850,
      "Ġbeauty": 2851,
      "Ġthereof": 2852,
      "ford": 2853,
      "cend": 2854,
      "Ġfat": 2855,
      "Ġlaws": 2856,
      "Ġfle": 2857,
      "rud": 2858,
      "anks": 2859,
      "Ġfit": 2860,
      "cluded": 2861,
      "Ġdrawn": 2862,
      "Ġprove": 2863,
      "Ġprec": 2864,
      "ear": 2865,
      "standing": 2866,
      "Ġearnest": 2867,
      "...": 2868,
      "Ġwicked": 2869,
      "Ġrecogn": 2870,
      "Ġjudge": 2871,
      "Ġserve": 2872,
      "Ġph": 2873,
      "arily": 2874,
      "inite": 2875,
      "Ġimportant": 2876,
      "aste": 2877,
      "prise": 2878,
      "Ġremains": 2879,
      "How": 2880,
      "opt": 2881,
      "istr": 2882,
      "orough": 2883,
      "Ġjo": 2884,
      "Ġimm": 2885,
      "Ġsett": 2886,
      "orge": 2887,
      "Ġseeing": 2888,
      "Ġprincip": 2889,
      "Ġid": 2890,
      "Ġmort": 2891,
      "rees": 2892,
      "Ġdoing": 2893,
      "Ġeduc": 2894,
      "raph": 2895,
      "reme": 2896,
      "ĠCourt": 2897,
      "Ġ22": 2898,
      "ĠAct": 2899,
      "Ġoffice": 2900,
      "Ġsolemn": 2901,
      "Ġdaughter": 2902,
      "Ġinstead": 2903,
      "Ġassert": 2904,
      "erous": 2905,
      "ĠCr": 2906,
      "Ġ24": 2907,
      "Ġacquaint": 2908,
      "aff": 2909,
      "Ġmatters": 2910,
      "upon": 2911,
      "Ġlooking": 2912,
      "ĠCoun": 2913,
      "Ġsuppose": 2914,
      "enance": 2915,
      "ify": 2916,
      "lt": 2917,
      "ores": 2918,
      "Ġformed": 2919,
      "ĠProv": 2920,
      "ĠGree": 2921,
      "hens": 2922,
      "Ġbeginning": 2923,
      "Ġglad": 2924,
      "fl": 2925,
      "vey": 2926,
      "IC": 2927,
      "Ġbod": 2928,
      "Ġisland": 2929,
      "Ġfail": 2930,
      "ĠMay": 2931,
      "head": 2932,
      "iour": 2933,
      "Ġprobably": 2934,
      "after": 2935,
      "ublic": 2936,
      "Ġonely": 2937,
      "itive": 2938,
      "Ġbright": 2939,
      "Ġinde": 2940,
      "ression": 2941,
      "RE": 2942,
      "Ġproved": 2943,
      "Ġsqu": 2944,
      "Ġwatch": 2945,
      "yal": 2946,
      "bling": 2947,
      "Ġstory": 2948,
      "Ġsad": 2949,
      "Ġsleep": 2950,
      "Ġdistingu": 2951,
      "Ġdie": 2952,
      "Ġpossessed": 2953,
      "Ġ23": 2954,
      "ĠDiv": 2955,
      "Ġextra": 2956,
      "Ġsucceed": 2957,
      "ergy": 2958,
      "pir": 2959,
      "Ġslow": 2960,
      "gu": 2961,
      "road": 2962,
      "ĠSon": 2963,
      "aints": 2964,
      "ĠNot": 2965,
      "respond": 2966,
      "Ġfront": 2967,
      "house": 2968,
      "Ġartic": 2969,
      "set": 2970,
      "othing": 2971,
      "Ġthoughts": 2972,
      "ibility": 2973,
      "Ġliter": 2974,
      "Ġhearts": 2975,
      "amm": 2976,
      "ĠFl": 2977,
      "ĠParliament": 2978,
      "Ġmethod": 2979,
      "tr": 2980,
      "ĠWilliam": 2981,
      "cription": 2982,
      "cip": 2983,
      "raw": 2984,
      "esh": 2985,
      "ĠWhere": 2986,
      "Ġanx": 2987,
      "ĠRoman": 2988,
      "Ġabsolute": 2989,
      "Ġsoft": 2990,
      "iments": 2991,
      "Ġbenef": 2992,
      "itiz": 2993,
      "Ġjustice": 2994,
      "Ġvalue": 2995,
      "THE": 2996,
      "ential": 2997,
      "Ġmine": 2998,
      "Ġentered": 2999,
      "ustration": 3000,
      "cont": 3001,
      "Ġintended": 3002,
      "Ġjourney": 3003,
      "omin": 3004,
      "Ġassem": 3005,
      "Ġspoke": 3006,
      "ĠBritish": 3007,
      "Ġmass": 3008,
      "Ġdestroy": 3009,
      "gl": 3010,
      "Ġsave": 3011,
      "Ġagree": 3012,
      "Ġune": 3013,
      "Ġotherwise": 3014,
      "Ġburn": 3015,
      "Ġraised": 3016,
      "ĠIm": 3017,
      "Ġexample": 3018,
      "Ġmonths": 3019,
      "ĠMad": 3020,
      "do": 3021,
      "then": 3022,
      "Ġgives": 3023,
      "Ġpromise": 3024,
      "Ġadmir": 3025,
      "Ġprocess": 3026,
      "Ġgiving": 3027,
      "pri": 3028,
      "Then": 3029,
      "Ġwrong": 3030,
      "ational": 3031,
      "Ġspiritual": 3032,
      "Oh": 3033,
      "Ġprinciple": 3034,
      "Ġcomb": 3035,
      "Ġunf": 3036,
      "ĠEn": 3037,
      "Ġcost": 3038,
      "Ġjudgment": 3039,
      "Ġwarm": 3040,
      "ux": 3041,
      "ĠWorld": 3042,
      "Ġremember": 3043,
      "Ġstone": 3044,
      "bel": 3045,
      "sc": 3046,
      "ĠHeaven": 3047,
      "Ġborn": 3048,
      "Ġbird": 3049,
      "athol": 3050,
      "utions": 3051,
      "bo": 3052,
      "Ġallowed": 3053,
      "ĠSome": 3054,
      "Ġsus": 3055,
      "Ġder": 3056,
      "Ġtender": 3057,
      "ĠPhil": 3058,
      "ĠÂ": 3059,
      "Ġloss": 3060,
      "Ġignor": 3061,
      "ffic": 3062,
      "Ġoffer": 3063,
      "hel": 3064,
      "rib": 3065,
      "ĠSee": 3066,
      "Ġfight": 3067,
      "Ġfirm": 3068,
      "Ġpath": 3069,
      "Ġimpossible": 3070,
      "ym": 3071,
      "Ġestablish": 3072,
      "Ġprinciples": 3073,
      "ugust": 3074,
      "ĠNature": 3075,
      "Ġorigin": 3076,
      "11": 3077,
      "umed": 3078,
      "said": 3079,
      "Ġimper": 3080,
      "Ġaccomp": 3081,
      "ĠMon": 3082,
      "Ġorgan": 3083,
      "Ġdece": 3084,
      "would": 3085,
      "Ġpersonal": 3086,
      "Ġwrit": 3087,
      "Ġsan": 3088,
      "Ġmentioned": 3089,
      "Ġcurrent": 3090,
      "By": 3091,
      "acle": 3092,
      "Ġmaterial": 3093,
      "icious": 3094,
      "Ġletters": 3095,
      "Ġequal": 3096,
      "ixt": 3097,
      "sequently": 3098,
      "Ġexact": 3099,
      "Ġsafe": 3100,
      "Ġarrived": 3101,
      "Ġcrit": 3102,
      "Ġ---": 3103,
      "ias": 3104,
      "ĠGerman": 3105,
      "ager": 3106,
      "Ġadvantage": 3107,
      "asons": 3108,
      "Ġforeign": 3109,
      "umph": 3110,
      "Ġdil": 3111,
      "ĠSuch": 3112,
      "25": 3113,
      "Ġopportun": 3114,
      "Ġkn": 3115,
      "Ġsimilar": 3116,
      "asts": 3117,
      "inc": 3118,
      "Yes": 3119,
      "ĠUnited": 3120,
      "Ġheat": 3121,
      "OU": 3122,
      "Ġdise": 3123,
      "Ġlived": 3124,
      "Ġdim": 3125,
      "ĠJust": 3126,
      "Ġdistinct": 3127,
      "Ġstudy": 3128,
      "ĠAnt": 3129,
      "appe": 3130,
      "Ġsomewhat": 3131,
      "So": 3132,
      "Ġlands": 3133,
      "Ġ30": 3134,
      "Ġbroken": 3135,
      "oken": 3136,
      "iant": 3137,
      "rible": 3138,
      "ee": 3139,
      "Ġaffection": 3140,
      "ĠSec": 3141,
      "soci": 3142,
      "ĠJew": 3143,
      "Ġlie": 3144,
      "Ġmodern": 3145,
      "Ġtruly": 3146,
      "Ã¡": 3147,
      "Ġexistence": 3148,
      "Ġallow": 3149,
      "itle": 3150,
      "acc": 3151,
      "Al": 3152,
      "Ġheavy": 3153,
      "Ġprogress": 3154,
      "ĠPrin": 3155,
      "Ġere": 3156,
      "agement": 3157,
      "ĠDuke": 3158,
      "inent": 3159,
      "asure": 3160,
      "Ġsupposed": 3161,
      "Ġmir": 3162,
      "orses": 3163,
      "Ġpaper": 3164,
      "Ġprevent": 3165,
      "uff": 3166,
      "Ġdread": 3167,
      "ibly": 3168,
      "Ġevidence": 3169,
      "ception": 3170,
      "ipp": 3171,
      "Ġappointed": 3172,
      "igion": 3173,
      "een": 3174,
      "ĠRome": 3175,
      "verse": 3176,
      "ĠCaptain": 3177,
      "Ġpassion": 3178,
      "Ġsorrow": 3179,
      "Ġthick": 3180,
      "Ġscene": 3181,
      "Ġparticularly": 3182,
      "ille": 3183,
      "irg": 3184,
      "Ġdwell": 3185,
      "Ġbread": 3186,
      "ĠItal": 3187,
      "Ġthreat": 3188,
      "Ġrose": 3189,
      "igence": 3190,
      "tic": 3191,
      "Ġrule": 3192,
      "Ġhot": 3193,
      "can": 3194,
      "Ġsacred": 3195,
      "together": 3196,
      "off": 3197,
      "Now": 3198,
      "Ar": 3199,
      "ashion": 3200,
      "look": 3201,
      "Ġcred": 3202,
      "body": 3203,
      "Ġpal": 3204,
      "Ġtrees": 3205,
      "Ġopened": 3206,
      "just": 3207,
      "Ġamb": 3208,
      "bar": 3209,
      "],": 3210,
      "Ġseason": 3211,
      "Ġnotice": 3212,
      "Ġdoctrine": 3213,
      "part": 3214,
      "Ġexpected": 3215,
      "ston": 3216,
      "Ġsharp": 3217,
      "Ġmult": 3218,
      "Ġpet": 3219,
      "Ġdevelop": 3220,
      "Ġhighest": 3221,
      "Ġinstance": 3222,
      "kes": 3223,
      "23": 3224,
      "Ġvain": 3225,
      "Ġlabour": 3226,
      "ND": 3227,
      "Ġdelicate": 3228,
      "Ġofficers": 3229,
      "ĠCom": 3230,
      "Ġmilitary": 3231,
      "?*": 3232,
      "ams": 3233,
      "Ġadopt": 3234,
      "pers": 3235,
      "Ġrapid": 3236,
      "Ġfrequently": 3237,
      "eds": 3238,
      "nat": 3239,
      "Ġcamp": 3240,
      "God": 3241,
      "Ġbattle": 3242,
      "Ġhost": 3243,
      "tis": 3244,
      "ĠGreat": 3245,
      "24": 3246,
      "Ġpractice": 3247,
      "ustri": 3248,
      "Ġgall": 3249,
      "acity": 3250,
      "Ġfully": 3251,
      "Ġflesh": 3252,
      "when": 3253,
      "Ġproperty": 3254,
      "lly": 3255,
      "Ġamount": 3256,
      "urches": 3257,
      "ĠPri": 3258,
      "Ġimmediate": 3259,
      "Ġsingular": 3260,
      "Ġ26": 3261,
      "Ġwherein": 3262,
      "Ġfresh": 3263,
      "ĠHar": 3264,
      "ander": 3265,
      "rael": 3266,
      "ĠĊ": 3267,
      "Ġfigure": 3268,
      "Ġpaid": 3269,
      "Ġdog": 3270,
      "Ġii": 3271,
      "ĠTheir": 3272,
      "Ġseek": 3273,
      "Ġguard": 3274,
      "EL": 3275,
      "Ġdescribed": 3276,
      "ĠMe": 3277,
      "itte": 3278,
      "Ġunivers": 3279,
      "Ġwhatever": 3280,
      "Ġobserve": 3281,
      "Ġforms": 3282,
      "habitants": 3283,
      "Ġprepared": 3284,
      "ION": 3285,
      "Ġdrink": 3286,
      "bid": 3287,
      "Ġgrave": 3288,
      "Ġgaz": 3289,
      "Ġsick": 3290,
      "Ġplant": 3291,
      "Ġseven": 3292,
      "ĠNorth": 3293,
      "ability": 3294,
      "ING": 3295,
      "Ġmot": 3296,
      "Ġdemon": 3297,
      "Ġwel": 3298,
      "Ġtop": 3299,
      "ĠQueen": 3300,
      "ĠGu": 3301,
      "fact": 3302,
      "Ġmeeting": 3303,
      "kind": 3304,
      "des": 3305,
      "Christ": 3306,
      "ĠDes": 3307,
      "Ġtend": 3308,
      "HAPTER": 3309,
      "cons": 3310,
      "Ġsurr": 3311,
      "Ġing": 3312,
      "Ġdign": 3313,
      "Ġwisdom": 3314,
      "Ġcrow": 3315,
      "iance": 3316,
      "Ġ/": 3317,
      "Ġvirtue": 3318,
      "Ill": 3319,
      "Ġwealth": 3320,
      "iling": 3321,
      "ĠParis": 3322,
      "Ġrise": 3323,
      "Ġtrade": 3324,
      "Ġperform": 3325,
      "ĠFaith": 3326,
      "ĠWest": 3327,
      "Ġhabit": 3328,
      "Ġevent": 3329,
      "ĠHoly": 3330,
      "bell": 3331,
      "iently": 3332,
      "oon": 3333,
      "umb": 3334,
      "Ġintellect": 3335,
      "Ġtrad": 3336,
      "foreign": 3337,
      "Ġmel": 3338,
      "Ġgard": 3339,
      "oom": 3340,
      "ĠYork": 3341,
      "Ġcra": 3342,
      "Ġaffairs": 3343,
      "Ġago": 3344,
      "mit": 3345,
      "Ġdaily": 3346,
      "ĠOur": 3347,
      "Ġusual": 3348,
      "].": 3349,
      "Ġlives": 3350,
      "arrow": 3351,
      "Ġlies": 3352,
      "Ġhair": 3353,
      "elve": 3354,
      "Ġ28": 3355,
      "Ġdetail": 3356,
      "Ġstanding": 3357,
      "ny": 3358,
      "Ġadmin": 3359,
      "Ġmercy": 3360,
      "Ġinit": 3361,
      "Ġexcellent": 3362,
      "Ġexceed": 3363,
      "Ġlar": 3364,
      "Ġleading": 3365,
      "Ġeat": 3366,
      "Be": 3367,
      "Ġhigher": 3368,
      "ulous": 3369,
      "ĠWhile": 3370,
      "Ġep": 3371,
      "Ġfruit": 3372,
      "chie": 3373,
      "Ġemployed": 3374,
      "known": 3375,
      "With": 3376,
      "Ġgrat": 3377,
      "ĠSouth": 3378,
      "comm": 3379,
      "ĠSch": 3380,
      "Ġrev": 3381,
      "Ġlord": 3382,
      "anish": 3383,
      "Ġcondem": 3384,
      "Ġdu": 3385,
      "worth": 3386,
      "IL": 3387,
      "Ġfood": 3388,
      "Ġsituation": 3389,
      "Ġredu": 3390,
      "pass": 3391,
      "Ġportion": 3392,
      "ming": 3393,
      "Ġhardly": 3394,
      "Ġcultiv": 3395,
      "iation": 3396,
      "Ġmal": 3397,
      "ustr": 3398,
      "isl": 3399,
      "Ġ27": 3400,
      "vent": 3401,
      "Ġhonor": 3402,
      "ĠEl": 3403,
      "Ġprovided": 3404,
      "peror": 3405,
      "Ġvn": 3406,
      "erable": 3407,
      "Thus": 3408,
      "olly": 3409,
      "ĠLife": 3410,
      "His": 3411,
      "Ġarch": 3412,
      "Ġ;": 3413,
      "Ġfilled": 3414,
      "Ġsuf": 3415,
      "Let": 3416,
      "Ġtrouble": 3417,
      "claimed": 3418,
      "uing": 3419,
      "Ġinvol": 3420,
      "jud": 3421,
      "Ġrul": 3422,
      "Ġmut": 3423,
      "Ġconfess": 3424,
      "ĠMajesty": 3425,
      "Ġpowers": 3426,
      "Ġrender": 3427,
      "Ġcaused": 3428,
      "Ġwide": 3429,
      "Ġinstru": 3430,
      "ĠHowever": 3431,
      "some": 3432,
      "Ġstrugg": 3433,
      "Ġnorth": 3434,
      "Ġnatur": 3435,
      ".âĢĻ": 3436,
      "Ġfavor": 3437,
      "fast": 3438,
      "quis": 3439,
      "ĠComp": 3440,
      "Ġsought": 3441,
      "Ġextreme": 3442,
      "Ġdiscuss": 3443,
      "Ġnon": 3444,
      "Ġbroad": 3445,
      "ped": 3446,
      "Ġunderstood": 3447,
      "Ġafford": 3448,
      "Ġhouses": 3449,
      "onel": 3450,
      "Ġdeclared": 3451,
      "Ġaccom": 3452,
      "Ġbelow": 3453,
      "Ġpiece": 3454,
      "Ġsuddenly": 3455,
      "orous": 3456,
      "lying": 3457,
      "Ġunless": 3458,
      "ĠAg": 3459,
      "Ġdry": 3460,
      "Ġspring": 3461,
      "Ġcou": 3462,
      "Ġsecure": 3463,
      "Of": 3464,
      "Ġcovered": 3465,
      "Ġtrem": 3466,
      "inner": 3467,
      "Ġreader": 3468,
      "Ġworship": 3469,
      "Ġdetermined": 3470,
      "run": 3471,
      "Ġbuilt": 3472,
      ".[": 3473,
      "Ġsto": 3474,
      "ague": 3475,
      "Ġweek": 3476,
      "ĠOh": 3477,
      "Ġfun": 3478,
      "Ġlower": 3479,
      "Ġvpon": 3480,
      "amber": 3481,
      "Ġconsist": 3482,
      "ĠSub": 3483,
      "Ġcommer": 3484,
      "26": 3485,
      "how": 3486,
      "alous": 3487,
      "Ġproduced": 3488,
      "ĠCong": 3489,
      "Ġleaving": 3490,
      "ĠScripture": 3491,
      "Ġmain": 3492,
      "ushed": 3493,
      "Ġexhib": 3494,
      "Ġvent": 3495,
      "Ġbooks": 3496,
      "igned": 3497,
      "isions": 3498,
      "Ġdispl": 3499,
      "Ġspoken": 3500,
      "Ġdistant": 3501,
      "Well": 3502,
      "Ġquant": 3503,
      "Ġwrote": 3504,
      "Ġsevere": 3505,
      "ai": 3506,
      "spe": 3507,
      "alled": 3508,
      "ĠConst": 3509,
      "urd": 3510,
      "ables": 3511,
      "ĠRob": 3512,
      "Ġmanifest": 3513,
      "Ġscarcely": 3514,
      "ensive": 3515,
      "Ġheight": 3516,
      "Ġoriginal": 3517,
      "Ġmad": 3518,
      "Ġkingdom": 3519,
      "alley": 3520,
      "sal": 3521,
      "omas": 3522,
      "note": 3523,
      "Ġnote": 3524,
      "Ġbesides": 3525,
      "irth": 3526,
      "Ġpleased": 3527,
      "Ġsignific": 3528,
      "estions": 3529,
      "Ġspeaking": 3530,
      "iring": 3531,
      "Ġconsequence": 3532,
      "Ġlikely": 3533,
      "ortion": 3534,
      "ĠMed": 3535,
      "Ġsister": 3536,
      "ization": 3537,
      "Ġwrite": 3538,
      "Ġstra": 3539,
      "rance": 3540,
      "All": 3541,
      "Ġpretty": 3542,
      "ray": 3543,
      "Ġaddress": 3544,
      "Ġexpression": 3545,
      "ĠCathol": 3546,
      "Ġur": 3547,
      "utation": 3548,
      "Ġcrown": 3549,
      "Ġcompe": 3550,
      "ators": 3551,
      "Ġhumble": 3552,
      "Ġwhil": 3553,
      "ĠPart": 3554,
      "ĠMary": 3555,
      "ĠSac": 3556,
      "Ġcitiz": 3557,
      "yle": 3558,
      "Ġengaged": 3559,
      "dis": 3560,
      "cies": 3561,
      "Ġnames": 3562,
      "Ġrighteous": 3563,
      "Ġstay": 3564,
      "sue": 3565,
      "27": 3566,
      "Ġlines": 3567,
      "ĠSw": 3568,
      "Ġthirty": 3569,
      "Ġtroops": 3570,
      "iue": 3571,
      "AS": 3572,
      "Ġqual": 3573,
      "Ġbecomes": 3574,
      "Ġmotion": 3575,
      "ĠTe": 3576,
      "Ġhonest": 3577,
      "ĠHenry": 3578,
      "Illustration": 3579,
      "Ġhappiness": 3580,
      "ology": 3581,
      "ĠPeople": 3582,
      "fortun": 3583,
      "Ġeasy": 3584,
      "Ġblessed": 3585,
      "rough": 3586,
      "aped": 3587,
      "30": 3588,
      "Ġdress": 3589,
      "inted": 3590,
      "ips": 3591,
      "Ġfreed": 3592,
      "using": 3593,
      "28": 3594,
      "Ġobtained": 3595,
      "Ġmemory": 3596,
      "ĠEp": 3597,
      "Ġze": 3598,
      "Ġcorrupt": 3599,
      "lo": 3600,
      "Ġmeant": 3601,
      "ĠRom": 3602,
      "Ġordinary": 3603,
      "Ġgreen": 3604,
      "Ġtrave": 3605,
      "nal": 3606,
      "Ġduties": 3607,
      "ĠFe": 3608,
      "Ġfixed": 3609,
      "Ġpron": 3610,
      "Ġdifficulty": 3611,
      "lected": 3612,
      "dd": 3613,
      "Ġexpressed": 3614,
      "Ġlocal": 3615,
      "Ġdirection": 3616,
      "gypt": 3617,
      "Ġenemies": 3618,
      "istic": 3619,
      "Ġnations": 3620,
      "Ġcollect": 3621,
      "Ġfool": 3622,
      "Ġdifference": 3623,
      "Ġspecial": 3624,
      "ĠReg": 3625,
      "lex": 3626,
      "ĠPre": 3627,
      "Ġsocial": 3628,
      "Ġdisci": 3629,
      "Ġrare": 3630,
      "Ġsubjects": 3631,
      "Ġmeaning": 3632,
      "rict": 3633,
      "Ġsilence": 3634,
      "Ġdiscovered": 3635,
      "ĠWhy": 3636,
      "TH": 3637,
      "lebr": 3638,
      "Ġbeneath": 3639,
      "Ġinstr": 3640,
      "Ġcorrespond": 3641,
      "rill": 3642,
      "oue": 3643,
      "ĠSav": 3644,
      "ĠWar": 3645,
      "Ġperpet": 3646,
      "Ġspecies": 3647,
      "cle": 3648,
      "orne": 3649,
      "Ġdream": 3650,
      "ĠCharles": 3651,
      "lection": 3652,
      "Ġprim": 3653,
      "ivered": 3654,
      "Ġaccompl": 3655,
      "ĠReligion": 3656,
      "Ġiron": 3657,
      "Ġconqu": 3658,
      "Ġapparent": 3659,
      "ply": 3660,
      "Ġcorre": 3661,
      "otest": 3662,
      "Ġnumerous": 3663,
      "iced": 3664,
      "Ġsubs": 3665,
      "Ġtree": 3666,
      "Ġsake": 3667,
      "Ġbelieved": 3668,
      "ardon": 3669,
      "Ġpossession": 3670,
      "Ġnational": 3671,
      "Ġnative": 3672,
      "uls": 3673,
      "aces": 3674,
      "ĠGospel": 3675,
      "Ġang": 3676,
      "Yet": 3677,
      "selfe": 3678,
      "Ġopportunity": 3679,
      "Ġsuperior": 3680,
      "Ġremarkable": 3681,
      "Ġpassing": 3682,
      "ulf": 3683,
      "Ġcre": 3684,
      "Ġcurious": 3685,
      "ĠAmerica": 3686,
      "ĠMag": 3687,
      "Ġknows": 3688,
      "Ġreach": 3689,
      "Ġcontempl": 3690,
      "Ġones": 3691,
      "Ġboard": 3692,
      "Ġparent": 3693,
      "Ġpos": 3694,
      "Ġcontro": 3695,
      "Ġhorses": 3696,
      "imony": 3697,
      "OL": 3698,
      "Ind": 3699,
      "ĠChristians": 3700,
      "avid": 3701,
      "Ġsust": 3702,
      "ĠCont": 3703,
      "Ġgrad": 3704,
      "Ġcrowd": 3705,
      "rog": 3706,
      "Ġ29": 3707,
      "urthermore": 3708,
      "Ġbold": 3709,
      "Ġsouth": 3710,
      "ĠII": 3711,
      "ocr": 3712,
      "OD": 3713,
      "Ġrequire": 3714,
      "Ġspect": 3715,
      "Ġmoved": 3716,
      "Ġfortune": 3717,
      "Ġtaught": 3718,
      "ĠPh": 3719,
      "char": 3720,
      "enced": 3721,
      "Ġdism": 3722,
      "Ġcop": 3723,
      "Ġleaves": 3724,
      "29": 3725,
      "rifice": 3726,
      "Ġterms": 3727,
      "ĠMor": 3728,
      "Ġcentury": 3729,
      "ittee": 3730,
      "Ġrendered": 3731,
      "ique": 3732,
      "Ġwhis": 3733,
      "Ġprayer": 3734,
      "Ġspread": 3735,
      "lls": 3736,
      "Ġgrie": 3737,
      "Ġtong": 3738,
      "Ġconsideration": 3739,
      "Ġeverything": 3740,
      "ĠCal": 3741,
      "Ġplease": 3742,
      "leg": 3743,
      "aud": 3744,
      "work": 3745,
      "OM": 3746,
      "Ġcloud": 3747,
      "been": 3748,
      "might": 3749,
      "never": 3750,
      "ĠGeorge": 3751,
      "Ġfier": 3752,
      "Ġfashion": 3753,
      "Ġunderstanding": 3754,
      "Ġtriumph": 3755,
      "ograph": 3756,
      "Ġstates": 3757,
      "Ġhung": 3758,
      "urity": 3759,
      ",-": 3760,
      "Ġconstitution": 3761,
      "Ġperfectly": 3762,
      "Ġpred": 3763,
      "Ġsettle": 3764,
      "Ġthin": 3765,
      "jo": 3766,
      "Ġvan": 3767,
      "Ġdemonstr": 3768,
      "urb": 3769,
      "cts": 3770,
      "Ġforget": 3771,
      "III": 3772,
      "Ġglorious": 3773,
      "Ġcat": 3774,
      "Ġspeech": 3775,
      "Ġfault": 3776,
      "ĠHim": 3777,
      "iny": 3778,
      "icy": 3779,
      "uge": 3780,
      "Ġprincipal": 3781,
      "Ġprofess": 3782,
      "ĠCity": 3783,
      "Ġprevail": 3784,
      "Ġobliged": 3785,
      "asse": 3786,
      "Ġourselves": 3787,
      "Ġconscience": 3788,
      "estic": 3789,
      "Ġencour": 3790,
      "Ġpleasant": 3791,
      "Ġstir": 3792,
      "ĠBo": 3793,
      "Ġspot": 3794,
      "Ġdam": 3795,
      "long": 3796,
      "Ġpoints": 3797,
      "Ġcompar": 3798,
      "Ġdeb": 3799,
      "asting": 3800,
      "Ġdro": 3801,
      "ĠJames": 3802,
      "izing": 3803,
      "Ġsour": 3804,
      "Ġowne": 3805,
      "Ġacknowled": 3806,
      "Ġadvance": 3807,
      "Ġhistor": 3808,
      "apter": 3809,
      "ĠIndian": 3810,
      "aced": 3811,
      "apers": 3812,
      "Ġconversation": 3813,
      "venant": 3814,
      "Ġconc": 3815,
      "Ġtaste": 3816,
      "Con": 3817,
      "Ġaut": 3818,
      "Ġgreatly": 3819,
      "atory": 3820,
      "Ġrace": 3821,
      "Ġundert": 3822,
      "Ġyn": 3823,
      "Ġwhilst": 3824,
      "Ġstruck": 3825,
      "arsh": 3826,
      "Ġdesired": 3827,
      "otten": 3828,
      "Ġlikewise": 3829,
      "Ġhat": 3830,
      "From": 3831,
      "Ġproof": 3832,
      "ED": 3833,
      "Ġpronoun": 3834,
      "Ġescape": 3835,
      "mber": 3836,
      "US": 3837,
      "Ġcho": 3838,
      "Ġult": 3839,
      "ault": 3840,
      "ĠPaul": 3841,
      "ĠAuthor": 3842,
      "ios": 3843,
      "amb": 3844,
      "Ġordered": 3845,
      "Ġpreced": 3846,
      "De": 3847,
      "Ġserved": 3848,
      "Ġfund": 3849,
      "ĠDis": 3850,
      "Ġcapable": 3851,
      "John": 3852,
      "Ġwalls": 3853,
      "Ġinhabitants": 3854,
      "Ġpaint": 3855,
      "Ġpride": 3856,
      "One": 3857,
      "Ã¨": 3858,
      "Ġmusic": 3859,
      "Ġregular": 3860,
      "Ġtwelve": 3861,
      "Ġhimselfe": 3862,
      "Ġexercise": 3863,
      "Ġtears": 3864,
      "Ġsymp": 3865,
      "Ġpowerful": 3866,
      "mb": 3867,
      "osite": 3868,
      "Ġequally": 3869,
      "pected": 3870,
      "inions": 3871,
      "Ġlearn": 3872,
      "Ġsav": 3873,
      "Ġeste": 3874,
      "ĠScot": 3875,
      "reet": 3876,
      "Ġmill": 3877,
      "Ġgrou": 3878,
      "great": 3879,
      "Ġspirits": 3880,
      "ĠGood": 3881,
      "Ġbreath": 3882,
      "Ġcover": 3883,
      "ĠWas": 3884,
      "Ġrevol": 3885,
      "Ġtor": 3886,
      "Ġshadow": 3887,
      "Ġgovern": 3888,
      "Ġwriting": 3889,
      "Ġsuffered": 3890,
      "Ġwinter": 3891,
      "ma": 3892,
      "ĠPope": 3893,
      "Ġproduce": 3894,
      "ĠHist": 3895,
      ",âĢĻ": 3896,
      "50": 3897,
      "aval": 3898,
      "Ġwilling": 3899,
      "Ġexped": 3900,
      "itor": 3901,
      "racted": 3902,
      "Ġlaugh": 3903,
      "Ġcelebr": 3904,
      "Ġmiddle": 3905,
      "Ġserious": 3906,
      "Ġrefer": 3907,
      "ordinary": 3908,
      "Ġimportance": 3909,
      "Ġgun": 3910,
      "Åį": 3911,
      "withstanding": 3912,
      "oms": 3913,
      "Ġreading": 3914,
      "Ġfaithful": 3915,
      "Ġsurface": 3916,
      "rid": 3917,
      "ked": 3918,
      "ĠSte": 3919,
      "iast": 3920,
      "Ġcontent": 3921,
      "Ġfifty": 3922,
      "ĶĤ": 3923,
      "inate": 3924,
      "ccles": 3925,
      "Ġassoci": 3926,
      "AM": 3927,
      "Ġthereby": 3928,
      "Ġevents": 3929,
      "Ġnarrow": 3930,
      "Ġmarriage": 3931,
      "Ġthorough": 3932,
      "asing": 3933,
      "Ġrid": 3934,
      "Ġobed": 3935,
      "iable": 3936,
      "Ġsuppl": 3937,
      "rey": 3938,
      "Ġpatient": 3939,
      "Ġsusp": 3940,
      "ĠHon": 3941,
      "icks": 3942,
      "thren": 3943,
      "Ġremem": 3944,
      "ĠDon": 3945,
      "Ġminds": 3946,
      "Ġaid": 3947,
      "Ġpopular": 3948,
      "arer": 3949,
      "*'": 3950,
      "Ġspace": 3951,
      "Ġsouls": 3952,
      "aches": 3953,
      "Ġris": 3954,
      "Ġrecord": 3955,
      "ension": 3956,
      "ades": 3957,
      "happ": 3958,
      "Ġtakes": 3959,
      "Ġroyal": 3960,
      "ĠTem": 3961,
      "These": 3962,
      "Ġboat": 3963,
      "Ġtempt": 3964,
      "Ġchance": 3965,
      "Ġwine": 3966,
      "Ġarrange": 3967,
      "ulated": 3968,
      "bur": 3969,
      "osen": 3970,
      "Ġ21": 3971,
      "ule": 3972,
      "Ġlack": 3973,
      "Ġpublished": 3974,
      "irgin": 3975,
      "ĠBook": 3976,
      "ĠAND": 3977,
      "ĠRich": 3978,
      "England": 3979,
      "Ġvillage": 3980,
      "Ġmarried": 3981,
      "Äĵ": 3982,
      "Ġloved": 3983,
      "Ġeternal": 3984,
      "overy": 3985,
      "Ġ=": 3986,
      "Ġsummer": 3987,
      "Ġconfidence": 3988,
      "Ġsettled": 3989,
      "Ġge": 3990,
      "Ġtried": 3991,
      "ĠProphe": 3992,
      "Foot": 3993,
      "lend": 3994,
      "raid": 3995,
      "Ġstation": 3996,
      "Ġsides": 3997,
      "Ġpurch": 3998,
      "eper": 3999,
      "Ġnamed": 4000,
      "Ġfamiliar": 4001,
      "Ġhighly": 4002,
      "ildren": 4003,
      "ĠEs": 4004,
      "Ġpromised": 4005,
      "Ġresem": 4006,
      "anges": 4007,
      "iffe": 4008,
      "Ex": 4009,
      "illing": 4010,
      "host": 4011,
      "Ġwon": 4012,
      "ĠInst": 4013,
      "ĠKings": 4014,
      "Ġbrief": 4015,
      "ĠAugust": 4016,
      "Ġproposed": 4017,
      "Ġsoldiers": 4018,
      "Ġusually": 4019,
      "Ġhero": 4020,
      "Ġcontinue": 4021,
      "ĠDivine": 4022,
      "Ġdelivered": 4023,
      "Ġwaters": 4024,
      "Ġproportion": 4025,
      "field": 4026,
      "Ġpretend": 4027,
      "igent": 4028,
      "Ġmarked": 4029,
      "Ġprofession": 4030,
      "Ġorders": 4031,
      "Ġsins": 4032,
      "see": 4033,
      "Ġspeaks": 4034,
      "Ġbodies": 4035,
      "Ġconstant": 4036,
      "ĠLove": 4037,
      "Ġblind": 4038,
      "Ġstorm": 4039,
      "Ġimprove": 4040,
      "chan": 4041,
      "ĠSat": 4042,
      "Ġanimal": 4043,
      "ros": 4044,
      "Ġforced": 4045,
      "ĠMer": 4046,
      "atives": 4047,
      "time": 4048,
      "Ġbank": 4049,
      "Ġminutes": 4050,
      "Ġproud": 4051,
      "ĠMaster": 4052,
      "asc": 4053,
      "edy": 4054,
      "Footnote": 4055,
      "Ġsilent": 4056,
      "Ġcapital": 4057,
      "Ġfate": 4058,
      "Ġtempor": 4059,
      "Ġproc": 4060,
      "Ġdrew": 4061,
      "oyal": 4062,
      "Ġ0": 4063,
      "attered": 4064,
      "Ġselfe": 4065,
      "llow": 4066,
      "Ġcauses": 4067,
      "law": 4068,
      "Ġaltogether": 4069,
      "retched": 4070,
      "umber": 4071,
      "Ġgather": 4072,
      "uary": 4073,
      "Ġbitter": 4074,
      "Ġworse": 4075,
      "Ġobst": 4076,
      "Ġwall": 4077,
      "ump": 4078,
      "Ġpractical": 4079,
      "Ġsoil": 4080,
      "Ġshown": 4081,
      "Ġgranted": 4082,
      "athered": 4083,
      "After": 4084,
      "ĠIndians": 4085,
      "eder": 4086,
      "Ġmess": 4087,
      "while": 4088,
      "bb": 4089,
      "Ġcand": 4090,
      "Ġregarding": 4091,
      "Ã©e": 4092,
      "pret": 4093,
      "Ġconstit": 4094,
      "CHAPTER": 4095,
      "ov": 4096,
      "Ġthroughout": 4097,
      "uated": 4098,
      "inity": 4099,
      "place": 4100,
      "Ġuseful": 4101,
      "ĠColl": 4102,
      "ishes": 4103,
      "Ġglass": 4104,
      "Ġdiscover": 4105,
      "Ã¢": 4106,
      "Ġfacts": 4107,
      "Ġshore": 4108,
      "Ġindepend": 4109,
      "Ġextent": 4110,
      "ilty": 4111,
      "antic": 4112,
      "cher": 4113,
      "zen": 4114,
      "Ġremoved": 4115,
      "bet": 4116,
      "Ġrepeated": 4117,
      "Ġeducation": 4118,
      "Ġerr": 4119,
      "ding": 4120,
      "Ġsuffering": 4121,
      "Ġconditions": 4122,
      "Ġmountain": 4123,
      "Ġminister": 4124,
      "ĠEven": 4125,
      "ĠPat": 4126,
      "22": 4127,
      "wood": 4128,
      "Ġded": 4129,
      "Ġwholly": 4130,
      "Ġservant": 4131,
      "cks": 4132,
      "Ġcolour": 4133,
      "Ġaccompan": 4134,
      "Ġyourself": 4135,
      "Ġinnoc": 4136,
      "Ġtravel": 4137,
      "'m": 4138,
      "Ġnoted": 4139,
      "rose": 4140,
      "Ġran": 4141,
      "Ġlips": 4142,
      "Ġdrawing": 4143,
      "ĠDut": 4144,
      "angers": 4145,
      "Ġdiscourse": 4146,
      "Ġcruel": 4147,
      "Ġsanct": 4148,
      "Ġwriter": 4149,
      "Ġprotect": 4150,
      "Ġprefer": 4151,
      "Ġdangerous": 4152,
      "Ġreign": 4153,
      "Ġinfinite": 4154,
      "ĠLou": 4155,
      "Ġkilled": 4156,
      "Ġrig": 4157,
      "Ġpraise": 4158,
      "Ġconven": 4159,
      "gel": 4160,
      "ĠKingdom": 4161,
      "Ġabund": 4162,
      "chief": 4163,
      "Ġsubstance": 4164,
      "Ġhol": 4165,
      "Ġment": 4166,
      "Why": 4167,
      "Ġterrible": 4168,
      "Ġways": 4169,
      "jection": 4170,
      "atures": 4171,
      "Ġcourage": 4172,
      "ama": 4173,
      "ading": 4174,
      "Ġtone": 4175,
      "ival": 4176,
      "Ġbelief": 4177,
      "Ġfinal": 4178,
      "Ġteach": 4179,
      "Ġfeelings": 4180,
      "Ġbuilding": 4181,
      "andon": 4182,
      "umes": 4183,
      "Ġsatisfaction": 4184,
      "Ġamid": 4185,
      "40": 4186,
      "Ġprosper": 4187,
      "Ġforces": 4188,
      "inte": 4189,
      "Ġresolved": 4190,
      "change": 4191,
      "Ġfol": 4192,
      "ĠLa": 4193,
      "Ġstands": 4194,
      "Ġblue": 4195,
      "Ġbott": 4196,
      "Ġchanged": 4197,
      "IR": 4198,
      "anging": 4199,
      "Ġmajor": 4200,
      "ĠSal": 4201,
      "ĠFurthermore": 4202,
      "Ġimpro": 4203,
      "ĠGrace": 4204,
      "Ġsovere": 4205,
      "het": 4206,
      "Ġstead": 4207,
      "Ġforty": 4208,
      "ĠJu": 4209,
      "Ġincrease": 4210,
      "Ġactions": 4211,
      "Ġsn": 4212,
      "Ġhence": 4213,
      "Ġfem": 4214,
      "Ġsword": 4215,
      "car": 4216,
      "Ġadvanced": 4217,
      "Ġcommitted": 4218,
      "istry": 4219,
      "iu": 4220,
      "ĠSou": 4221,
      "Ġspent": 4222,
      "Ġapplied": 4223,
      "Ġsuggest": 4224,
      "Ġswift": 4225,
      "Ġevident": 4226,
      "Ġpersu": 4227,
      "Ġrights": 4228,
      "Ġflowers": 4229,
      "Ġcreature": 4230,
      "ufact": 4231,
      "Qu": 4232,
      "hether": 4233,
      "Ġdisease": 4234,
      "ĠEgypt": 4235,
      "Ġreply": 4236,
      "Ġje": 4237,
      "Ġnaturally": 4238,
      "ological": 4239,
      "Ġaud": 4240,
      "Ġ(_": 4241,
      "Ġcoast": 4242,
      "icity": 4243,
      "Ġwindow": 4244,
      "Ġtot": 4245,
      "orse": 4246,
      "ĠRight": 4247,
      "aker": 4248,
      "Ġlabor": 4249,
      "Ġthinking": 4250,
      "Ġstrict": 4251,
      "ĠAcc": 4252,
      "Ġfallen": 4253,
      "should": 4254,
      "oubt": 4255,
      "rant": 4256,
      "Ġindividuals": 4257,
      "ims": 4258,
      "Ġapart": 4259,
      "Ġbehold": 4260,
      "Ġdisposition": 4261,
      "cluding": 4262,
      "ĠSen": 4263,
      "Ġhappened": 4264,
      "33": 4265,
      "uel": 4266,
      "Ġachie": 4267,
      "ode": 4268,
      "ata": 4269,
      "Ġinformation": 4270,
      "Ġkne": 4271,
      "ĠHigh": 4272,
      "Ġopposite": 4273,
      "ĠSm": 4274,
      "umpt": 4275,
      "Ġscience": 4276,
      "itate": 4277,
      "IV": 4278,
      "Ġgrew": 4279,
      "icip": 4280,
      "Ġbow": 4281,
      "Ġhither": 4282,
      "ek": 4283,
      "Ġwished": 4284,
      "Ġgoes": 4285,
      "ivity": 4286,
      "Ġty": 4287,
      "Ġspecific": 4288,
      "Ġsympath": 4289,
      "ENT": 4290,
      "ĠIsrael": 4291,
      "Ġpit": 4292,
      "ĠJer": 4293,
      "Sh": 4294,
      "Ġfinding": 4295,
      "Ġdistinguished": 4296,
      "Ġgentlemen": 4297,
      "enes": 4298,
      "ĠFirst": 4299,
      "idently": 4300,
      "ĠProtest": 4301,
      "Ġquickly": 4302,
      "aments": 4303,
      "aked": 4304,
      "Ġbirth": 4305,
      "Ġfinally": 4306,
      "Ġtitle": 4307,
      "alem": 4308,
      "Ġvers": 4309,
      "mony": 4310,
      "Ġfancy": 4311,
      "Ġbare": 4312,
      "ilities": 4313,
      "Ġrecent": 4314,
      "Ġpieces": 4315,
      "uries": 4316,
      "Ġdignity": 4317,
      "ĠLords": 4318,
      "AC": 4319,
      "Ġladies": 4320,
      "ĠMat": 4321,
      "ĠIndeed": 4322,
      "Ġforest": 4323,
      "Ġheads": 4324,
      "Ġefforts": 4325,
      "Ġaddition": 4326,
      "Ġsilver": 4327,
      "ifying": 4328,
      "ĠPet": 4329,
      "Ġbill": 4330,
      "abb": 4331,
      "Sp": 4332,
      "Ġgenius": 4333,
      "Ġrepro": 4334,
      "Ġofficer": 4335,
      "ĠIr": 4336,
      "reland": 4337,
      "ĠWord": 4338,
      "Ġhopes": 4339,
      "Ġsupply": 4340,
      "ounding": 4341,
      "Ġtal": 4342,
      "Ġdesert": 4343,
      "ĠDev": 4344,
      "uit": 4345,
      "than": 4346,
      "Ġrob": 4347,
      "oqu": 4348,
      "into": 4349,
      "ems": 4350,
      "clock": 4351,
      "ĠEarth": 4352,
      "ĠâĶĤ": 4353,
      "has": 4354,
      "Ġvisible": 4355,
      "Ġfreedom": 4356,
      "Ġrecomm": 4357,
      "Ġimpl": 4358,
      "Ġoutward": 4359,
      "usted": 4360,
      "Pr": 4361,
      "uable": 4362,
      "Ġrelations": 4363,
      "ĠJe": 4364,
      "Ġinteresting": 4365,
      "Ġargument": 4366,
      "Ġspr": 4367,
      "Ġeager": 4368,
      "Ġbas": 4369,
      "order": 4370,
      "Here": 4371,
      "Ġdecided": 4372,
      "Ġturning": 4373,
      "estern": 4374,
      "Ġdefend": 4375,
      "Ġbreast": 4376,
      "sm": 4377,
      "Re": 4378,
      "ĠWho": 4379,
      "heart": 4380,
      "Or": 4381,
      "ributed": 4382,
      "Ġstyle": 4383,
      "Ġsong": 4384,
      "Ġsail": 4385,
      "ĠApostle": 4386,
      "pered": 4387,
      "ĠPort": 4388,
      "Ġcommanded": 4389,
      "Ġdinner": 4390,
      "aver": 4391,
      "Ġcalm": 4392,
      "othes": 4393,
      "Ġearli": 4394,
      "Ġdirected": 4395,
      "Ġdivers": 4396,
      "Ġadminist": 4397,
      "Ġenv": 4398,
      "Ġmountains": 4399,
      "hand": 4400,
      "Ġdeny": 4401,
      "only": 4402,
      "Ġmach": 4403,
      "Ġpicture": 4404,
      "Ġprince": 4405,
      "asters": 4406,
      "ĠTur": 4407,
      "Ġneighbour": 4408,
      "Ġproceeded": 4409,
      "och": 4410,
      "ĠPresident": 4411,
      "fess": 4412,
      "Ġlest": 4413,
      "otection": 4414,
      "Ġemp": 4415,
      "Ġstock": 4416,
      "Ġinterests": 4417,
      "21": 4418,
      "Ġyes": 4419,
      "about": 4420,
      "Ġboys": 4421,
      "Ġconsent": 4422,
      "Ġstage": 4423,
      "imp": 4424,
      "Ġwanted": 4425,
      "Ġservants": 4426,
      "ĠLat": 4427,
      "Ġbenefit": 4428,
      "Ġexclaimed": 4429,
      "Ġstream": 4430,
      "ĠĠ": 4431,
      "ĠLand": 4432,
      "ĠServ": 4433,
      "Ġgar": 4434,
      "Ġutterly": 4435,
      "ĠRuss": 4436,
      "aling": 4437,
      "Ġinfer": 4438,
      "Ġreward": 4439,
      "Ġprice": 4440,
      "Ġsubtle": 4441,
      "Ġafraid": 4442,
      "Ġsplend": 4443,
      "Ġquestions": 4444,
      "inction": 4445,
      "Ġanimals": 4446,
      "Ġtransl": 4447,
      "Ġeffects": 4448,
      "Ġchosen": 4449,
      "herent": 4450,
      "ĠCast": 4451,
      "appoint": 4452,
      "Ġ186": 4453,
      "ĠThomas": 4454,
      "Ġsearch": 4455,
      "Ġbeat": 4456,
      "bre": 4457,
      "Ġsimply": 4458,
      "Ġquality": 4459,
      "Ġmighty": 4460,
      "Ġissu": 4461,
      "uine": 4462,
      ":--": 4463,
      "Ġassured": 4464,
      "Ġ*&": 4465,
      "35": 4466,
      "Ġneeds": 4467,
      "Ġfortun": 4468,
      "Ġwait": 4469,
      "Ġshare": 4470,
      "Not": 4471,
      "Ġhill": 4472,
      "ibus": 4473,
      "Ġparties": 4474,
      "could": 4475,
      "Ġnews": 4476,
      "Ġstreet": 4477,
      "hem": 4478,
      "36": 4479,
      "lands": 4480,
      "Ġquarter": 4481,
      "Ġyea": 4482,
      "Ġgain": 4483,
      "Ġprepar": 4484,
      "Ġshut": 4485,
      "Ġaston": 4486,
      "Ġmagnific": 4487,
      "Ġincreased": 4488,
      "Ġworking": 4489,
      "Ġearthly": 4490,
      "pping": 4491,
      "Ġfinds": 4492,
      "Ġobservation": 4493,
      "Ġvalley": 4494,
      "Ġsurely": 4495,
      "ifts": 4496,
      "Ġobjects": 4497,
      "Ġknowing": 4498,
      "Ġdescri": 4499,
      "Pro": 4500,
      "Ġtongue": 4501,
      "ĠEv": 4502,
      "Ġoffe": 4503,
      "34": 4504,
      "Ġrank": 4505,
      "enge": 4506,
      "poses": 4507,
      "Ġfart": 4508,
      "two": 4509,
      "ET": 4510,
      "Ġtouch": 4511,
      "theless": 4512,
      "Ġcalcul": 4513,
      "iah": 4514,
      "Ġsaf": 4515,
      "Ġrising": 4516,
      "Ġextraordinary": 4517,
      "asp": 4518,
      "Ġmechan": 4519,
      "zz": 4520,
      "Ġdeliver": 4521,
      "Ġsurpr": 4522,
      "Ġsnow": 4523,
      "Ġgarden": 4524,
      "ols": 4525,
      "Ġrecommend": 4526,
      "ancing": 4527,
      "itated": 4528,
      "ĠAf": 4529,
      "Ġinformed": 4530,
      "Ġsatisfied": 4531,
      "bered": 4532,
      "ĠDeath": 4533,
      "ĠPen": 4534,
      "ĠGreek": 4535,
      "Ġobey": 4536,
      "Ġquantity": 4537,
      "Ġshowed": 4538,
      "Ġacts": 4539,
      "Ġideas": 4540,
      "Ġsmile": 4541,
      "Ġlegisl": 4542,
      "37": 4543,
      "Ġdust": 4544,
      "UR": 4545,
      "Ġestate": 4546,
      "ĠEvery": 4547,
      "Ġthrown": 4548,
      "urre": 4549,
      "Ġweather": 4550,
      "Ġresp": 4551,
      "ĠRes": 4552,
      "Ġcarefully": 4553,
      "Ġperceived": 4554,
      "Ġwest": 4555,
      "Ġdeeply": 4556,
      "Ġeffort": 4557,
      "Ġlose": 4558,
      "ĠPower": 4559,
      "Ġsize": 4560,
      "Ġbig": 4561,
      "Ġ$": 4562,
      "Ġ--": 4563,
      "ĠTest": 4564,
      "chant": 4565,
      "imately": 4566,
      "Ġloud": 4567,
      "stone": 4568,
      "Ġcompre": 4569,
      "cended": 4570,
      "ĠUpon": 4571,
      "ĠRev": 4572,
      "Ġtheat": 4573,
      "Ġvener": 4574,
      "Ġobtain": 4575,
      "Ġfing": 4576,
      "Ġpardon": 4577,
      "ara": 4578,
      "Ġdescription": 4579,
      "Do": 4580,
      "Ġdirectly": 4581,
      "Ġgathered": 4582,
      "ĠSam": 4583,
      "rep": 4584,
      "Ġfaint": 4585,
      "Ġshame": 4586,
      "Ġlying": 4587,
      "Ġcounsel": 4588,
      "Ġcareful": 4589,
      "Ġaccompanied": 4590,
      "such": 4591,
      "Ġsentiment": 4592,
      "Ġeld": 4593,
      "ifted": 4594,
      "urance": 4595,
      "Ġmaintain": 4596,
      "much": 4597,
      "Ġrain": 4598,
      "vert": 4599,
      "Ġadmitted": 4600,
      "Ġtax": 4601,
      "Ad": 4602,
      "Ġarrival": 4603,
      "Ġrefused": 4604,
      "ĠBel": 4605,
      "cles": 4606,
      "_;": 4607,
      "Ġreck": 4608,
      "again": 4609,
      "iry": 4610,
      "Â¦": 4611,
      "Ġdemands": 4612,
      "mitted": 4613,
      "Ġdouble": 4614,
      "Ġpunishment": 4615,
      "ĠInt": 4616,
      "Ġreven": 4617,
      "Ġwrought": 4618,
      "Ġlod": 4619,
      "Ġsteps": 4620,
      "Ġseat": 4621,
      "Ab": 4622,
      "._,": 4623,
      "Ġwalked": 4624,
      "Ġindu": 4625,
      "ege": 4626,
      "ĠTherefore": 4627,
      "alog": 4628,
      "Ġsand": 4629,
      "Ġdistrict": 4630,
      "ville": 4631,
      "onies": 4632,
      "Ġfigures": 4633,
      "ĠPeter": 4634,
      "Ġ40": 4635,
      "Ġbond": 4636,
      "Ġvessels": 4637,
      "Ġhid": 4638,
      "Ġfur": 4639,
      "lin": 4640,
      "Ġpolicy": 4641,
      "Ġnarrator": 4642,
      "Ġwhence": 4643,
      "Ġpounds": 4644,
      "lee": 4645,
      "Ġsed": 4646,
      "Ġwid": 4647,
      "Ġhearing": 4648,
      "ĠEarl": 4649,
      "Ġcountenance": 4650,
      "Ġdefence": 4651,
      "ĠCongress": 4652,
      "Ġaside": 4653,
      "Ġdare": 4654,
      "Ġdevotion": 4655,
      "Ġcere": 4656,
      "ha": 4657,
      "rific": 4658,
      "Ġfleet": 4659,
      "Ġetc": 4660,
      "Ġmission": 4661,
      "Ġexert": 4662,
      "ĠPray": 4663,
      "Ġclean": 4664,
      "Ġsucceeded": 4665,
      "ĠCouncil": 4666,
      "ĠSociety": 4667,
      "Ġdissol": 4668,
      "Ġliber": 4669,
      "Ġpale": 4670,
      "Ġoccurred": 4671,
      "Ġattended": 4672,
      "Ġskill": 4673,
      "Ġexecution": 4674,
      "Ġwithd": 4675,
      "ĠEast": 4676,
      "ĠFort": 4677,
      "ician": 4678,
      "ĠYe": 4679,
      "ĠSea": 4680,
      "Ġcorn": 4681,
      "those": 4682,
      "Ġball": 4683,
      "ecause": 4684,
      "Ġbearing": 4685,
      "ĠEmperor": 4686,
      "38": 4687,
      "Ġoccupied": 4688,
      "oseph": 4689,
      "umn": 4690,
      "ĠLib": 4691,
      "Ġcheer": 4692,
      "omy": 4693,
      "ĠArch": 4694,
      "irmed": 4695,
      "Ġelev": 4696,
      "mense": 4697,
      "ĠOld": 4698,
      "Ġdisg": 4699,
      "OT": 4700,
      "Ġcalling": 4701,
      "Ġcaught": 4702,
      "Ġsaved": 4703,
      "Ġendeavour": 4704,
      "Ġwounded": 4705,
      "ĠAss": 4706,
      "before": 4707,
      "acles": 4708,
      "Ġvnder": 4709,
      "Ġpull": 4710,
      "inations": 4711,
      "Ġfollows": 4712,
      "reen": 4713,
      "Ġmiss": 4714,
      "Ġbase": 4715,
      "Ġconvey": 4716,
      "Ġinvest": 4717,
      "Ġrestr": 4718,
      "Ġselves": 4719,
      "ustry": 4720,
      "ais": 4721,
      "Ġconscious": 4722,
      "39": 4723,
      "enant": 4724,
      "Ġvv": 4725,
      "Ġthank": 4726,
      "ĠFriend": 4727,
      "Ġsteam": 4728,
      "rue": 4729,
      "these": 4730,
      "Ġabandon": 4731,
      "Ġrelation": 4732,
      "Ġhab": 4733,
      "Ġstated": 4734,
      "cked": 4735,
      "Ġcredit": 4736,
      "oure": 4737,
      "ĠSoul": 4738,
      "Ġruin": 4739,
      "Ġdarkness": 4740,
      "Ġmaintained": 4741,
      "Ġships": 4742,
      "Ġstar": 4743,
      "Ġfoundation": 4744,
      "Ġdomestic": 4745,
      "oration": 4746,
      "Will": 4747,
      "Ġdict": 4748,
      "Ġregarded": 4749,
      "Ġdriven": 4750,
      "Ġobedience": 4751,
      "father": 4752,
      "Ġtask": 4753,
      "Ġviews": 4754,
      "Ġgoods": 4755,
      "ĠIN": 4756,
      "Ġprospect": 4757,
      "Ġdeliber": 4758,
      "ĠThough": 4759,
      "Ġcompelled": 4760,
      "ctive": 4761,
      "Ġcaptain": 4762,
      "Ġbirds": 4763,
      "Ġble": 4764,
      "Ġsacrifice": 4765,
      "Ġmarch": 4766,
      "EC": 4767,
      "Ġlearning": 4768,
      "Ġdivided": 4769,
      "Ġexcess": 4770,
      "your": 4771,
      "Ġweeks": 4772,
      "being": 4773,
      "Ġexcl": 4774,
      "ĠOrd": 4775,
      "Ġintellectual": 4776,
      "Ġperil": 4777,
      "Ġuniversal": 4778,
      "ldom": 4779,
      "asions": 4780,
      "Ġthence": 4781,
      "ĠMart": 4782,
      "ĠTruth": 4783,
      "ĠSpain": 4784,
      "ede": 4785,
      "Ġfish": 4786,
      "Ġreasons": 4787,
      "gels": 4788,
      "occ": 4789,
      "Ġdebt": 4790,
      "verted": 4791,
      "Ġmanufact": 4792,
      "ĠOff": 4793,
      "Ġlarger": 4794,
      "Ġsignificant": 4795,
      "ronic": 4796,
      "Ġbrave": 4797,
      "Ġphysical": 4798,
      "Ġmaid": 4799,
      "Ġillustr": 4800,
      "Ġopposition": 4801,
      "usalem": 4802,
      "Ġminute": 4803,
      "Ġrail": 4804,
      "Ġly": 4805,
      "ĠSpanish": 4806,
      "Ġapplication": 4807,
      "ids": 4808,
      "Ġfro": 4809,
      "ĠMarch": 4810,
      "bec": 4811,
      "Ġapproach": 4812,
      "Ġsuggested": 4813,
      "vity": 4814,
      "Ġdestruction": 4815,
      "Ġshot": 4816,
      "Ġresults": 4817,
      "Where": 4818,
      "ifferent": 4819,
      "Ġvolume": 4820,
      "lie": 4821,
      "noon": 4822,
      "Ġfarther": 4823,
      "Ġprevious": 4824,
      "Ġagreed": 4825,
      "ait": 4826,
      "ĠLouis": 4827,
      "Ġsitting": 4828,
      "aration": 4829,
      "Ġnotwithstanding": 4830,
      "Ġflour": 4831,
      "Ġdeemed": 4832,
      "Ġretreat": 4833,
      "Ġfamous": 4834,
      "sl": 4835,
      "ĠApostles": 4836,
      "Ġambition": 4837,
      "Ġwear": 4838,
      "Ġzeal": 4839,
      "ĠIII": 4840,
      "Ġavoid": 4841,
      "Ġhind": 4842,
      "Ġclearly": 4843,
      "'ve": 4844,
      "Ġcommend": 4845,
      "Ġmovement": 4846,
      "Ġinterv": 4847,
      "Ġinstit": 4848,
      "XX": 4849,
      "Ġsufficiently": 4850,
      "Ġconclusion": 4851,
      "Ġnumbers": 4852,
      "every": 4853,
      "Ġafore": 4854,
      ",)": 4855,
      "Ġformerly": 4856,
      "Ġdesper": 4857,
      "Ġassistance": 4858,
      "Ġprud": 4859,
      "Ġtum": 4860,
      "Ġcorrect": 4861,
      "anches": 4862,
      "Ġease": 4863,
      "tering": 4864,
      "ustomed": 4865,
      "Ġintroduced": 4866,
      "ĠSpe": 4867,
      "bury": 4868,
      "Ġresolution": 4869,
      "Ġsubl": 4870,
      "Ġgaze": 4871,
      "Ġfond": 4872,
      "lor": 4873,
      "Ġenterprise": 4874,
      "Ġtim": 4875,
      "ĠCrown": 4876,
      "Ġinstant": 4877,
      "Ġcitizens": 4878,
      "erves": 4879,
      "good": 4880,
      "Ġtreated": 4881,
      "ani": 4882,
      "ĠSaviour": 4883,
      "Ġperformed": 4884,
      "Ġstop": 4885,
      "Ġcontained": 4886,
      "Ġactive": 4887,
      "rated": 4888,
      "sell": 4889,
      "Ġuncle": 4890,
      "Ġcommerce": 4891,
      "Ġstructure": 4892,
      "igation": 4893,
      "Ġmerit": 4894,
      "Ġproperly": 4895,
      "ett": 4896,
      "Ġbroke": 4897,
      "ocks": 4898,
      "Ġages": 4899,
      "ĠRobert": 4900,
      "Ġabsence": 4901,
      "oked": 4902,
      "Ġrecon": 4903,
      "col": 4904,
      "Ġtrial": 4905,
      "48": 4906,
      "Ġspeed": 4907,
      "Ġopening": 4908,
      "arest": 4909,
      "Ġvoy": 4910,
      "Ġpermitted": 4911,
      "kin": 4912,
      "45": 4913,
      "Ġnine": 4914,
      "Ġmerc": 4915,
      "Ġsafety": 4916,
      "Ġfulf": 4917,
      "Ġnarrative": 4918,
      "Ġsinne": 4919,
      "Ġdiscipl": 4920,
      "Ġassist": 4921,
      "ĠInf": 4922,
      "Ġkeeping": 4923,
      "ĠVirgin": 4924,
      "Ġdevoted": 4925,
      "sub": 4926,
      "Ġdepth": 4927,
      "Ġtherein": 4928,
      "Ġhall": 4929,
      "hers": 4930,
      "Ġrunning": 4931,
      "Ġupper": 4932,
      "iquity": 4933,
      "anqu": 4934,
      "sy": 4935,
      "Ġschol": 4936,
      "Ġhom": 4937,
      "certain": 4938,
      "ĠColonel": 4939,
      "Ġpursuit": 4940,
      "Ġmember": 4941,
      "Ġdimin": 4942,
      "Ġneck": 4943,
      "Ġbottom": 4944,
      "Ġrelief": 4945,
      "Am": 4946,
      "inn": 4947,
      "Ġmeasures": 4948,
      "dome": 4949,
      "Ġslowly": 4950,
      "Ġstraight": 4951,
      "oring": 4952,
      "Ġoutside": 4953,
      "Ġunknown": 4954,
      "Ġprivile": 4955,
      "Her": 4956,
      "ads": 4957,
      "Ġmidst": 4958,
      "Paul": 4959,
      "inth": 4960,
      "ifie": 4961,
      "Ġthine": 4962,
      "Ġrepresented": 4963,
      "Ġrepent": 4964,
      "arts": 4965,
      "four": 4966,
      "dy": 4967,
      "ĠBody": 4968,
      "Ġchiefly": 4969,
      "Ġobsc": 4970,
      "Ġimmense": 4971,
      "cean": 4972,
      "cclesiast": 4973,
      "inced": 4974,
      "Sir": 4975,
      "uall": 4976,
      "Ġvaluable": 4977,
      "Ġnotes": 4978,
      "Ġcomposed": 4979,
      "Ġque": 4980,
      "Ġstruggle": 4981,
      "Ġadopted": 4982,
      "Ġcool": 4983,
      "Ġinitial": 4984,
      "Ġteacher": 4985,
      "sequent": 4986,
      "Ġpersec": 4987,
      "rences": 4988,
      "Ġprompt": 4989,
      "Ġpresently": 4990,
      "Ġprecious": 4991,
      "ĠSin": 4992,
      "Ġutmost": 4993,
      "Ġlooks": 4994,
      "Ġbapt": 4995,
      "without": 4996,
      "comp": 4997,
      "Ġprotection": 4998,
      "Ġissue": 4999,
      "ĠJack": 5000,
      "Ġviolent": 5001,
      "Ġafflict": 5002,
      "46": 5003,
      "Ġstones": 5004,
      "Ġdeclare": 5005,
      "Ġunfortun": 5006,
      "fare": 5007,
      "Ġpage": 5008,
      "Ġguilty": 5009,
      "Ġprecise": 5010,
      "Ġrequest": 5011,
      "ĠMount": 5012,
      "Ġgetting": 5013,
      "Ġfrequent": 5014,
      "Ġsons": 5015,
      "Ġconflict": 5016,
      "Ġaccepted": 5017,
      "Ġmankind": 5018,
      "ril": 5019,
      "Ġtyr": 5020,
      "Ġvp": 5021,
      "ourn": 5022,
      "eping": 5023,
      "ext": 5024,
      "Ġgrowing": 5025,
      "first": 5026,
      "Ġraise": 5027,
      "ĠConf": 5028,
      "Ġpresents": 5029,
      "ST": 5030,
      "ĠArt": 5031,
      "Ġconcluded": 5032,
      "rab": 5033,
      "ĠPol": 5034,
      "Ġindul": 5035,
      "Ġmoder": 5036,
      "Ġblow": 5037,
      "say": 5038,
      "ĠScriptures": 5039,
      "little": 5040,
      "ĠVer": 5041,
      "aunt": 5042,
      "Ġ36": 5043,
      "Ġregret": 5044,
      "Ġfourth": 5045,
      "Ġeast": 5046,
      "47": 5047,
      "Ġfever": 5048,
      "Ġkiss": 5049,
      "geon": 5050,
      "ĠAc": 5051,
      ".[^": 5052,
      "Ġstreets": 5053,
      "Ġsovereign": 5054,
      "ĠDel": 5055,
      "ĠTO": 5056,
      "Ġwo": 5057,
      "fulness": 5058,
      "Ġbishop": 5059,
      "ĠRiver": 5060,
      "bon": 5061,
      "Ġrenew": 5062,
      "Ġcommission": 5063,
      "Lord": 5064,
      "Ġanxious": 5065,
      "Ġwaiting": 5066,
      "igne": 5067,
      "Mar": 5068,
      "ĠDay": 5069,
      "CH": 5070,
      "raham": 5071,
      "Ġrequires": 5072,
      "ĠPal": 5073,
      "soever": 5074,
      "even": 5075,
      "Ġessential": 5076,
      "Ġmat": 5077,
      "gen": 5078,
      "Ġdoll": 5079,
      "Ġvert": 5080,
      "ĠTre": 5081,
      "Ġthro": 5082,
      "Ġfacult": 5083,
      "Ġsincere": 5084,
      "iform": 5085,
      "Ġhills": 5086,
      "Ġseparate": 5087,
      "Ġaffected": 5088,
      "Ġfo": 5089,
      "count": 5090,
      "acious": 5091,
      "isp": 5092,
      "ĠEst": 5093,
      "Ġintention": 5094,
      "Ġignorant": 5095,
      "ĠGen": 5096,
      "Ġcalls": 5097,
      "Ġvariety": 5098,
      "Ġsor": 5099,
      "Ġwhereby": 5100,
      "Ġgrief": 5101,
      "ĠSaints": 5102,
      "ari": 5103,
      "Ġterrit": 5104,
      "Ġsource": 5105,
      "Ġdestroyed": 5106,
      "Ġ50": 5107,
      "Ġentertain": 5108,
      "?'": 5109,
      "Ġkeen": 5110,
      "ĠHeb": 5111,
      "Ġprejud": 5112,
      "Ġparents": 5113,
      "Ġaim": 5114,
      "asant": 5115,
      "Ġcompanion": 5116,
      "anes": 5117,
      "Ġbal": 5118,
      "lle": 5119,
      "Ġchair": 5120,
      "Ġconnected": 5121,
      "--\"": 5122,
      "Ġhes": 5123,
      "ĠPo": 5124,
      "Ġguide": 5125,
      "ĠMil": 5126,
      "Ġgrass": 5127,
      "five": 5128,
      "ica": 5129,
      "Ġopinions": 5130,
      "ĠMore": 5131,
      "Ġrate": 5132,
      "ĠSaint": 5133,
      "ĠJews": 5134,
      "Ġinstrument": 5135,
      "Ġframe": 5136,
      "Ġchoice": 5137,
      "ĠTown": 5138,
      "ĠTom": 5139,
      "Ġstranger": 5140,
      "Ġabst": 5141,
      "Ġseldom": 5142,
      "Ġ35": 5143,
      "Ġric": 5144,
      "ĠRoyal": 5145,
      "Ġindustry": 5146,
      "enn": 5147,
      "Ġbrill": 5148,
      "Ġwhereof": 5149,
      "Ġlat": 5150,
      "49": 5151,
      "aug": 5152,
      "hington": 5153,
      "Ġholding": 5154,
      "Ġbrethren": 5155,
      "assion": 5156,
      "Ġcontempt": 5157,
      "otes": 5158,
      "ulse": 5159,
      "Ġforbid": 5160,
      "Ġdistinction": 5161,
      "Ġpopulation": 5162,
      "ĠIreland": 5163,
      "Ġshape": 5164,
      "Ġmoon": 5165,
      "ĠSy": 5166,
      "unday": 5167,
      "mar": 5168,
      "Ġadvice": 5169,
      "Ġmans": 5170,
      "aging": 5171,
      "ulate": 5172,
      "ĠMont": 5173,
      "Ġyellow": 5174,
      "jects": 5175,
      "Ġpressed": 5176,
      "ervation": 5177,
      "Ġstopped": 5178,
      "Ġfailed": 5179,
      "Ġhosp": 5180,
      "born": 5181,
      "ĠAlex": 5182,
      "ĠWell": 5183,
      "Ġsoldier": 5184,
      "Ġlament": 5185,
      "hus": 5186,
      "Ġbeside": 5187,
      "RO": 5188,
      "Ġmelanch": 5189,
      "necess": 5190,
      "itud": 5191,
      "Ġnav": 5192,
      "Ġseized": 5193,
      "Ġears": 5194,
      "Ġalter": 5195,
      "Ġpriest": 5196,
      "Ġtells": 5197,
      "Who": 5198,
      "Cor": 5199,
      "Ġcelebrated": 5200,
      "ĠProvidence": 5201,
      "eless": 5202,
      "ĠUnion": 5203,
      "Ġgroup": 5204,
      "Ġrespons": 5205,
      "ĠMany": 5206,
      "Ġcapacity": 5207,
      "Ġpropri": 5208,
      "Ġadmit": 5209,
      "Ġcreatures": 5210,
      "Ġdistress": 5211,
      "Ġafternoon": 5212,
      "Ġinstances": 5213,
      "Ġshalt": 5214,
      "Ġsentence": 5215,
      "ette": 5216,
      "Ġinterrupt": 5217,
      "Ġshel": 5218,
      "Ġtu": 5219,
      "Ġorn": 5220,
      "Ġrevealed": 5221,
      "iency": 5222,
      "Ġchamber": 5223,
      "avery": 5224,
      "ico": 5225,
      "nds": 5226,
      "umin": 5227,
      "made": 5228,
      "Ġneglect": 5229,
      "Ġmyst": 5230,
      "Le": 5231,
      "gments": 5232,
      "Ġgained": 5233,
      "Ġadvent": 5234,
      "ĠEdward": 5235,
      "back": 5236,
      "vo": 5237,
      "Ġpartly": 5238,
      "ĠSun": 5239,
      "Ġcontrast": 5240,
      "ĠIndia": 5241,
      "ĠPeace": 5242,
      "arn": 5243,
      "ollowing": 5244,
      "Ġsurprise": 5245,
      "Ġextended": 5246,
      "Ġsalvation": 5247,
      "ĠBur": 5248,
      "hension": 5249,
      "Ġho": 5250,
      "icism": 5251,
      "ĠEmp": 5252,
      "IG": 5253,
      "Ġapply": 5254,
      "Ġclosed": 5255,
      "ĠChurches": 5256,
      "Ġtestimony": 5257,
      "Ġvictory": 5258,
      "Ġtemp": 5259,
      "ora": 5260,
      ",*[^": 5261,
      "rave": 5262,
      "Ġmurm": 5263,
      "rous": 5264,
      "bu": 5265,
      "burg": 5266,
      "Ġlately": 5267,
      "ĠSan": 5268,
      "Ġmagnificent": 5269,
      "Ġfil": 5270,
      "Ġslave": 5271,
      "Ġelect": 5272,
      "ĠCreat": 5273,
      "Ġsecured": 5274,
      "ĠEr": 5275,
      "ĠCompany": 5276,
      "Ġaddressed": 5277,
      "Ġenduring": 5278,
      "ĠIts": 5279,
      "ront": 5280,
      "abin": 5281,
      "Ġagreeable": 5282,
      "ĠJan": 5283,
      "Ġfriendship": 5284,
      "Ġsolid": 5285,
      "rived": 5286,
      "Sc": 5287,
      "Ġcarrying": 5288,
      "Ġconstantly": 5289,
      "Ġpopul": 5290,
      "rec": 5291,
      "umption": 5292,
      "Ġaccident": 5293,
      "rim": 5294,
      "Ġwonderful": 5295,
      "Ġlegal": 5296,
      "equ": 5297,
      "ignation": 5298,
      "ĠIrish": 5299,
      "orted": 5300,
      "ĠHum": 5301,
      "Ġaspect": 5302,
      "Ġinterpret": 5303,
      "Ġfill": 5304,
      "idel": 5305,
      "Ġpity": 5306,
      "Ġpropos": 5307,
      "Ġpictures": 5308,
      "Ġkill": 5309,
      "Ġsuccessful": 5310,
      "Ġclergy": 5311,
      "Ġfloor": 5312,
      "ĠBer": 5313,
      "Ġtreatment": 5314,
      "Ġsky": 5315,
      "ĠÎ": 5316,
      "acob": 5317,
      "Ġconnection": 5318,
      "Ġrelie": 5319,
      "Ġenl": 5320,
      "ements": 5321,
      "Ġcorner": 5322,
      "Ġanticip": 5323,
      "AD": 5324,
      "Ġash": 5325,
      "mission": 5326,
      "ĠScotland": 5327,
      "Ġdy": 5328,
      "hib": 5329,
      "wy": 5330,
      "ĠItaly": 5331,
      "anim": 5332,
      "Ġskin": 5333,
      "Ġintent": 5334,
      "Ġcountries": 5335,
      "Ġconviction": 5336,
      "supp": 5337,
      "Ġreality": 5338,
      "ĠChildren": 5339,
      "Ġdig": 5340,
      "ato": 5341,
      "Ġunion": 5342,
      "irs": 5343,
      "add": 5344,
      "iture": 5345,
      "ĠÃł": 5346,
      "Ġfierce": 5347,
      "ĠLu": 5348,
      "Ġerror": 5349,
      "Ġabroad": 5350,
      "Ġjoined": 5351,
      "ĠJune": 5352,
      "Ġpreviously": 5353,
      "Ġdesir": 5354,
      "Ġcarriage": 5355,
      "water": 5356,
      "Ġeffic": 5357,
      "Ġactually": 5358,
      "Ġdegrees": 5359,
      "Ġseed": 5360,
      "Ġmonarch": 5361,
      "Ġfeatures": 5362,
      "Ġdespair": 5363,
      "Ġgriev": 5364,
      "Ġarticle": 5365,
      "Ġcreated": 5366,
      "ĠEuropean": 5367,
      "ĠYour": 5368,
      "Ġexactly": 5369,
      "Ġmarry": 5370,
      "jected": 5371,
      "ĠTwo": 5372,
      "hum": 5373,
      "Ġsubsequent": 5374,
      "Ġ185": 5375,
      "held": 5376,
      "Ġacquainted": 5377,
      "Ġstarted": 5378,
      "adv": 5379,
      "Ġends": 5380,
      "wr": 5381,
      "Ġreported": 5382,
      "ĠCa": 5383,
      "Ġconsult": 5384,
      "Ġdescend": 5385,
      "Ġdoctor": 5386,
      "Ġhurt": 5387,
      "iel": 5388,
      "Ġfright": 5389,
      "atus": 5390,
      "ienced": 5391,
      "Ġhabits": 5392,
      "Ġgrowth": 5393,
      "Ġtrain": 5394,
      "ĠThou": 5395,
      "Ġaccustomed": 5396,
      "vest": 5397,
      "inces": 5398,
      "Ġarchite": 5399,
      "Ġconfirm": 5400,
      "owne": 5401,
      "Ġpa": 5402,
      "Ġwhereas": 5403,
      "Ġring": 5404,
      "Ġhunt": 5405,
      "Ġexamination": 5406,
      "Ġpatri": 5407,
      "oph": 5408,
      "Ġgro": 5409,
      "Ġregion": 5410,
      "inst": 5411,
      "utenant": 5412,
      "Ġthrone": 5413,
      "Ġspite": 5414,
      "Ġdying": 5415,
      "Ġcounter": 5416,
      "Ġempt": 5417,
      "Ġfly": 5418,
      "Ġplainly": 5419,
      "Ġtur": 5420,
      "Ġecon": 5421,
      "Ġsquare": 5422,
      "Ġsooner": 5423,
      "ĠOct": 5424,
      "wor": 5425,
      "Ġpreserved": 5426,
      "Ġrough": 5427,
      "Ġ187": 5428,
      "Ãª": 5429,
      "Ġpossibly": 5430,
      "Ġtho": 5431,
      "Ġoperation": 5432,
      "ĠCommission": 5433,
      "Ġforgotten": 5434,
      "Ġvenerable": 5435,
      "Ġinches": 5436,
      "anny": 5437,
      "Ġconcerned": 5438,
      "ĠWhich": 5439,
      "Ġevidently": 5440,
      "bro": 5441,
      "acters": 5442,
      "ĠJuly": 5443,
      "Ġclo": 5444,
      "ĠMinister": 5445,
      "esides": 5446,
      "ses": 5447,
      "icit": 5448,
      "Ġmanners": 5449,
      "Ġclasses": 5450,
      "fall": 5451,
      "Ġfatal": 5452,
      "Ġmyster": 5453,
      "Ġthrew": 5454,
      "Ġnovel": 5455,
      "Ġ37": 5456,
      "rament": 5457,
      "Ġimagination": 5458,
      "Ġcup": 5459,
      "ĠAfric": 5460,
      "Ġburst": 5461,
      "seen": 5462,
      "met": 5463,
      "through": 5464,
      "ula": 5465,
      "Ġsympathy": 5466,
      "Ġrocks": 5467,
      "Ġarticles": 5468,
      "Ġlog": 5469,
      "Ġviolence": 5470,
      "ĠCovenant": 5471,
      "Ġbringing": 5472,
      "ino": 5473,
      "ifice": 5474,
      "aved": 5475,
      "iest": 5476,
      "Ġgate": 5477,
      "âĸ": 5478,
      "Ġfarm": 5479,
      "Ġbox": 5480,
      "Ġbranches": 5481,
      "ller": 5482,
      "tense": 5483,
      "Ġpointed": 5484,
      "Ġplants": 5485,
      "may": 5486,
      "Ġgradually": 5487,
      "morrow": 5488,
      "Ġgenuine": 5489,
      "Ġsalt": 5490,
      "rian": 5491,
      "Ġreduced": 5492,
      "Ġpurposes": 5493,
      "Ġfinished": 5494,
      "Ġinher": 5495,
      "ĠCommon": 5496,
      "Ġdiff": 5497,
      "ik": 5498,
      "eding": 5499,
      "Ġsetting": 5500,
      "Ġimpression": 5501,
      "Ġbore": 5502,
      "Ġimagine": 5503,
      "ĠBapt": 5504,
      "Ġperfection": 5505,
      "Ġintelligence": 5506,
      "ada": 5507,
      "Ġjoin": 5508,
      "Ġarrest": 5509,
      "ĠSecond": 5510,
      "ĠSept": 5511,
      "Ġsupported": 5512,
      "Ġlevel": 5513,
      "Ġpapers": 5514,
      "Ġdevelopment": 5515,
      "Äģ": 5516,
      "ĠName": 5517,
      "Ġconcern": 5518,
      "Ġbecoming": 5519,
      "Ġexception": 5520,
      "Ġannoun": 5521,
      "Ġdemanded": 5522,
      "Ġshout": 5523,
      "Ġseries": 5524,
      "ram": 5525,
      "Ġfee": 5526,
      "Ġburning": 5527,
      "Ġtrib": 5528,
      "Pl": 5529,
      "ĠJustice": 5530,
      "Ġkindness": 5531,
      "pent": 5532,
      "Ġacknowledge": 5533,
      "'re": 5534,
      "Ġsuspic": 5535,
      "ĠVol": 5536,
      "mir": 5537,
      "âĸª": 5538,
      "Ġabsolutely": 5539,
      "hor": 5540,
      "Ġcompanions": 5541,
      "Ġknight": 5542,
      "Ġvisited": 5543,
      "ris": 5544,
      "Ġhitherto": 5545,
      "ĠMem": 5546,
      "Ġfalling": 5547,
      "Ġfreely": 5548,
      "Ġeloqu": 5549,
      "Ġdreadful": 5550,
      "Ġprofit": 5551,
      "Ġfer": 5552,
      "Ġfields": 5553,
      "shire": 5554,
      "urrection": 5555,
      "emy": 5556,
      "Ġprayers": 5557,
      "Ġiii": 5558,
      "happy": 5559,
      "Ġhyp": 5560,
      "Ġremaining": 5561,
      "Ġaware": 5562,
      "Ġconsequently": 5563,
      "Ġetern": 5564,
      "Ġ**": 5565,
      "Ġacquaintance": 5566,
      "gged": 5567,
      "Ġofficial": 5568,
      "van": 5569,
      "Ġprobable": 5570,
      "Ġreadily": 5571,
      "Ġdiscer": 5572,
      "Ġsublime": 5573,
      "Ġpatience": 5574,
      "Ġstrongly": 5575,
      "Ġcompared": 5576,
      "Ġlust": 5577,
      "Ġcompet": 5578,
      "Ġstriking": 5579,
      "Ġexternal": 5580,
      "Ġmarket": 5581,
      "Ġcrim": 5582,
      "course": 5583,
      "Ġinform": 5584,
      "Ġdate": 5585,
      "Ġsym": 5586,
      "Ġignorance": 5587,
      "80": 5588,
      "Ġnotion": 5589,
      "himself": 5590,
      "ĠThose": 5591,
      "ĠChristianity": 5592,
      "greg": 5593,
      "Ġdeparture": 5594,
      "Ġdisappoint": 5595,
      "ĠMess": 5596,
      "Ġvision": 5597,
      "Ġmoments": 5598,
      "Ġreference": 5599,
      "Ġtheory": 5600,
      "Ġcommonly": 5601,
      "Ġcentre": 5602,
      "Ġaffections": 5603,
      "ĠBritain": 5604,
      "Ġbelonging": 5605,
      "ĠDavid": 5606,
      "Ġchanges": 5607,
      "Ġalleg": 5608,
      "Ġwrath": 5609,
      "Ġrecoll": 5610,
      "Ġcontemplation": 5611,
      "Ġremind": 5612,
      "Ġborne": 5613,
      "Ġverse": 5614,
      "abeth": 5615,
      "inking": 5616,
      "Ġvital": 5617,
      "Ġinstruction": 5618,
      "ĠLeg": 5619,
      "Ġarose": 5620,
      "acon": 5621,
      "Ġweary": 5622,
      "Ed": 5623,
      "Ġfurnished": 5624,
      "udge": 5625,
      "Ġmisery": 5626,
      "Ġband": 5627,
      "Ġfounded": 5628,
      "ĠSim": 5629,
      "Tis": 5630,
      "Ġingen": 5631,
      "Ġsimpl": 5632,
      "Our": 5633,
      "ushing": 5634,
      "Ġcrime": 5635,
      "Ġflow": 5636,
      "Ġenthus": 5637,
      "Ġtheatre": 5638,
      "ĠTime": 5639,
      "Ġcommunity": 5640,
      "31": 5641,
      "ÃŃ": 5642,
      "ĠApp": 5643,
      "ĠMinisters": 5644,
      "Ġworst": 5645,
      "Ġmiserable": 5646,
      "Ġeleg": 5647,
      "uthors": 5648,
      "iate": 5649,
      "Ġstro": 5650,
      "ua": 5651,
      "Ġalarm": 5652,
      "Ġphilosophy": 5653,
      "iden": 5654,
      "32": 5655,
      "nation": 5656,
      "mosp": 5657,
      "ĠBill": 5658,
      "Ġmistake": 5659,
      "ĠHall": 5660,
      "Ġtall": 5661,
      "itz": 5662,
      "ĠPerson": 5663,
      "Ġmortal": 5664,
      "Î½": 5665,
      "Ġchall": 5666,
      "rate": 5667,
      "Ġadministration": 5668,
      "Ġresist": 5669,
      "ĠSer": 5670,
      "Ġalive": 5671,
      "Ġdifficulties": 5672,
      "ĠGOD": 5673,
      "ĠDuring": 5674,
      "Ġtwice": 5675,
      "ĠPop": 5676,
      "orable": 5677,
      "Ġdish": 5678,
      "Ġpill": 5679,
      "Ġmart": 5680,
      "Ġcircumstance": 5681,
      "!'": 5682,
      "oles": 5683,
      "Ġmultitude": 5684,
      "Ġharm": 5685,
      "lement": 5686,
      "Ġinternal": 5687,
      "Ġgolden": 5688,
      "Ġfundament": 5689,
      "ĠCountry": 5690,
      "Ġcell": 5691,
      "AND": 5692,
      "Ġrapidly": 5693,
      "ĠWashington": 5694,
      "ĠCH": 5695,
      "Ġgirls": 5696,
      "Ġgift": 5697,
      "Ġfifteen": 5698,
      "Ġcharged": 5699,
      "Ġsev": 5700,
      "Ġtail": 5701,
      "found": 5702,
      "Ġliqu": 5703,
      "Ġtide": 5704,
      "Ġblessing": 5705,
      "Ġhandsome": 5706,
      "ulars": 5707,
      "44": 5708,
      "ana": 5709,
      "izabeth": 5710,
      "Cl": 5711,
      "ĠReason": 5712,
      "Ġvo": 5713,
      "Ġdiscovery": 5714,
      "Ġavail": 5715,
      "ĠRichard": 5716,
      "aign": 5717,
      "Ġbegun": 5718,
      "Ġdivision": 5719,
      "Ġconfined": 5720,
      "aning": 5721,
      "Ġenergy": 5722,
      "Ġthrow": 5723,
      "Ġputting": 5724,
      "Ġoccasions": 5725,
      "Ã¤": 5726,
      "ober": 5727,
      "Ġunited": 5728,
      "thought": 5729,
      "Ġfamilies": 5730,
      "Ġcompletely": 5731,
      "Ġwound": 5732,
      "Ġ66": 5733,
      "ta": 5734,
      "Ġvolunt": 5735,
      "Ġcities": 5736,
      "ertained": 5737,
      "Ġaffirm": 5738,
      "Per": 5739,
      "orum": 5740,
      "Ġderived": 5741,
      "Ġmode": 5742,
      "Ġexha": 5743,
      "aly": 5744,
      "Ġfemale": 5745,
      "olation": 5746,
      "Ġloose": 5747,
      "Ġservices": 5748,
      "Ġtouching": 5749,
      "Ġliterature": 5750,
      "=,": 5751,
      "ications": 5752,
      "Ġbind": 5753,
      "ĠMass": 5754,
      "Ġvic": 5755,
      "Ġreckon": 5756,
      "Ġjealous": 5757,
      "Ġapt": 5758,
      "Ġexposed": 5759,
      "ĠGovernor": 5760,
      "cientific": 5761,
      "Ġqualities": 5762,
      "atively": 5763,
      "Ġentrance": 5764,
      "ĠWater": 5765,
      "force": 5766,
      "English": 5767,
      "Ġpow": 5768,
      "Ġgrown": 5769,
      "amil": 5770,
      "Ġwoods": 5771,
      "Ġpromises": 5772,
      "onder": 5773,
      "ste": 5774,
      "ĠCatholic": 5775,
      "ĠPhilip": 5776,
      "omb": 5777,
      "Ġbos": 5778,
      "Ġinev": 5779,
      "ĠDu": 5780,
      "mond": 5781,
      "Ġgracious": 5782,
      "Ġmelancholy": 5783,
      "Ġcomplex": 5784,
      "ĠId": 5785,
      "Ġcounty": 5786,
      "Ġconstru": 5787,
      "lasting": 5788,
      "Mrs": 5789,
      "Ġsober": 5790,
      "ĠFranc": 5791,
      "Ġgenerous": 5792,
      "Ġpour": 5793,
      "Ġflight": 5794,
      "Ġslaves": 5795,
      "Ġinnocent": 5796,
      "igious": 5797,
      "Ah": 5798,
      "Ġhappen": 5799,
      "ĠBre": 5800,
      "Ġbrown": 5801,
      "Ġschools": 5802,
      "Ġhoped": 5803,
      "Ġintense": 5804,
      "ĠPap": 5805,
      "Ġunable": 5806,
      "Ġaccounts": 5807,
      "Ġkinds": 5808,
      "rag": 5809,
      "Ġ39": 5810,
      "Ġprophe": 5811,
      "Ġwriters": 5812,
      "Ġming": 5813,
      "Ġspectacle": 5814,
      "Ġwand": 5815,
      "Ġactual": 5816,
      "Ġaccordingly": 5817,
      "IST": 5818,
      "idents": 5819,
      "ĠBen": 5820,
      "natural": 5821,
      "Ġhumanity": 5822,
      "Ġspecim": 5823,
      "ĠLight": 5824,
      "60": 5825,
      "Ġproceedings": 5826,
      "ĠGentle": 5827,
      "uity": 5828,
      "Ġinherent": 5829,
      "must": 5830,
      "requ": 5831,
      "ctrines": 5832,
      "Ġconclude": 5833,
      "Ġident": 5834,
      "cho": 5835,
      "ĠBible": 5836,
      "Ġroof": 5837,
      "Ġelements": 5838,
      "othe": 5839,
      "Ġunex": 5840,
      "Ġalt": 5841,
      "Ġmajority": 5842,
      "Par": 5843,
      "Ġshows": 5844,
      "ĠRec": 5845,
      "ĠGhost": 5846,
      "Ġinward": 5847,
      "bour": 5848,
      "ĠCam": 5849,
      "agg": 5850,
      "Ġabsurd": 5851,
      "Ġcontrad": 5852,
      "ipped": 5853,
      "icable": 5854,
      "ĠChe": 5855,
      "dist": 5856,
      "Ġprinted": 5857,
      "Ġuns": 5858,
      "mighty": 5859,
      "ria": 5860,
      "Ġsensible": 5861,
      "iii": 5862,
      "Ġqueen": 5863,
      "Ġrefuse": 5864,
      "Ġamidst": 5865,
      "Ġimpress": 5866,
      "Ġprisoner": 5867,
      "Ġsurre": 5868,
      "Ġdelay": 5869,
      "Ġtowns": 5870,
      "Ġperceive": 5871,
      "seless": 5872,
      "iber": 5873,
      "Ġ38": 5874,
      "Ġprisoners": 5875,
      "itch": 5876,
      "Ġlimited": 5877,
      "ieur": 5878,
      "Ġcondu": 5879,
      "iosity": 5880,
      "Ġcloth": 5881,
      "Ġrules": 5882,
      "ĠRed": 5883,
      "Ġclosely": 5884,
      "Ġdisappe": 5885,
      "Ġflat": 5886,
      "Ġens": 5887,
      "quisite": 5888,
      "ORD": 5889,
      "Ġscri": 5890,
      "Ġgame": 5891,
      "ĠJudge": 5892,
      "ustrious": 5893,
      "som": 5894,
      "ĠArmy": 5895,
      "achment": 5896,
      "three": 5897,
      "Ġcommit": 5898,
      "Ġreputation": 5899,
      "Ġban": 5900,
      "Ġeuer": 5901,
      "ĠApril": 5902,
      "istent": 5903,
      "ĠSunday": 5904,
      "ĠObs": 5905,
      "Ġengine": 5906,
      "Ġflower": 5907,
      "cket": 5908,
      "]*": 5909,
      "ige": 5910,
      "ĠPsal": 5911,
      "Ġ:": 5912,
      "Ġconfusion": 5913,
      "iated": 5914,
      "oral": 5915,
      "worthy": 5916,
      "Ġcens": 5917,
      "aming": 5918,
      ";\"": 5919,
      "Ġaffair": 5920,
      "Rom": 5921,
      "ĠMadame": 5922,
      "cr": 5923,
      "Ġpreserve": 5924,
      "ĠHistory": 5925,
      "Ġuniform": 5926,
      "Ġinsp": 5927,
      "Ġvex": 5928,
      "Ġgloom": 5929,
      "Ġincluding": 5930,
      "Ġneeded": 5931,
      "enses": 5932,
      "aret": 5933,
      "Ġreflect": 5934,
      "Ġchurches": 5935,
      "rap": 5936,
      "iche": 5937,
      "Ġ31": 5938,
      "ID": 5939,
      "Ġprosperity": 5940,
      "ciples": 5941,
      "ds": 5942,
      "Ġwants": 5943,
      "Ġbid": 5944,
      "inesse": 5945,
      "Ġferv": 5946,
      "Ġsubstant": 5947,
      "ustice": 5948,
      "bing": 5949,
      "Ġpermit": 5950,
      "Se": 5951,
      "Ġpassions": 5952,
      "ky": 5953,
      "Ġappropri": 5954,
      "wers": 5955,
      "Ġroot": 5956,
      "Ġsmo": 5957,
      "rer": 5958,
      "Ġlux": 5959,
      "Ġdesperate": 5960,
      "Ġqui": 5961,
      "Ġassembled": 5962,
      "ribute": 5963,
      "ĠLie": 5964,
      "Don": 5965,
      "Ġliterary": 5966,
      "ĠAng": 5967,
      "Ġworldly": 5968,
      "hend": 5969,
      "uen": 5970,
      "Ġbull": 5971,
      "Ġarise": 5972,
      "Ġburied": 5973,
      "Ġadmiration": 5974,
      "Ġsecurity": 5975,
      "Ġwelcome": 5976,
      "ache": 5977,
      "Ġdismiss": 5978,
      "itute": 5979,
      "ousin": 5980,
      "Ġperman": 5981,
      "Ġhistorical": 5982,
      "ĠWal": 5983,
      "Ġdesires": 5984,
      "Ġbranch": 5985,
      "Ġoft": 5986,
      "erving": 5987,
      "abled": 5988,
      "Ġministers": 5989,
      "Ġfaces": 5990,
      "Ġcouncil": 5991,
      "ircum": 5992,
      "ĠFrank": 5993,
      "Ġsoule": 5994,
      "Ġweakness": 5995,
      "ĠTemple": 5996,
      "ĠMal": 5997,
      "wixt": 5998,
      "oston": 5999,
      "Ġatmosp": 6000,
      "idenote": 6001,
      "ĠDem": 6002,
      "ĠSmith": 6003,
      "Ġegg": 6004,
      "Ġma": 6005,
      "Ġangry": 6006,
      "Sidenote": 6007,
      "See": 6008,
      "Ġunfortunate": 6009,
      "ĠSom": 6010,
      "charge": 6011,
      "Ġther": 6012,
      "Ġpronounce": 6013,
      "war": 6014,
      "Ġthanks": 6015,
      "Ġjustly": 6016,
      "Ġspecul": 6017,
      "Ġphr": 6018,
      "Ġchapter": 6019,
      "Ġacted": 6020,
      "empor": 6021,
      "Ġarmed": 6022,
      "Î±": 6023,
      "Ġaccur": 6024,
      "lesse": 6025,
      "ĠAlthough": 6026,
      "Ġsurrounded": 6027,
      "ĠDoctor": 6028,
      "ifull": 6029,
      "Ġtouched": 6030,
      "akers": 6031,
      "ĠDep": 6032,
      "Ġinquiry": 6033,
      "Ġreceiving": 6034,
      "piration": 6035,
      "Ġvel": 6036,
      "ĠIsland": 6037,
      "Ġappeal": 6038,
      "ĠVen": 6039,
      "iece": 6040,
      "Ġoccasionally": 6041,
      "Ġkings": 6042,
      "Ġestablishment": 6043,
      "cond": 6044,
      "suffic": 6045,
      "Ġextremely": 6046,
      "interest": 6047,
      "Ġinvolved": 6048,
      "vis": 6049,
      "Ġbanks": 6050,
      "Ġemer": 6051,
      "Ġthread": 6052,
      "Ġcatch": 6053,
      "ĠMark": 6054,
      "cest": 6055,
      "idable": 6056,
      "Ġmedic": 6057,
      "Ġcontract": 6058,
      "Ġdull": 6059,
      "Sec": 6060,
      "ĠHad": 6061,
      "agon": 6062,
      "Ġbell": 6063,
      "Ġdecree": 6064,
      "ĠLaws": 6065,
      "Some": 6066,
      "Ġreflection": 6067,
      "Ġgods": 6068,
      "Un": 6069,
      "Ġben": 6070,
      "Ġshal": 6071,
      "ĠGrand": 6072,
      "New": 6073,
      "mat": 6074,
      "Ġsuit": 6075,
      "mo": 6076,
      "ĠMo": 6077,
      "Ġdrun": 6078,
      "Ġesteem": 6079,
      "Ġrad": 6080,
      "Ġxx": 6081,
      "ĠCond": 6082,
      "Ġscattered": 6083,
      "Ġcircle": 6084,
      "Ġcondemned": 6085,
      "Ġuncertain": 6086,
      "etch": 6087,
      "Ġpalace": 6088,
      "Ġdollars": 6089,
      "Ġoath": 6090,
      "avour": 6091,
      "va": 6092,
      "Ġmental": 6093,
      "ipe": 6094,
      "Ġdiscussion": 6095,
      "Ġelement": 6096,
      "Ġaforesaid": 6097,
      "Ġusing": 6098,
      "Ġcastle": 6099,
      "Ġrom": 6100,
      "Ġiv": 6101,
      "Ġvul": 6102,
      "Ġbegins": 6103,
      "Ġstern": 6104,
      "leep": 6105,
      "Ġapparently": 6106,
      "General": 6107,
      "Ġteeth": 6108,
      "looking": 6109,
      "Ġbew": 6110,
      "Ġwin": 6111,
      "Ġterror": 6112,
      "Ġattempted": 6113,
      "ĠGo": 6114,
      "Ġnatives": 6115,
      "Ġdisposed": 6116,
      "Ġordin": 6117,
      "gain": 6118,
      "ĠCommand": 6119,
      "ĠLatin": 6120,
      "ĠItalian": 6121,
      "ateful": 6122,
      "oper": 6123,
      "Char": 6124,
      "Ġsex": 6125,
      "ĠDisc": 6126,
      "Ġpopulace": 6127,
      "Ġtroubles": 6128,
      "Ġarrangement": 6129,
      "Ġdisturb": 6130,
      "Ġinfant": 6131,
      "Ġnoise": 6132,
      "Ġcommittee": 6133,
      "Ġacknowledged": 6134,
      "ĠCap": 6135,
      "Ġexplan": 6136,
      "ĠCur": 6137,
      "Ġhide": 6138,
      "Ġclaims": 6139,
      "*)": 6140,
      "Ġcontaining": 6141,
      "Ġdiscipline": 6142,
      "orship": 6143,
      "ĠProphet": 6144,
      "Ġlake": 6145,
      "Ġwishes": 6146,
      "wed": 6147,
      "Ġinclined": 6148,
      "Ġoffering": 6149,
      "Ġsuperst": 6150,
      "Ġexperienced": 6151,
      "Ġpotent": 6152,
      "Ġobservations": 6153,
      "Ġextensive": 6154,
      "Ġnecessarily": 6155,
      "Ġveget": 6156,
      "did": 6157,
      "Ġpil": 6158,
      "ĠSecret": 6159,
      "Ġescaped": 6160,
      "Ġshr": 6161,
      "ifies": 6162,
      "Ġburden": 6163,
      "cor": 6164,
      "Ġgrounds": 6165,
      "Your": 6166,
      "ĠRepublic": 6167,
      "allel": 6168,
      "Ġyours": 6169,
      "erson": 6170,
      "Ġreturning": 6171,
      "viz": 6172,
      "Ġthoroughly": 6173,
      "Ġthousands": 6174,
      "Ġhang": 6175,
      "Ġaccord": 6176,
      "ĠFig": 6177,
      "ĠJoseph": 6178,
      "Ġmeat": 6179,
      "Ġsorry": 6180,
      "GE": 6181,
      "ixture": 6182,
      "Ġexamine": 6183,
      "Ġappreci": 6184,
      "Æ²": 6185,
      "Ġexchange": 6186,
      "fle": 6187,
      "icular": 6188,
      "Ġmoving": 6189,
      "While": 6190,
      "Ġdeparted": 6191,
      "Ġwretched": 6192,
      "Ã´": 6193,
      "Ġfoolish": 6194,
      "Ġglance": 6195,
      "cap": 6196,
      "Ġprovisions": 6197,
      "icted": 6198,
      "mark": 6199,
      "ĠBell": 6200,
      "Ġexisting": 6201,
      "Ġsurprised": 6202,
      "King": 6203,
      "teenth": 6204,
      "Ġspo": 6205,
      "point": 6206,
      "illy": 6207,
      "terday": 6208,
      "Ġafforded": 6209,
      "Ġconceive": 6210,
      "Ġsorts": 6211,
      "ĠNat": 6212,
      "Ġtemple": 6213,
      "ĠAssem": 6214,
      "Ġreaders": 6215,
      "Ġexpedition": 6216,
      "ĠMex": 6217,
      "Ġfel": 6218,
      "ĠPersons": 6219,
      "Ġseeking": 6220,
      "ĠST": 6221,
      "aur": 6222,
      "Ġsucc": 6223,
      "Ġpoetry": 6224,
      "Ġprovide": 6225,
      "Ġtap": 6226,
      "sur": 6227,
      "Ġpoison": 6228,
      "fessor": 6229,
      "itious": 6230,
      "ermon": 6231,
      "atisf": 6232,
      "Ġedge": 6233,
      "edly": 6234,
      "shall": 6235,
      "aus": 6236,
      "Ġimage": 6237,
      "Ġwil": 6238,
      "Ġdisplay": 6239,
      "Ġventure": 6240,
      "Î¿": 6241,
      "Ġendure": 6242,
      "Ġattached": 6243,
      "Ġconfirmed": 6244,
      "Ġvigour": 6245,
      "Ġeuery": 6246,
      "Ġremo": 6247,
      "Ġamuse": 6248,
      "Ġstandard": 6249,
      "Ġsacrific": 6250,
      "itudes": 6251,
      "Ġalike": 6252,
      "mind": 6253,
      "Ġcontinually": 6254,
      "ĠAmong": 6255,
      "Ġengage": 6256,
      "del": 6257,
      "ĠStr": 6258,
      "Ġwalking": 6259,
      "henomen": 6260,
      "agues": 6261,
      "ashed": 6262,
      "Ġcontains": 6263,
      "ĠNation": 6264,
      "Ġdeeper": 6265,
      "odd": 6266,
      "Ġearlier": 6267,
      "Ġphilosoph": 6268,
      "Ġpack": 6269,
      "key": 6270,
      "Ġcontrol": 6271,
      "ĠSl": 6272,
      "Ġsigns": 6273,
      "Ġreferred": 6274,
      "Ġcro": 6275,
      "salm": 6276,
      "Ġcharacters": 6277,
      "ĠBecause": 6278,
      "Ġrelated": 6279,
      "Ġaccomplished": 6280,
      "Ġsigh": 6281,
      "Ġsen": 6282,
      "ĠHonour": 6283,
      "Ġexplained": 6284,
      "ĠNever": 6285,
      "Ġrealm": 6286,
      "AY": 6287,
      "onsieur": 6288,
      "Ġdepos": 6289,
      "obe": 6290,
      "Ġbarbar": 6291,
      "Nor": 6292,
      "ĠHead": 6293,
      "itled": 6294,
      "tw": 6295,
      "Ġtoler": 6296,
      "Ġconvinced": 6297,
      "Ġcord": 6298,
      "Ġsheep": 6299,
      "Ġdrive": 6300,
      "Ġnay": 6301,
      "ĠGermany": 6302,
      "Ġchoose": 6303,
      "Ġformidable": 6304,
      "ÏĦ": 6305,
      "itement": 6306,
      "pic": 6307,
      "Ġceased": 6308,
      "ĠWhite": 6309,
      "pres": 6310,
      "ĠIV": 6311,
      "Ġcease": 6312,
      "inally": 6313,
      "iven": 6314,
      "fty": 6315,
      "rary": 6316,
      "Ġbeloved": 6317,
      "Ġsituated": 6318,
      "Ġ...": 6319,
      "Ġensu": 6320,
      "ĠRem": 6321,
      "Ġ179": 6322,
      "En": 6323,
      "Ġard": 6324,
      "cast": 6325,
      "Ġpossesses": 6326,
      "down": 6327,
      "Ġresistance": 6328,
      "Ġdur": 6329,
      "Ġpreceding": 6330,
      "Ġclam": 6331,
      "liness": 6332,
      "abor": 6333,
      "Ġmanaged": 6334,
      "ĠGold": 6335,
      "Ġ45": 6336,
      "Ġopposed": 6337,
      "ĠPrinces": 6338,
      "ocked": 6339,
      "Ġreasonable": 6340,
      "yes": 6341,
      "Ġexplain": 6342,
      "Ġinfl": 6343,
      "Ġissued": 6344,
      "isher": 6345,
      "Ġprem": 6346,
      "ieth": 6347,
      "41": 6348,
      "Ġlib": 6349,
      "Ġmilk": 6350,
      "bishop": 6351,
      "cape": 6352,
      "aue": 6353,
      "Ġpair": 6354,
      "Ġsavage": 6355,
      "raction": 6356,
      "Ġbrain": 6357,
      "asted": 6358,
      "ĠHel": 6359,
      "Ġteaching": 6360,
      "Ġloue": 6361,
      "eries": 6362,
      "Ġcharity": 6363,
      "mes": 6364,
      "Ġsteady": 6365,
      "ĠScott": 6366,
      "Ġice": 6367,
      "Ġneuer": 6368,
      "sever": 6369,
      "icians": 6370,
      "ĠDan": 6371,
      "Ġhy": 6372,
      "Ġdram": 6373,
      "ĠProtestant": 6374,
      "Ġseparated": 6375,
      "bru": 6376,
      "ĠMother": 6377,
      "Ġmurder": 6378,
      "Ġlot": 6379,
      "42": 6380,
      "Ġz": 6381,
      "Ġclim": 6382,
      "arrison": 6383,
      "Ġrecently": 6384,
      "reason": 6385,
      "Ġanger": 6386,
      "going": 6387,
      "Ġtendency": 6388,
      "ĠWood": 6389,
      "ĠTrans": 6390,
      "usive": 6391,
      "Ġdetails": 6392,
      "ĠTestament": 6393,
      "ules": 6394,
      "Tr": 6395,
      "ydd": 6396,
      "aughed": 6397,
      "Ġbrings": 6398,
      "uris": 6399,
      "Ġcow": 6400,
      "Ġmodest": 6401,
      "Ġmajesty": 6402,
      "Col": 6403,
      "Ġseated": 6404,
      "ĠFathers": 6405,
      "Ġ>": 6406,
      "Ġreform": 6407,
      "Ġpiety": 6408,
      "London": 6409,
      "book": 6410,
      "Ġrestored": 6411,
      "Ġpup": 6412,
      "ĠYes": 6413,
      "Ġexcited": 6414,
      "Ġmile": 6415,
      "Ġdoc": 6416,
      "kins": 6417,
      "Ġnearer": 6418,
      "Ġouer": 6419,
      "Ġrevolution": 6420,
      "ĠBay": 6421,
      "reek": 6422,
      "Such": 6423,
      "usions": 6424,
      "Ġfathers": 6425,
      "wa": 6426,
      "Ġscientific": 6427,
      "Ġsubsequently": 6428,
      "Ġimpr": 6429,
      "ground": 6430,
      "Ġunw": 6431,
      "ulations": 6432,
      "Ġleads": 6433,
      "Ġthinks": 6434,
      "ĠEmpire": 6435,
      "Ġbuy": 6436,
      "Ġimpart": 6437,
      "exp": 6438,
      "Ġfeare": 6439,
      "Ġpause": 6440,
      "friend": 6441,
      "Ġsplendid": 6442,
      "ĠMajor": 6443,
      "ciences": 6444,
      "Ġremedy": 6445,
      "Ġocean": 6446,
      "Ġended": 6447,
      "Ġtrying": 6448,
      "Ġcher": 6449,
      "Ġamend": 6450,
      "ovember": 6451,
      "ients": 6452,
      "Ġtransport": 6453,
      "Ġtroubled": 6454,
      "SE": 6455,
      "non": 6456,
      "Ġheare": 6457,
      "Ġenjoyed": 6458,
      "turn": 6459,
      "Ġsteep": 6460,
      "âĢķ": 6461,
      "Ġapost": 6462,
      "estry": 6463,
      "Ġestim": 6464,
      "asures": 6465,
      "called": 6466,
      "Ġempire": 6467,
      "Ġapproached": 6468,
      "Ġadvantages": 6469,
      "Ġrent": 6470,
      "assad": 6471,
      "Ġhal": 6472,
      "Ġwhatsoever": 6473,
      "Ġstrike": 6474,
      "Ġfled": 6475,
      "Ġfolly": 6476,
      "ĠCastle": 6477,
      "Phil": 6478,
      "ĠUnder": 6479,
      "Ġcopy": 6480,
      "pended": 6481,
      "Ġclothes": 6482,
      "Ġcontain": 6483,
      "iculous": 6484,
      "Ġsmaller": 6485,
      "belie": 6486,
      "pture": 6487,
      "ĠArg": 6488,
      "Ġattract": 6489,
      "75": 6490,
      "inus": 6491,
      "Ġgravity": 6492,
      "Ġelection": 6493,
      "Ġgovernor": 6494,
      "don": 6495,
      "Ġsuggests": 6496,
      "Ġcultivated": 6497,
      "abbath": 6498,
      "Ġsixty": 6499,
      "70": 6500,
      "Ġdesigned": 6501,
      "aughters": 6502,
      "Ġtreaty": 6503,
      "pite": 6504,
      "Ġencoun": 6505,
      "Ġbelee": 6506,
      "Ġgrim": 6507,
      "unning": 6508,
      "uers": 6509,
      "cember": 6510,
      "Ġdominion": 6511,
      "ulp": 6512,
      "Ġimmort": 6513,
      "Ġsupre": 6514,
      "Ġglor": 6515,
      "ensions": 6516,
      "Ġexquisite": 6517,
      "Ġincon": 6518,
      "Ġwings": 6519,
      "Ġpassages": 6520,
      "Ġcommenced": 6521,
      "mother": 6522,
      "ĠAnn": 6523,
      "eling": 6524,
      "First": 6525,
      "ailed": 6526,
      "Ġsphere": 6527,
      "Ġmeasured": 6528,
      "ker": 6529,
      "Ġsurv": 6530,
      "Ġoperations": 6531,
      "Br": 6532,
      "necessary": 6533,
      "adel": 6534,
      "ĠSol": 6535,
      "Ġextrem": 6536,
      "Ġinstinct": 6537,
      "ĠMac": 6538,
      "eral": 6539,
      "Ġstatement": 6540,
      "Ġinstantly": 6541,
      "Ġcuriosity": 6542,
      "Ġcollection": 6543,
      "Ġfan": 6544,
      "Ġplayed": 6545,
      "Ġprecip": 6546,
      "ribution": 6547,
      "Ġcolor": 6548,
      "took": 6549,
      "Ġfame": 6550,
      "ĠHence": 6551,
      "Ġserves": 6552,
      "Ġbetwixt": 6553,
      "ĠBishops": 6554,
      "oused": 6555,
      "LI": 6556,
      "Ġtempest": 6557,
      "Ġcure": 6558,
      "Ġimpat": 6559,
      "Ġremarks": 6560,
      "Ġexcuse": 6561,
      "orial": 6562,
      "Ġod": 6563,
      "arse": 6564,
      "istle": 6565,
      "ĠVal": 6566,
      "Ġdevil": 6567,
      "Ġbul": 6568,
      "selues": 6569,
      "itors": 6570,
      "Ġvirtues": 6571,
      "Ġsuitable": 6572,
      "lers": 6573,
      "Ġremove": 6574,
      "Ġtradition": 6575,
      "ĠConsequently": 6576,
      "ĠStreet": 6577,
      "Ġallowing": 6578,
      "Ġgifts": 6579,
      "oleon": 6580,
      "Ġtelling": 6581,
      "Ġtale": 6582,
      "Ġscr": 6583,
      "Indeed": 6584,
      "Ġanxiety": 6585,
      "amation": 6586,
      "Ġox": 6587,
      "ĠGal": 6588,
      "Ġoffers": 6589,
      "43": 6590,
      "Ġflo": 6591,
      "Ġpages": 6592,
      "ader": 6593,
      "Ġfors": 6594,
      "Ġpains": 6595,
      ");": 6596,
      "Ġtea": 6597,
      "Ġimprovement": 6598,
      "Ġembrace": 6599,
      "Ġtribes": 6600,
      "ini": 6601,
      "osure": 6602,
      "Ġcrossed": 6603,
      "Ġurged": 6604,
      "Ġles": 6605,
      "ifications": 6606,
      "Ġconsidering": 6607,
      "agn": 6608,
      "Ġvigorous": 6609,
      "ĠLy": 6610,
      "Ġlegs": 6611,
      "iary": 6612,
      "Ġagaine": 6613,
      "ommod": 6614,
      "Ġlovely": 6615,
      "ĠNap": 6616,
      "David": 6617,
      "Ġacid": 6618,
      "encies": 6619,
      "Ġnoticed": 6620,
      "Ġstore": 6621,
      "Ġatmosphere": 6622,
      "stru": 6623,
      "vy": 6624,
      "ĠTri": 6625,
      "Ġability": 6626,
      "Ġheavenly": 6627,
      "Ġnamely": 6628,
      "Ġprovision": 6629,
      "Ġexpense": 6630,
      "burgh": 6631,
      "ĠCommons": 6632,
      "omach": 6633,
      "otton": 6634,
      "Ġgratitude": 6635,
      "Ġwindows": 6636,
      "ĠDoctrine": 6637,
      "ĠOx": 6638,
      "Ġgoodness": 6639,
      "ĠHeart": 6640,
      "eur": 6641,
      "Ġpressure": 6642,
      "ĠCommittee": 6643,
      "armed": 6644,
      "Ġ188": 6645,
      "ocation": 6646,
      "arly": 6647,
      "Ġsumm": 6648,
      "ĠIll": 6649,
      "Ġfruits": 6650,
      "Ġsolely": 6651,
      "cclesiastical": 6652,
      "Ġretired": 6653,
      "Ġfalls": 6654,
      "Ġclouds": 6655,
      "Ġquietly": 6656,
      "Ġhell": 6657,
      "Ġbab": 6658,
      "Ġpleasing": 6659,
      "velation": 6660,
      "Ġalas": 6661,
      "Ġnorthern": 6662,
      "arian": 6663,
      "elf": 6664,
      "ĠBlack": 6665,
      "opp": 6666,
      "55": 6667,
      "Ġerected": 6668,
      "olat": 6669,
      "Ġremembered": 6670,
      "Ġwed": 6671,
      "Ġtalking": 6672,
      "Ġsentiments": 6673,
      "ĠTen": 6674,
      "Ġpunish": 6675,
      "Ġmistress": 6676,
      "Ġdowne": 6677,
      "urely": 6678,
      "Ġholds": 6679,
      "Ġindependent": 6680,
      "Ġ{": 6681,
      "Ġbosom": 6682,
      "conf": 6683,
      "oking": 6684,
      "mas": 6685,
      "ĠCard": 6686,
      "regular": 6687,
      "life": 6688,
      "Ġinse": 6689,
      "Ġremarked": 6690,
      "Ġarts": 6691,
      "Ġpetition": 6692,
      "Ġsmooth": 6693,
      "ĠBrother": 6694,
      "Ġattain": 6695,
      "astic": 6696,
      "Ġsem": 6697,
      "Ġdressed": 6698,
      "Ġsell": 6699,
      "bor": 6700,
      "Ġ32": 6701,
      "Ġdayes": 6702,
      "arious": 6703,
      "quire": 6704,
      "Ġslavery": 6705,
      "Ġsurrounding": 6706,
      "Ġbrilliant": 6707,
      "RI": 6708,
      "ĠIsa": 6709,
      "Ġheau": 6710,
      "Ġfeared": 6711,
      "Ġbent": 6712,
      "vious": 6713,
      "Ġlaughed": 6714,
      "Ġhereafter": 6715,
      "Ġconsists": 6716,
      "Ġassembly": 6717,
      "Ġphenomen": 6718,
      "Ġrele": 6719,
      "Ġbones": 6720,
      "Ġfought": 6721,
      "Ġvoyage": 6722,
      "Ġsmoke": 6723,
      "Ġ180": 6724,
      "ĠMus": 6725,
      "Can": 6726,
      "ref": 6727,
      "Ġdiam": 6728,
      "Ġconsequences": 6729,
      "Ġflag": 6730,
      "Rome": 6731,
      "Ġcommunication": 6732,
      "Ġdecision": 6733,
      "Ġrecognized": 6734,
      "Ġpan": 6735,
      "cible": 6736,
      "udd": 6737,
      "Me": 6738,
      "uts": 6739,
      "Ġpainted": 6740,
      "ca": 6741,
      ",[": 6742,
      "Ġbeast": 6743,
      "ĠUnivers": 6744,
      ".;": 6745,
      "Ġsche": 6746,
      ".=": 6747,
      "irect": 6748,
      "Ġinstitution": 6749,
      "ĠXX": 6750,
      "utable": 6751,
      "Ġconducted": 6752,
      "Ġweap": 6753,
      "Ġarguments": 6754,
      "wealth": 6755,
      "Ġperpetual": 6756,
      "ĠBlood": 6757,
      "Ġrepose": 6758,
      "Ġmild": 6759,
      "ATION": 6760,
      "Ġexamined": 6761,
      "Ġkindly": 6762,
      "Ġempty": 6763,
      "Ġdwelling": 6764,
      "Ġmixed": 6765,
      "mus": 6766,
      "rows": 6767,
      "OW": 6768,
      "bridge": 6769,
      "Mat": 6770,
      "ĠOffic": 6771,
      "ĠOctober": 6772,
      "aks": 6773,
      "Ġpoore": 6774,
      "Ġinstitutions": 6775,
      "Ġshoot": 6776,
      "Ġshowing": 6777,
      "Ġsuspicion": 6778,
      "EM": 6779,
      "Ġrejo": 6780,
      "Ġesteemed": 6781,
      "Ġpriests": 6782,
      "Ġassumed": 6783,
      "Ġbay": 6784,
      "people": 6785,
      "Ġanch": 6786,
      "ĠOrder": 6787,
      "cur": 6788,
      "lim": 6789,
      "Ġhousehold": 6790,
      "66": 6791,
      "Ġcomparison": 6792,
      "Ġacquired": 6793,
      "sey": 6794,
      "Ġpursued": 6795,
      "Ġresidence": 6796,
      "za": 6797,
      "Ġsettlement": 6798,
      "enger": 6799,
      "Ġlic": 6800,
      "ficial": 6801,
      "actory": 6802,
      "Ġprint": 6803,
      "Ġpossessing": 6804,
      "Ġbridge": 6805,
      "ante": 6806,
      "Ġfix": 6807,
      "ĠFer": 6808,
      "ĠBoston": 6809,
      "ĠDec": 6810,
      "ĠConstitution": 6811,
      "olit": 6812,
      "ĠPle": 6813,
      "orter": 6814,
      "Ġpier": 6815,
      "Ġexperiment": 6816,
      "aned": 6817,
      "Ġunfold": 6818,
      "ena": 6819,
      "whel": 6820,
      "Ġwanting": 6821,
      "Ġreports": 6822,
      "amily": 6823,
      "Ġunhappy": 6824,
      "ĠHol": 6825,
      "Ġhidden": 6826,
      "Ġcaval": 6827,
      "Ġcler": 6828,
      "Ġarranged": 6829,
      "ĠAff": 6830,
      "serv": 6831,
      "beg": 6832,
      "blem": 6833,
      "iege": 6834,
      "Ġsubmit": 6835,
      "Ġcontend": 6836,
      "wick": 6837,
      "Ġprevented": 6838,
      "Ġexecuted": 6839,
      "fee": 6840,
      "Ġmagistr": 6841,
      "reement": 6842,
      "rait": 6843,
      "Ġrebell": 6844,
      "Ġprovince": 6845,
      "aun": 6846,
      "Ġdefect": 6847,
      "Ġstars": 6848,
      "Ġdespite": 6849,
      "Ġintim": 6850,
      "ĠAuthority": 6851,
      "ĠBesides": 6852,
      "Ġwatched": 6853,
      "Ġmale": 6854,
      "Ġislands": 6855,
      "Ġdebate": 6856,
      "Ġultimate": 6857,
      "Ġours": 6858,
      "cel": 6859,
      "Ġdawn": 6860,
      "Ġinferior": 6861,
      "disc": 6862,
      "Ġhate": 6863,
      "hon": 6864,
      "Ġshoulders": 6865,
      "!--": 6866,
      "Ġdidn": 6867,
      "Ġconstruction": 6868,
      "VI": 6869,
      "Ġincident": 6870,
      "Ġoil": 6871,
      "uting": 6872,
      "Ġsupreme": 6873,
      "Ġwarrant": 6874,
      "Ġedifice": 6875,
      "Ġadvoc": 6876,
      "Ġperformance": 6877,
      "bus": 6878,
      "Ġscenes": 6879,
      "ĠOther": 6880,
      "Ġcollected": 6881,
      "ĠDutch": 6882,
      "Ġvit": 6883,
      "ĠNay": 6884,
      "Ġincluded": 6885,
      "Ġmethods": 6886,
      "Ġelsewhere": 6887,
      "Ġexamples": 6888,
      "Ne": 6889,
      ":-": 6890,
      "omer": 6891,
      "Ġprepare": 6892,
      "Ġrequis": 6893,
      "many": 6894,
      "ĠChrists": 6895,
      "Ġadapt": 6896,
      "Ġfriendly": 6897,
      "Ġdoctrines": 6898,
      "power": 6899,
      "Ã³": 6900,
      "Ġultimately": 6901,
      "Ġtype": 6902,
      "rors": 6903,
      "mor": 6904,
      "Ġemotion": 6905,
      "master": 6906,
      "Ġchronic": 6907,
      "Thou": 6908,
      "Ġpurchase": 6909,
      "iveness": 6910,
      "Ġfold": 6911,
      "Ġauthorities": 6912,
      "Ġunjust": 6913,
      "ĠSil": 6914,
      "plex": 6915,
      "Ġthemselues": 6916,
      "Ġstret": 6917,
      "Ġdenied": 6918,
      "Ġcattle": 6919,
      "ĠSeptember": 6920,
      "Ġdoors": 6921,
      "bruary": 6922,
      "Ġbenevol": 6923,
      "Ġguns": 6924,
      "Ġviz": 6925,
      "Ġmedical": 6926,
      "Ġloyal": 6927,
      "ĠElizabeth": 6928,
      "post": 6929,
      "ĠGra": 6930,
      "Ġsteadfast": 6931,
      "lem": 6932,
      "ties": 6933,
      "unction": 6934,
      "Ġapproaching": 6935,
      "Ġgeneration": 6936,
      "uther": 6937,
      "Ġpainful": 6938,
      "Ġvice": 6939,
      "Ġdiligent": 6940,
      "Ġwy": 6941,
      "Ġabsor": 6942,
      "Ġimperfect": 6943,
      "urbed": 6944,
      "Ġrou": 6945,
      "orders": 6946,
      "ĠPur": 6947,
      "Ġguilt": 6948,
      "ĠSchool": 6949,
      "Ġyards": 6950,
      "oo": 6951,
      "Ġlisten": 6952,
      "90": 6953,
      "Ġaccompany": 6954,
      "Ġadmirable": 6955,
      "Ġcrew": 6956,
      "engers": 6957,
      "inging": 6958,
      "Ġspark": 6959,
      "Ġbreakfast": 6960,
      "Ġbestowed": 6961,
      "inf": 6962,
      "olland": 6963,
      "ĠCorn": 6964,
      "Ġmistaken": 6965,
      "ĠAlmighty": 6966,
      "ĠOp": 6967,
      "line": 6968,
      "Ġapprehension": 6969,
      "Ġcreation": 6970,
      "ero": 6971,
      "andy": 6972,
      "ĠMoses": 6973,
      "Ġfare": 6974,
      "ountain": 6975,
      "Ġpious": 6976,
      "ciet": 6977,
      "French": 6978,
      "Ġchap": 6979,
      "Ġsees": 6980,
      "Ġregiment": 6981,
      "asy": 6982,
      "stant": 6983,
      "against": 6984,
      "Ġmutual": 6985,
      "ifference": 6986,
      "Ġgent": 6987,
      "ago": 6988,
      "Ġdeclaration": 6989,
      "Ġresour": 6990,
      "Ġoffence": 6991,
      "Ġbreaking": 6992,
      "Ġgay": 6993,
      "Ġsympt": 6994,
      "Ġidle": 6995,
      "Ġworked": 6996,
      "Ġyr": 6997,
      "Ġsummon": 6998,
      "Ġcomfortable": 6999,
      "nothing": 7000,
      "Ġindifferent": 7001,
      "Ġpreach": 7002,
      "Ġfurnish": 7003,
      "ĠSabbath": 7004,
      "ĠOffice": 7005,
      "istence": 7006,
      "Ġterritory": 7007,
      "76": 7008,
      "chants": 7009,
      "leness": 7010,
      "Ġsuccession": 7011,
      "Â°": 7012,
      "wind": 7013,
      "Ġcel": 7014,
      "Ġexcitement": 7015,
      "ipt": 7016,
      "Ġsinnes": 7017,
      "apel": 7018,
      "UM": 7019,
      "Ġyounger": 7020,
      "Ġwaste": 7021,
      "Ġconsec": 7022,
      "ĠCent": 7023,
      "fortune": 7024,
      "ography": 7025,
      "ricult": 7026,
      "ignant": 7027,
      "ĠBefore": 7028,
      "Ġcentral": 7029,
      "Ġparticulars": 7030,
      "Ġaver": 7031,
      "onsider": 7032,
      "ĠTim": 7033,
      "Ġprior": 7034,
      "Ġinterior": 7035,
      "Ġrude": 7036,
      "iae": 7037,
      "idelity": 7038,
      "Ġ100": 7039,
      "Fr": 7040,
      "May": 7041,
      "Ġhurried": 7042,
      "Ġembra": 7043,
      "Ġmovements": 7044,
      "Ġwritings": 7045,
      "Ġlofty": 7046,
      "Ġau": 7047,
      "Ġfingers": 7048,
      "Ġrepublic": 7049,
      "Ġshared": 7050,
      "Ġrespects": 7051,
      "Ġtestament": 7052,
      "Ġcustoms": 7053,
      "unto": 7054,
      "ĠCat": 7055,
      "acted": 7056,
      "Ġ178": 7057,
      "illa": 7058,
      "Ġdescended": 7059,
      "Ġmeanes": 7060,
      "Ġeminent": 7061,
      "Ġadj": 7062,
      "Ġmasters": 7063,
      "Ġtyp": 7064,
      "erness": 7065,
      "Ġsugar": 7066,
      "Ġspend": 7067,
      "Ġassault": 7068,
      "intend": 7069,
      "ERS": 7070,
      "ĠImp": 7071,
      "Ġcontest": 7072,
      "Ġconceived": 7073,
      "rier": 7074,
      "ĠAustri": 7075,
      "arded": 7076,
      "Ġyee": 7077,
      "same": 7078,
      "six": 7079,
      "olution": 7080,
      "vi": 7081,
      "yer": 7082,
      "Ġpleasures": 7083,
      "Ġloving": 7084,
      "Ġdoubtless": 7085,
      "Ġlibr": 7086,
      "cending": 7087,
      "Ġwinds": 7088,
      "alty": 7089,
      "resse": 7090,
      "Ġacting": 7091,
      "Ġdispute": 7092,
      "Ġprod": 7093,
      "Ġenlight": 7094,
      "Ġcenturies": 7095,
      "Ġconvenient": 7096,
      "Ġrecover": 7097,
      "aph": 7098,
      "Ġpenet": 7099,
      "Ġcabin": 7100,
      "pher": 7101,
      "ĠÂ£": 7102,
      "ĠMarg": 7103,
      "Ġfears": 7104,
      "lla": 7105,
      "Ġfundamental": 7106,
      "Ġthunder": 7107,
      "present": 7108,
      "Ġvolumes": 7109,
      "rive": 7110,
      "Ġfairly": 7111,
      "Ġworn": 7112,
      "Ġeuen": 7113,
      "Ġunus": 7114,
      "Ġquarters": 7115,
      "blance": 7116,
      "Ġcommercial": 7117,
      "Ġlandscape": 7118,
      "ael": 7119,
      "Ġboats": 7120,
      "Ġsupper": 7121,
      "Ġornament": 7122,
      "Ġshewed": 7123,
      "Ġlover": 7124,
      "agger": 7125,
      "78": 7126,
      "ĠJerusalem": 7127,
      "ĠAre": 7128,
      "liction": 7129,
      "Ġassurance": 7130,
      "Ġheed": 7131,
      "ĠTra": 7132,
      "otions": 7133,
      "Ġexceedingly": 7134,
      "Ġrage": 7135,
      "Ġpreaching": 7136,
      "Ġcertainty": 7137,
      "gence": 7138,
      "angel": 7139,
      "Ġavo": 7140,
      "ĠAtt": 7141,
      "ĠLibert": 7142,
      "ails": 7143,
      "Ġparish": 7144,
      "Ġlargely": 7145,
      "Ġdisplayed": 7146,
      "56": 7147,
      "Ġmystery": 7148,
      "Ġovercome": 7149,
      "ĠÂ§": 7150,
      "Ġnaked": 7151,
      "Ġcontinent": 7152,
      "Ġcoat": 7153,
      "Ġparliament": 7154,
      "Ġwaited": 7155,
      "win": 7156,
      "ĠGlory": 7157,
      "Ġrarely": 7158,
      "itations": 7159,
      "Ġvac": 7160,
      "ĠBeing": 7161,
      "AP": 7162,
      "ĠSum": 7163,
      "otic": 7164,
      "Ġcultivation": 7165,
      "poss": 7166,
      "pled": 7167,
      "ĠWrit": 7168,
      "Ġdrop": 7169,
      "58": 7170,
      "Ġpag": 7171,
      "ieties": 7172,
      "Ġcandid": 7173,
      "Ġscheme": 7174,
      "Ġtreasure": 7175,
      "Ġpublick": 7176,
      "Ġrisk": 7177,
      "Ġtapestry": 7178,
      "ĠShould": 7179,
      "Ant": 7180,
      "Ġinterested": 7181,
      "Ġgovernance": 7182,
      "ĠSenate": 7183,
      "Ġadvers": 7184,
      "Ġachieve": 7185,
      "Ġinstruments": 7186,
      "Ġsenses": 7187,
      "59": 7188,
      "uming": 7189,
      "Ġrighteousness": 7190,
      "Ġfert": 7191,
      "retion": 7192,
      "ouch": 7193,
      "Ġattempts": 7194,
      "Ġomn": 7195,
      "Ġformal": 7196,
      "Ġcorrespondence": 7197,
      "Ġharsh": 7198,
      "Ġbon": 7199,
      "Ġunexpected": 7200,
      "Ġexplanation": 7201,
      "Ġentitled": 7202,
      "ĠMind": 7203,
      "Ġobjection": 7204,
      "Ġpap": 7205,
      "eting": 7206,
      "Ġafterward": 7207,
      "Ġreverence": 7208,
      "Ġbatt": 7209,
      "ĠGent": 7210,
      "Ġabsent": 7211,
      "Ġvse": 7212,
      "Ġlimits": 7213,
      "Ġdetermine": 7214,
      "Ġinsult": 7215,
      "Ġbought": 7216,
      "ĠTer": 7217,
      "Ġnob": 7218,
      "ĠMid": 7219,
      "El": 7220,
      "Ġthither": 7221,
      "because": 7222,
      "ĠAns": 7223,
      "Ġspare": 7224,
      "Ġdischarge": 7225,
      "ighed": 7226,
      "Ġgently": 7227,
      "Ġpreached": 7228,
      "Dr": 7229,
      "tery": 7230,
      "Ġmaterials": 7231,
      "Ġcongreg": 7232,
      "France": 7233,
      "ĠAh": 7234,
      "ĠLong": 7235,
      "ifting": 7236,
      "Ġimprison": 7237,
      "inement": 7238,
      "country": 7239,
      "Ġawa": 7240,
      "aying": 7241,
      "ĠHell": 7242,
      "inks": 7243,
      "Ġstronger": 7244,
      "Ġelder": 7245,
      "iasm": 7246,
      "Ġrival": 7247,
      "illery": 7248,
      "cludes": 7249,
      "Ġkey": 7250,
      "ĠWhether": 7251,
      "take": 7252,
      "Ġrange": 7253,
      "Ġwhispered": 7254,
      "Ġmessage": 7255,
      "79": 7256,
      "erted": 7257,
      "Ġengagement": 7258,
      "ĠCounty": 7259,
      "Ġpatron": 7260,
      "aws": 7261,
      "Ġbears": 7262,
      "ĠActs": 7263,
      "Ġdisple": 7264,
      "Ġobserving": 7265,
      "ĠFour": 7266,
      "ĠSacrament": 7267,
      "Ġaccum": 7268,
      "Ġrooms": 7269,
      "Ge": 7270,
      "erity": 7271,
      "inence": 7272,
      "omet": 7273,
      "Ġactivity": 7274,
      "Ġcharacteristic": 7275,
      "UL": 7276,
      "Ġinner": 7277,
      "Ġproceeding": 7278,
      "romise": 7279,
      "Ġsustained": 7280,
      "ĠHaving": 7281,
      "Ġwithdraw": 7282,
      "Ġrecovered": 7283,
      "Ġbusy": 7284,
      "inese": 7285,
      "quar": 7286,
      "Ġvanity": 7287,
      "Ġ*(": 7288,
      "Ġowing": 7289,
      "Ġturns": 7290,
      "Ġvote": 7291,
      "inated": 7292,
      "Ġprosec": 7293,
      "ĠJanuary": 7294,
      "ĠMur": 7295,
      "ĠAnother": 7296,
      "Ġmixture": 7297,
      "Ġabol": 7298,
      "Ġ48": 7299,
      "Ġconj": 7300,
      "gs": 7301,
      "Ġplenty": 7302,
      "Ġrum": 7303,
      "Ġscru": 7304,
      "Ġju": 7305,
      "Come": 7306,
      "Ġbount": 7307,
      "Ġresolve": 7308,
      "UT": 7309,
      "Ġperish": 7310,
      "Ġyesterday": 7311,
      "Ġagricult": 7312,
      "Ġsupplied": 7313,
      "omon": 7314,
      "Ph": 7315,
      "Ġfoc": 7316,
      "Ġbeasts": 7317,
      "ĠAssembly": 7318,
      "bear": 7319,
      "ogue": 7320,
      "Ġmarks": 7321,
      "CE": 7322,
      "Ġtrace": 7323,
      "Ġinjury": 7324,
      "Ġideal": 7325,
      "Ġgrasp": 7326,
      "Ġphysician": 7327,
      "quiet": 7328,
      "Ġ33": 7329,
      "Ġexpectation": 7330,
      "Ġminor": 7331,
      "annel": 7332,
      "Ġrelative": 7333,
      "Ġbot": 7334,
      "Ġintimate": 7335,
      "Ġchose": 7336,
      "Ġascend": 7337,
      "Ġpocket": 7338,
      "ĠNapoleon": 7339,
      "ĠJul": 7340,
      "half": 7341,
      "ĠPass": 7342,
      "mouth": 7343,
      "Ġclimate": 7344,
      "lets": 7345,
      "Ġenorm": 7346,
      "ĠFore": 7347,
      "Ġcolon": 7348,
      "Ġvaried": 7349,
      "Ġpick": 7350,
      "ĠMel": 7351,
      "Ġaccess": 7352,
      "urisd": 7353,
      "ictions": 7354,
      "ois": 7355,
      "Ġhaz": 7356,
      "Bl": 7357,
      "ĠPhilosop": 7358,
      "Ġsection": 7359,
      "Ġpert": 7360,
      "resses": 7361,
      "ĠLetter": 7362,
      "atur": 7363,
      "ĠVict": 7364,
      "ĠBab": 7365,
      "ĠConsider": 7366,
      "Ġtotal": 7367,
      "Ġcorruption": 7368,
      "ĠPost": 7369,
      "Î¹": 7370,
      "Ġpu": 7371,
      "thur": 7372,
      "Ġinex": 7373,
      "Ġprocure": 7374,
      "Ġplate": 7375,
      "arding": 7376,
      "another": 7377,
      "Ġpreparation": 7378,
      "Ġcousin": 7379,
      "Ġincreasing": 7380,
      "Ġelevated": 7381,
      "Ġauthors": 7382,
      "dem": 7383,
      "ĠSatan": 7384,
      "Ġpretended": 7385,
      "*[^": 7386,
      "gest": 7387,
      "Ġfortunes": 7388,
      "union": 7389,
      "epe": 7390,
      "Ġrecorded": 7391,
      "Ġnour": 7392,
      "Ġdischar": 7393,
      "Ġexisted": 7394,
      "Ġnevertheless": 7395,
      "Ġshade": 7396,
      "Ġcomposition": 7397,
      "icating": 7398,
      "ĠNovember": 7399,
      "Ġwore": 7400,
      "vin": 7401,
      "Ġasking": 7402,
      "Ġoverwhel": 7403,
      "icall": 7404,
      "Ġolder": 7405,
      "ĠSur": 7406,
      "eks": 7407,
      "spirit": 7408,
      "Ġride": 7409,
      "urious": 7410,
      "ensation": 7411,
      "ĠSecretary": 7412,
      "Ġbuildings": 7413,
      "Ġexhibited": 7414,
      "ervous": 7415,
      "Ġfighting": 7416,
      "Ġwaves": 7417,
      "Ġcourts": 7418,
      "Ġinherit": 7419,
      "Ġnur": 7420,
      "Ġforming": 7421,
      "sch": 7422,
      "Ġcurt": 7423,
      "Ġrode": 7424,
      "Ġoun": 7425,
      "Ġshoulder": 7426,
      "Ġsuggesting": 7427,
      "ĠPhys": 7428,
      "ĠBra": 7429,
      "ths": 7430,
      "Peter": 7431,
      "ĠDid": 7432,
      "ĠAngels": 7433,
      "ĠSher": 7434,
      "Ġaudience": 7435,
      "volution": 7436,
      "Ġshores": 7437,
      "Ġhollow": 7438,
      "love": 7439,
      "Good": 7440,
      "Ġax": 7441,
      "Ġcommands": 7442,
      "--_": 7443,
      "Ġemployment": 7444,
      "Miss": 7445,
      "Ġcommunion": 7446,
      "iall": 7447,
      "Ġprinces": 7448,
      "ĠAdd": 7449,
      "ellow": 7450,
      "Ġearnestly": 7451,
      "cession": 7452,
      "Ġassure": 7453,
      "esu": 7454,
      "ĠPriest": 7455,
      "Ġgiue": 7456,
      "ĠFred": 7457,
      "ĠPrayer": 7458,
      "Ġbree": 7459,
      "Ġinvited": 7460,
      "erest": 7461,
      "sight": 7462,
      "Ġscorn": 7463,
      "Ġenabled": 7464,
      "Ġpatter": 7465,
      "version": 7466,
      "ĠCamp": 7467,
      "chen": 7468,
      "Ġadmire": 7469,
      "Ġlifted": 7470,
      "William": 7471,
      "atched": 7472,
      "ships": 7473,
      "pur": 7474,
      "Ġchem": 7475,
      "aniards": 7476,
      "Second": 7477,
      "ambers": 7478,
      "emption": 7479,
      "ĠSince": 7480,
      "Ġnegot": 7481,
      "Ġtranqu": 7482,
      "Ġsund": 7483,
      "rav": 7484,
      "Ġ60": 7485,
      "Ġpled": 7486,
      "Ġhoriz": 7487,
      "Ġabundance": 7488,
      "ĠWil": 7489,
      "Ġlamp": 7490,
      "cribe": 7491,
      "pell": 7492,
      "woman": 7493,
      "Ġlend": 7494,
      "Ġburnt": 7495,
      "ĠArab": 7496,
      "Ġflatter": 7497,
      "Ġswall": 7498,
      "Ġwestern": 7499,
      "Ġappet": 7500,
      "criptions": 7501,
      "Ġflu": 7502,
      "Ġancest": 7503,
      "Ġeverlasting": 7504,
      "brance": 7505,
      "Ġphilosophical": 7506,
      "ĠDecember": 7507,
      "Ġsinging": 7508,
      "aneous": 7509,
      "Ġstick": 7510,
      "Ġnice": 7511,
      "Ġwet": 7512,
      "ĠEnd": 7513,
      "acqu": 7514,
      "Ġgodly": 7515,
      "Ġrivers": 7516,
      "gover": 7517,
      "Ġcritical": 7518,
      "Ġbrothers": 7519,
      "idity": 7520,
      "ĠProfessor": 7521,
      "oys": 7522,
      "ĠPlace": 7523,
      "Ġsore": 7524,
      "Ġentering": 7525,
      "ioned": 7526,
      "Ġaltern": 7527,
      "Psal": 7528,
      "yard": 7529,
      "ĠTreat": 7530,
      "Ġashamed": 7531,
      "Ġmonument": 7532,
      "Ġnose": 7533,
      "Ġdrove": 7534,
      "Ġodd": 7535,
      "Ġhaste": 7536,
      "osity": 7537,
      "Ġguess": 7538,
      "Ġpositive": 7539,
      "ieu": 7540,
      "ĠVirginia": 7541,
      "Ġpossibility": 7542,
      "Ġgathering": 7543,
      "ulating": 7544,
      "Ġmillions": 7545,
      "Ġling": 7546,
      "ĠOb": 7547,
      "Ġreaching": 7548,
      "uns": 7549,
      "Ġgest": 7550,
      "Ġslightly": 7551,
      "Ġcommence": 7552,
      "Ġdiligence": 7553,
      "Ġthrust": 7554,
      "Ġá": 7555,
      "ĠAgain": 7556,
      "olate": 7557,
      "Ġobserver": 7558,
      "Ġbalance": 7559,
      "Ġseru": 7560,
      "Car": 7561,
      "ĠStat": 7562,
      "Ġbelieving": 7563,
      "Ġcampaign": 7564,
      "Ġshadows": 7565,
      "Ġscale": 7566,
      "Ġfailure": 7567,
      "Ġfaire": 7568,
      "Ġflame": 7569,
      "Ġdistinguish": 7570,
      "Ġjudicious": 7571,
      "Ġneglected": 7572,
      "Ġwhenever": 7573,
      "Ġsounds": 7574,
      "Ġarea": 7575,
      "ĠMc": 7576,
      "antage": 7577,
      "Ġ*[": 7578,
      "Ġintric": 7579,
      "Ġencl": 7580,
      "Â´": 7581,
      "Ġcott": 7582,
      "anted": 7583,
      "Ġ49": 7584,
      "Ġconfer": 7585,
      "Ġcareer": 7586,
      "Ġgle": 7587,
      "ĠGall": 7588,
      "ARD": 7589,
      "ĠAmb": 7590,
      "Ġrecollect": 7591,
      "Ġregions": 7592,
      "monies": 7593,
      "Ġmoderate": 7594,
      "cting": 7595,
      "ĠHill": 7596,
      "ĠKnight": 7597,
      "Ġbutter": 7598,
      "Ġstrangers": 7599,
      "ĠBless": 7600,
      "engeance": 7601,
      "olis": 7602,
      "obs": 7603,
      "Ġsubstantial": 7604,
      "Ġjoint": 7605,
      "Ġremote": 7606,
      "iences": 7607,
      "Ġtemporary": 7608,
      "Ġbelonged": 7609,
      "ĠPerhaps": 7610,
      "respect": 7611,
      "still": 7612,
      "Ġexists": 7613,
      "Ġlistened": 7614,
      "luence": 7615,
      "Ġdeed": 7616,
      "pes": 7617,
      "orus": 7618,
      "ctures": 7619,
      "69": 7620,
      "Ġlesse": 7621,
      "era": 7622,
      "Ġbelongs": 7623,
      "Ġpasse": 7624,
      "*,": 7625,
      "thy": 7626,
      "arden": 7627,
      "ĠGreen": 7628,
      "Ġtribe": 7629,
      "Ġdogs": 7630,
      "Ġshop": 7631,
      "Ġfirmly": 7632,
      "Ġshed": 7633,
      "ĠRomans": 7634,
      "Ġproves": 7635,
      "lessly": 7636,
      "itness": 7637,
      "Ġproject": 7638,
      "Ġdeveloped": 7639,
      "saith": 7640,
      "Ġdance": 7641,
      "Ġthinke": 7642,
      "Ġdelightful": 7643,
      "Ġfunction": 7644,
      "ĠRh": 7645,
      "Ġblame": 7646,
      "Ġflood": 7647,
      "Ġprohib": 7648,
      "Ġfeed": 7649,
      "Ġmerits": 7650,
      "emies": 7651,
      "Ġpover": 7652,
      "Ġhorror": 7653,
      "ĠBet": 7654,
      "Ġcharm": 7655,
      "ĠWork": 7656,
      "between": 7657,
      "izes": 7658,
      "Ġpronounced": 7659,
      "Ġshook": 7660,
      "Ġartist": 7661,
      "Ġsolution": 7662,
      "Ġcert": 7663,
      "Ġreb": 7664,
      "board": 7665,
      "Ġretire": 7666,
      "utive": 7667,
      "Ġbased": 7668,
      "Ġcaution": 7669,
      "Ġplans": 7670,
      "Ġinflict": 7671,
      "Ġcouple": 7672,
      "racy": 7673,
      "org": 7674,
      "orned": 7675,
      "ĠJacob": 7676,
      "Ġpermanent": 7677,
      "Ġriches": 7678,
      "ceived": 7679,
      "ington": 7680,
      "ĠChap": 7681,
      "rat": 7682,
      "Ġsolitary": 7683,
      "Ġsurvey": 7684,
      "question": 7685,
      "Ġrenewed": 7686,
      "spr": 7687,
      "Ġei": 7688,
      "Ġabandoned": 7689,
      "ĠNothing": 7690,
      "Ġpoverty": 7691,
      "Ġiust": 7692,
      "came": 7693,
      "Ġwont": 7694,
      "iscop": 7695,
      "axim": 7696,
      "ĠAlexander": 7697,
      "Ġuseless": 7698,
      "68": 7699,
      "77": 7700,
      "Ġvulgar": 7701,
      "aneously": 7702,
      "igns": 7703,
      "ĠLake": 7704,
      "Ġdozen": 7705,
      "Ġnewsp": 7706,
      "Ġimagined": 7707,
      "ĠNations": 7708,
      "Ġcas": 7709,
      "ĠThy": 7710,
      "Ġgates": 7711,
      "Ġessence": 7712,
      "quer": 7713,
      "Ġdre": 7714,
      "ĠAfrica": 7715,
      "Ġlively": 7716,
      "Jer": 7717,
      "Ġcum": 7718,
      "ĠFriends": 7719,
      "otted": 7720,
      "Ġbetr": 7721,
      "Ġdisag": 7722,
      "ĠBaron": 7723,
      "Ġundoubt": 7724,
      "dest": 7725,
      "Ġgoe": 7726,
      "ĠHebrew": 7727,
      "rain": 7728,
      "Ġaccommod": 7729,
      "ĠDom": 7730,
      "low": 7731,
      "Ġwarning": 7732,
      "Ġcries": 7733,
      "Ġtalked": 7734,
      "ĠâĢĻ": 7735,
      "aux": 7736,
      "iana": 7737,
      "ĠConv": 7738,
      "Ġpound": 7739,
      "Îµ": 7740,
      "Ġprotest": 7741,
      "Ġconceal": 7742,
      "Ġwal": 7743,
      "ĠCome": 7744,
      "Ġappar": 7745,
      "Ġdisgrace": 7746,
      "Ġinevitable": 7747,
      "grim": 7748,
      "Ġwing": 7749,
      "ĠBoth": 7750,
      "Ġven": 7751,
      "Ġfest": 7752,
      "Ġecho": 7753,
      "Ġcraft": 7754,
      "emper": 7755,
      "Ġcurrents": 7756,
      "Ġasserted": 7757,
      "Ġmak": 7758,
      "Ġ34": 7759,
      "Ġcontempor": 7760,
      "Ġexceeding": 7761,
      "ĠLike": 7762,
      "Ġsouthern": 7763,
      "Ġreception": 7764,
      "ĠCarol": 7765,
      "Ġmour": 7766,
      "Ġenable": 7767,
      "?âĢĻ": 7768,
      "bra": 7769,
      "Ġnegro": 7770,
      "Moses": 7771,
      "ums": 7772,
      "Ġharmony": 7773,
      "Ġfury": 7774,
      "eenth": 7775,
      "Ġknees": 7776,
      "Ġhatred": 7777,
      "Ġamaz": 7778,
      "Ġtent": 7779,
      "ocratic": 7780,
      "Ġfab": 7781,
      "Ġpayment": 7782,
      "Ġafflicted": 7783,
      "Ġheavens": 7784,
      "ĠTw": 7785,
      "ESS": 7786,
      "Ġpotential": 7787,
      "Ġdropped": 7788,
      "rained": 7789,
      "ĠCour": 7790,
      "Ġdeck": 7791,
      "Ġcharming": 7792,
      "ĠThree": 7793,
      "Ġleaders": 7794,
      "Ġdaughters": 7795,
      "general": 7796,
      "Ġrefuge": 7797,
      "Ġwitnessed": 7798,
      "forth": 7799,
      "orns": 7800,
      "Ġrespecting": 7801,
      "Ġsending": 7802,
      "ensity": 7803,
      "ĠChapter": 7804,
      "Ġinduced": 7805,
      "Ġthirst": 7806,
      "asses": 7807,
      "Ġrightly": 7808,
      "Ġsafely": 7809,
      "Ġtit": 7810,
      "Ġoffices": 7811,
      "sufficient": 7812,
      "Ġspeaker": 7813,
      "Ġartific": 7814,
      "Ġhuge": 7815,
      "coming": 7816,
      "Ġmounted": 7817,
      "oting": 7818,
      "Ġwidow": 7819,
      "yet": 7820,
      "po": 7821,
      "Ġtruths": 7822,
      "iron": 7823,
      "Ġsale": 7824,
      "Ġphrase": 7825,
      "urisdiction": 7826,
      "Ġvoices": 7827,
      "rying": 7828,
      "Ġsimplicity": 7829,
      "themselves": 7830,
      "Ãł": 7831,
      "Ġtumult": 7832,
      "Ġmischief": 7833,
      "Ġinterrupted": 7834,
      "Ġsuspect": 7835,
      "Ġstout": 7836,
      "ĠWords": 7837,
      "Ġfinde": 7838,
      "away": 7839,
      "ĠTH": 7840,
      "Ġclaimed": 7841,
      "Ġcha": 7842,
      "Ġaunt": 7843,
      "othed": 7844,
      "Ġconquer": 7845,
      "Ġcalam": 7846,
      "yng": 7847,
      "Ġeverywhere": 7848,
      "Ġsignal": 7849,
      "ĠEsq": 7850,
      "Ġimpulse": 7851,
      "Ġreview": 7852,
      "eight": 7853,
      "ura": 7854,
      "Ġrepentance": 7855,
      "ĠBon": 7856,
      ")*": 7857,
      "ĠExam": 7858,
      "Ġchain": 7859,
      "Å«": 7860,
      "having": 7861,
      "ese": 7862,
      "Ġfinest": 7863,
      "Ġrust": 7864,
      "Ġconcerns": 7865,
      "olic": 7866,
      "Ġrestore": 7867,
      "Ġconfession": 7868,
      "Ġtar": 7869,
      "Ġliberal": 7870,
      "Ġthreatened": 7871,
      "Ġranks": 7872,
      "Ġstories": 7873,
      "Ġgallant": 7874,
      "Ġverd": 7875,
      "Ġlaying": 7876,
      "Ġdrama": 7877,
      "Ġwilt": 7878,
      "usal": 7879,
      "ĠAdv": 7880,
      "Ġgospel": 7881,
      "Ġpurity": 7882,
      "Ġloves": 7883,
      "eps": 7884,
      "Ġcalculated": 7885,
      "Ġmerchant": 7886,
      "Ġtired": 7887,
      "ĠKnow": 7888,
      "iations": 7889,
      "Ġborrow": 7890,
      "iner": 7891,
      "Ġretain": 7892,
      "ĠConscience": 7893,
      "ounted": 7894,
      "rust": 7895,
      "ĠVI": 7896,
      "Ġdeeds": 7897,
      "Ġruns": 7898,
      "ĠMet": 7899,
      "abs": 7900,
      "Ġlesson": 7901,
      "astern": 7902,
      "ĠLetters": 7903,
      "Ġslain": 7904,
      "plom": 7905,
      "ĠDevil": 7906,
      "houses": 7907,
      "make": 7908,
      "Ġtract": 7909,
      "Ġdispos": 7910,
      "ĠRo": 7911,
      "zed": 7912,
      "Ġtrembling": 7913,
      "ĠChinese": 7914,
      "Ġstrain": 7915,
      "bation": 7916,
      "Ġedition": 7917,
      "Ġcard": 7918,
      "Ġbehalf": 7919,
      "Ġlawful": 7920,
      "Ġnin": 7921,
      "ĠDE": 7922,
      "success": 7923,
      "Ġrede": 7924,
      "pless": 7925,
      "Ġwrites": 7926,
      "offee": 7927,
      "ints": 7928,
      "Ġdiscont": 7929,
      "osh": 7930,
      "During": 7931,
      "Ġexercised": 7932,
      "Ġdirections": 7933,
      "Ġneat": 7934,
      "ĠDespite": 7935,
      "Ġcombined": 7936,
      "65": 7937,
      "Ġconcealed": 7938,
      "ĠBrown": 7939,
      "alling": 7940,
      "Ġaffliction": 7941,
      "Ġrear": 7942,
      "Ġagent": 7943,
      "ĠNight": 7944,
      "Ġjudic": 7945,
      "iot": 7946,
      "Ġmoist": 7947,
      "Ġwatching": 7948,
      "Ġhun": 7949,
      "rage": 7950,
      "ef": 7951,
      "Ġsufferings": 7952,
      "NE": 7953,
      "ĠHave": 7954,
      "Ġconsciousness": 7955,
      "west": 7956,
      "Ġsurrender": 7957,
      "Ġintegr": 7958,
      "aping": 7959,
      "ĠPark": 7960,
      "Ġaltar": 7961,
      "Ġforever": 7962,
      "Ġstim": 7963,
      "Ġbi": 7964,
      "thly": 7965,
      "inery": 7966,
      "ĠExec": 7967,
      "Ġunlike": 7968,
      "Ġleis": 7969,
      "rich": 7970,
      "uv": 7971,
      "Ġstomach": 7972,
      "uate": 7973,
      "Ġren": 7974,
      "ĠFebruary": 7975,
      "Ġuttered": 7976,
      "Ġinside": 7977,
      "ĠCase": 7978,
      "ican": 7979,
      "AB": 7980,
      "Ġdishon": 7981,
      "uously": 7982,
      "last": 7983,
      "Ġsi": 7984,
      "Ġlanded": 7985,
      "Ġmatch": 7986,
      "ĠIesus": 7987,
      "Ġcurse": 7988,
      "Ġfellows": 7989,
      "Ġperilous": 7990,
      "Ġirrit": 7991,
      "ĠPruss": 7992,
      "Ġyielded": 7993,
      "ELL": 7994,
      "Ġcoal": 7995,
      "inqu": 7996,
      "Ġcolony": 7997,
      "phia": 7998,
      "Ġpoem": 7999,
      "Ġwhisper": 8000,
      "Ġgrey": 8001,
      "Ġparallel": 8002,
      "Ġtrif": 8003,
      "text": 8004,
      "Ġpasses": 8005,
      "ĠHand": 8006,
      "Ġtort": 8007,
      "Ġshortly": 8008,
      "Ġfearful": 8009,
      "Christian": 8010,
      "Ġdrown": 8011,
      "Ġforgive": 8012,
      "Ġbark": 8013,
      "Ġeggs": 8014,
      "Ġ(?": 8015,
      "Ġjustified": 8016,
      "Ġcompleted": 8017,
      "Ġenthusiasm": 8018,
      "Ġaccused": 8019,
      "Ġworke": 8020,
      "Ġheauen": 8021,
      "Ġindependence": 8022,
      "lest": 8023,
      "ĠGener": 8024,
      "OP": 8025,
      "ĠDen": 8026,
      "Ġinstructions": 8027,
      "Ġmanagement": 8028,
      "onstr": 8029,
      "Church": 8030,
      "Ġtorment": 8031,
      "Ġrespond": 8032,
      "Ġped": 8033,
      "Ġbehav": 8034,
      "urred": 8035,
      "sw": 8036,
      "return": 8037,
      "Ġcorpor": 8038,
      "OND": 8039,
      "too": 8040,
      "Ġnervous": 8041,
      "Ġangel": 8042,
      "Ġdelighted": 8043,
      "Ġdiscerning": 8044,
      "ĠTy": 8045,
      "Ġrav": 8046,
      "Ġinquired": 8047,
      "Ġluck": 8048,
      "Ġdd": 8049,
      "ĠCape": 8050,
      "det": 8051,
      "Ġpowder": 8052,
      "Comm": 8053,
      "Ġattacked": 8054,
      "Ġgrandeur": 8055,
      "Ġindignation": 8056,
      "Ġprecisely": 8057,
      "ĠAust": 8058,
      "anwhile": 8059,
      "Ġdiscern": 8060,
      "ati": 8061,
      "Ġintroduction": 8062,
      "Ġwarri": 8063,
      "llers": 8064,
      "Ġwillingly": 8065,
      "Ġbrow": 8066,
      "ayne": 8067,
      "ĠJohnson": 8068,
      "willing": 8069,
      "arie": 8070,
      "Ġelegant": 8071,
      "ĠStill": 8072,
      "OS": 8073,
      "contin": 8074,
      "Ġlit": 8075,
      "Ġpp": 8076,
      "Ġcolonies": 8077,
      "Ġrevenge": 8078,
      "Ġdescent": 8079,
      "Ġrequisite": 8080,
      "ĠPortug": 8081,
      "Ġdefin": 8082,
      "ĠAthe": 8083,
      "Ġemperor": 8084,
      "otism": 8085,
      "ĠSto": 8086,
      "ĠRussian": 8087,
      "asphe": 8088,
      "ĠArtic": 8089,
      "case": 8090,
      "ĠText": 8091,
      "plain": 8092,
      "Ġsymb": 8093,
      "Americ": 8094,
      "ĠRussia": 8095,
      "give": 8096,
      "Ġraising": 8097,
      "Ġproduction": 8098,
      "Ġbeene": 8099,
      "Ġhym": 8100,
      "Ġarchitecture": 8101,
      "ĠSouthern": 8102,
      "Ġattained": 8103,
      "Ġduke": 8104,
      "Ġvi": 8105,
      "Ġeventually": 8106,
      "Ġpursue": 8107,
      "uce": 8108,
      "appro": 8109,
      "Ġstudent": 8110,
      "Ã¶": 8111,
      "Ġincor": 8112,
      "ĠDick": 8113,
      "Ġlabours": 8114,
      "estial": 8115,
      "Ġawful": 8116,
      "ifully": 8117,
      "Ġwitnesses": 8118,
      "Ġshelter": 8119,
      "asury": 8120,
      "Ġassume": 8121,
      "Ġintend": 8122,
      "Ġcunning": 8123,
      "Ġprejudice": 8124,
      "Ġdescribe": 8125,
      "ĠConstant": 8126,
      "isse": 8127,
      "ĠCollege": 8128,
      "ĠSuper": 8129,
      "Ġbeings": 8130,
      "ĠRose": 8131,
      "Ã¼": 8132,
      "ĠCross": 8133,
      "Ġswept": 8134,
      "Ġsociet": 8135,
      "Ġlaughing": 8136,
      "Ġmotives": 8137,
      "sa": 8138,
      "Ġsli": 8139,
      "Ġcomment": 8140,
      "Ġfaculty": 8141,
      "Ġdiseases": 8142,
      "ĠOnly": 8143,
      "put": 8144,
      "hended": 8145,
      "Ġerrors": 8146,
      "Ġobserves": 8147,
      "Ġarrive": 8148,
      "Ġinclination": 8149,
      "Ġirregular": 8150,
      "consider": 8151,
      "la": 8152,
      "Ġpreparing": 8153,
      "Ġinvent": 8154,
      "ĠEll": 8155,
      "Ġsuspected": 8156,
      "ola": 8157,
      "Ġarbit": 8158,
      "Ġroots": 8159,
      "isdom": 8160,
      "ĠImper": 8161,
      "oser": 8162,
      "Ġciv": 8163,
      "Their": 8164,
      "Ġfinger": 8165,
      "Ġgrain": 8166,
      "AV": 8167,
      "Man": 8168,
      "ĠEle": 8169,
      "Ġvertue": 8170,
      "world": 8171,
      "iverse": 8172,
      "irl": 8173,
      "reth": 8174,
      "Ġstamp": 8175,
      "Ġprevailed": 8176,
      "Ġ189": 8177,
      "Ġpreacher": 8178,
      "effect": 8179,
      "osa": 8180,
      "Ġmarched": 8181,
      "name": 8182,
      "Ġpersuaded": 8183,
      "ĠTit": 8184,
      "actions": 8185,
      "Gr": 8186,
      "Ġspeake": 8187,
      "Ġnotable": 8188,
      "Ġmingled": 8189,
      "IM": 8190,
      "sim": 8191,
      "ĠPresby": 8192,
      "Ġvine": 8193,
      "Ġsaving": 8194,
      "ĠMagistr": 8195,
      "Ġcavalry": 8196,
      "Ġsilk": 8197,
      "anded": 8198,
      "IA": 8199,
      "ircumst": 8200,
      "Ġvigil": 8201,
      "Ġsurpass": 8202,
      "Ġelected": 8203,
      "Ġasleep": 8204,
      "Ġresc": 8205,
      "ĠYear": 8206,
      "Ġspake": 8207,
      "Ġenjoyment": 8208,
      "Ġimproved": 8209,
      "Ġconfident": 8210,
      "Ġseriously": 8211,
      "Ġfeast": 8212,
      "ĠWind": 8213,
      "ĠBu": 8214,
      "Henry": 8215,
      "Ġdetermination": 8216,
      "Ġshock": 8217,
      "nant": 8218,
      "Ġshield": 8219,
      "wing": 8220,
      "Ġinch": 8221,
      "ĠEach": 8222,
      "Ġfitted": 8223,
      "ĠAge": 8224,
      "looked": 8225,
      "ĠSax": 8226,
      "Ġnoting": 8227,
      "Ġfollowers": 8228,
      "ĠBro": 8229,
      "ĠMa": 8230,
      "Ġcivilization": 8231,
      "Jew": 8232,
      "Israel": 8233,
      "Ġviewed": 8234,
      "Ġreserved": 8235,
      "ĠGovern": 8236,
      "Ġrespectable": 8237,
      "Ġnest": 8238,
      "assed": 8239,
      "eousness": 8240,
      "Ġprovinces": 8241,
      "Ġcorp": 8242,
      "Ans": 8243,
      "Ġquod": 8244,
      "dep": 8245,
      "Ġbetray": 8246,
      "Ġrational": 8247,
      "isme": 8248,
      "itating": 8249,
      "ĠMir": 8250,
      "Ġdestined": 8251,
      "isible": 8252,
      "Ġprivilege": 8253,
      "Which": 8254,
      "Ġleaf": 8255,
      "aths": 8256,
      "Ġscrut": 8257,
      "!-": 8258,
      "ws": 8259,
      "Ġaccus": 8260,
      "Ġiudge": 8261,
      "Ġparticip": 8262,
      "Ġfavourite": 8263,
      "ded": 8264,
      "Ġbatter": 8265,
      "ulent": 8266,
      "ĠPrincess": 8267,
      "August": 8268,
      "pen": 8269,
      "athan": 8270,
      "hered": 8271,
      "Ġconform": 8272,
      "rels": 8273,
      "OUR": 8274,
      "Ġarmies": 8275,
      "Ġeating": 8276,
      "Ġsymptoms": 8277,
      "ĠLo": 8278,
      "ĠHarry": 8279,
      "Ġcovenant": 8280,
      "Ġprou": 8281,
      "ĠMajest": 8282,
      "ban": 8283,
      "ĠGos": 8284,
      "Ġhinder": 8285,
      "fol": 8286,
      "Ġintelligent": 8287,
      "Ġsequ": 8288,
      "Ġbreadth": 8289,
      "ĠDun": 8290,
      "Ġcheck": 8291,
      "ij": 8292,
      "Ġoriginally": 8293,
      "uded": 8294,
      "Ġgross": 8295,
      "Ġsiege": 8296,
      "Ġdetect": 8297,
      "Ġceremony": 8298,
      "raft": 8299,
      "Ġattributed": 8300,
      "amen": 8301,
      "Ġgas": 8302,
      "Ġpersw": 8303,
      "ĠArm": 8304,
      "ĠLieutenant": 8305,
      "adelphia": 8306,
      "Ġstudies": 8307,
      "cut": 8308,
      "ĠMatter": 8309,
      "Ġconvention": 8310,
      "Ġfeather": 8311,
      "tes": 8312,
      "Ġmanufacture": 8313,
      "Ġpropriet": 8314,
      "Bar": 8315,
      "Ġbrig": 8316,
      "Ġsatisfactory": 8317,
      "Ġassigned": 8318,
      "Ġministry": 8319,
      "olved": 8320,
      "Ġscand": 8321,
      "mal": 8322,
      "Ġleader": 8323,
      "Ġaven": 8324,
      "Ġprimary": 8325,
      "Ġassertion": 8326,
      "Ġunp": 8327,
      "olf": 8328,
      "ingham": 8329,
      "Ġconception": 8330,
      "Ġgoverned": 8331,
      "rol": 8332,
      "Ġplaying": 8333,
      "iries": 8334,
      "icke": 8335,
      "Ġstrictly": 8336,
      "qual": 8337,
      "throw": 8338,
      "Ġeleven": 8339,
      "ĠAccording": 8340,
      "Ġrushed": 8341,
      "ylon": 8342,
      ";--": 8343,
      "fig": 8344,
      "Ġearliest": 8345,
      "Ġmedicine": 8346,
      "Ġintricate": 8347,
      "Ġmotive": 8348,
      "Ġdistinctly": 8349,
      "ĠSar": 8350,
      "Ġextract": 8351,
      "Ġpoured": 8352,
      "Ġperplex": 8353,
      "Ġadditional": 8354,
      "Ġoppose": 8355,
      "ether": 8356,
      "riages": 8357,
      "Ġadventure": 8358,
      "ipping": 8359,
      "Ġundertaking": 8360,
      "Ġweigh": 8361,
      "Ġrejected": 8362,
      "Ġcausing": 8363,
      "IX": 8364,
      "Ġsport": 8365,
      "Ġseeds": 8366,
      "upt": 8367,
      "Ġshift": 8368,
      "Ġvengeance": 8369,
      "Ġfarre": 8370,
      "Ġworsh": 8371,
      "Ġsinners": 8372,
      "Ġwives": 8373,
      "Ġroute": 8374,
      "Ġseventy": 8375,
      "ĠZe": 8376,
      "Ġentertained": 8377,
      "Ġcolours": 8378,
      "Ġannual": 8379,
      "Ġaccomplish": 8380,
      "ĠPast": 8381,
      "Ġconfront": 8382,
      "Ġdeepest": 8383,
      "opes": 8384,
      "umm": 8385,
      "Ġguided": 8386,
      "Ġcontrovers": 8387,
      "alys": 8388,
      "Ġteachers": 8389,
      "57": 8390,
      "ĠcÅį": 8391,
      "vag": 8392,
      "Ġchest": 8393,
      "ĠPriests": 8394,
      "CT": 8395,
      "Ġcompassion": 8396,
      "Ġexhausted": 8397,
      "Ġjudged": 8398,
      "Ġdangers": 8399,
      "ĠAdam": 8400,
      "prin": 8401,
      "ĠAdmir": 8402,
      "ugg": 8403,
      "Ġmysterious": 8404,
      "Ġgiu": 8405,
      "88": 8406,
      "Ġmarble": 8407,
      "Ġmee": 8408,
      "Ġcaut": 8409,
      "ĠVan": 8410,
      "Ġhonourable": 8411,
      "Ġselues": 8412,
      "Ġelabor": 8413,
      "Ġhumour": 8414,
      "ÏĤ": 8415,
      "Ġrestless": 8416,
      "Ġobscure": 8417,
      "Ġfinan": 8418,
      "Ġeducated": 8419,
      "anse": 8420,
      "ĠMich": 8421,
      "oln": 8422,
      "Ġthir": 8423,
      "Ġpreservation": 8424,
      "anguage": 8425,
      "Ġconcept": 8426,
      "ĠPoint": 8427,
      "Ġruins": 8428,
      "Ġintr": 8429,
      "Ġstudied": 8430,
      "ĠMill": 8431,
      "Ġverses": 8432,
      "ĠKe": 8433,
      "Ġcutting": 8434,
      "writ": 8435,
      "esar": 8436,
      "ĠDomin": 8437,
      "Ġwelfare": 8438,
      "rosse": 8439,
      "Ġshining": 8440,
      "Ġplanted": 8441,
      "Ġbloom": 8442,
      "Ġdepartment": 8443,
      "Ġcommod": 8444,
      "however": 8445,
      "Ġblessings": 8446,
      "Ġobligation": 8447,
      "ĠProphets": 8448,
      "Ġbasis": 8449,
      "Â·": 8450,
      "arte": 8451,
      "Ġprudent": 8452,
      "Ġliked": 8453,
      "mom": 8454,
      "whose": 8455,
      "Ġsundry": 8456,
      "mis": 8457,
      "think": 8458,
      "const": 8459,
      "Ġcharacterized": 8460,
      "Ġgray": 8461,
      "ĠCle": 8462,
      "Ġdiffer": 8463,
      "Ġtransfer": 8464,
      "Ġ+": 8465,
      "Ġprudence": 8466,
      "heard": 8467,
      "Ġsul": 8468,
      "ĠHorse": 8469,
      "Ġneighbor": 8470,
      "Ġeconom": 8471,
      "Ġsheer": 8472,
      "Ġabundant": 8473,
      "Ġsatisfy": 8474,
      "Ġjudges": 8475,
      "ĠMonsieur": 8476,
      "Ġrecords": 8477,
      "bler": 8478,
      "ĠInter": 8479,
      "acco": 8480,
      "ĠEmper": 8481,
      "igs": 8482,
      "gener": 8483,
      "ANT": 8484,
      "Ġil": 8485,
      "Ġproposition": 8486,
      "Ġfatig": 8487,
      "Ġunity": 8488,
      "Ġoppress": 8489,
      "Ġfifth": 8490,
      "Ġdeserve": 8491,
      "Ġdelic": 8492,
      "ĠOrdin": 8493,
      "*]": 8494,
      "ART": 8495,
      "cerity": 8496,
      "Ġenormous": 8497,
      "Ġpublication": 8498,
      "Ġdrinking": 8499,
      "ĠHor": 8500,
      "Ġbloud": 8501,
      "Ġrat": 8502,
      "iffs": 8503,
      "arl": 8504,
      "ĠPage": 8505,
      "beit": 8506,
      "Ġdecline": 8507,
      "Ġtemporal": 8508,
      "Ġresources": 8509,
      "berg": 8510,
      "ĠFire": 8511,
      "Ġclay": 8512,
      "Ġcriticism": 8513,
      "Ġsmiled": 8514,
      "ĠChild": 8515,
      "Ġdegr": 8516,
      "Ġcam": 8517,
      "Ġperpetually": 8518,
      "Ġmud": 8519,
      "foot": 8520,
      "Ġtreacher": 8521,
      "Ġwounds": 8522,
      "isting": 8523,
      "Ġinsisted": 8524,
      "itia": 8525,
      "Ġbeheld": 8526,
      "Ġcree": 8527,
      "Ġattent": 8528,
      "Ġham": 8529,
      "Ġrespective": 8530,
      "Ġinspired": 8531,
      "aria": 8532,
      "Ġroads": 8533,
      "Ġreproach": 8534,
      "Ġincap": 8535,
      "ĠHolland": 8536,
      "enc": 8537,
      "Ġwoven": 8538,
      "ĠTake": 8539,
      "Ġinduce": 8540,
      "Ġprize": 8541,
      "Ġwilderness": 8542,
      "ĠMost": 8543,
      "Hist": 8544,
      "Ġcommander": 8545,
      "Ġindicated": 8546,
      "Ġsmiling": 8547,
      "Ġneighbourhood": 8548,
      "Ġmanage": 8549,
      "hearted": 8550,
      "Ġexpressions": 8551,
      "ĠCause": 8552,
      "Ġabuse": 8553,
      "Ġtoil": 8554,
      "Ġvest": 8555,
      "EST": 8556,
      "among": 8557,
      "avy": 8558,
      "ĠJudgment": 8559,
      "Ġna": 8560,
      "ĠFrancis": 8561,
      "trans": 8562,
      "ĠLORD": 8563,
      "esc": 8564,
      "mod": 8565,
      "Ġpor": 8566,
      "sent": 8567,
      "Ġcotton": 8568,
      "Ġeighteen": 8569,
      "Ġwhiche": 8570,
      "young": 8571,
      "ctors": 8572,
      "ĠSupp": 8573,
      "Ġresolute": 8574,
      "udden": 8575,
      "Ġdiplom": 8576,
      "ĠSouls": 8577,
      "Take": 8578,
      "ras": 8579,
      "Ġ46": 8580,
      "rers": 8581,
      "Ġachieved": 8582,
      "Ġmeal": 8583,
      "ĠChief": 8584,
      "Ġhumane": 8585,
      "ĠWestern": 8586,
      "Ġpreferred": 8587,
      "live": 8588,
      "grat": 8589,
      "Ġappointment": 8590,
      "Ġfaculties": 8591,
      "Ġfoundations": 8592,
      "Sam": 8593,
      "ui": 8594,
      "Ġentreat": 8595,
      "Ġcust": 8596,
      "ainted": 8597,
      "Ġupright": 8598,
      "Ġrepeat": 8599,
      "Ġperf": 8600,
      "Ġtemptation": 8601,
      "inburgh": 8602,
      "Ġowe": 8603,
      "erick": 8604,
      "eches": 8605,
      "ĠNeither": 8606,
      "sing": 8607,
      "Ġflying": 8608,
      "div": 8609,
      "changed": 8610,
      "ĠOxford": 8611,
      "Ġfrank": 8612,
      "sed": 8613,
      "vell": 8614,
      "_)": 8615,
      "Ġhole": 8616,
      "Ġaged": 8617,
      "Ġstudents": 8618,
      "Ġinfirm": 8619,
      "Ġrecommended": 8620,
      "Ġannounced": 8621,
      "Every": 8622,
      "Ġseparation": 8623,
      "Ġintercourse": 8624,
      "Ġmasses": 8625,
      "Ġopenly": 8626,
      "Ġfeeble": 8627,
      "Ġpolice": 8628,
      "ĠWorks": 8629,
      "Ġnost": 8630,
      "Ġwages": 8631,
      "Ġprecept": 8632,
      "things": 8633,
      "Ġarrangements": 8634,
      "Ġprey": 8635,
      "Ġmerry": 8636,
      "Ġslightest": 8637,
      "ĠThird": 8638,
      "ida": 8639,
      "Ġrelent": 8640,
      "OH": 8641,
      "Ġseas": 8642,
      "produ": 8643,
      "Ġmoreover": 8644,
      "Ġbride": 8645,
      "Ġtear": 8646,
      "Ġthroat": 8647,
      "ECT": 8648,
      "Ep": 8649,
      "adise": 8650,
      "Ġevils": 8651,
      "ashing": 8652,
      "oping": 8653,
      "Ġsupplies": 8654,
      "Ġencounter": 8655,
      "Ġmalice": 8656,
      "pelled": 8657,
      "Ġdesigns": 8658,
      "Im": 8659,
      "ĠFollowing": 8660,
      "giving": 8661,
      "Ġbese": 8662,
      "Ġcharges": 8663,
      "Ġpressing": 8664,
      "Ġconverted": 8665,
      "Ġoccasioned": 8666,
      "ĠSalvation": 8667,
      "ĠCru": 8668,
      "Ġinconven": 8669,
      "ĠMort": 8670,
      "Ġtenderness": 8671,
      "ĠBru": 8672,
      "Ġfavourable": 8673,
      "archy": 8674,
      "Ġconveyed": 8675,
      "Ġgrows": 8676,
      "Ġvary": 8677,
      "Ġprofitable": 8678,
      "Ġendeavoured": 8679,
      "Ġaverage": 8680,
      "Ġwooden": 8681,
      "Ġfed": 8682,
      "Ġagreement": 8683,
      "went": 8684,
      "ita": 8685,
      "Ġretained": 8686,
      "prov": 8687,
      "Though": 8688,
      "Ġseverity": 8689,
      "forced": 8690,
      "Ġcy": 8691,
      "Ġmachinery": 8692,
      "Ġmourn": 8693,
      "Ġselect": 8694,
      "Ġadvised": 8695,
      "umer": 8696,
      "Ġfeature": 8697,
      "rick": 8698,
      "Ġdisorder": 8699,
      "Ġtalents": 8700,
      "Ġformation": 8701,
      "ĠCHAPTER": 8702,
      "Ġfarmer": 8703,
      "Ġneighbours": 8704,
      "hard": 8705,
      "whether": 8706,
      "Ġsup": 8707,
      "ponse": 8708,
      "tre": 8709,
      "ceptible": 8710,
      "Ġpunished": 8711,
      "Ġeffected": 8712,
      "Ġcontents": 8713,
      "odies": 8714,
      "Ġburned": 8715,
      "arms": 8716,
      "Ġrhy": 8717,
      "Ġdepends": 8718,
      "Ġcoach": 8719,
      "ĠDor": 8720,
      "ĠMis": 8721,
      "Ġremembrance": 8722,
      "rene": 8723,
      "Ġnearest": 8724,
      "Brit": 8725,
      "ĠRE": 8726,
      "Ġburd": 8727,
      "Ġcrowded": 8728,
      "Ġinquire": 8729,
      "Heb": 8730,
      "others": 8731,
      "ĠArthur": 8732,
      "Ġappeare": 8733,
      "Ġliable": 8734,
      "Ġclamour": 8735,
      "Ġrested": 8736,
      "Ġresulting": 8737,
      "Ġcruelty": 8738,
      "ĠBoard": 8739,
      "Su": 8740,
      "istics": 8741,
      "ĠProtestants": 8742,
      "Ġample": 8743,
      "ĠDar": 8744,
      "Upon": 8745,
      "ĠGar": 8746,
      "appear": 8747,
      "Mad": 8748,
      "aft": 8749,
      "real": 8750,
      "ugh": 8751,
      "burn": 8752,
      "minster": 8753,
      "ĠMah": 8754,
      "bot": 8755,
      "Ġdedicated": 8756,
      "á½": 8757,
      "Ġgrateful": 8758,
      "Ġreli": 8759,
      "years": 8760,
      "Ġdar": 8761,
      "Ġselfish": 8762,
      "Ïģ": 8763,
      "Ġpurchased": 8764,
      "Ġrefined": 8765,
      "illings": 8766,
      "Ġstark": 8767,
      "iday": 8768,
      "ba": 8769,
      "ĠGreeks": 8770,
      "Ġsets": 8771,
      "Ġdraught": 8772,
      "Ġsuspended": 8773,
      "Ġdictates": 8774,
      "omed": 8775,
      "Ġtrun": 8776,
      "Ġmeetings": 8777,
      "reci": 8778,
      "Another": 8779,
      "perhaps": 8780,
      "Ġreasoning": 8781,
      "Ġtemperature": 8782,
      "ĠService": 8783,
      "Ġobvious": 8784,
      "Ġcitizen": 8785,
      "inning": 8786,
      "Ġmechanism": 8787,
      "Ġguests": 8788,
      "ĠAN": 8789,
      "achuse": 8790,
      "Ġnobody": 8791,
      "Ġdecay": 8792,
      "amma": 8793,
      "Ġstub": 8794,
      "Ġpermission": 8795,
      "?--": 8796,
      "ĠJo": 8797,
      "!âĢĻ": 8798,
      "Ġcollege": 8799,
      "tell": 8800,
      "ĠFair": 8801,
      "ĠJewish": 8802,
      "also": 8803,
      "itchen": 8804,
      "Ġselected": 8805,
      "Ġsubjected": 8806,
      "Ġdefic": 8807,
      "Ġpalp": 8808,
      "ĠFlore": 8809,
      "ĠSpaniards": 8810,
      "Ver": 8811,
      "Ġeastern": 8812,
      "uance": 8813,
      "Ġfleeting": 8814,
      "Ġspecimens": 8815,
      "Ġelevation": 8816,
      "itur": 8817,
      "reng": 8818,
      "tion": 8819,
      "Ġcheerful": 8820,
      "athed": 8821,
      "Ġcomplain": 8822,
      "elly": 8823,
      "Ġconstructed": 8824,
      "Ġcorps": 8825,
      "isive": 8826,
      "ĠPR": 8827,
      "Ġextravag": 8828,
      "ado": 8829,
      "Ġdisappeared": 8830,
      "Ġassociated": 8831,
      "Ġsonne": 8832,
      "Ġchamp": 8833,
      "ĠJour": 8834,
      "Ġunusual": 8835,
      "table": 8836,
      "Ġgarrison": 8837,
      "Ġtied": 8838,
      "ĠYears": 8839,
      "Isa": 8840,
      "Ġprominent": 8841,
      "Ġconfessed": 8842,
      "Ġprocured": 8843,
      "isons": 8844,
      "Pres": 8845,
      "IF": 8846,
      "Ġwars": 8847,
      "rawn": 8848,
      "Ġmisfortune": 8849,
      "Ġbag": 8850,
      "Ġaltered": 8851,
      "Ġsuccessfully": 8852,
      "Ġinstructed": 8853,
      "Ġantiquity": 8854,
      "Ġceas": 8855,
      "ĠMod": 8856,
      "Ġconsisted": 8857,
      "Ġrout": 8858,
      "Ġmould": 8859,
      "ocracy": 8860,
      "Ġresting": 8861,
      "incoln": 8862,
      "ping": 8863,
      "Ġimposed": 8864,
      "Ġnewly": 8865,
      "Ġfired": 8866,
      "Ġlift": 8867,
      "illes": 8868,
      "uscript": 8869,
      "strong": 8870,
      "onday": 8871,
      "Ġcertaine": 8872,
      "rient": 8873,
      "taken": 8874,
      "ĠFar": 8875,
      "Ġdrunk": 8876,
      "Ġencount": 8877,
      "Ġdrift": 8878,
      "Ġener": 8879,
      "Ġalway": 8880,
      "Ġastr": 8881,
      "rum": 8882,
      "osis": 8883,
      "utor": 8884,
      "Ġhospit": 8885,
      "both": 8886,
      "Ġowner": 8887,
      "Ġappearing": 8888,
      "Ġgrievous": 8889,
      "Ġcommanding": 8890,
      "ĠNational": 8891,
      "Ġproceeds": 8892,
      "Ġmens": 8893,
      "city": 8894,
      "Ġconquest": 8895,
      "Ġbestow": 8896,
      "dered": 8897,
      "Ġheavily": 8898,
      "Pe": 8899,
      "sels": 8900,
      "ho": 8901,
      "wart": 8902,
      "Ġseemingly": 8903,
      "Ġinterview": 8904,
      "atum": 8905,
      "aired": 8906,
      "cal": 8907,
      "care": 8908,
      "Ġfortunate": 8909,
      "Ġpartial": 8910,
      "Ġconsisting": 8911,
      "Ġeloquence": 8912,
      "89": 8913,
      "ĠPsalm": 8914,
      "Ġprophet": 8915,
      "ouer": 8916,
      "Ġresponse": 8917,
      "ifficult": 8918,
      "Ġstreams": 8919,
      "74": 8920,
      "rice": 8921,
      "ĠLiberty": 8922,
      "Ġaug": 8923,
      "riv": 8924,
      "Ġshake": 8925,
      "OV": 8926,
      "Ġghost": 8927,
      "Ġmaketh": 8928,
      "Ġhorrible": 8929,
      "tts": 8930,
      "umns": 8931,
      "Ġordained": 8932,
      "wering": 8933,
      "gic": 8934,
      "atis": 8935,
      "Ġsisters": 8936,
      "ĠAlso": 8937,
      "rical": 8938,
      "Ġrect": 8939,
      "rane": 8940,
      "Ġwash": 8941,
      "Ġadmon": 8942,
      "Ġscope": 8943,
      "Ġwheel": 8944,
      "rad": 8945,
      "ĠOfficers": 8946,
      "ĠElect": 8947,
      "nings": 8948,
      "Ġlibrary": 8949,
      "tt": 8950,
      "Ġpropose": 8951,
      "gedy": 8952,
      "Ġpolitics": 8953,
      "Ġrecognition": 8954,
      "fold": 8955,
      "ĠSubjects": 8956,
      "ĠWall": 8957,
      "ederal": 8958,
      "Ġdared": 8959,
      "Ġwrest": 8960,
      "astly": 8961,
      "ĠTurk": 8962,
      "ulus": 8963,
      "Ġpurely": 8964,
      "Ġsmell": 8965,
      "lesh": 8966,
      "ĠMexico": 8967,
      "estab": 8968,
      "Ġmanifested": 8969,
      "Ġbloody": 8970,
      "Ġannoy": 8971,
      "Ġmerchants": 8972,
      "Ġnurs": 8973,
      "Ġib": 8974,
      "Ġabstract": 8975,
      "72": 8976,
      "Ġwra": 8977,
      "artment": 8978,
      "Ġbrid": 8979,
      "Ġduly": 8980,
      "Ġrequested": 8981,
      "Ġdemonstrated": 8982,
      "Pet": 8983,
      "anth": 8984,
      "Ġinvestig": 8985,
      "Ġconject": 8986,
      "Ġforfe": 8987,
      "Ġtheirs": 8988,
      "Go": 8989,
      "Ġoffended": 8990,
      "nex": 8991,
      "Ġreserve": 8992,
      "stra": 8993,
      "Ġpeop": 8994,
      "clamation": 8995,
      "ĠCanada": 8996,
      "Ġforgot": 8997,
      "import": 8998,
      "Ġoffend": 8999,
      "adies": 9000,
      "vas": 9001,
      "ruit": 9002,
      "Ġastonishment": 9003,
      "reation": 9004,
      "Ġstup": 9005,
      "Ġpreparations": 9006,
      "Ġsyn": 9007,
      "ĠWife": 9008,
      "Ġcontribut": 9009,
      "Ġrevelation": 9010,
      "Ġincomp": 9011,
      "pat": 9012,
      "Ġjudgement": 9013,
      "ĠProf": 9014,
      "Ġshell": 9015,
      "ĠYoung": 9016,
      "Ġbri": 9017,
      "Ġlights": 9018,
      "chess": 9019,
      "Ġestates": 9020,
      "ipl": 9021,
      "Ġdamp": 9022,
      "Ġouter": 9023,
      "Ġtower": 9024,
      "Ġencouraged": 9025,
      "Ġcontented": 9026,
      "Ġimmortal": 9027,
      "Ġdifferences": 9028,
      "Ġhanging": 9029,
      "Ġsweep": 9030,
      "Ġlimbs": 9031,
      "Ġdeprived": 9032,
      "Ġcovering": 9033,
      "Ġadding": 9034,
      "Ġdreams": 9035,
      "Ġremed": 9036,
      "Are": 9037,
      "achusetts": 9038,
      "anche": 9039,
      "Ġmaintaining": 9040,
      "Ġchallenge": 9041,
      "Ġtraveller": 9042,
      "Ġful": 9043,
      "Ġtyranny": 9044,
      "Ġdramatic": 9045,
      "Ġstating": 9046,
      "ĠâĢ": 9047,
      "Ġunworthy": 9048,
      "fr": 9049,
      "ĠChina": 9050,
      "Ġherein": 9051,
      "whom": 9052,
      "Ġgy": 9053,
      "Ġni": 9054,
      "Ġrepair": 9055,
      "aire": 9056,
      "Ġeconomy": 9057,
      "Ġvivid": 9058,
      "ĠAbraham": 9059,
      "James": 9060,
      "Ġcontact": 9061,
      "Ġblank": 9062,
      "Ġconsumed": 9063,
      "Ġoh": 9064,
      "character": 9065,
      "Ġchast": 9066,
      "Ġwax": 9067,
      "Ġchambers": 9068,
      "represent": 9069,
      "pton": 9070,
      "Ġrow": 9071,
      "Ġdesirous": 9072,
      "net": 9073,
      "Ãº": 9074,
      "gate": 9075,
      "UN": 9076,
      "whole": 9077,
      "Ġdiscour": 9078,
      "reck": 9079,
      "Ġdeceived": 9080,
      "Ġcontinues": 9081,
      "Ġdisciples": 9082,
      "Ġpaying": 9083,
      "nty": 9084,
      "Ġblaz": 9085,
      "Ġreveal": 9086,
      "arks": 9087,
      "bbing": 9088,
      "BER": 9089,
      "ĠAngel": 9090,
      "Ġjun": 9091,
      "ĠOrig": 9092,
      "ĠThings": 9093,
      "Ġrigid": 9094,
      "Ġlargest": 9095,
      "mist": 9096,
      "Rob": 9097,
      "aund": 9098,
      "ĠRu": 9099,
      "everal": 9100,
      "always": 9101,
      "Ġencountered": 9102,
      "Ġapproved": 9103,
      "Ġportrait": 9104,
      "Ġserving": 9105,
      "itty": 9106,
      "Ġdoubtful": 9107,
      "gans": 9108,
      "bow": 9109,
      "ĠAtl": 9110,
      "Ġremainder": 9111,
      "Ġclever": 9112,
      "Ġslept": 9113,
      "Ġgroups": 9114,
      "Ġnoon": 9115,
      "Ġsprings": 9116,
      "irds": 9117,
      "Ġpersistent": 9118,
      "uty": 9119,
      "Ġdeserved": 9120,
      "Ġuncons": 9121,
      "Ġaccounted": 9122,
      "Ġpresume": 9123,
      "Ġpractised": 9124,
      "Charles": 9125,
      "54": 9126,
      "oft": 9127,
      "Ġsprang": 9128,
      "Ġcrying": 9129,
      "Ġangels": 9130,
      "Ġdisgu": 9131,
      "person": 9132,
      "beaut": 9133,
      "Ġ(?),": 9134,
      "Ġhunting": 9135,
      "ĠPoor": 9136,
      "Ġforehead": 9137,
      "Ġwarmth": 9138,
      "ĠWoman": 9139,
      "Ġinvite": 9140,
      "Ġrebellion": 9141,
      "53": 9142,
      "Ġhaunt": 9143,
      "Ġpulled": 9144,
      "ĠBed": 9145,
      "pert": 9146,
      "inating": 9147,
      "Ġhastily": 9148,
      "shine": 9149,
      "bitious": 9150,
      "Des": 9151,
      "azz": 9152,
      "Ġstretched": 9153,
      "Ġbenefits": 9154,
      "Ġquarrel": 9155,
      "Ġdeu": 9156,
      "Ġuses": 9157,
      "Ġprivileges": 9158,
      "Ġpace": 9159,
      "ĠHam": 9160,
      "Ġascertain": 9161,
      "arson": 9162,
      "51": 9163,
      "Ġappetite": 9164,
      "Ġmidnight": 9165,
[...]
