{
  "version": "1.0",
  "truncation": null,
  "padding": null,
  "added_tokens": [
    {
      "id": 0,
      "content": "<|pad|>",
      "single_word": false,
      "lstrip": false,
      "rstrip": false,
      "normalized": false,
      "special": true
    },
    {
      "id": 1,
      "content": "<|unk|>",
      "single_word": false,
      "lstrip": false,
      "rstrip": false,
      "normalized": false,
      "special": true
    },
    {
      "id": 2,
      "content": "<|mask|>",
      "single_word": false,
      "lstrip": false,
      "rstrip": false,
      "normalized": false,
      "special": true
    },
    {
      "id": 3,
      "content": "<|bos|>",
      "single_word": false,
      "lstrip": false,
      "rstrip": false,
      "normalized": false,
      "special": true
    },
    {
      "id": 4,
      "content": "<|eos|>",
      "single_word": false,
      "lstrip": false,
      "rstrip": false,
      "normalized": false,
      "special": true
    },
    {
      "id": 5,
      "content": "<|system|>",
      "single_word": false,
      "lstrip": false,
      "rstrip": false,
      "normalized": false,
      "special": true
    },
    {
      "id": 6,
      "content": "<|user|>",
      "single_word": false,
      "lstrip": false,
      "rstrip": false,
      "normalized": false,
      "special": true
    },
    {
      "id": 7,
      "content": "<|assistant|>",
      "single_word": false,
      "lstrip": false,
      "rstrip": false,
      "normalized": false,
      "special": true
    }
  ],
  "normalizer": {
    "type": "Sequence",
    "normalizers": [
      {
        "type": "NFKC"
      }
    ]
  },
  "pre_tokenizer": {
    "type": "ByteLevel",
    "add_prefix_space": false,
    "trim_offsets": true,
    "use_regex": true
  },
  "post_processor": {
    "type": "TemplateProcessing",
    "single": [
      {
        "Sequence": {
          "id": "A",
          "type_id": 0
        }
      }
    ],
    "pair": [
      {
        "Sequence": {
          "id": "A",
          "type_id": 0
        }
      },
      {
        "Sequence": {
          "id": "B",
          "type_id": 1
        }
      }
    ],
    "special_tokens": {}
  },
  "decoder": {
    "type": "ByteLevel",
    "add_prefix_space": true,
    "trim_offsets": true,
    "use_regex": true
  },
  "model": {
    "type": "BPE",
    "dropout": null,
    "unk_token": "<|unk|>",
    "continuing_subword_prefix": null,
    "end_of_word_suffix": null,
    "fuse_unk": false,
    "byte_fallback": false,
    "ignore_merges": false,
    "vocab": {
      "<|pad|>": 0,
      "<|unk|>": 1,
      "<|mask|>": 2,
      "<|bos|>": 3,
      "<|eos|>": 4,
      "<|system|>": 5,
      "<|user|>": 6,
      "<|assistant|>": 7,
      "!": 8,
      "\"": 9,
      "#": 10,
      "$": 11,
      "%": 12,
      "&": 13,
      "'": 14,
      "(": 15,
      ")": 16,
      "*": 17,
      "+": 18,
      ",": 19,
      "-": 20,
      ".": 21,
      "/": 22,
      "0": 23,
      "1": 24,
      "2": 25,
      "3": 26,
      "4": 27,
      "5": 28,
      "6": 29,
      "7": 30,
      "8": 31,
      "9": 32,
      ":": 33,
      ";": 34,
      "<": 35,
      "=": 36,
      ">": 37,
      "?": 38,
      "@": 39,
      "A": 40,
      "B": 41,
      "C": 42,
      "D": 43,
      "E": 44,
      "F": 45,
      "G": 46,
      "H": 47,
      "I": 48,
      "J": 49,
      "K": 50,
      "L": 51,
      "M": 52,
      "N": 53,
      "O": 54,
      "P": 55,
      "Q": 56,
      "R": 57,
      "S": 58,
      "T": 59,
      "U": 60,
      "V": 61,
      "W": 62,
      "X": 63,
      "Y": 64,
      "Z": 65,
      "[": 66,
      "\\": 67,
      "]": 68,
      "^": 69,
      "_": 70,
      "`": 71,
      "a": 72,
      "b": 73,
      "c": 74,
      "d": 75,
      "e": 76,
      "f": 77,
      "g": 78,
      "h": 79,
      "i": 80,
      "j": 81,
      "k": 82,
      "l": 83,
      "m": 84,
      "n": 85,
      "o": 86,
      "p": 87,
      "q": 88,
      "r": 89,
      "s": 90,
      "t": 91,
      "u": 92,
      "v": 93,
      "w": 94,
      "x": 95,
      "y": 96,
      "z": 97,
      "{": 98,
      "|": 99,
      "}": 100,
      "~": 101,
      "¡": 102,
      "¢": 103,
      "£": 104,
      "¤": 105,
      "¥": 106,
      "¦": 107,
      "§": 108,
      "¨": 109,
      "©": 110,
      "ª": 111,
      "«": 112,
      "¬": 113,
      "®": 114,
      "¯": 115,
      "°": 116,
      "±": 117,
      "²": 118,
      "³": 119,
      "´": 120,
      "µ": 121,
      "¶": 122,
      "·": 123,
      "¸": 124,
      "¹": 125,
      "º": 126,
      "»": 127,
      "¼": 128,
      "½": 129,
      "¾": 130,
      "¿": 131,
      "Â": 132,
      "Ã": 133,
      "Ä": 134,
      "Å": 135,
      "Æ": 136,
      "Ç": 137,
      "È": 138,
      "É": 139,
      "Ê": 140,
      "Ë": 141,
      "Ì": 142,
      "Î": 143,
      "â": 144,
      "ð": 145,
      "ĉ": 146,
      "Ċ": 147,
      "Ġ": 148,
      "Ģ": 149,
      "ģ": 150,
      "Ĥ": 151,
      "ĥ": 152,
      "Ħ": 153,
      "ħ": 154,
      "Ĩ": 155,
      "ĩ": 156,
      "Ī": 157,
      "ī": 158,
      "Ĭ": 159,
      "ĭ": 160,
      "Į": 161,
      "į": 162,
      "İ": 163,
      "ı": 164,
      "Ĳ": 165,
      "ĳ": 166,
      "Ĵ": 167,
      "ĵ": 168,
      "Ķ": 169,
      "ķ": 170,
      "ĸ": 171,
      "Ĺ": 172,
      "ĺ": 173,
      "Ļ": 174,
      "ļ": 175,
      "Ľ": 176,
      "ľ": 177,
      "Ŀ": 178,
      "ŀ": 179,
      "Ł": 180,
      "ł": 181,
      "Ń": 182,
      "Ġt": 183,
      "he": 184,
      "Ġa": 185,
      "in": 186,
      "Ġthe": 187,
      "Ġo": 188,
      "re": 189,
      "er": 190,
      "nd": 191,
      "Ġw": 192,
      "Ġs": 193,
      "on": 194,
      "Ġof": 195,
      "at": 196,
      "is": 197,
      "it": 198,
      "en": 199,
      "Ġb": 200,
      "ed": 201,
      "es": 202,
      "Ġc": 203,
      "Ġf": 204,
      "or": 205,
      "ou": 206,
      "Ġp": 207,
      "ar": 208,
      "Ġm": 209,
      "Ġh": 210,
      "Ġand": 211,
      "an": 212,
      "Ġin": 213,
      "Ġto": 214,
      "ing": 215,
      "al": 216,
      "Ġd": 217,
      "Ġth": 218,
      "as": 219,
      "ic": 220,
      "le": 221,
      "om": 222,
      "ion": 223,
      "Ġn": 224,
      "ll": 225,
      "Ġbe": 226,
      "Ġe": 227,
      "ent": 228,
      "Ġl": 229,
      "st": 230,
      "ot": 231,
      "ly": 232,
      "se": 233,
      "ve": 234,
      "ce": 235,
      "ut": 236,
      "Ġre": 237,
      "Ġg": 238,
      "Ġwh": 239,
      "ct": 240,
      "ĠI": 241,
      "ro": 242,
      "im": 243,
      "ad": 244,
      "Ġhe": 245,
      "ir": 246,
      "ur": 247,
      "id": 248,
      "Ġis": 249,
      "ow": 250,
      "Ġthat": 251,
      "ĠT": 252,
      "ith": 253,
      "ver": 254,
      "Ġit": 255,
      "et": 256,
      "ld": 257,
      "Ġon": 258,
      "ch": 259,
      "ig": 260,
      "Ġfor": 261,
      "Ġu": 262,
      "ĠS": 263,
      "am": 264,
      "the": 265,
      "ay": 266,
      "Ġas": 267,
      "ĠC": 268,
      "Ġwith": 269,
      "ĠA": 270,
      "and": 271,
      "ich": 272,
      "ĠM": 273,
      "Ġan": 274,
      "ter": 275,
      "th": 276,
      "il": 277,
      "Ġwas": 278,
      "Ġwe": 279,
      "Ġby": 280,
      "Ġ;": 281,
      "if": 282,
      "ra": 283,
      "Ġy": 284,
      "ul": 285,
      "Ġhis": 286,
      "ation": 287,
      "ol": 288,
      "Ġor": 289,
      "Ġcon": 290,
      "Ġat": 291,
      "us": 292,
      "ain": 293,
      "Ġnot": 294,
      "pe": 295,
      "Ġ1": 296,
      "ri": 297,
      "Ġwhich": 298,
      "od": 299,
      "Ġsu": 300,
      "ĠB": 301,
      "ill": 302,
      "Ġst": 303,
      "rom": 304,
      "qu": 305,
      "ĠH": 306,
      "ĠP": 307,
      "Ġha": 308,
      "ess": 309,
      "our": 310,
      "Ġde": 311,
      "ht": 312,
      "um": 313,
      "ge": 314,
      "res": 315,
      "Ġv": 316,
      "Ġex": 317,
      "ore": 318,
      "ab": 319,
      "Ġse": 320,
      "ĠThe": 321,
      "est": 322,
      "ĠL": 323,
      "em": 324,
      "ĠĠ": 325,
      "os": 326,
      "red": 327,
      "Ġfrom": 328,
      "ist": 329,
      "ould": 330,
      "ant": 331,
      "ate": 332,
      "all": 333,
      "Ġsh": 334,
      "ke": 335,
      "Ġare": 336,
      "nt": 337,
      "ers": 338,
      "ac": 339,
      "ie": 340,
      "her": 341,
      "ous": 342,
      "ĠE": 343,
      "ĠW": 344,
      "Ġthis": 345,
      "Ġhave": 346,
      "Ġ-": 347,
      "ĠG": 348,
      "to": 349,
      "Ġpro": 350,
      "pp": 351,
      "ĠD": 352,
      "Ġcom": 353,
      "ight": 354,
      "ard": 355,
      "art": 356,
      "iv": 357,
      "Ġso": 358,
      "Ġr": 359,
      "Ġbut": 360,
      "ĠF": 361,
      "Ġall": 362,
      "of": 363,
      "ity": 364,
      "Ġhad": 365,
      "Ġne": 366,
      "ord": 367,
      "ies": 368,
      "pt": 369,
      "Ġme": 370,
      "ĠR": 371,
      "oug": 372,
      "te": 373,
      "Ġtheir": 374,
      "un": 375,
      "fe": 376,
      "ive": 377,
      "Ġal": 378,
      "Ġthey": 379,
      "ort": 380,
      "ure": 381,
      "Ġch": 382,
      "'s": 383,
      "ust": 384,
      "ome": 385,
      "Ġwhe": 386,
      "Ġle": 387,
      "Ġwho": 388,
      "ther": 389,
      "el": 390,
      "ĠJ": 391,
      "very": 392,
      "Ġhim": 393,
      "Ġyou": 394,
      "ment": 395,
      "ast": 396,
      "Ġk": 397,
      "ci": 398,
      "ost": 399,
      "Ġ2": 400,
      "ong": 401,
      "reat": 402,
      "cc": 403,
      "per": 404,
      "Ġwere": 405,
      "ame": 406,
      "ĠN": 407,
      "Ġ(": 408,
      "Ġman": 409,
      "ound": 410,
      "Ġup": 411,
      "The": 412,
      "ĠO": 413,
      "ine": 414,
      "op": 415,
      "Ġthem": 416,
      "ind": 417,
      "ose": 418,
      "ak": 419,
      "ish": 420,
      "ance": 421,
      "Ġmy": 422,
      "Ġbeen": 423,
      "ence": 424,
      "ne": 425,
      "ag": 426,
      "Ġher": 427,
      "Ġone": 428,
      "Ġab": 429,
      "ud": 430,
      "ond": 431,
      "av": 432,
      "Ġpl": 433,
      "ib": 434,
      "ood": 435,
      "able": 436,
      "Ġno": 437,
      "ions": 438,
      "ry": 439,
      "Ġad": 440,
      "out": 441,
      "Ġ\"": 442,
      "ap": 443,
      "Ġar": 444,
      "Ġwill": 445,
      "pl": 446,
      "sel": 447,
      "Ġthere": 448,
      "ary": 449,
      "ough": 450,
      "Ġdis": 451,
      "ated": 452,
      "Ġother": 453,
      "Ġhas": 454,
      "one": 455,
      "are": 456,
      "be": 457,
      "Ġdo": 458,
      "ass": 459,
      "ice": 460,
      "ia": 461,
      "Ġper": 462,
      "Ġim": 463,
      "Ġfe": 464,
      "Ġj": 465,
      "ru": 466,
      "we": 467,
      "ally": 468,
      "Ġqu": 469,
      "ire": 470,
      "ount": 471,
      "Ġun": 472,
      "Ġaf": 473,
      "Ġmore": 474,
      "ans": 475,
      "ide": 476,
      "ii": 477,
      "Ġsa": 478,
      "ace": 479,
      "Ġany": 480,
      "Ġpart": 481,
      "wn": 482,
      "li": 483,
      "Ġ:": 484,
      "ction": 485,
      "tain": 486,
      "ĠĠĠĠ": 487,
      "au": 488,
      "Ġmay": 489,
      "Ġ3": 490,
      "ree": 491,
      "Ġwould": 492,
      "Ġits": 493,
      "itt": 494,
      "ok": 495,
      "Ġpre": 496,
      "ĠCh": 497,
      "ng": 498,
      "hed": 499,
      "nder": 500,
      "Ġpr": 501,
      "ĠTh": 502,
      "Ġob": 503,
      "ime": 504,
      "Ġen": 505,
      "Ġsome": 506,
      "Ġwhen": 507,
      "ars": 508,
      "ck": 509,
      "fore": 510,
      "age": 511,
      "Ġag": 512,
      "Ġam": 513,
      "ber": 514,
      "ade": 515,
      "Ġwor": 516,
      "Ġcan": 517,
      "Ġthan": 518,
      "cl": 519,
      "Ġour": 520,
      "ake": 521,
      "Ġsp": 522,
      "Ġgreat": 523,
      "now": 524,
      "Ġif": 525,
      "Ġus": 526,
      "Ġtw": 527,
      "ue": 528,
      "ious": 529,
      "ove": 530,
      "Ġvery": 531,
      "ite": 532,
      "ress": 533,
      "ven": 534,
      "Ġshe": 535,
      "for": 536,
      "Ġinto": 537,
      "wh": 538,
      "ings": 539,
      "uch": 540,
      "Ġupon": 541,
      "ons": 542,
      "erv": 543,
      "act": 544,
      "ces": 545,
      "ath": 546,
      "so": 547,
      "ĠIn": 548,
      "ĠHe": 549,
      "ub": 550,
      "ach": 551,
      "int": 552,
      "ens": 553,
      "ical": 554,
      "ĠIt": 555,
      "ĠV": 556,
      "Ġ4": 557,
      "Ġout": 558,
      "ĠMr": 559,
      "Ġye": 560,
      "ase": 561,
      "ition": 562,
      "ays": 563,
      "ign": 564,
      "Ġli": 565,
      "Ġcl": 566,
      "ect": 567,
      "self": 568,
      "ren": 569,
      "Ġsuch": 570,
      "ep": 571,
      "Ġtr": 572,
      "ise": 573,
      "ult": 574,
      "Ġres": 575,
      "ff": 576,
      "Ġthese": 577,
      "ĠK": 578,
      "Ġdes": 579,
      "ations": 580,
      "Ġ.": 581,
      "land": 582,
      "de": 583,
      "Ġonly": 584,
      "ip": 585,
      "les": 586,
      "Ġtime": 587,
      "oll": 588,
      "Ġbr": 589,
      "Ġcons": 590,
      "Ġshould": 591,
      "ks": 592,
      "oy": 593,
      "other": 594,
      "og": 595,
      "Ġrem": 596,
      "Ġcomm": 597,
      "Ġcont": 598,
      "pos": 599,
      "Ġsub": 600,
      "ied": 601,
      "irst": 602,
      "Ġform": 603,
      "Ġacc": 604,
      "urn": 605,
      "ward": 606,
      ".\"": 607,
      "Ġap": 608,
      "ener": 609,
      "ĠSt": 610,
      "du": 611,
      "ang": 612,
      "Ġi": 613,
      "Ġro": 614,
      "Ġtwo": 615,
      "old": 616,
      "ian": 617,
      "ness": 618,
      "Ġwhat": 619,
      ".,": 620,
      "Ġpo": 621,
      "ced": 622,
      "Ġmost": 623,
      "Ġsaid": 624,
      "Ġyour": 625,
      "ile": 626,
      "Ġunder": 627,
      "Ġbl": 628,
      "oth": 629,
      "ook": 630,
      "Ġbeing": 631,
      "ph": 632,
      "end": 633,
      "ict": 634,
      "Ġafter": 635,
      "Ġapp": 636,
      "Ġspe": 637,
      "Ġpres": 638,
      "ory": 639,
      "ple": 640,
      "ject": 641,
      "Ġknow": 642,
      "Ġthose": 643,
      "Ġgr": 644,
      "Ġfl": 645,
      "man": 646,
      "Ġmade": 647,
      "ful": 648,
      "sh": 649,
      "Ġpe": 650,
      "ave": 651,
      "fect": 652,
      "Ġ'": 653,
      "Ġthen": 654,
      "ater": 655,
      "ty": 656,
      "hes": 657,
      "ought": 658,
      "Ġ5": 659,
      "Ġnow": 660,
      "ft": 661,
      "ents": 662,
      "rit": 663,
      "ark": 664,
      "Ġmuch": 665,
      "ull": 666,
      "Ġsame": 667,
      "Ġshall": 668,
      "Ġ18": 669,
      "ife": 670,
      "Ġfirst": 671,
      "ack": 672,
      "Ġ6": 673,
      "ved": 674,
      "aw": 675,
      "ather": 676,
      "ild": 677,
      "Ġhow": 678,
      "ors": 679,
      "ick": 680,
      "iss": 681,
      "ix": 682,
      "Ġagain": 683,
      "own": 684,
      "ial": 685,
      "Ġwhere": 686,
      "ular": 687,
      "ower": 688,
      "over": 689,
      "Ġmust": 690,
      "hen": 691,
      "com": 692,
      "not": 693,
      "Ġimp": 694,
      "Ġgood": 695,
      "led": 696,
      "Ġbefore": 697,
      "igh": 698,
      "Th": 699,
      "Ġcould": 700,
      "Ġwell": 701,
      "Ġoff": 702,
      "Ġsc": 703,
      "cess": 704,
      "ily": 705,
      "Ġbet": 706,
      "Ġevery": 707,
      "pect": 708,
      "ell": 709,
      "Ġac": 710,
      "iz": 711,
      "'d": 712,
      "Ġdist": 713,
      "Ġra": 714,
      "uth": 715,
      "Ġlike": 716,
      "ug": 717,
      "row": 718,
      "lie": 719,
      "ble": 720,
      "Ġover": 721,
      "with": 722,
      "Ġlong": 723,
      "Ġappe": 724,
      "Ġdif": 725,
      "oss": 726,
      "that": 727,
      "ves": 728,
      "lic": 729,
      "orn": 730,
      "Ġmany": 731,
      "Ġalso": 732,
      "Ġem": 733,
      "Ġabout": 734,
      "Ġfound": 735,
      "ittle": 736,
      "ract": 737,
      ",\"": 738,
      "eth": 739,
      "Ġatt": 740,
      "Ġent": 741,
      "Ġown": 742,
      "Ġsm": 743,
      "oc": 744,
      "ever": 745,
      "ex": 746,
      "ink": 747,
      "ished": 748,
      "cri": 749,
      "ran": 750,
      "Ġrep": 751,
      "ving": 752,
      "atter": 753,
      "And": 754,
      "ause": 755,
      "con": 756,
      "ates": 757,
      "Â¬": 758,
      "by": 759,
      "ouse": 760,
      "air": 761,
      "oh": 762,
      "ual": 763,
      "fl": 764,
      "Ġ8": 765,
      "Ġ?": 766,
      "ĠGod": 767,
      "ady": 768,
      "Ġnat": 769,
      "me": 770,
      "Ġ!": 771,
      "Ġgener": 772,
      "ĠU": 773,
      "Ġsee": 774,
      "Ġop": 775,
      "Ġpass": 776,
      "arge": 777,
      "form": 778,
      "der": 779,
      "ollow": 780,
      "tend": 781,
      "its": 782,
      "ER": 783,
      "ail": 784,
      "ertain": 785,
      "rough": 786,
      "Ġcall": 787,
      "Ġcomp": 788,
      "ible": 789,
      "Ġhand": 790,
      "cre": 791,
      "ĠY": 792,
      "Ġlittle": 793,
      "ts": 794,
      "rist": 795,
      "Ġsupp": 796,
      "ants": 797,
      "Ġeven": 798,
      "Ġbec": 799,
      "Ġco": 800,
      "Ġwithout": 801,
      "ĠBut": 802,
      "Ġmen": 803,
      "which": 804,
      "ither": 805,
      "Ġinst": 806,
      "Ġcount": 807,
      "Ġreg": 808,
      "Ġcol": 809,
      "ĠLord": 810,
      "erm": 811,
      "Ġgiv": 812,
      "Ġ|": 813,
      "Ġmight": 814,
      "ently": 815,
      "ted": 816,
      "ĠEng": 817,
      "vers": 818,
      "Ġdid": 819,
      "Ġocc": 820,
      "Ġear": 821,
      "arm": 822,
      "Ġday": 823,
      "Ġpers": 824,
      "urch": 825,
      "up": 826,
      "Ġ&": 827,
      "ĠAnd": 828,
      "ĠĠĠĠĠĠĠĠ": 829,
      "und": 830,
      "ince": 831,
      "lect": 832,
      "ins": 833,
      "Ġext": 834,
      "ĠSe": 835,
      "Ġlet": 836,
      "Ġ7": 837,
      "ined": 838,
      "ures": 839,
      "ob": 840,
      "Ġgl": 841,
      "cy": 842,
      "Ġend": 843,
      "ited": 844,
      "Ġev": 845,
      "io": 846,
      "Ġtak": 847,
      ".)": 848,
      "ale": 849,
      "als": 850,
      "Ġpresent": 851,
      "ton": 852,
      "Ġgo": 853,
      "In": 854,
      "ON": 855,
      "imes": 856,
      "Ġsay": 857,
      "Ġfollow": 858,
      "ution": 859,
      "Ġass": 860,
      "ner": 861,
      "ĠThis": 862,
      "Ġact": 863,
      "ute": 864,
      "ider": 865,
      "Ġmake": 866,
      "Ġwork": 867,
      "Ġcar": 868,
      "Ġplace": 869,
      "less": 870,
      "ten": 871,
      "Ġnever": 872,
      "cept": 873,
      "Ġthrough": 874,
      "rest": 875,
      "ys": 876,
      "Ġexp": 877,
      "ene": 878,
      "Ġlast": 879,
      "pr": 880,
      "ters": 881,
      "rent": 882,
      "Ġrel": 883,
      "Ġhere": 884,
      "aid": 885,
      "ween": 886,
      "Ġsur": 887,
      "ew": 888,
      "wards": 889,
      "ments": 890,
      "ĠRe": 891,
      "Ġind": 892,
      "Ġrec": 893,
      "oun": 894,
      "ety": 895,
      "Ġpur": 896,
      "ared": 897,
      "Ġ17": 898,
      "00": 899,
      "Ġthree": 900,
      "fer": 901,
      "ived": 902,
      "get": 903,
      "Ġret": 904,
      "ient": 905,
      "Ġyet": 906,
      "Ġlife": 907,
      "ities": 908,
      "ention": 909,
      "ople": 910,
      "ock": 911,
      "Ġyears": 912,
      "ont": 913,
      "ches": 914,
      "ohn": 915,
      "Ġchar": 916,
      "Ġword": 917,
      "Ġeach": 918,
      "Ġpub": 919,
      "Ġnum": 920,
      "was": 921,
      "Ġhimself": 922,
      ".-": 923,
      "),": 924,
      "ating": 925,
      "ĠCom": 926,
      "ĠWh": 927,
      "Ġold": 928,
      "Ġadd": 929,
      "ceed": 930,
      "ason": 931,
      "ases": 932,
      "Ġnor": 933,
      "Ġseem": 934,
      "Ġstr": 935,
      "ific": 936,
      "Ġagainst": 937,
      "su": 938,
      "Ġcour": 939,
      "Ġinter": 940,
      "Ġposs": 941,
      "Ġnew": 942,
      "Â«": 943,
      "Ġdown": 944,
      "ĠDe": 945,
      "Ġtoo": 946,
      "Ġhaving": 947,
      "way": 948,
      "ĠChrist": 949,
      "Ġte": 950,
      "Ġjust": 951,
      "Ġsl": 952,
      "--": 953,
      "ised": 954,
      "pro": 955,
      "Ġsec": 956,
      "here": 957,
      "Ġet": 958,
      "tion": 959,
      "Ġnear": 960,
      "riend": 961,
      "uring": 962,
      "lish": 963,
      "ss": 964,
      "Ġboth": 965,
      "Ġmar": 966,
      "Ġway": 967,
      "but": 968,
      "serv": 969,
      "Ġsmall": 970,
      "irc": 971,
      "ody": 972,
      "ried": 973,
      "mer": 974,
      "ances": 975,
      "Ġsy": 976,
      "Ġint": 977,
      "Ġinte": 978,
      "Ġcond": 979,
      "Ġke": 980,
      "ĠSir": 981,
      "Ġwhole": 982,
      "ffect": 983,
      "ern": 984,
      "Ġcor": 985,
      "ES": 986,
      "Ġfar": 987,
      "any": 988,
      "Ġadv": 989,
      "Ġvar": 990,
      "Ġstill": 991,
      "men": 992,
      "Ġbetween": 993,
      "ired": 994,
      "II": 995,
      "Ġset": 996,
      "most": 997,
      "ged": 998,
      "Ġest": 999,
      "Ġ16": 1000,
      "Ġthough": 1001,
      "rown": 1002,
      "Ġpar": 1003,
      "selves": 1004,
      "ĠAr": 1005,
      "br": 1006,
      "ines": 1007,
      "Ġ9": 1008,
      "ĠAn": 1009,
      "hing": 1010,
      "Ġtake": 1011,
      "Ġread": 1012,
      "Ġwater": 1013,
      "Ġthink": 1014,
      "Ġconf": 1015,
      "ool": 1016,
      "ury": 1017,
      "mon": 1018,
      "Ġca": 1019,
      "Ġgive": 1020,
      "Ġmon": 1021,
      "ours": 1022,
      "Ġname": 1023,
      "ier": 1024,
      "Ġart": 1025,
      "Ġple": 1026,
      "AN": 1027,
      "ĠWe": 1028,
      "Ġcase": 1029,
      "oub": 1030,
      "Ġwr": 1031,
      "IN": 1032,
      "Ġright": 1033,
      "Ġrece": 1034,
      "ately": 1035,
      "Ġlarge": 1036,
      "Ġpower": 1037,
      "med": 1038,
      "Ġprodu": 1039,
      "Ġuse": 1040,
      "EN": 1041,
      "inci": 1042,
      "Ġever": 1043,
      "Ġcertain": 1044,
      "Ġcalled": 1045,
      "ably": 1046,
      "uthor": 1047,
      "Ġ^": 1048,
      "Ġ10": 1049,
      "ric": 1050,
      "Ġcome": 1051,
      "Ġless": 1052,
      "Ġsubject": 1053,
      "Ġgiven": 1054,
      "Ġfind": 1055,
      "Ġho": 1056,
      "aug": 1057,
      "Ġkind": 1058,
      "Ġpoint": 1059,
      "alf": 1060,
      "Ġbeg": 1061,
      "af": 1062,
      "par": 1063,
      "arn": 1064,
      "ages": 1065,
      "Ġhowever": 1066,
      "Ġpeople": 1067,
      "Ġanother": 1068,
      "Ġlook": 1069,
      "outh": 1070,
      "He": 1071,
      "Ġins": 1072,
      "iam": 1073,
      "Ġserv": 1074,
      "ered": 1075,
      "vel": 1076,
      "ps": 1077,
      "Ġfew": 1078,
      "Ġhead": 1079,
      "ior": 1080,
      "att": 1081,
      "ĠJohn": 1082,
      "ield": 1083,
      "from": 1084,
      "iew": 1085,
      "ium": 1086,
      "It": 1087,
      "ye": 1088,
      "ative": 1089,
      "Ġtra": 1090,
      "fic": 1091,
      "Ġconsider": 1092,
      "Ġcountry": 1093,
      "Ġamong": 1094,
      "Ġthought": 1095,
      "Ġ15": 1096,
      "Ġgra": 1097,
      "Ġheart": 1098,
      "Ġyear": 1099,
      "Ġrest": 1100,
      "Ġadm": 1101,
      "Ġph": 1102,
      "Wh": 1103,
      "Ġput": 1104,
      "rence": 1105,
      "ius": 1106,
      "Ġunt": 1107,
      "ting": 1108,
      "ley": 1109,
      "oint": 1110,
      "ened": 1111,
      "Ġbo": 1112,
      "Ġmin": 1113,
      "ax": 1114,
      "aj": 1115,
      "Ġii": 1116,
      "overn": 1117,
      "cul": 1118,
      "Ġes": 1119,
      "Ġwhile": 1120,
      "ural": 1121,
      "Ġwhom": 1122,
      "ĠQ": 1123,
      "AR": 1124,
      "ĠPr": 1125,
      "tern": 1126,
      "Ġfriend": 1127,
      "vent": 1128,
      "Ġlaw": 1129,
      "Ġx": 1130,
      "Ġ12": 1131,
      "Ġdiffe": 1132,
      "ec": 1133,
      "ways": 1134,
      "Ġdisc": 1135,
      "Ġtaken": 1136,
      "ĠDr": 1137,
      "Ġbre": 1138,
      "Ġstate": 1139,
      "inal": 1140,
      "Ġcirc": 1141,
      "Ġking": 1142,
      "ĠAs": 1143,
      "Ġpri": 1144,
      "Ġsim": 1145,
      "tained": 1146,
      "aking": 1147,
      "uc": 1148,
      "ery": 1149,
      "ides": 1150,
      "Ġeffect": 1151,
      "ford": 1152,
      "port": 1153,
      "aps": 1154,
      "ondon": 1155,
      "Ġfour": 1156,
      "Ġed": 1157,
      "Ġdet": 1158,
      "ude": 1159,
      "ote": 1160,
      "ament": 1161,
      "ually": 1162,
      "eng": 1163,
      "Ġhigh": 1164,
      "Ġ*": 1165,
      "Ġland": 1166,
      "Ġconst": 1167,
      "ief": 1168,
      "pend": 1169,
      "ms": 1170,
      "Ġmind": 1171,
      "ah": 1172,
      "AL": 1173,
      "Ġthy": 1174,
      "Ġrequ": 1175,
      "his": 1176,
      "Ġgeneral": 1177,
      "Ġmod": 1178,
      "ling": 1179,
      "Ġsent": 1180,
      "mb": 1181,
      "Ġthus": 1182,
      "Ġcontin": 1183,
      "Ġdra": 1184,
      "ird": 1185,
      "ames": 1186,
      "Ġinde": 1187,
      "Ġnecess": 1188,
      "Ġval": 1189,
      "Ch": 1190,
      "Ġbest": 1191,
      "Ġtherefore": 1192,
      "Ġfa": 1193,
      "Ġworld": 1194,
      "ains": 1195,
      "Ġcannot": 1196,
      "ĠThey": 1197,
      "ffic": 1198,
      "aut": 1199,
      "Ġlight": 1200,
      "Ġabove": 1201,
      "OR": 1202,
      "Ġbelie": 1203,
      "Ġappear": 1204,
      "ee": 1205,
      "HE": 1206,
      "cted": 1207,
      "ided": 1208,
      "Ġdire": 1209,
      "Ġtru": 1210,
      "Ġorder": 1211,
      "bed": 1212,
      "Ġleft": 1213,
      "Ġsom": 1214,
      "ĠIf": 1215,
      "ai": 1216,
      "ert": 1217,
      "veral": 1218,
      "Ġplac": 1219,
      "Ġvol": 1220,
      "ret": 1221,
      "Ġmem": 1222,
      "ĠKing": 1223,
      "Ġpat": 1224,
      "acter": 1225,
      "ives": 1226,
      "Ġspec": 1227,
      "But": 1228,
      "posed": 1229,
      ").": 1230,
      "Ġlo": 1231,
      "Ġchild": 1232,
      "Ġtem": 1233,
      "ature": 1234,
      "Ġhum": 1235,
      "irit": 1236,
      "Ġothers": 1237,
      "gether": 1238,
      "Ġfull": 1239,
      "Ġopp": 1240,
      "Ġpartic": 1241,
      "Ġhon": 1242,
      "ĠMar": 1243,
      "my": 1244,
      "ased": 1245,
      "ison": 1246,
      "ility": 1247,
      "ĠPro": 1248,
      "ians": 1249,
      "Ġgu": 1250,
      "iness": 1251,
      "To": 1252,
      "Ġcent": 1253,
      "Ġtrans": 1254,
      "Ġ[": 1255,
      "ists": 1256,
      "ĠNo": 1257,
      "Ġdeath": 1258,
      "Ġside": 1259,
      "Ġauthor": 1260,
      "Ġfact": 1261,
      "Ġcame": 1262,
      "ae": 1263,
      "ĠAl": 1264,
      "Ġhouse": 1265,
      "cript": 1266,
      "Ġequ": 1267,
      "ham": 1268,
      "ĠÂ": 1269,
      "oman": 1270,
      "aster": 1271,
      "xt": 1272,
      "Ġ11": 1273,
      "Ġri": 1274,
      "Ġmatter": 1275,
      "ured": 1276,
      "Ġfam": 1277,
      "den": 1278,
      "Ġ,": 1279,
      "itted": 1280,
      "part": 1281,
      "Ġdiv": 1282,
      "use": 1283,
      "Ġlove": 1284,
      "Ġperson": 1285,
      "Ġbu": 1286,
      "Ġseen": 1287,
      "Ġref": 1288,
      "'t": 1289,
      "Ġobserv": 1290,
      "Ġrespect": 1291,
      "ĠLe": 1292,
      "ĠIs": 1293,
      "Ġinv": 1294,
      "une": 1295,
      "Ġprinci": 1296,
      "Ġreturn": 1297,
      "Ġproper": 1298,
      "ĠFor": 1299,
      "ense": 1300,
      "que": 1301,
      "AT": 1302,
      "oul": 1303,
      "atis": 1304,
      "Ġ14": 1305,
      "sequ": 1306,
      "ĠTo": 1307,
      "Ġcur": 1308,
      "Ġfo": 1309,
      "Ġmeans": 1310,
      "Ġcommon": 1311,
      "ĠThere": 1312,
      "ident": 1313,
      "ices": 1314,
      "ording": 1315,
      "Ġsol": 1316,
      "Ġche": 1317,
      "Ġser": 1318,
      "app": 1319,
      "well": 1320,
      "Ġnothing": 1321,
      "Ġexam": 1322,
      "Ġir": 1323,
      "ĠEd": 1324,
      "ination": 1325,
      "estion": 1326,
      "alk": 1327,
      "Ġill": 1328,
      "ĠSo": 1329,
      "Ġyoung": 1330,
      "gr": 1331,
      "ĠSp": 1332,
      "Ġbody": 1333,
      "no": 1334,
      "Ġcle": 1335,
      "Ġprov": 1336,
      "dom": 1337,
      "wor": 1338,
      "Ġmer": 1339,
      "ange": 1340,
      "unt": 1341,
      "Ġinterest": 1342,
      "Ġaccount": 1343,
      "Ġalways": 1344,
      "Mr": 1345,
      "ron": 1346,
      "Ġthou": 1347,
      "Ġonce": 1348,
      "Ġpublic": 1349,
      "Ġwhose": 1350,
      "Ġel": 1351,
      "Ġturn": 1352,
      "Ġseveral": 1353,
      "Ġstre": 1354,
      "have": 1355,
      "Ġ0": 1356,
      "Ġdone": 1357,
      "che": 1358,
      "son": 1359,
      "ott": 1360,
      "Ġcare": 1361,
      "Ġdel": 1362,
      "Ġsecond": 1363,
      ".'": 1364,
      "ĠHis": 1365,
      "asion": 1366,
      "ĠLondon": 1367,
      "tr": 1368,
      "Ġfre": 1369,
      "Ġnature": 1370,
      "Ġhapp": 1371,
      "Ġbecause": 1372,
      "Ġthings": 1373,
      "Ġdoes": 1374,
      "co": 1375,
      "ĠPh": 1376,
      "Ġmo": 1377,
      "ĠPar": 1378,
      "ĠEngland": 1379,
      "ane": 1380,
      "Ġeither": 1381,
      "ession": 1382,
      "Ġnumber": 1383,
      "Ġsoon": 1384,
      "ĠCl": 1385,
      "Ġbel": 1386,
      "Ġdi": 1387,
      "Ġhalf": 1388,
      "Ġduring": 1389,
      "Ġshow": 1390,
      "Ġoften": 1391,
      "ission": 1392,
      "asure": 1393,
      "ĠAt": 1394,
      "read": 1395,
      "ship": 1396,
      "tended": 1397,
      "apt": 1398,
      "Ġvis": 1399,
      "ĠOn": 1400,
      "ĠSc": 1401,
      "amp": 1402,
      "olog": 1403,
      "Ġdoub": 1404,
      "Ġ19": 1405,
      "Ġ13": 1406,
      "resent": 1407,
      "entle": 1408,
      "alth": 1409,
      "Ġdays": 1410,
      "Ġfr": 1411,
      "Ġthemselves": 1412,
      "idence": 1413,
      "ank": 1414,
      "Ġback": 1415,
      "ape": 1416,
      "Ġthing": 1417,
      "ĠInd": 1418,
      "Ġtri": 1419,
      "Ġused": 1420,
      "Ġaway": 1421,
      "ĠCol": 1422,
      "inn": 1423,
      "ues": 1424,
      "Ġsince": 1425,
      "rem": 1426,
      "ĠBe": 1427,
      "ism": 1428,
      "Ġreason": 1429,
      "val": 1430,
      "Ġwrit": 1431,
      "Ġtill": 1432,
      "vo": 1433,
      "Ġinfl": 1434,
      "haps": 1435,
      "Ġcharacter": 1436,
      "Ġport": 1437,
      "Ġfore": 1438,
      "IS": 1439,
      "Ġfollowing": 1440,
      "ĠSh": 1441,
      "ges": 1442,
      "pose": 1443,
      "bers": 1444,
      "Ġjud": 1445,
      "aves": 1446,
      "ploy": 1447,
      "Ġfeel": 1448,
      "ets": 1449,
      "pit": 1450,
      "Ġmet": 1451,
      "Ġce": 1452,
      "this": 1453,
      "Ġview": 1454,
      "iod": 1455,
      "ressed": 1456,
      "Ġbetter": 1457,
      "Ġdifferent": 1458,
      "Ġprof": 1459,
      "rew": 1460,
      "Ġcap": 1461,
      "Ġobject": 1462,
      "ained": 1463,
      "ĠCon": 1464,
      "Ġtreat": 1465,
      "Ġcases": 1466,
      "Ġcourse": 1467,
      "ĠWill": 1468,
      "Ġpract": 1469,
      "Ġstand": 1470,
      "Ġtrue": 1471,
      "empt": 1472,
      "Ġimport": 1473,
      "Ġmil": 1474,
      "Â»": 1475,
      "..": 1476,
      "rench": 1477,
      "Ġopen": 1478,
      "Ġdec": 1479,
      "Ġterm": 1480,
      "az": 1481,
      "aint": 1482,
      "ross": 1483,
      "Ġparts": 1484,
      "ster": 1485,
      "ĠEnglish": 1486,
      "Ġsucc": 1487,
      "let": 1488,
      "ring": 1489,
      "uss": 1490,
      "Ġbrought": 1491,
      "Ġsix": 1492,
      "Ġstrong": 1493,
      "Ġmed": 1494,
      "Ġshort": 1495,
      "Ġrather": 1496,
      "ung": 1497,
      "Ġsk": 1498,
      "Ġknown": 1499,
      "Ġson": 1500,
      "ards": 1501,
      "Ġmanner": 1502,
      "Ġ_": 1503,
      "Ġwar": 1504,
      "day": 1505,
      "Ġele": 1506,
      "stand": 1507,
      "ued": 1508,
      "owers": 1509,
      "gg": 1510,
      "Ġtook": 1511,
      "Ġinc": 1512,
      "Ġwords": 1513,
      "ience": 1514,
      "Ġten": 1515,
      "Ġwithin": 1516,
      "This": 1517,
      "yes": 1518,
      "IC": 1519,
      "Ġalmost": 1520,
      "wer": 1521,
      "osed": 1522,
      "ishop": 1523,
      "oura": 1524,
      "Ġprom": 1525,
      "avour": 1526,
      "cient": 1527,
      "urg": 1528,
      "Ġabs": 1529,
      "ĠPl": 1530,
      "Ġfall": 1531,
      "ĠNor": 1532,
      "Ġut": 1533,
      "Ġformer": 1534,
      "aring": 1535,
      "used": 1536,
      "alt": 1537,
      "ots": 1538,
      "Ġorig": 1539,
      "iar": 1540,
      "ĠNew": 1541,
      "ĠX": 1542,
      "Ġve": 1543,
      "lished": 1544,
      "ĠShe": 1545,
      "Ġfeet": 1546,
      "Ġfur": 1547,
      "Ġnight": 1548,
      "ister": 1549,
      "Ġfather": 1550,
      "ality": 1551,
      "ann": 1552,
      "Ġground": 1553,
      "Ġsays": 1554,
      "Ġconc": 1555,
      "ciety": 1556,
      "Ġord": 1557,
      "rance": 1558,
      "rs": 1559,
      "Ġfree": 1560,
      "Ġprob": 1561,
      "oe": 1562,
      "ĠBrit": 1563,
      "Ġbook": 1564,
      "ully": 1565,
      "Ġparticular": 1566,
      "Ġhard": 1567,
      "Ġcause": 1568,
      "Ġsil": 1569,
      "ony": 1570,
      "stem": 1571,
      "overed": 1572,
      "inion": 1573,
      "augh": 1574,
      "though": 1575,
      "aim": 1576,
      "who": 1577,
      "ified": 1578,
      "ĠAd": 1579,
      "Ġbro": 1580,
      "ĠThat": 1581,
      "reg": 1582,
      "they": 1583,
      "Ġ20": 1584,
      "Ġans": 1585,
      "inary": 1586,
      "ls": 1587,
      "Ġexper": 1588,
      "Ġhy": 1589,
      "rop": 1590,
      "ched": 1591,
      "ficult": 1592,
      "Ġwhether": 1593,
      "Ġcircum": 1594,
      "mit": 1595,
      "Ġsing": 1596,
      "Ġtre": 1597,
      "fort": 1598,
      "Ġheav": 1599,
      "etimes": 1600,
      "Ġver": 1601,
      "Ġwant": 1602,
      "Ġinf": 1603,
      "err": 1604,
      "ĠEx": 1605,
      "ples": 1606,
      "owed": 1607,
      "oms": 1608,
      "irm": 1609,
      "ni": 1610,
      "ying": 1611,
      "itu": 1612,
      "Ġbeaut": 1613,
      "Ġblood": 1614,
      "ows": 1615,
      "gy": 1616,
      "Ġair": 1617,
      "Ġla": 1618,
      "Ġhands": 1619,
      "Ġcal": 1620,
      "ĠOr": 1621,
      "Ġdoubt": 1622,
      "duced": 1623,
      "oney": 1624,
      "medi": 1625,
      "new": 1626,
      "their": 1627,
      "cil": 1628,
      "ics": 1629,
      "Ġlib": 1630,
      "Ġanim": 1631,
      "arch": 1632,
      "had": 1633,
      "were": 1634,
      "itions": 1635,
      "Ġindeed": 1636,
      "Ġtown": 1637,
      "Ġtell": 1638,
      "Ġeas": 1639,
      "18": 1640,
      "Ġsum": 1641,
      "Ġmis": 1642,
      "Ġdise": 1643,
      "bs": 1644,
      "Ġsuper": 1645,
      "Ġwent": 1646,
      "Ġtimes": 1647,
      "rely": 1648,
      "iving": 1649,
      "ze": 1650,
      "Ġitself": 1651,
      "St": 1652,
      "pre": 1653,
      "Ġlab": 1654,
      "Ġpain": 1655,
      "ready": 1656,
      "inct": 1657,
      "akes": 1658,
      "Ġthee": 1659,
      "Ġmeet": 1660,
      "ĠCo": 1661,
      "chool": 1662,
      "Ġsw": 1663,
      "ledge": 1664,
      "Ġnext": 1665,
      "Ġmean": 1666,
      "ti": 1667,
      "Ġtogether": 1668,
      "Ġoccasion": 1669,
      "Ġreceived": 1670,
      "overnment": 1671,
      "Ġemploy": 1672,
      "them": 1673,
      "Ġchurch": 1674,
      "ica": 1675,
      "Ġspirit": 1676,
      "Ġdest": 1677,
      "arl": 1678,
      "Ġleast": 1679,
      "ien": 1680,
      "arg": 1681,
      "ught": 1682,
      "Ġaccording": 1683,
      "ength": 1684,
      "ĠWhen": 1685,
      "Ġkeep": 1686,
      "sp": 1687,
      "ĠChurch": 1688,
      "ina": 1689,
      "oud": 1690,
      "stances": 1691,
      "Ġgave": 1692,
      "10": 1693,
      "iet": 1694,
      "urs": 1695,
      "Ġhor": 1696,
      "aving": 1697,
      "Ġcr": 1698,
      "Ġpol": 1699,
      "range": 1700,
      "Ġnecessary": 1701,
      "cell": 1702,
      "iter": 1703,
      "idd": 1704,
      "Ġcomple": 1705,
      "orm": 1706,
      "Ġchief": 1707,
      "ash": 1708,
      "pper": 1709,
      "ĠHen": 1710,
      "Ġearth": 1711,
      "eds": 1712,
      "Ġincre": 1713,
      "enty": 1714,
      "erous": 1715,
      "Ġhist": 1716,
      "Ġresult": 1717,
      ",'": 1718,
      "Ġround": 1719,
      "ising": 1720,
      "CH": 1721,
      "uct": 1722,
      "ĠBr": 1723,
      "Ġpos": 1724,
      "Ġquestion": 1725,
      "Ġperiod": 1726,
      "Ġregard": 1727,
      "Ġbene": 1728,
      "peci": 1729,
      "ached": 1730,
      "Ġgentle": 1731,
      "Ġdev": 1732,
      "ision": 1733,
      "Ġste": 1734,
      "Ġru": 1735,
      "Ġsign": 1736,
      "lor": 1737,
      "sc": 1738,
      "ume": 1739,
      "Ġexist": 1740,
      "ĠBy": 1741,
      "Ġdeg": 1742,
      "rie": 1743,
      "IT": 1744,
      "eter": 1745,
      "uke": 1746,
      "fully": 1747,
      "ĠFrench": 1748,
      "Ġeyes": 1749,
      "lo": 1750,
      "ize": 1751,
      "Ġeng": 1752,
      "Ġproceed": 1753,
      "Ġtruth": 1754,
      "Ġdifficult": 1755,
      "Ġask": 1756,
      "Ġsuccess": 1757,
      "Ġdef": 1758,
      "Ġget": 1759,
      "We": 1760,
      "arent": 1761,
      "undred": 1762,
      "ement": 1763,
      "Ġfine": 1764,
      "ference": 1765,
      "hib": 1766,
      "cribed": 1767,
      "Ġlead": 1768,
      "Ġcontain": 1769,
      "Ġbeh": 1770,
      "reen": 1771,
      "what": 1772,
      "Ã©": 1773,
      "Ġpoor": 1774,
      "Ġlatter": 1775,
      "ounds": 1776,
      "ilt": 1777,
      "ĠĠĠ": 1778,
      "bert": 1779,
      "ĠPo": 1780,
      "ized": 1781,
      "Ġexcept": 1782,
      "Ġhope": 1783,
      "Ġdecl": 1784,
      "ĠGe": 1785,
      "irt": 1786,
      "lig": 1787,
      "Ġperhaps": 1788,
      "Ġincl": 1789,
      "thing": 1790,
      "fact": 1791,
      "As": 1792,
      "erve": 1793,
      "LE": 1794,
      "Ġmonth": 1795,
      "Ġbelieve": 1796,
      "there": 1797,
      "For": 1798,
      "ries": 1799,
      "Ġfell": 1800,
      "Ġquite": 1801,
      "Ġsaw": 1802,
      "UR": 1803,
      "ruct": 1804,
      "Ġgenerally": 1805,
      "Ġclass": 1806,
      "him": 1807,
      "ining": 1808,
      "gan": 1809,
      "Ġfaith": 1810,
      "omen": 1811,
      "aper": 1812,
      "Ġpersons": 1813,
      "arr": 1814,
      "cing": 1815,
      "oured": 1816,
      "Ġrelig": 1817,
      "iment": 1818,
      "face": 1819,
      "eneral": 1820,
      "then": 1821,
      "Ġacqu": 1822,
      "Ġred": 1823,
      "ats": 1824,
      "angu": 1825,
      "Ġwhite": 1826,
      "Ġfrequ": 1827,
      "Ġspeak": 1828,
      "Ġmention": 1829,
      "Ġstud": 1830,
      "That": 1831,
      "yn": 1832,
      "Ġlate": 1833,
      "Ġgrow": 1834,
      "Ġprev": 1835,
      "Ġbecome": 1836,
      "Ġage": 1837,
      "Ġwind": 1838,
      "Ġseems": 1839,
      "ones": 1840,
      "Ġheard": 1841,
      "ĠĠĠĠĠĠĠĠĠĠĠĠĠĠĠĠ": 1842,
      "Ġoper": 1843,
      "An": 1844,
      "ek": 1845,
      "ral": 1846,
      "iol": 1847,
      "ĠRo": 1848,
      "Ġlearn": 1849,
      "Ġpay": 1850,
      "ĠTr": 1851,
      "Ġhold": 1852,
      "Ġconsequ": 1853,
      "Â°": 1854,
      "oment": 1855,
      "ises": 1856,
      "ĠMan": 1857,
      "Ġvarious": 1858,
      "position": 1859,
      "wise": 1860,
      "ney": 1861,
      "oice": 1862,
      "Ġlay": 1863,
      "po": 1864,
      "Ġlength": 1865,
      "ering": 1866,
      "ĠWilliam": 1867,
      "agn": 1868,
      "12": 1869,
      "wo": 1870,
      "yl": 1871,
      "comm": 1872,
      "iff": 1873,
      "Ġperfect": 1874,
      "Ġdut": 1875,
      "Ġletter": 1876,
      "Ġsuffic": 1877,
      "Ġaccom": 1878,
      "ands": 1879,
      "Ġsystem": 1880,
      "vol": 1881,
      "gen": 1882,
      "lied": 1883,
      "Ġremark": 1884,
      "Ġcut": 1885,
      "Ġdr": 1886,
      "Ġbus": 1887,
      "tic": 1888,
      "ils": 1889,
      "do": 1890,
      "bl": 1891,
      "cret": 1892,
      "where": 1893,
      "Ġlord": 1894,
      "por": 1895,
      "been": 1896,
      "ĠYou": 1897,
      "Ġtowards": 1898,
      "ilar": 1899,
      "usion": 1900,
      "ĠEs": 1901,
      "Ġacid": 1902,
      "more": 1903,
      "Ġalready": 1904,
      "Ġsac": 1905,
      "will": 1906,
      "Ġwa": 1907,
      "Ġopinion": 1908,
      ".]": 1909,
      "Ġgreater": 1910,
      "Ġexpress": 1911,
      "16": 1912,
      "Ġ25": 1913,
      "Ġaction": 1914,
      "Ġbar": 1915,
      "Ġsometimes": 1916,
      "15": 1917,
      "ĠChar": 1918,
      "Ġfort": 1919,
      "illed": 1920,
      "Ġfive": 1921,
      "atch": 1922,
      "Ġmain": 1923,
      "Ġexpl": 1924,
      "Ġsoul": 1925,
      "Ġleg": 1926,
      "Ġline": 1927,
      "stance": 1928,
      "Ġhath": 1929,
      "17": 1930,
      "Ġdirect": 1931,
      "Ġnatural": 1932,
      "Ġfig": 1933,
      "els": 1934,
      "min": 1935,
      "know": 1936,
      "otion": 1937,
      "Ġpurpose": 1938,
      "Ġmark": 1939,
      "Ġtold": 1940,
      "Ġinform": 1941,
      "Ġmus": 1942,
      "ĠWhat": 1943,
      "Ġspecies": 1944,
      "Ġexc": 1945,
      "lf": 1946,
      "On": 1947,
      "Ġchildren": 1948,
      "itude": 1949,
      "mn": 1950,
      "Ġwit": 1951,
      "hy": 1952,
      "Ġheld": 1953,
      "Ġann": 1954,
      "pri": 1955,
      "atic": 1956,
      "ata": 1957,
      "isc": 1958,
      "Ġdeep": 1959,
      "Ġide": 1960,
      "Ġhundred": 1961,
      "Ġ24": 1962,
      "Ġclose": 1963,
      "Ġhuman": 1964,
      "Ġentire": 1965,
      "amm": 1966,
      "str": 1967,
      "cial": 1968,
      "lected": 1969,
      "under": 1970,
      "Ġappears": 1971,
      "ixed": 1972,
      "Ġmor": 1973,
      "elt": 1974,
      "Ġsun": 1975,
      "bit": 1976,
      "orning": 1977,
      "omas": 1978,
      "Ġtlie": 1979,
      "ales": 1980,
      "Ġ22": 1981,
      "Ġuntil": 1982,
      "esty": 1983,
      "idered": 1984,
      "ument": 1985,
      "Ġappro": 1986,
      "Ġimmedi": 1987,
      "ead": 1988,
      "ences": 1989,
      "inc": 1990,
      "Ġaff": 1991,
      "Ġpriv": 1992,
      "Ġface": 1993,
      "iful": 1994,
      "Ġnearly": 1995,
      "Ġlim": 1996,
      "Ġfin": 1997,
      "Ġconne": 1998,
      "nal": 1999,
      "No": 2000,
      "Ġoffic": 2001,
      "iously": 2002,
      "Ġfamily": 2003,
      "Ġneed": 2004,
      "Ġexpect": 2005,
      "Ġsea": 2006,
      "Ġ30": 2007,
      "pecially": 2008,
      "Ġfair": 2009,
      "uro": 2010,
      "Ġbring": 2011,
      "Ġought": 2012,
      "Ġquant": 2013,
      "Ġswe": 2014,
      "Ġunto": 2015,
      "Ġhome": 2016,
      "idge": 2017,
      "ĠZ": 2018,
      "Ġclear": 2019,
      "ĠGr": 2020,
      "sec": 2021,
      "ĠMay": 2022,
      "ĠAf": 2023,
      "you": 2024,
      "inter": 2025,
      "uted": 2026,
      "OL": 2027,
      "itten": 2028,
      "Ġpost": 2029,
      "ev": 2030,
      "Ġdark": 2031,
      "ounded": 2032,
      "na": 2033,
      "Ġplaced": 2034,
      "Ġable": 2035,
      "14": 2036,
      "semb": 2037,
      "raph": 2038,
      "ourt": 2039,
      "Ġsatis": 2040,
      "ator": 2041,
      "erc": 2042,
      "ember": 2043,
      "Ġpassed": 2044,
      "Ġwood": 2045,
      "like": 2046,
      "Ġ23": 2047,
      "Ġenough": 2048,
      "Ġfurther": 2049,
      "EL": 2050,
      "ĠAll": 2051,
      "US": 2052,
      "iii": 2053,
      "Ġreal": 2054,
      "poss": 2055,
      "Ġpray": 2056,
      "13": 2057,
      "Ġcity": 2058,
      "Ġearly": 2059,
      "uly": 2060,
      "Ġalone": 2061,
      "iety": 2062,
      "Ġestab": 2063,
      "Ġfire": 2064,
      "ouncil": 2065,
      "ĠPe": 2066,
      "bo": 2067,
      "pond": 2068,
      "can": 2069,
      "Ġworth": 2070,
      "uous": 2071,
      "Ġdisease": 2072,
      "acy": 2073,
      "Ġremain": 2074,
      "ĠMed": 2075,
      "Ġformed": 2076,
      "Ġforce": 2077,
      "cend": 2078,
      "Ġpen": 2079,
      "aughter": 2080,
      "lection": 2081,
      "reet": 2082,
      "ĠHenry": 2083,
      "ION": 2084,
      "Ġrun": 2085,
      "would": 2086,
      "Ġmoment": 2087,
      "AP": 2088,
      "Ġworks": 2089,
      "ĠHouse": 2090,
      "ĠMrs": 2091,
      "ĠHer": 2092,
      "Ġtho": 2093,
      "oke": 2094,
      "ires": 2095,
      "Ġrepresent": 2096,
      "IL": 2097,
      "ift": 2098,
      "Ġbur": 2099,
      "hab": 2100,
      "orts": 2101,
      "pan": 2102,
      "ĠThese": 2103,
      "Ġcommand": 2104,
      "Ġpossess": 2105,
      "ĠAb": 2106,
      "Ġplant": 2107,
      "Ġleave": 2108,
      "uses": 2109,
      "Ġmoney": 2110,
      "ively": 2111,
      "go": 2112,
      "ested": 2113,
      "Ġinflu": 2114,
      "liament": 2115,
      "Ġeye": 2116,
      "pid": 2117,
      "Ġgen": 2118,
      "aste": 2119,
      "Ġ/": 2120,
      "There": 2121,
      "Ġpossible": 2122,
      "bour": 2123,
      "Ġstat": 2124,
      "rary": 2125,
      "orge": 2126,
      "ĠOF": 2127,
      "Ġdied": 2128,
      "ĠHow": 2129,
      "Ġimpro": 2130,
      "ler": 2131,
      "iction": 2132,
      "when": 2133,
      "uck": 2134,
      "Ġcolour": 2135,
      "eb": 2136,
      "Of": 2137,
      "ĠFrance": 2138,
      "Ġcommun": 2139,
      "Ġconcl": 2140,
      "Ġsuff": 2141,
      "ĠBl": 2142,
      "vere": 2143,
      "ken": 2144,
      "Ġintro": 2145,
      "Ġmyself": 2146,
      "ulation": 2147,
      "ĠII": 2148,
      "With": 2149,
      "Ġpie": 2150,
      "pal": 2151,
      "When": 2152,
      "Ġarri": 2153,
      "RE": 2154,
      "cent": 2155,
      "Ġwife": 2156,
      "THE": 2157,
      "Ġsal": 2158,
      "11": 2159,
      "Ġbuild": 2160,
      "cious": 2161,
      "stit": 2162,
      "Ġden": 2163,
      "Ġblack": 2164,
      "ething": 2165,
      "Ġdang": 2166,
      "aul": 2167,
      "Ġwall": 2168,
      "ext": 2169,
      "Ġhear": 2170,
      "ork": 2171,
      "attle": 2172,
      "ĠComm": 2173,
      "Ġsitu": 2174,
      "fend": 2175,
      "Ġfear": 2176,
      "Ġship": 2177,
      "ĠMaj": 2178,
      "Ġhig": 2179,
      "ĠAct": 2180,
      "night": 2181,
      "Ġscar": 2182,
      "Ġpeace": 2183,
      "ency": 2184,
      "fa": 2185,
      "Ġsense": 2186,
      "cription": 2187,
      "Ġfavour": 2188,
      "oved": 2189,
      "iting": 2190,
      "ouble": 2191,
      "Ġlie": 2192,
      "istr": 2193,
      "ĠChristian": 2194,
      "Ġ28": 2195,
      "ĠUn": 2196,
      "Ġobtained": 2197,
      "fered": 2198,
      "ĠAmer": 2199,
      "ingu": 2200,
      "ethod": 2201,
      "upon": 2202,
      "Ġcompl": 2203,
      "ruction": 2204,
      "Ġcast": 2205,
      "Ġmaking": 2206,
      "ui": 2207,
      "rect": 2208,
      "Ġmother": 2209,
      "Ġcarried": 2210,
      "ibus": 2211,
      "Ġbecame": 2212,
      "Ġ26": 2213,
      "cience": 2214,
      "Ġtwenty": 2215,
      "At": 2216,
      "AS": 2217,
      "rupt": 2218,
      "Ġkept": 2219,
      "Ġsepar": 2220,
      "TER": 2221,
      "acc": 2222,
      "Ġattention": 2223,
      "yr": 2224,
      "Ġmount": 2225,
      "Ġthous": 2226,
      "ferred": 2227,
      "amed": 2228,
      "Ġprobably": 2229,
      "some": 2230,
      "ouses": 2231,
      "Ġsus": 2232,
      "Ġafterwards": 2233,
      "Ġlow": 2234,
      "oyal": 2235,
      "Ġdeterm": 2236,
      "Ġknowledge": 2237,
      "opt": 2238,
      "ĠLet": 2239,
      "oly": 2240,
      "ointed": 2241,
      "wing": 2242,
      "Ġaffect": 2243,
      "has": 2244,
      "Ġpop": 2245,
      "fection": 2246,
      "uded": 2247,
      "Ġforth": 2248,
      "king": 2249,
      "Ġ27": 2250,
      "Ġconv": 2251,
      "Ġdem": 2252,
      "Ġsle": 2253,
      "Ġpast": 2254,
      "Ġcourt": 2255,
      "aries": 2256,
      "Ġbes": 2257,
      "Ġanswer": 2258,
      "Ġdear": 2259,
      "urope": 2260,
      "Ġhel": 2261,
      "aff": 2262,
      "Ġoccur": 2263,
      "Ġattempt": 2264,
      "ED": 2265,
      "Ġbrother": 2266,
      "ĠBritish": 2267,
      "ustr": 2268,
      "portion": 2269,
      "roy": 2270,
      "gment": 2271,
      "AM": 2272,
      "Ġlost": 2273,
      "culiar": 2274,
      "ear": 2275,
      "Ġenem": 2276,
      "Ġgold": 2277,
      "Ġaw": 2278,
      "ites": 2279,
      "Ġves": 2280,
      "tered": 2281,
      "cont": 2282,
      "Ġinj": 2283,
      "Ġsimilar": 2284,
      "gress": 2285,
      "phe": 2286,
      "Ġmorning": 2287,
      "antly": 2288,
      "ivid": 2289,
      "Ġbra": 2290,
      "cle": 2291,
      "Ġconcern": 2292,
      "Ġservice": 2293,
      "Ġancient": 2294,
      "Ġsin": 2295,
      "lled": 2296,
      "des": 2297,
      "Ġdead": 2298,
      "Ġschool": 2299,
      "Ġhistory": 2300,
      "Ġft": 2301,
      "Ġneg": 2302,
      "ĠAm": 2303,
      "If": 2304,
      "may": 2305,
      "Ġsupport": 2306,
      "Ġdegree": 2307,
      "ĠCor": 2308,
      "ĠAug": 2309,
      "Ġespecially": 2310,
      "long": 2311,
      "certain": 2312,
      "Ġsens": 2313,
      "arden": 2314,
      "Ġhonour": 2315,
      "20": 2316,
      "Ġobserved": 2317,
      "Ġbelong": 2318,
      "Ġthird": 2319,
      "Ġsym": 2320,
      "Ġder": 2321,
      "Ġfriends": 2322,
      "ns": 2323,
      "Ġfif": 2324,
      "iddle": 2325,
      "Ġdoct": 2326,
      "anged": 2327,
      "tee": 2328,
      "after": 2329,
      "ĠBar": 2330,
      "Ġlangu": 2331,
      "erman": 2332,
      "Ġproduced": 2333,
      "Ġwoman": 2334,
      "Ġstri": 2335,
      "ald": 2336,
      "Ġadvant": 2337,
      "ĠSee": 2338,
      "Ġcold": 2339,
      "ops": 2340,
      "ille": 2341,
      "Ġconsidered": 2342,
      "Ġfoot": 2343,
      "anc": 2344,
      "Ġund": 2345,
      "Ġalthough": 2346,
      "Ġfat": 2347,
      "house": 2348,
      "Ġamount": 2349,
      "oted": 2350,
      "Ġang": 2351,
      "Ġwish": 2352,
      "Ġsold": 2353,
      "Ġcontinued": 2354,
      "cons": 2355,
      "ĠQu": 2356,
      "col": 2357,
      "aken": 2358,
      "Ġsurface": 2359,
      "Ġcondition": 2360,
      "Ġbad": 2361,
      "Ġcomplete": 2362,
      "je": 2363,
      "spe": 2364,
      "Ġ29": 2365,
      "yond": 2366,
      "Ġconsiderable": 2367,
      "ational": 2368,
      "Ġbran": 2369,
      "ha": 2370,
      "Ġgot": 2371,
      "ĠPer": 2372,
      "Ġeight": 2373,
      "pped": 2374,
      "reme": 2375,
      "Ġplants": 2376,
      "oo": 2377,
      "Ġknew": 2378,
      "Ġfru": 2379,
      "Ġneither": 2380,
      "Ar": 2381,
      "Ġcop": 2382,
      "Ġroom": 2383,
      "Ġdep": 2384,
      "ning": 2385,
      "Ġdesign": 2386,
      "ams": 2387,
      "Ġliber": 2388,
      "appe": 2389,
      "Ġperform": 2390,
      "ills": 2391,
      "Ġartic": 2392,
      "Ġquar": 2393,
      "ov": 2394,
      "ĠMe": 2395,
      "ĠEsq": 2396,
      "imate": 2397,
      "utes": 2398,
      "ĠThomas": 2399,
      "ux": 2400,
      "iments": 2401,
      "Ġlaid": 2402,
      "Ġappeared": 2403,
      "set": 2404,
      "than": 2405,
      "Ġ\\": 2406,
      "ING": 2407,
      "rey": 2408,
      "19": 2409,
      "Ġimportant": 2410,
      "ĠÂ£": 2411,
      "Ġalong": 2412,
      "ĠJames": 2413,
      "Ġpra": 2414,
      "Ġstra": 2415,
      "Ġwritten": 2416,
      "Ġlive": 2417,
      "airs": 2418,
      "Ġslight": 2419,
      "OT": 2420,
      "Ġchange": 2421,
      "iver": 2422,
      "ĠMy": 2423,
      "Ġoccup": 2424,
      "Ġleaves": 2425,
      "Ġtest": 2426,
      "Ġfelt": 2427,
      "Ġhealth": 2428,
      "omin": 2429,
      "Ġseemed": 2430,
      "ox": 2431,
      "bon": 2432,
      "respond": 2433,
      "Ġplaces": 2434,
      "Ġsuc": 2435,
      "aly": 2436,
      "Ġgoing": 2437,
      "pers": 2438,
      "lege": 2439,
      "Ġhour": 2440,
      "Ġvalue": 2441,
      "Ġfail": 2442,
      "lex": 2443,
      "Ġfac": 2444,
      "Ġexhib": 2445,
      "Ġstreng": 2446,
      "ribut": 2447,
      "Ġwond": 2448,
      "Ġtit": 2449,
      "ĠĊ": 2450,
      "Ġlady": 2451,
      "Ġquantity": 2452,
      "joy": 2453,
      "Ġequal": 2454,
      "ET": 2455,
      "itary": 2456,
      "ĠNot": 2457,
      "Ġsomething": 2458,
      "Ġexec": 2459,
      "pet": 2460,
      "Ġoblig": 2461,
      "Ġforms": 2462,
      "Ġmater": 2463,
      "ĠWith": 2464,
      "ital": 2465,
      "Ġty": 2466,
      "great": 2467,
      "Ġportion": 2468,
      "mo": 2469,
      "ords": 2470,
      "bes": 2471,
      "ĠLady": 2472,
      "Ġda": 2473,
      "ospit": 2474,
      "Ġattend": 2475,
      "Ġmaster": 2476,
      "atever": 2477,
      "AC": 2478,
      "Ġorigin": 2479,
      "30": 2480,
      "Ġtemper": 2481,
      "tle": 2482,
      "Ġpeculiar": 2483,
      "olic": 2484,
      "Ġprevent": 2485,
      "vi": 2486,
      "ND": 2487,
      "ulph": 2488,
      "Ġoppos": 2489,
      "Ġconce": 2490,
      "Ġpict": 2491,
      "Ġemployed": 2492,
      "OM": 2493,
      "gu": 2494,
      "Ġplay": 2495,
      "ĠSociety": 2496,
      "Ġer": 2497,
      "Ġsure": 2498,
      "aged": 2499,
      "come": 2500,
      "ĠWest": 2501,
      "Ġsufficient": 2502,
      "ĠTHE": 2503,
      "riage": 2504,
      "sion": 2505,
      "Ġassist": 2506,
      "Ġimag": 2507,
      "ĠScot": 2508,
      "iu": 2509,
      "mitted": 2510,
      "Ġpaper": 2511,
      "Ġmiles": 2512,
      "Ġnone": 2513,
      "Ġbecom": 2514,
      "cr": 2515,
      "ĠEm": 2516,
      "orough": 2517,
      "ĠQue": 2518,
      "itting": 2519,
      "Ġvirt": 2520,
      "Ġresol": 2521,
      "Ġmentioned": 2522,
      "ify": 2523,
      "gar": 2524,
      "So": 2525,
      "Al": 2526,
      "Ġriver": 2527,
      "ĠEurope": 2528,
      "aded": 2529,
      "Be": 2530,
      "Ġdistinct": 2531,
      "teen": 2532,
      "ternal": 2533,
      "ĠCan": 2534,
      "Ġpot": 2535,
      "Ġplan": 2536,
      "ĠOf": 2537,
      "Ġvessel": 2538,
      "Ġthousand": 2539,
      "Ġarch": 2540,
      "hem": 2541,
      "Ġappearance": 2542,
      "'ll": 2543,
      "Ġlower": 2544,
      "Ġnotice": 2545,
      "Ġ21": 2546,
      "Ġhours": 2547,
      "cer": 2548,
      "Ġcarry": 2549,
      "Ġpet": 2550,
      "Ġtu": 2551,
      "iers": 2552,
      "Ġduty": 2553,
      "resh": 2554,
      "ĠOne": 2555,
      "Ġrepe": 2556,
      "gra": 2557,
      "Ġviol": 2558,
      "lin": 2559,
      "Or": 2560,
      "Ġsend": 2561,
      "vey": 2562,
      "Ġexcell": 2563,
      "Ġlonger": 2564,
      "Ġbear": 2565,
      "ĠDo": 2566,
      "ĠGree": 2567,
      "standing": 2568,
      "Ġposition": 2569,
      "Ġwhy": 2570,
      "Ġheat": 2571,
      "ĠMiss": 2572,
      "Ġprocess": 2573,
      "Ġcircumstances": 2574,
      "orrow": 2575,
      "Ġtend": 2576,
      "Ġdue": 2577,
      "Ġinfluence": 2578,
      "ests": 2579,
      "Ġauthority": 2580,
      "Ġcreat": 2581,
      "Ġimmediately": 2582,
      "ĠCharles": 2583,
      "Ġarm": 2584,
      "ology": 2585,
      "----": 2586,
      "ograph": 2587,
      "lands": 2588,
      "ĠBo": 2589,
      "Ġdie": 2590,
      "By": 2591,
      "ca": 2592,
      "Ġbed": 2593,
      "Ġemb": 2594,
      "Ġbusiness": 2595,
      "ENT": 2596,
      "should": 2597,
      "Ġprep": 2598,
      "ĠFl": 2599,
      "Ġparty": 2600,
      "she": 2601,
      "Ġrequired": 2602,
      "ilos": 2603,
      "Ġter": 2604,
      "Ġscarce": 2605,
      "Ġheaven": 2606,
      "Ġfrequently": 2607,
      "Ġgives": 2608,
      "car": 2609,
      "ĠCourt": 2610,
      "reland": 2611,
      "ĠSu": 2612,
      "Ġcomb": 2613,
      "Ġgrace": 2614,
      "Ġapplic": 2615,
      "Ġneigh": 2616,
      "la": 2617,
      "Ġloc": 2618,
      "Ġmonths": 2619,
      "ishes": 2620,
      "Ġid": 2621,
      "eness": 2622,
      "Ġplain": 2623,
      "Ġfol": 2624,
      "lt": 2625,
      "ivil": 2626,
      "ĠGu": 2627,
      "ourse": 2628,
      "What": 2629,
      "Ġiv": 2630,
      "ĠCount": 2631,
      "Ġfield": 2632,
      "itor": 2633,
      "Ġbegan": 2634,
      "band": 2635,
      "ification": 2636,
      "icated": 2637,
      "Ġthick": 2638,
      "Ġadopt": 2639,
      "ouch": 2640,
      "umb": 2641,
      "Ġarg": 2642,
      "Ġconsist": 2643,
      "ĠHist": 2644,
      "into": 2645,
      "Ġgrant": 2646,
      "ere": 2647,
      "mber": 2648,
      "Ġhorse": 2649,
      "Ġconduct": 2650,
      "Ġpun": 2651,
      "ĠJune": 2652,
      "Ġpress": 2653,
      "Ġtaking": 2654,
      "pany": 2655,
      "aught": 2656,
      "Ġtrust": 2657,
      "Ġarmy": 2658,
      "Ġrock": 2659,
      "Ġpal": 2660,
      "ma": 2661,
      "uture": 2662,
      "Ġarms": 2663,
      "pel": 2664,
      "burg": 2665,
      "ĠCar": 2666,
      "Ġdon": 2667,
      "iled": 2668,
      "sol": 2669,
      "sub": 2670,
      "Ġeff": 2671,
      "ivers": 2672,
      "Ġfurn": 2673,
      "ging": 2674,
      "oses": 2675,
      "ancy": 2676,
      "Ġwalk": 2677,
      "Ġdepend": 2678,
      "soci": 2679,
      "Ġoriginal": 2680,
      "ĠAp": 2681,
      "habit": 2682,
      "Ġnoble": 2683,
      "ustom": 2684,
      "ividual": 2685,
      "Ġque": 2686,
      ".*": 2687,
      "enn": 2688,
      "hood": 2689,
      "Ġextra": 2690,
      "Ġdistingu": 2691,
      "ho": 2692,
      "ili": 2693,
      "Ġbeautiful": 2694,
      "Ġconstit": 2695,
      "Ġadded": 2696,
      "ĠRev": 2697,
      "add": 2698,
      "inted": 2699,
      "pass": 2700,
      "Ġbeyond": 2701,
      "Ġexcl": 2702,
      "ids": 2703,
      "Ġpleas": 2704,
      "Ġboy": 2705,
      "plied": 2706,
      "Ġmass": 2707,
      "velop": 2708,
      "Ġdescribed": 2709,
      "Ġcertainly": 2710,
      "Ġmethod": 2711,
      "Ġiii": 2712,
      "Ġsud": 2713,
      "pic": 2714,
      "right": 2715,
      "Ġelse": 2716,
      "Ġjo": 2717,
      "ĠGeorge": 2718,
      "dis": 2719,
      "ores": 2720,
      "iles": 2721,
      "Ġprot": 2722,
      "aa": 2723,
      "Ġdim": 2724,
      "Ġ=": 2725,
      "ture": 2726,
      "ĠGl": 2727,
      "ias": 2728,
      "Ġliving": 2729,
      "Ġiron": 2730,
      "Ġpaid": 2731,
      "rib": 2732,
      "Ġinqu": 2733,
      "Ġmist": 2734,
      "time": 2735,
      "rict": 2736,
      "Ġproduce": 2737,
      "aching": 2738,
      "erved": 2739,
      "Ġdepart": 2740,
      "possible": 2741,
      "Eng": 2742,
      "Ġidea": 2743,
      "char": 2744,
      "Ġpatient": 2745,
      "nce": 2746,
      "owing": 2747,
      "50": 2748,
      "Ġpublished": 2749,
      "fit": 2750,
      "known": 2751,
      "Ġentirely": 2752,
      "Ġvill": 2753,
      "inning": 2754,
      "Ġenc": 2755,
      "Ġgovernment": 2756,
      "Ġrich": 2757,
      "Ġsingle": 2758,
      "leg": 2759,
      "Ġclaim": 2760,
      "Ġself": 2761,
      "Ġcry": 2762,
      "ĠJuly": 2763,
      "ĠMon": 2764,
      "ilosop": 2765,
      "hold": 2766,
      "ray": 2767,
      "They": 2768,
      "rid": 2769,
      "Ġready": 2770,
      "Ġevidence": 2771,
      "ym": 2772,
      "Ġmove": 2773,
      "Ġmaj": 2774,
      "Ġvoice": 2775,
      "Ġsize": 2776,
      "Ġbless": 2777,
      "Ġphys": 2778,
      "ato": 2779,
      "Ġpret": 2780,
      "24": 2781,
      "Ġsupposed": 2782,
      "atory": 2783,
      "Ġenter": 2784,
      "Ġafford": 2785,
      "Ġsound": 2786,
      "bury": 2787,
      "Ġorgan": 2788,
      "uments": 2789,
      "pir": 2790,
      "Ġdoor": 2791,
      "Ġdeb": 2792,
      "Ġreceive": 2793,
      "inent": 2794,
      "llow": 2795,
      "Ġlarg": 2796,
      "cond": 2797,
      "Ġdesire": 2798,
      "ĠRich": 2799,
      "Ġdistance": 2800,
      "Ġpoet": 2801,
      "ĠIm": 2802,
      "ules": 2803,
      "Ġled": 2804,
      "Ġreport": 2805,
      "Ġerr": 2806,
      "cles": 2807,
      "ads": 2808,
      "Ġesc": 2809,
      "Ġreligion": 2810,
      "ication": 2811,
      "gin": 2812,
      "Ġpure": 2813,
      "ĠApr": 2814,
      "Ġende": 2815,
      "enth": 2816,
      "Ġ40": 2817,
      "Ġgreatest": 2818,
      "Ġcross": 2819,
      "jo": 2820,
      "ask": 2821,
      "ula": 2822,
      "ilst": 2823,
      "being": 2824,
      "Ġlooked": 2825,
      "atin": 2826,
      "Ġmagn": 2827,
      "Ġsort": 2828,
      "Ġsucceed": 2829,
      "Ġhelp": 2830,
      "Ġxx": 2831,
      "Ġmakes": 2832,
      "Ġtbe": 2833,
      "Ġweak": 2834,
      "ĠNorth": 2835,
      "Ex": 2836,
      "off": 2837,
      "ander": 2838,
      "ati": 2839,
      "Ġpractice": 2840,
      "Ġfollowed": 2841,
      "ression": 2842,
      "25": 2843,
      "Ġpleasure": 2844,
      "rel": 2845,
      "ĠJes": 2846,
      "ously": 2847,
      "Ġthr": 2848,
      "worth": 2849,
      "My": 2850,
      "Ġdaughter": 2851,
      "ctions": 2852,
      "Ġcapt": 2853,
      "Ġ184": 2854,
      "Ġsole": 2855,
      "Ġcult": 2856,
      "Ġgone": 2857,
      "Ġsight": 2858,
      "aled": 2859,
      "Se": 2860,
      "irty": 2861,
      "ĠNow": 2862,
      "Ġur": 2863,
      "ĠAnt": 2864,
      "Ġcoun": 2865,
      "Ġasked": 2866,
      "ĠGreat": 2867,
      "ĠFrom": 2868,
      "Ġwarm": 2869,
      "Ġgreen": 2870,
      "much": 2871,
      "bet": 2872,
      "Ġdry": 2873,
      "Ġinstance": 2874,
      "Ġlater": 2875,
      "ĠÂ«": 2876,
      "Ġsir": 2877,
      "Ġdeal": 2878,
      "atur": 2879,
      "light": 2880,
      "Ġusual": 2881,
      "Ġoffice": 2882,
      "Ġeasily": 2883,
      "Ġturned": 2884,
      "Ġproportion": 2885,
      "Ġgrand": 2886,
      "Ġinches": 2887,
      "nes": 2888,
      "III": 2889,
      "Ġdri": 2890,
      "rees": 2891,
      "Ġlanguage": 2892,
      "Ġextreme": 2893,
      "itable": 2894,
      "rine": 2895,
      "ta": 2896,
      "Ġapplied": 2897,
      "Ġcost": 2898,
      "ĠWor": 2899,
      "Ġnumerous": 2900,
      "Ġtrees": 2901,
      "Ġenjoy": 2902,
      "commend": 2903,
      "ĠCapt": 2904,
      "Ġweight": 2905,
      "Ġsudden": 2906,
      "Sir": 2907,
      "ourable": 2908,
      "His": 2909,
      "ĠThen": 2910,
      "ush": 2911,
      "ublic": 2912,
      "Ġfal": 2913,
      "ĠNe": 2914,
      "Ġreturned": 2915,
      "Ġstrength": 2916,
      "ĠJan": 2917,
      "She": 2918,
      "Ġreally": 2919,
      "iding": 2920,
      "bel": 2921,
      "22": 2922,
      "RO": 2923,
      "Ġtro": 2924,
      "Ġ{": 2925,
      "Ġhast": 2926,
      "vell": 2927,
      "field": 2928,
      "Ġthin": 2929,
      "Ġletters": 2930,
      "ĠQueen": 2931,
      "ike": 2932,
      "how": 2933,
      "?\"": 2934,
      "Ġsimple": 2935,
      "aces": 2936,
      "ĠDuke": 2937,
      ",-": 2938,
      "Ġwild": 2939,
      "ĠIreland": 2940,
      "Ġflowers": 2941,
      "ogn": 2942,
      "Ġav": 2943,
      "ĠRoman": 2944,
      "ĠFran": 2945,
      "Ġlist": 2946,
      "pon": 2947,
      "oot": 2948,
      "fi": 2949,
      "Ġsweet": 2950,
      "umber": 2951,
      "bran": 2952,
      "arrow": 2953,
      "Ġprison": 2954,
      "ĠGeneral": 2955,
      "TH": 2956,
      "Ġkingdom": 2957,
      "ĠOct": 2958,
      "Com": 2959,
      "shire": 2960,
      "Ġfood": 2961,
      "ories": 2962,
      "anced": 2963,
      "De": 2964,
      "Ġsecret": 2965,
      "dered": 2966,
      "side": 2967,
      "Ġsqu": 2968,
      "ĠRome": 2969,
      "John": 2970,
      "ĠEarl": 2971,
      "Ġsugg": 2972,
      "Ġbelow": 2973,
      "elve": 2974,
      "Ġextent": 2975,
      "Ġmaterial": 2976,
      "arks": 2977,
      "unity": 2978,
      "ishing": 2979,
      "You": 2980,
      "Ġsoft": 2981,
      "Ġstood": 2982,
      "Ġanimal": 2983,
      "Ġmouth": 2984,
      "Sh": 2985,
      "Ġobtain": 2986,
      "From": 2987,
      "reed": 2988,
      "yle": 2989,
      "ensive": 2990,
      "23": 2991,
      "Ġbound": 2992,
      "hers": 2993,
      "**": 2994,
      "Ġjoy": 2995,
      "ĠParis": 2996,
      "amb": 2997,
      "Ġlabour": 2998,
      "oi": 2999,
      "ari": 3000,
      "Ġhus": 3001,
      "Ġaddition": 3002,
      "verse": 3003,
      "tions": 3004,
      "Is": 3005,
      "kind": 3006,
      "Ġadvantage": 3007,
      "ĠGerman": 3008,
      "place": 3009,
      "ris": 3010,
      "Ġstated": 3011,
      "Ġign": 3012,
      "omy": 3013,
      "IV": 3014,
      "Ġordinary": 3015,
      "irs": 3016,
      "Ġmerely": 3017,
      "these": 3018,
      "Ġattack": 3019,
      "together": 3020,
      "ĠSouth": 3021,
      "Ġweek": 3022,
      "Ġprincipal": 3023,
      "Ġrend": 3024,
      "hest": 3025,
      "ergy": 3026,
      "alled": 3027,
      "ned": 3028,
      "Ġrelie": 3029,
      "Ġforward": 3030,
      "Ġfront": 3031,
      "atus": 3032,
      "order": 3033,
      "Ġgiving": 3034,
      "isters": 3035,
      "ĠAfter": 3036,
      "Ġmembers": 3037,
      "Ġwomen": 3038,
      "Ġconsequence": 3039,
      "28": 3040,
      "Ġmiddle": 3041,
      "ech": 3042,
      "Ġz": 3043,
      "cts": 3044,
      "ingly": 3045,
      "Ġexerc": 3046,
      "Ġaccept": 3047,
      "Ġindividual": 3048,
      "Ġfem": 3049,
      "Ġfuture": 3050,
      "Ġox": 3051,
      "Ġprove": 3052,
      "Ġstone": 3053,
      "only": 3054,
      "Ġallowed": 3055,
      "gl": 3056,
      "Ġcharge": 3057,
      "irth": 3058,
      "Ġstru": 3059,
      "itation": 3060,
      "Ġmur": 3061,
      "ables": 3062,
      "Ġrapid": 3063,
      "Ġwhatever": 3064,
      "Ġfit": 3065,
      "count": 3066,
      "Ġpassage": 3067,
      "Ġhop": 3068,
      "Ġdefend": 3069,
      "Ġexact": 3070,
      "such": 3071,
      "Ġfav": 3072,
      "Ġdraw": 3073,
      "Ġreign": 3074,
      "ĠSept": 3075,
      "Ġinstead": 3076,
      "dra": 3077,
      "ST": 3078,
      "pens": 3079,
      "Ġcorrespond": 3080,
      "Ġdu": 3081,
      "Ġbod": 3082,
      "Ġtable": 3083,
      "Ġcompany": 3084,
      "26": 3085,
      "Ġbehind": 3086,
      "27": 3087,
      "Ġgentleman": 3088,
      ".;": 3089,
      "made": 3090,
      "Ġcovered": 3091,
      "Ġgod": 3092,
      "Ġess": 3093,
      "Ġpolit": 3094,
      "Ġago": 3095,
      "Ġagree": 3096,
      "Ġseven": 3097,
      "Ġraised": 3098,
      "Ġere": 3099,
      "ĠSte": 3100,
      "rief": 3101,
      "Ġstep": 3102,
      "ems": 3103,
      "CT": 3104,
      "Ġhappy": 3105,
      "Ġevil": 3106,
      "Ġloss": 3107,
      "Ġevening": 3108,
      "Ġprivate": 3109,
      "Ġmere": 3110,
      "pat": 3111,
      "Ġparticularly": 3112,
      "alog": 3113,
      "Ġcrown": 3114,
      "Ġnorth": 3115,
      "anks": 3116,
      "ĠSm": 3117,
      "road": 3118,
      "cies": 3119,
      "Ġlaws": 3120,
      "ored": 3121,
      "ĠSw": 3122,
      "poses": 3123,
      "ĠAg": 3124,
      "dro": 3125,
      "Ġspecim": 3126,
      "ĠBishop": 3127,
      "ĠRoyal": 3128,
      "Ġherself": 3129,
      "Ġpoints": 3130,
      "Ġbott": 3131,
      "duce": 3132,
      "Ġlines": 3133,
      "fess": 3134,
      "ĠLaw": 3135,
      "Ġfruit": 3136,
      "ĠHere": 3137,
      "ĠHar": 3138,
      "Ġmort": 3139,
      "ips": 3140,
      "Ġnon": 3141,
      "thern": 3142,
      "ening": 3143,
      "Ġwonder": 3144,
      "Ġcoming": 3145,
      "Ġaut": 3146,
      "Ġnames": 3147,
      "ican": 3148,
      "again": 3149,
      "Ġ33": 3150,
      "Ġmeasure": 3151,
      "ĠAv": 3152,
      "ĠSome": 3153,
      "jud": 3154,
      "Ġbase": 3155,
      "Ġot": 3156,
      "Ġmotion": 3157,
      "work": 3158,
      "lebr": 3159,
      "Ġgrad": 3160,
      "mod": 3161,
      "Ġtalk": 3162,
      "iber": 3163,
      "ped": 3164,
      "Ġ34": 3165,
      "ability": 3166,
      "Ġpresence": 3167,
      "uding": 3168,
      "ston": 3169,
      "stant": 3170,
      "Ġfra": 3171,
      "utions": 3172,
      "Ġsupply": 3173,
      "bid": 3174,
      "Ġcomes": 3175,
      "Ġbird": 3176,
      "Ġproperty": 3177,
      "ĠMad": 3178,
      "Ġaud": 3179,
      "Ġallow": 3180,
      "Ġ36": 3181,
      "Ġsuppose": 3182,
      "ceived": 3183,
      "Ġmeeting": 3184,
      "just": 3185,
      "Ġprinciple": 3186,
      "Ġvent": 3187,
      "ĠCouncil": 3188,
      "Ġproof": 3189,
      "Ġupper": 3190,
      "29": 3191,
      "Ġdestroy": 3192,
      "Ġeduc": 3193,
      "Ġrule": 3194,
      "Ġprogress": 3195,
      "Ġ35": 3196,
      "Ġtop": 3197,
      "ufact": 3198,
      "Ġsomewhat": 3199,
      "Ġsilver": 3200,
      "Ġvisit": 3201,
      "bar": 3202,
      "ĠMajesty": 3203,
      "Dr": 3204,
      "occ": 3205,
      "ibly": 3206,
      "ĠDav": 3207,
      "Ġobs": 3208,
      "umed": 3209,
      "othing": 3210,
      "Ġusually": 3211,
      "sm": 3212,
      "ĠEdward": 3213,
      "Ġdelight": 3214,
      "Ġforeign": 3215,
      "Ġrise": 3216,
      "Ġmine": 3217,
      "Ġyellow": 3218,
      "Ġappointed": 3219,
      "ria": 3220,
      "Ġdrawn": 3221,
      "ĠCal": 3222,
      "ails": 3223,
      "Ġprice": 3224,
      "present": 3225,
      "Ġhot": 3226,
      "Ġexceed": 3227,
      "Nor": 3228,
      "Ġexperience": 3229,
      "itive": 3230,
      "Ġnote": 3231,
      "head": 3232,
      "Ġfil": 3233,
      "about": 3234,
      "Ġremains": 3235,
      "Ġune": 3236,
      "iy": 3237,
      "Ġcat": 3238,
      "Ġremoved": 3239,
      "ĠAugust": 3240,
      "Ġfun": 3241,
      "ourage": 3242,
      "ospital": 3243,
      "Ġimper": 3244,
      "Ġsubjects": 3245,
      "ĠLa": 3246,
      "Ġexample": 3247,
      "Ġremarkable": 3248,
      "Ġ185": 3249,
      "ger": 3250,
      "peror": 3251,
      "Ġsociety": 3252,
      "Ġintended": 3253,
      "ĠReg": 3254,
      "Ġpreced": 3255,
      "Ġholy": 3256,
      "tis": 3257,
      "ĠFather": 3258,
      "ĠStreet": 3259,
      "Ġbright": 3260,
      "Ġuseful": 3261,
      "Ġscarcely": 3262,
      "Ġproved": 3263,
      "Ġglass": 3264,
      "Ġdro": 3265,
      "Ġtot": 3266,
      "wood": 3267,
      "Ġentered": 3268,
      "Ġgall": 3269,
      "ik": 3270,
      "hel": 3271,
      "Ġ50": 3272,
      "ros": 3273,
      "Ġtreatment": 3274,
      "Ġcentury": 3275,
      "Ġcell": 3276,
      "ades": 3277,
      "two": 3278,
      "Ġjustice": 3279,
      "Ġtitle": 3280,
      "arily": 3281,
      "Ġtrade": 3282,
      "Le": 3283,
      "ented": 3284,
      "duction": 3285,
      "Ġjudgment": 3286,
      "Ġgovern": 3287,
      "Ġsolution": 3288,
      "Ġliter": 3289,
      "mittee": 3290,
      "anges": 3291,
      "iling": 3292,
      "Ġdifficulty": 3293,
      "stood": 3294,
      "Ġprinciples": 3295,
      "Ġcivil": 3296,
      "Ġheight": 3297,
      "Ġquick": 3298,
      "ĠMin": 3299,
      "rous": 3300,
      "ope": 3301,
      "Ġmot": 3302,
      "Ġanimals": 3303,
      "Ġcred": 3304,
      "sue": 3305,
      "Lord": 3306,
      "those": 3307,
      "Re": 3308,
      "tt": 3309,
      "Ġbooks": 3310,
      "inite": 3311,
      "Will": 3312,
      "ĠParliament": 3313,
      "oor": 3314,
      "Ġwide": 3315,
      "Ġbreak": 3316,
      "Ġ186": 3317,
      "ĠThus": 3318,
      "Ġgir": 3319,
      "Ġfirm": 3320,
      "never": 3321,
      "Ġvict": 3322,
      "Ġ37": 3323,
      "Ġmid": 3324,
      "pire": 3325,
      "uff": 3326,
      "Ġinhabit": 3327,
      "uable": 3328,
      "Ġexcellent": 3329,
      "Ġrecommend": 3330,
      "Ġhabit": 3331,
      "Ġcover": 3332,
      "Ġge": 3333,
      "Â£": 3334,
      "Ġcontrary": 3335,
      "isions": 3336,
      "asons": 3337,
      "000": 3338,
      "Ġnation": 3339,
      "inces": 3340,
      "ĠRep": 3341,
      "Ġoperation": 3342,
      "Ġlearned": 3343,
      "^^": 3344,
      "Ġrev": 3345,
      "Ġdistrict": 3346,
      "rate": 3347,
      "ption": 3348,
      "see": 3349,
      "ishment": 3350,
      "Ġcorn": 3351,
      "ole": 3352,
      "ĠAND": 3353,
      "Ġsacr": 3354,
      "How": 3355,
      "ini": 3356,
      "Ġunless": 3357,
      "orses": 3358,
      "Ġdanger": 3359,
      "Ġqual": 3360,
      "ĠSy": 3361,
      "ibility": 3362,
      "ply": 3363,
      "Ġinn": 3364,
      "ĠIndia": 3365,
      "gypt": 3366,
      "21": 3367,
      "ially": 3368,
      "erted": 3369,
      "Ġvariety": 3370,
      "Ġappre": 3371,
      "Ġfamil": 3372,
      "UM": 3373,
      "Ġinteresting": 3374,
      "Ġbecomes": 3375,
      "Ġbeauty": 3376,
      "All": 3377,
      "ĠMarch": 3378,
      "._": 3379,
      "Ġsuperior": 3380,
      "Ġequally": 3381,
      "aved": 3382,
      "Ġcru": 3383,
      "Ġpros": 3384,
      "uit": 3385,
      "Ġterms": 3386,
      "apers": 3387,
      "Ġenemy": 3388,
      "ĠPaul": 3389,
      "iced": 3390,
      ",)": 3391,
      "Ġ38": 3392,
      "Ġvain": 3393,
      "Ġhouses": 3394,
      "astle": 3395,
      "Ġdevelop": 3396,
      "ically": 3397,
      "ĠIr": 3398,
      "Ġfixed": 3399,
      "ĠPrince": 3400,
      "ĠApril": 3401,
      "nat": 3402,
      "Ġseason": 3403,
      "Ġtree": 3404,
      "mission": 3405,
      "Ġhar": 3406,
      "ĠMary": 3407,
      "Ġti": 3408,
      "Ġforg": 3409,
      "iqu": 3410,
      "iently": 3411,
      "Ġanything": 3412,
      "ĠPort": 3413,
      "Pr": 3414,
      "Ġnative": 3415,
      "ĠJew": 3416,
      "race": 3417,
      "Ġpursu": 3418,
      "Ġcre": 3419,
      "before": 3420,
      "Ġfresh": 3421,
      "Ġcauses": 3422,
      "Ġapparent": 3423,
      "igned": 3424,
      "body": 3425,
      "ĠGovernment": 3426,
      "Ġconvers": 3427,
      "Ġroad": 3428,
      "Ġunivers": 3429,
      "Ġfully": 3430,
      "Ġshown": 3431,
      "might": 3432,
      "ailed": 3433,
      "said": 3434,
      "va": 3435,
      "aped": 3436,
      "bell": 3437,
      "Ġroy": 3438,
      "Ġbishop": 3439,
      "Ġfalse": 3440,
      "Ġsides": 3441,
      "emed": 3442,
      "ule": 3443,
      "Ġdirection": 3444,
      "ua": 3445,
      "Ġsoil": 3446,
      "Ġillustr": 3447,
      "iry": 3448,
      "Ġyield": 3449,
      "Ġtaste": 3450,
      "vation": 3451,
      "oa": 3452,
      "Ġabsol": 3453,
      "Ġprepared": 3454,
      "Ġunderstand": 3455,
      "ĠWell": 3456,
      "ĠRobert": 3457,
      "Ġshew": 3458,
      "Ġsouth": 3459,
      "ulated": 3460,
      "Ġpiece": 3461,
      "ĠFeb": 3462,
      "ĠIII": 3463,
      "Ġsat": 3464,
      "UL": 3465,
      "Ġneighbour": 3466,
      "Ġmag": 3467,
      "Ġregular": 3468,
      "Ġpul": 3469,
      "Ġyouth": 3470,
      "racted": 3471,
      "Ġeasy": 3472,
      "Ġdesp": 3473,
      "Ġfeeling": 3474,
      "Ġincrease": 3475,
      "Ġdil": 3476,
      "Ġbit": 3477,
      "Ġtli": 3478,
      "Ġestablish": 3479,
      "Ġbroad": 3480,
      "Ġopport": 3481,
      "Ġimpossible": 3482,
      "cor": 3483,
      "XX": 3484,
      "Ġglory": 3485,
      "Ġmult": 3486,
      "Ġfast": 3487,
      "Ġborn": 3488,
      "Ġelect": 3489,
      "Ġlad": 3490,
      "fs": 3491,
      "Ġwitness": 3492,
      "Ġmal": 3493,
      "ĠJesus": 3494,
      "ĠOx": 3495,
      "ptoms": 3496,
      "eks": 3497,
      "Ġcelebr": 3498,
      "ny": 3499,
      "Ġfellow": 3500,
      "Ġresults": 3501,
      "Now": 3502,
      "found": 3503,
      "aven": 3504,
      "ĠPhil": 3505,
      "Ġmeas": 3506,
      "Ġadmir": 3507,
      "Pro": 3508,
      "Ġjour": 3509,
      "Ġmode": 3510,
      "OO": 3511,
      "Ġwat": 3512,
      "water": 3513,
      "ainted": 3514,
      "bey": 3515,
      "amber": 3516,
      "ĠHon": 3517,
      "ij": 3518,
      "ological": 3519,
      "cis": 3520,
      "Ġimportance": 3521,
      "Ġincreased": 3522,
      "Ġcomfort": 3523,
      "Ġsan": 3524,
      "Ġsuf": 3525,
      "Ġrender": 3526,
      "room": 3527,
      "ĠPers": 3528,
      "lly": 3529,
      "Ġspring": 3530,
      "IR": 3531,
      "ĠBer": 3532,
      "Ġexistence": 3533,
      "Ġotherwise": 3534,
      "wered": 3535,
      "AND": 3536,
      "EM": 3537,
      "onel": 3538,
      "ares": 3539,
      "Ġdom": 3540,
      "Ġreligious": 3541,
      "Ġeffects": 3542,
      "Then": 3543,
      "ĠArch": 3544,
      "Ġglad": 3545,
      "lar": 3546,
      "ĠPri": 3547,
      "requ": 3548,
      "Ġbreat": 3549,
      "Ġee": 3550,
      "CHAP": 3551,
      "Ġspecial": 3552,
      "Ġpowers": 3553,
      "Ġtwelve": 3554,
      "Ġhusband": 3555,
      "Ġapplication": 3556,
      "Ġpresented": 3557,
      "Ġwhilst": 3558,
      "Ġ183": 3559,
      "same": 3560,
      "ĠCath": 3561,
      "Ġcompar": 3562,
      "ipp": 3563,
      "aced": 3564,
      "Ġmodern": 3565,
      "Ġsaying": 3566,
      "ĠAc": 3567,
      "sur": 3568,
      "Ġdescription": 3569,
      "eed": 3570,
      "Ġhigher": 3571,
      "Ġtakes": 3572,
      "uary": 3573,
      "four": 3574,
      "Ġextend": 3575,
      "Ġprepar": 3576,
      "Col": 3577,
      "Ġsleep": 3578,
      "ocks": 3579,
      "Ġsulph": 3580,
      "Ġ39": 3581,
      "Ġsubs": 3582,
      "ordinary": 3583,
      "inte": 3584,
      "iant": 3585,
      "Ġliqu": 3586,
      "Ġ<": 3587,
      "Ġspace": 3588,
      "ĠPart": 3589,
      "iform": 3590,
      "Ġsituation": 3591,
      "Ġarrange": 3592,
      "ĠScotland": 3593,
      "ĠRichard": 3594,
      "Ġdemand": 3595,
      "Ġbread": 3596,
      "alm": 3597,
      "Ġtender": 3598,
      "lls": 3599,
      "ĠEn": 3600,
      "Ġrequire": 3601,
      "ĠJud": 3602,
      "Ġstrange": 3603,
      "ifice": 3604,
      "oes": 3605,
      "Ġimprove": 3606,
      "edy": 3607,
      "Ġkn": 3608,
      "alle": 3609,
      "law": 3610,
      "ception": 3611,
      "Ġinformation": 3612,
      "Ġdifference": 3613,
      "Ġgreatly": 3614,
      "without": 3615,
      "ERS": 3616,
      "Ġbattle": 3617,
      "erus": 3618,
      "Ġchap": 3619,
      "Ġinstr": 3620,
      "Ad": 3621,
      "bu": 3622,
      "ĠSur": 3623,
      "Ġspread": 3624,
      "Ġbeginning": 3625,
      "Ġinfer": 3626,
      "Ġbuilt": 3627,
      "oid": 3628,
      "cur": 3629,
      "Ġimm": 3630,
      "Ġpossession": 3631,
      "Ġmatters": 3632,
      "Ġcultiv": 3633,
      "Ġbas": 3634,
      "ccles": 3635,
      "Ġlikely": 3636,
      "Ġobliged": 3637,
      "Ġmoral": 3638,
      "Ġcontaining": 3639,
      "Ġchiefly": 3640,
      "llig": 3641,
      "orum": 3642,
      "quis": 3643,
      "inity": 3644,
      "play": 3645,
      "Ġworthy": 3646,
      "orne": 3647,
      "Ġmel": 3648,
      "Ġofficers": 3649,
      "AD": 3650,
      "Ġfilled": 3651,
      "ivered": 3652,
      "Ġdivine": 3653,
      "40": 3654,
      "could": 3655,
      "Ġmedical": 3656,
      "Ġfarm": 3657,
      "icked": 3658,
      "Ġaround": 3659,
      "Ġrecord": 3660,
      "Ġrose": 3661,
      "oph": 3662,
      "look": 3663,
      "Ġvolume": 3664,
      "Ġspot": 3665,
      "Ġamongst": 3666,
      "lend": 3667,
      "Ġdoing": 3668,
      "Ġreplied": 3669,
      "ios": 3670,
      "Ġroyal": 3671,
      "ĠMess": 3672,
      "ĠYork": 3673,
      "Ġhardly": 3674,
      "Ġeat": 3675,
      "acks": 3676,
      "Ġil": 3677,
      "ĠWar": 3678,
      "nivers": 3679,
      "Ġanx": 3680,
      "Ġperfectly": 3681,
      "Ġconnected": 3682,
      "ĠAcc": 3683,
      "era": 3684,
      "ĠPet": 3685,
      "ĠAmerica": 3686,
      "ara": 3687,
      "stone": 3688,
      "Ġwinter": 3689,
      "udes": 3690,
      "aph": 3691,
      "avi": 3692,
      "ĠCaptain": 3693,
      "Ġnerv": 3694,
      "Ġmarried": 3695,
      "asts": 3696,
      "utation": 3697,
      "ds": 3698,
      "60": 3699,
      "Ġpurch": 3700,
      "Ġphilosop": 3701,
      "Ġsatisf": 3702,
      "Ġstudy": 3703,
      "umn": 3704,
      "Ġflu": 3705,
      "uns": 3706,
      "ĠTe": 3707,
      "Ġobjects": 3708,
      "Ġavo": 3709,
      "pi": 3710,
      "Ġlarger": 3711,
      "Ġjudge": 3712,
      "dif": 3713,
      "Ġslow": 3714,
      "Ġsubstance": 3715,
      "met": 3716,
      "Ġwalls": 3717,
      "ĠCam": 3718,
      "Ġcontains": 3719,
      "Ġestablished": 3720,
      "Ġones": 3721,
      "Ġdiscovered": 3722,
      "sent": 3723,
      "Ġattended": 3724,
      "Ġgrat": 3725,
      "Ġsuffer": 3726,
      "every": 3727,
      "Ġwrote": 3728,
      "gs": 3729,
      "icate": 3730,
      "Ġarrived": 3731,
      "Ġexpected": 3732,
      "ĠCollege": 3733,
      "These": 3734,
      "cknow": 3735,
      "OU": 3736,
      "Ġfi": 3737,
      "Ġwis": 3738,
      "Ġintroduced": 3739,
      "Ġtransl": 3740,
      "Ġdescend": 3741,
      "Ġabsolute": 3742,
      "Ġthirty": 3743,
      "Ġalter": 3744,
      "Ġbuilding": 3745,
      "Ġliberty": 3746,
      "iring": 3747,
      "umes": 3748,
      "ĠVol": 3749,
      "oon": 3750,
      "ĠGreek": 3751,
      "Ph": 3752,
      "through": 3753,
      "Ġignor": 3754,
      "Ġnarrow": 3755,
      "Ġburn": 3756,
      "Ġfle": 3757,
      "Ġhur": 3758,
      "Ġcontr": 3759,
      "Af": 3760,
      "Ġwine": 3761,
      "must": 3762,
      "many": 3763,
      "Ġadmitted": 3764,
      "liz": 3765,
      "dist": 3766,
      "ators": 3767,
      "Ġlocal": 3768,
      "ential": 3769,
      "Ġtry": 3770,
      "Ġlived": 3771,
      "Ġsour": 3772,
      "Ġguard": 3773,
      "ih": 3774,
      "first": 3775,
      "Ġopposite": 3776,
      "supp": 3777,
      "Ed": 3778,
      "ĠMa": 3779,
      "Ġcentre": 3780,
      "Ġfacts": 3781,
      "rer": 3782,
      "ĠPres": 3783,
      "sy": 3784,
      "ĠTur": 3785,
      "Ġbodies": 3786,
      "jection": 3787,
      "Ġdre": 3788,
      "Ġremained": 3789,
      "Ġwise": 3790,
      "kes": 3791,
      "Ġaffection": 3792,
      "Ġma": 3793,
      "ributed": 3794,
      "press": 3795,
      "Ġflower": 3796,
      "IA": 3797,
      "don": 3798,
      "ĠSam": 3799,
      "ĠDiv": 3800,
      "Ġdescri": 3801,
      "Ġfro": 3802,
      "Ġacknow": 3803,
      "Ġpassing": 3804,
      "God": 3805,
      "Christ": 3806,
      "Ġstyle": 3807,
      "asing": 3808,
      "Ġdetermined": 3809,
      "Ġstart": 3810,
      "Ġcorrect": 3811,
      "burgh": 3812,
      "Ġfles": 3813,
      "Ġwrong": 3814,
      "osing": 3815,
      "rael": 3816,
      "Con": 3817,
      "Ġproposed": 3818,
      "Ġfigure": 3819,
      "ĠHall": 3820,
      "Ġpretty": 3821,
      "Ġmix": 3822,
      "Ġstates": 3823,
      "ĠChe": 3824,
      "Ġbroken": 3825,
      "Ġ45": 3826,
      "ĠBook": 3827,
      "Ġbow": 3828,
      "orious": 3829,
      "Ġsurpr": 3830,
      "Ġseries": 3831,
      "Ġtouch": 3832,
      "ĠEgypt": 3833,
      "ĠSon": 3834,
      "Ġdate": 3835,
      "Ġdiscuss": 3836,
      "Ġnecessity": 3837,
      "Ġreference": 3838,
      "ague": 3839,
      "Sc": 3840,
      "iah": 3841,
      "Ġdistinguished": 3842,
      "isted": 3843,
      "Ġdivided": 3844,
      "ĠMor": 3845,
      "ager": 3846,
      "Ġprim": 3847,
      "formed": 3848,
      "fortun": 3849,
      "cause": 3850,
      "Ġspir": 3851,
      "mar": 3852,
      "Ġquiet": 3853,
      "Ġoffer": 3854,
      "Ġminute": 3855,
      "ĠState": 3856,
      "ĠHistory": 3857,
      "Ġserve": 3858,
      "Ġinhabitants": 3859,
      "Ġgarden": 3860,
      "Ġstory": 3861,
      "di": 3862,
      "Ġsn": 3863,
      "Ġopened": 3864,
      "Ġant": 3865,
      "ober": 3866,
      "aker": 3867,
      "Ġmut": 3868,
      "Ġbesides": 3869,
      "good": 3870,
      "inner": 3871,
      "ĠPeter": 3872,
      "bridge": 3873,
      "Ġia": 3874,
      "Ġles": 3875,
      "Ġadopted": 3876,
      "Ġ]": 3877,
      "Ġadmin": 3878,
      "Ġorders": 3879,
      "Ġcrit": 3880,
      "Ġsick": 3881,
      "Ġfollows": 3882,
      "OS": 3883,
      "Ġdeli": 3884,
      "''": 3885,
      "ctor": 3886,
      "chief": 3887,
      "arsh": 3888,
      "ington": 3889,
      "Ġsurr": 3890,
      "Ġdrink": 3891,
      "Ġsafe": 3892,
      "uel": 3893,
      "inate": 3894,
      "ferent": 3895,
      "Ġrace": 3896,
      "Ġprofession": 3897,
      "Let": 3898,
      "Ġvirtue": 3899,
      "ĠHigh": 3900,
      "vis": 3901,
      "ĠPat": 3902,
      "48": 3903,
      "umph": 3904,
      "arp": 3905,
      "Ġthrow": 3906,
      "nest": 3907,
      "ival": 3908,
      "ĠJe": 3909,
      "ĠMil": 3910,
      "ension": 3911,
      "ĠPal": 3912,
      "Ġib": 3913,
      "70": 3914,
      "Ġmad": 3915,
      "uf": 3916,
      "Ġskin": 3917,
      "iis": 3918,
      "Ġvessels": 3919,
      "Ġvaluable": 3920,
      "ana": 3921,
      "Ġcounty": 3922,
      "ode": 3923,
      "ading": 3924,
      "Ġ100": 3925,
      "Ġbranches": 3926,
      "Ġdoctrine": 3927,
      "Ġhighly": 3928,
      "Ġfever": 3929,
      "Ġmarked": 3930,
      "Ġhost": 3931,
      "urches": 3932,
      "urb": 3933,
      "ino": 3934,
      "See": 3935,
      "Ġbill": 3936,
      "ners": 3937,
      "Ġhighest": 3938,
      "Ġconsideration": 3939,
      "ĠSal": 3940,
      "Ġoil": 3941,
      "Ġremember": 3942,
      "Ġdouble": 3943,
      "Am": 3944,
      "fessor": 3945,
      "ID": 3946,
      "Ġhorses": 3947,
      "ĠWal": 3948,
      "ongue": 3949,
      "Cl": 3950,
      "ĠLife": 3951,
      "Ġov": 3952,
      "while": 3953,
      "Ġpred": 3954,
      "Ġourselves": 3955,
      "Ġ31": 3956,
      "Ġanti": 3957,
      "cular": 3958,
      "oup": 3959,
      "panied": 3960,
      "Ġcav": 3961,
      "ras": 3962,
      "ceive": 3963,
      "athe": 3964,
      "anger": 3965,
      "Ġ43": 3966,
      "enced": 3967,
      "bre": 3968,
      "hand": 3969,
      "Ġcurious": 3970,
      "olly": 3971,
      "Ġoffered": 3972,
      "Ġep": 3973,
      "icul": 3974,
      "ĠIV": 3975,
      "eries": 3976,
      "ĠHoly": 3977,
      "Ġprovided": 3978,
      "Ġdelic": 3979,
      "Ġstruct": 3980,
      "hether": 3981,
      "ĠSch": 3982,
      "Ġinstances": 3983,
      "ĠDes": 3984,
      "ĠEast": 3985,
      "!\"": 3986,
      "Ġnamed": 3987,
      "hire": 3988,
      "verted": 3989,
      "Ġsch": 3990,
      "icular": 3991,
      "Ġisland": 3992,
      "happ": 3993,
      "Ġcontained": 3994,
      "nor": 3995,
      "Ġentertain": 3996,
      "your": 3997,
      "Ġtor": 3998,
      "Ġhither": 3999,
      "Ġanswered": 4000,
      "estions": 4001,
      "IST": 4002,
      "icted": 4003,
      "wr": 4004,
      "omer": 4005,
      "Ġdread": 4006,
      "iU": 4007,
      "Ġded": 4008,
      "ĠSpan": 4009,
      "Ġaid": 4010,
      "Ġcompan": 4011,
      "Ġwatch": 4012,
      "Ġrendered": 4013,
      "last": 4014,
      "Ġdress": 4015,
      "tra": 4016,
      "GE": 4017,
      "inions": 4018,
      "Ġ60": 4019,
      "istic": 4020,
      "Ġheavy": 4021,
      "Ġlooking": 4022,
      "Ġcapital": 4023,
      "rd": 4024,
      "ospel": 4025,
      "Ġutter": 4026,
      "Ġwriter": 4027,
      "ldom": 4028,
      "Ġmanif": 4029,
      "Ġwrite": 4030,
      "Ġrecogn": 4031,
      "faction": 4032,
      "Ġsummer": 4033,
      "Ġdaily": 4034,
      "Ġhair": 4035,
      "ĠAlex": 4036,
      "ĠWil": 4037,
      "ĠPre": 4038,
      "Ġ48": 4039,
      "Ġscience": 4040,
      "Ġsave": 4041,
      "Ġsett": 4042,
      "Ġrate": 4043,
      "bro": 4044,
      "Ġparent": 4045,
      "Ġthroughout": 4046,
      "ba": 4047,
      "Ġresemb": 4048,
      "Ġscene": 4049,
      "Ġconcerning": 4050,
      "even": 4051,
      "Ġod": 4052,
      "oles": 4053,
      "necess": 4054,
      "ora": 4055,
      "unk": 4056,
      "44": 4057,
      "ĠCa": 4058,
      "Ġful": 4059,
      "Ġcaused": 4060,
      "Ġpieces": 4061,
      "Ġblue": 4062,
      "itled": 4063,
      "iast": 4064,
      "Where": 4065,
      "uer": 4066,
      "ĠWhy": 4067,
      "rill": 4068,
      "Ġdwell": 4069,
      "Ġlikewise": 4070,
      "Ġlands": 4071,
      "lier": 4072,
      "En": 4073,
      "Ġpicture": 4074,
      "ĠCommittee": 4075,
      "Her": 4076,
      "Ġgro": 4077,
      "ĠCr": 4078,
      "Ġsand": 4079,
      "ĠOld": 4080,
      "equ": 4081,
      "alous": 4082,
      "Ġchem": 4083,
      "ett": 4084,
      "Ġmeaning": 4085,
      "ded": 4086,
      "Ġcharm": 4087,
      "Ġabund": 4088,
      "estig": 4089,
      "ĠCH": 4090,
      "ese": 4091,
      "Ġthoughts": 4092,
      "Ġparish": 4093,
      "Ġrank": 4094,
      "Ġ180": 4095,
      "istry": 4096,
      "Ġnations": 4097,
      "ĠRom": 4098,
      "Ġprofess": 4099,
      "Ġhence": 4100,
      "oration": 4101,
      "Ġment": 4102,
      "Ġtroops": 4103,
      "empl": 4104,
      "acity": 4105,
      "Ġdisp": 4106,
      "ump": 4107,
      "Ġsymptoms": 4108,
      "Ġtreated": 4109,
      "Ġvers": 4110,
      "shall": 4111,
      "Ġformerly": 4112,
      "ĠMac": 4113,
      "Ġrepeated": 4114,
      "Ġnit": 4115,
      "pur": 4116,
      "Ġprinted": 4117,
      "Ġapply": 4118,
      "Not": 4119,
      "Ġexamination": 4120,
      "ĠSpirit": 4121,
      "*'": 4122,
      "ĠJour": 4123,
      "oken": 4124,
      "ties": 4125,
      "hend": 4126,
      "Ġcra": 4127,
      "Ġprince": 4128,
      "Ġ...": 4129,
      "ĠWood": 4130,
      "quer": 4131,
      "AY": 4132,
      "Ġharm": 4133,
      "Ġvast": 4134,
      "Ġboard": 4135,
      "Ġprec": 4136,
      "vert": 4137,
      "Ġtal": 4138,
      "Ġinstit": 4139,
      "Ġwriting": 4140,
      "Ġdimin": 4141,
      "ĠArt": 4142,
      "aches": 4143,
      "lim": 4144,
      "London": 4145,
      "/.": 4146,
      "ounced": 4147,
      "Ġwid": 4148,
      "Ġvi": 4149,
      "Ġstrict": 4150,
      "Ġkinds": 4151,
      "Ġstay": 4152,
      "ARD": 4153,
      "Ġaltogether": 4154,
      "Ġvig": 4155,
      "ĠRuss": 4156,
      "ĠDon": 4157,
      "mi": 4158,
      "iance": 4159,
      "icle": 4160,
      "Ġaddress": 4161,
      "Ġapart": 4162,
      "Ġcustom": 4163,
      "Ġpath": 4164,
      "Ġmanufact": 4165,
      "Ġopportunity": 4166,
      "Ġreve": 4167,
      "Ġsalt": 4168,
      "Ġcalcul": 4169,
      "dr": 4170,
      "Ġsister": 4171,
      "Ġspeaking": 4172,
      "arer": 4173,
      "Ġproc": 4174,
      "Ġexped": 4175,
      "Ġdiscover": 4176,
      "Ġbrown": 4177,
      "ea": 4178,
      "aints": 4179,
      "Pl": 4180,
      "acters": 4181,
      "alls": 4182,
      "also": 4183,
      "rant": 4184,
      "imony": 4185,
      "ĠOh": 4186,
      "ĠMag": 4187,
      "Ġcand": 4188,
      "Ġengaged": 4189,
      "ĠDec": 4190,
      "AB": 4191,
      "Ġpa": 4192,
      "Ġq": 4193,
      "Ġtl": 4194,
      "ĠSuch": 4195,
      "IG": 4196,
      "Ġchance": 4197,
      "rose": 4198,
      "Ġcrow": 4199,
      "Ġquarter": 4200,
      "terior": 4201,
      "Ġinflamm": 4202,
      "geon": 4203,
      "Ġobserve": 4204,
      "ĠCat": 4205,
      "ĠTheir": 4206,
      "itch": 4207,
      "Ġdelivered": 4208,
      "Ġassoci": 4209,
      "ashion": 4210,
      "Ġmarriage": 4211,
      "Ġrid": 4212,
      "Ġexpression": 4213,
      "ĠScript": 4214,
      "Ġlives": 4215,
      "idently": 4216,
      "Ġmill": 4217,
      "Ġunf": 4218,
      "pected": 4219,
      "Ġordered": 4220,
      "itect": 4221,
      "aviour": 4222,
      "omach": 4223,
      "bing": 4224,
      "Ġaffected": 4225,
      "Ġpersonal": 4226,
      "Ġcoast": 4227,
      "Ġedition": 4228,
      "xx": 4229,
      "pher": 4230,
      "large": 4231,
      "ĠLatin": 4232,
      "Ġhistor": 4233,
      "Ġprophe": 4234,
      "Ġexpressed": 4235,
      "mir": 4236,
      "49": 4237,
      "ĠEp": 4238,
      "atures": 4239,
      "Ġdepos": 4240,
      "Ġreferred": 4241,
      "ĠIrish": 4242,
      "ĠBel": 4243,
      "Ġfrequent": 4244,
      "ĠMem": 4245,
      "Ġbold": 4246,
      "ims": 4247,
      "een": 4248,
      "Ġevent": 4249,
      "Ġtext": 4250,
      "Ġpale": 4251,
      "ĠCont": 4252,
      "ura": 4253,
      "adv": 4254,
      "mos": 4255,
      "Ġtum": 4256,
      "Ġrevol": 4257,
      "Ġsevere": 4258,
      "charge": 4259,
      "Ind": 4260,
      "ama": 4261,
      "vy": 4262,
      "Ġbirth": 4263,
      "Ġdig": 4264,
      "ĠAmerican": 4265,
      "Ġseeing": 4266,
      "Ġbeneath": 4267,
      "ths": 4268,
      "33": 4269,
      "Ġgrave": 4270,
      "called": 4271,
      "Ġmedic": 4272,
      "ĠHy": 4273,
      "Ġrefer": 4274,
      "Ġdirected": 4275,
      "Ġ46": 4276,
      "Ġarticle": 4277,
      "Ġnet": 4278,
      "Ġreader": 4279,
      "Ġexcess": 4280,
      "wick": 4281,
      "Ġcelebrated": 4282,
      "ĠBur": 4283,
      "Ġsto": 4284,
      "oper": 4285,
      "Ġbank": 4286,
      "ieut": 4287,
      "Ġnumbers": 4288,
      "Ġdign": 4289,
      "aments": 4290,
      "Ġlat": 4291,
      "apel": 4292,
      "Ġven": 4293,
      "Ġstock": 4294,
      "ĠWhere": 4295,
      "iel": 4296,
      "Ġsons": 4297,
      "common": 4298,
      "Ġ187": 4299,
      "ĠCons": 4300,
      "Ġamb": 4301,
      "Ġae": 4302,
      "Ġsit": 4303,
      "Ġstage": 4304,
      "Ġthrown": 4305,
      "Ġcontinue": 4306,
      "Ġconfess": 4307,
      "Ġconstitution": 4308,
      "Ġflat": 4309,
      "Ġleaving": 4310,
      "Ġlies": 4311,
      "Ġcopy": 4312,
      "Ġtried": 4313,
      "oft": 4314,
      "sell": 4315,
      "ATION": 4316,
      "Ġsacred": 4317,
      "Ġduties": 4318,
      "Ġpopular": 4319,
      "Ġ47": 4320,
      "ĠSpain": 4321,
      "Ġtemperature": 4322,
      "ĠMedical": 4323,
      "Ġdam": 4324,
      "Ã¦": 4325,
      "Ġforty": 4326,
      "Ġships": 4327,
      "Ġcollection": 4328,
      "zen": 4329,
      "Ġobst": 4330,
      "lies": 4331,
      "Ġ..": 4332,
      "CE": 4333,
      "47": 4334,
      "Ġfee": 4335,
      "Ġbottom": 4336,
      "Ġtrouble": 4337,
      "mark": 4338,
      "Ġfly": 4339,
      "Ġrepro": 4340,
      "ration": 4341,
      "Ġpolitical": 4342,
      "iti": 4343,
      "Ġcomposed": 4344,
      "course": 4345,
      "ĠBritain": 4346,
      "Ġunderstood": 4347,
      "vious": 4348,
      "Ġmat": 4349,
      "Ġdissol": 4350,
      "tw": 4351,
      "atives": 4352,
      "Ġviz": 4353,
      "ĠIN": 4354,
      "ieties": 4355,
      "Ġcou": 4356,
      "asters": 4357,
      "Ġviews": 4358,
      "rated": 4359,
      "Ġrad": 4360,
      "pelled": 4361,
      "erable": 4362,
      "ĠHim": 4363,
      "Ġfortune": 4364,
      "Ġneck": 4365,
      "Ġax": 4366,
      "Ġsubsequ": 4367,
      "Ġintellig": 4368,
      "ĠAng": 4369,
      "umin": 4370,
      "Ġpi": 4371,
      "'m": 4372,
      "acle": 4373,
      "eous": 4374,
      "Ġvel": 4375,
      "orous": 4376,
      "Ġreached": 4377,
      "Ġorn": 4378,
      "Ġflesh": 4379,
      "ĠJust": 4380,
      "action": 4381,
      "Ġsup": 4382,
      "Ġcontro": 4383,
      "ĠApp": 4384,
      "Ġcapable": 4385,
      "Ġ179": 4386,
      "ĠIsrael": 4387,
      "Ġdeclared": 4388,
      "Ġterr": 4389,
      "ustri": 4390,
      "ĠInt": 4391,
      "Ġpurposes": 4392,
      "ĠSmith": 4393,
      "cut": 4394,
      "Ġassemb": 4395,
      "Ġcho": 4396,
      "Ġprevious": 4397,
      "ĠTra": 4398,
      "chester": 4399,
      "ĠCompany": 4400,
      "uge": 4401,
      "using": 4402,
      "Ġmembran": 4403,
      "ingham": 4404,
      "Ġaccompl": 4405,
      "Ġnatur": 4406,
      "Ġservant": 4407,
      "Ġcamp": 4408,
      "change": 4409,
      "Ġpleased": 4410,
      "LI": 4411,
      "Ġhydro": 4412,
      "Ġeducation": 4413,
      "tem": 4414,
      "ĠMS": 4415,
      "ĠHam": 4416,
      "ĠGood": 4417,
      "Ġwon": 4418,
      "Ġrepresented": 4419,
      "abeth": 4420,
      "Ġfounded": 4421,
      "bra": 4422,
      "against": 4423,
      "Ġcere": 4424,
      "Ġ49": 4425,
      "arly": 4426,
      "Ġcollect": 4427,
      "Ġgentlemen": 4428,
      "Ġrelation": 4429,
      "Ġgirl": 4430,
      "ivity": 4431,
      "icks": 4432,
      "Ġze": 4433,
      "Ġseed": 4434,
      "urd": 4435,
      "Ġfool": 4436,
      "Ġdiam": 4437,
      "Ġpassion": 4438,
      "overy": 4439,
      "taken": 4440,
      "Ġlately": 4441,
      "Ġheads": 4442,
      "take": 4443,
      "Ġdesir": 4444,
      "itz": 4445,
      "ician": 4446,
      "cipit": 4447,
      "Ġcountries": 4448,
      "Ġalt": 4449,
      "ĠDavid": 4450,
      "Ġreduced": 4451,
      "Ġcloud": 4452,
      "ville": 4453,
      "gans": 4454,
      "Ġconven": 4455,
      "iation": 4456,
      "cal": 4457,
      "Ġfer": 4458,
      "Ġfight": 4459,
      "Ġderived": 4460,
      "erate": 4461,
      "othe": 4462,
      "Ġadmit": 4463,
      "inds": 4464,
      "ĠĠĠĠĠ": 4465,
      "80": 4466,
      "Ġsolid": 4467,
      "Ġreading": 4468,
      "Ġremarks": 4469,
      "Ġresist": 4470,
      "Ġfemale": 4471,
      "bishop": 4472,
      "path": 4473,
      "ste": 4474,
      "withstanding": 4475,
      "Ġissue": 4476,
      "Ġcit": 4477,
      "chan": 4478,
      "rences": 4479,
      "45": 4480,
      "ols": 4481,
      "Ġparties": 4482,
      "Ġattached": 4483,
      "ĠUnivers": 4484,
      "mal": 4485,
      "Ġweather": 4486,
      "ority": 4487,
      "Ġsucceeded": 4488,
      "Ġascertain": 4489,
      "Ġconstant": 4490,
      "iven": 4491,
      "Ġserved": 4492,
      "Ġgranted": 4493,
      "ico": 4494,
      "Ġextrem": 4495,
      "racts": 4496,
      "Ġdistant": 4497,
      "Ġarc": 4498,
      "Oh": 4499,
      "Ġpounds": 4500,
      "rh": 4501,
      "ardens": 4502,
      "tor": 4503,
      "Ġcoll": 4504,
      "zz": 4505,
      "Ġadvanced": 4506,
      "Ġspr": 4507,
      "stitution": 4508,
      "coh": 4509,
      "ĠÂ»": 4510,
      "verage": 4511,
      "Ġtruly": 4512,
      "oned": 4513,
      "enes": 4514,
      "Ġje": 4515,
      "Ġcommit": 4516,
      "Ġconvey": 4517,
      "agement": 4518,
      "itto": 4519,
      "Ġ**": 4520,
      "Ġdoth": 4521,
      "Ġquality": 4522,
      "Ġclasses": 4523,
      "Ġspoke": 4524,
      "anim": 4525,
      "urity": 4526,
      "OW": 4527,
      "claim": 4528,
      "aked": 4529,
      "gments": 4530,
      "Ġstanding": 4531,
      "Ġeld": 4532,
      "Ġvan": 4533,
      "Ġdesired": 4534,
      "Ġsettle": 4535,
      "Un": 4536,
      "Ġgradually": 4537,
      "omb": 4538,
      "sim": 4539,
      "Ġbelieved": 4540,
      "cd": 4541,
      "rab": 4542,
      "Ġacross": 4543,
      "Ġopening": 4544,
      "Ġindepend": 4545,
      "Ġll": 4546,
      "Ġconditions": 4547,
      "Ġexercise": 4548,
      "Ġdecided": 4549,
      "Ġpage": 4550,
      "Ġgoes": 4551,
      "Ġbranch": 4552,
      "Ġseparate": 4553,
      "Ġthro": 4554,
      "eral": 4555,
      "ients": 4556,
      "35": 4557,
      "ws": 4558,
      "Ġcried": 4559,
      "Ġoun": 4560,
      "uls": 4561,
      "Ġau": 4562,
      "formation": 4563,
      "ĠDis": 4564,
      "itors": 4565,
      "ĠNature": 4566,
      "Ġregarded": 4567,
      "ĠSpe": 4568,
      "Ġfifty": 4569,
      "Ġcloth": 4570,
      "Ġhat": 4571,
      "inction": 4572,
      "Ġfib": 4573,
      "hip": 4574,
      "utch": 4575,
      "lling": 4576,
      "Ġhab": 4577,
      "One": 4578,
      "Ġestate": 4579,
      "ĠOur": 4580,
      "ĠMer": 4581,
      "William": 4582,
      "ĠAss": 4583,
      "Ġnine": 4584,
      "plic": 4585,
      "Ġcarbon": 4586,
      "uries": 4587,
      "Ġglo": 4588,
      "Ġpractical": 4589,
      "Ġwest": 4590,
      "Ġsingular": 4591,
      "var": 4592,
      "Who": 4593,
      "power": 4594,
      "Ġbenefit": 4595,
      "follow": 4596,
      "Ġsolemn": 4597,
      "66": 4598,
      "Ġsong": 4599,
      "ĠLou": 4600,
      "ĠST": 4601,
      "acher": 4602,
      "olk": 4603,
      "Ġactive": 4604,
      "Ġsuffered": 4605,
      "Ġtrial": 4606,
      "ovember": 4607,
      "regular": 4608,
      "Ġserious": 4609,
      "Ġexternal": 4610,
      "ĠEliz": 4611,
      "Ġpron": 4612,
      "jected": 4613,
      "Ġknows": 4614,
      "Ġcurrent": 4615,
      "Ġfeelings": 4616,
      "ĠIts": 4617,
      "ĠMen": 4618,
      "Ġsad": 4619,
      "Ġmeant": 4620,
      "ked": 4621,
      "Ġissu": 4622,
      "Ġseat": 4623,
      "Ġmilitary": 4624,
      "ĠOxford": 4625,
      "Ġweeks": 4626,
      "flu": 4627,
      "Ġperformed": 4628,
      "taining": 4629,
      "orse": 4630,
      "Ġspeech": 4631,
      "ĠItaly": 4632,
      "Ġextremely": 4633,
      "Ġinch": 4634,
      "ĠDan": 4635,
      "Ġsevent": 4636,
      "ĠSub": 4637,
      "illing": 4638,
      "pes": 4639,
      "ĠProv": 4640,
      "oseph": 4641,
      "Ġgrowth": 4642,
      "uthors": 4643,
      "alys": 4644,
      "Ġclean": 4645,
      "Ġtaught": 4646,
      "Ġworship": 4647,
      "Ġthereof": 4648,
      "38": 4649,
      "pton": 4650,
      "Ġpowerful": 4651,
      "Ġtongue": 4652,
      "ĠGra": 4653,
      "Ġmir": 4654,
      "Ġpow": 4655,
      "Ġped": 4656,
      "ĠMart": 4657,
      "Ġjoint": 4658,
      "ĠTem": 4659,
      "Ġreach": 4660,
      "Ġwriters": 4661,
      "ĠStates": 4662,
      "UT": 4663,
      "otest": 4664,
      "ĠOff": 4665,
      "Ġsed": 4666,
      "Ġhearts": 4667,
      "ĠÂ§": 4668,
      "Ġveget": 4669,
      "Ġseek": 4670,
      "ulate": 4671,
      "otten": 4672,
      "Ġfish": 4673,
      "_,": 4674,
      "low": 4675,
      "ĠItal": 4676,
      "cks": 4677,
      "Ġ55": 4678,
      "osis": 4679,
      "Ġremem": 4680,
      "Ġpraise": 4681,
      "Ġseldom": 4682,
      "Ġgain": 4683,
      "having": 4684,
      "ructed": 4685,
      "Ġprobable": 4686,
      "Ġfault": 4687,
      "Ġsufficiently": 4688,
      "asions": 4689,
      "After": 4690,
      "atum": 4691,
      "46": 4692,
      "cs": 4693,
      "Ġmemory": 4694,
      "36": 4695,
      "Ġconsists": 4696,
      "Ġhappiness": 4697,
      "estern": 4698,
      "Ġdisci": 4699,
      "Ġspiritual": 4700,
      "Ġwealth": 4701,
      "ĠCommission": 4702,
      "Ġescape": 4703,
      "och": 4704,
      "olit": 4705,
      "Ġminutes": 4706,
      "Ġearnest": 4707,
      "ĠAnn": 4708,
      "Ġenemies": 4709,
      "Ġevents": 4710,
      "Ġevident": 4711,
      "ifying": 4712,
      "bered": 4713,
      "otes": 4714,
      "Ġfourth": 4715,
      "cember": 4716,
      "aria": 4717,
      "Ġexposed": 4718,
      "eding": 4719,
      "IM": 4720,
      "fo": 4721,
      "Ġnaturally": 4722,
      "Ġcouncil": 4723,
      "Ġpor": 4724,
      "Ġkne": 4725,
      "Ġbegin": 4726,
      "Ġfing": 4727,
      "ĠNov": 4728,
      "Ġacts": 4729,
      "ais": 4730,
      "pres": 4731,
      "Ġextraordinary": 4732,
      "Ġinferior": 4733,
      "Ġoccupied": 4734,
      "Ġplease": 4735,
      "Ġspecimens": 4736,
      "Ġshare": 4737,
      "ORD": 4738,
      "31": 4739,
      "ĠYet": 4740,
      "Ġminds": 4741,
      "Ġentitled": 4742,
      "Ġstands": 4743,
      "itate": 4744,
      ".^": 4745,
      "Ġmountains": 4746,
      "Ġsake": 4747,
      "Ġhi": 4748,
      "usted": 4749,
      "oral": 4750,
      "Ġrecent": 4751,
      "Ġstruck": 4752,
      "Ġiu": 4753,
      "iny": 4754,
      "ĠPope": 4755,
      "hens": 4756,
      "Ġaffairs": 4757,
      "itis": 4758,
      "Ġcircumstance": 4759,
      "Ġeast": 4760,
      "Ġreadily": 4761,
      "Ġchlor": 4762,
      "Ġol": 4763,
      "osen": 4764,
      "pa": 4765,
      "ertion": 4766,
      "Ġreply": 4767,
      "Ġetc": 4768,
      "Ġoccurred": 4769,
      "Ġarticles": 4770,
      "IES": 4771,
      "Ġchanges": 4772,
      "hon": 4773,
      "Ġpossessed": 4774,
      "Ġinvol": 4775,
      "Ġbul": 4776,
      "Ġaccur": 4777,
      "New": 4778,
      "Ġobservations": 4779,
      "Ġfluid": 4780,
      "ĠMat": 4781,
      "book": 4782,
      "ita": 4783,
      "acon": 4784,
      "atio": 4785,
      "Ġrelief": 4786,
      "Ġappoint": 4787,
      "rec": 4788,
      "37": 4789,
      "Ġbirds": 4790,
      "Ġhero": 4791,
      "Ġadvance": 4792,
      "mond": 4793,
      "Ġvic": 4794,
      "Ġprotect": 4795,
      "Ġcommer": 4796,
      "Ġadj": 4797,
      "Ge": 4798,
      "chant": 4799,
      "contin": 4800,
      "Ġteeth": 4801,
      "rig": 4802,
      "Ġsuddenly": 4803,
      "Ġsplend": 4804,
      "Ġmountain": 4805,
      "appear": 4806,
      "Ġmercy": 4807,
      "Ġshows": 4808,
      "ault": 4809,
      "Ġpressure": 4810,
      "Ġtravell": 4811,
      "ada": 4812,
      "Ġstructure": 4813,
      "Ġwisdom": 4814,
      "Ġimmediate": 4815,
      "three": 4816,
      "Ġreven": 4817,
      "Ġsi": 4818,
      "imon": 4819,
      "Ġfreed": 4820,
      "ĠMaster": 4821,
      "othes": 4822,
      "Ġthorough": 4823,
      "ints": 4824,
      "ĠWhite": 4825,
      "ram": 4826,
      "Ġaa": 4827,
      "ĠMal": 4828,
      "Ġhonest": 4829,
      "rum": 4830,
      "Ġlin": 4831,
      "ĠMo": 4832,
      "cher": 4833,
      "anch": 4834,
      "Ġ)": 4835,
      "Ġroot": 4836,
      "ELL": 4837,
      "Ġspoken": 4838,
      "39": 4839,
      "lem": 4840,
      "Ġopinions": 4841,
      "Ġtears": 4842,
      "Ġrespecting": 4843,
      "ĠEl": 4844,
      "Ab": 4845,
      "Ġpictures": 4846,
      "Ġshape": 4847,
      "May": 4848,
      "Ġproperly": 4849,
      "dem": 4850,
      "Ġnob": 4851,
      "Ġprayer": 4852,
      "Ġfatal": 4853,
      "SE": 4854,
      "isl": 4855,
      "Ġsecure": 4856,
      "Ġminister": 4857,
      "between": 4858,
      "ĠMont": 4859,
      "Ġrare": 4860,
      "ĠIndian": 4861,
      "tery": 4862,
      "Ġages": 4863,
      "hum": 4864,
      "Ġsen": 4865,
      "ilty": 4866,
      "Ġpartly": 4867,
      "Ġplate": 4868,
      "ĠAfric": 4869,
      "ĠMessrs": 4870,
      "ette": 4871,
      "uv": 4872,
      "Ġpromise": 4873,
      "Ġcryst": 4874,
      "clock": 4875,
      "heart": 4876,
      "years": 4877,
      "ĠRed": 4878,
      "jects": 4879,
      "point": 4880,
      "Qu": 4881,
      "aud": 4882,
      "Per": 4883,
      "anging": 4884,
      "Ġqui": 4885,
      "Ġnav": 4886,
      "Ġparliament": 4887,
      "ĠTwo": 4888,
      "Ġvillage": 4889,
      "rog": 4890,
      "Ġtax": 4891,
      "Ġaccompanied": 4892,
      "Ġofficer": 4893,
      "Ġsorrow": 4894,
      "ĠSto": 4895,
      "Ġcharacters": 4896,
      "Ġcondem": 4897,
      "Ġmusic": 4898,
      "came": 4899,
      "down": 4900,
      "Ġdisplay": 4901,
      "Ġpointed": 4902,
      "Ġrese": 4903,
      "Ġabsence": 4904,
      "Here": 4905,
      "Ġstation": 4906,
      "Ġpersu": 4907,
      "Ġfund": 4908,
      "Ġdiff": 4909,
      "IX": 4910,
      "Ġpp": 4911,
      "ses": 4912,
      "Hen": 4913,
      "Ġinse": 4914,
      "CO": 4915,
      "sal": 4916,
      "Ġmixed": 4917,
      "65": 4918,
      "cretary": 4919,
      "Ġnotes": 4920,
      "hall": 4921,
      "general": 4922,
      "ricult": 4923,
      "Ġcro": 4924,
      "otection": 4925,
      "Ġclergy": 4926,
      "useum": 4927,
      "Ġcum": 4928,
      "Ġremo": 4929,
      "Ġsword": 4930,
      "England": 4931,
      "Ġfond": 4932,
      "ĠOctober": 4933,
      "country": 4934,
      "osa": 4935,
      "irmed": 4936,
      "mus": 4937,
      "Ġwhence": 4938,
      "ĠBra": 4939,
      "Ġpreceding": 4940,
      "icy": 4941,
      "ĠOb": 4942,
      "Ġdefence": 4943,
      "irgin": 4944,
      "Ġerror": 4945,
      "Ġwaters": 4946,
      "ait": 4947,
      "ardon": 4948,
      "rible": 4949,
      "Ġpride": 4950,
      "Ġange": 4951,
      "tains": 4952,
      "Ġspirits": 4953,
      "ometimes": 4954,
      "Ġextensive": 4955,
      "little": 4956,
      "NE": 4957,
      "Ġargument": 4958,
      "Ġgas": 4959,
      "Ġhopes": 4960,
      "ĠCorn": 4961,
      "put": 4962,
      "five": 4963,
      "case": 4964,
      "eper": 4965,
      "ĠVen": 4966,
      "wers": 4967,
      "Ġcommonly": 4968,
      "Ġinstrument": 4969,
      "Ġprop": 4970,
      "Ġmerit": 4971,
      "estic": 4972,
      "Ġreaders": 4973,
      "among": 4974,
      "Tr": 4975,
      "ĠÃ": 4976,
      "ruary": 4977,
      "ef": 4978,
      "ding": 4979,
      "Ġclearly": 4980,
      "Ġstomach": 4981,
      "Ġmach": 4982,
      "Ġdangerous": 4983,
      "antic": 4984,
      "Ġfigures": 4985,
      "Ġdivision": 4986,
      "Ġshore": 4987,
      "ĠRes": 4988,
      "Ġrent": 4989,
      "thren": 4990,
      "Ġforget": 4991,
      "ulous": 4992,
      "Ġcool": 4993,
      "orted": 4994,
      "Ġhappened": 4995,
      "AV": 4996,
      "Ġworking": 4997,
      "astic": 4998,
      "Ġmoved": 4999,
      "ona": 5000,
      "ĠUnited": 5001,
      "Ġviolent": 5002,
      "Ġservants": 5003,
      "ANT": 5004,
      "Ġhill": 5005,
      "Ġcarefully": 5006,
      "ĠCatholic": 5007,
      "Ġsmaller": 5008,
      "Ġexactly": 5009,
      "Ġmember": 5010,
      "Ġfame": 5011,
      "others": 5012,
      "Ġmale": 5013,
      "ĠTrans": 5014,
      "Ġdestroyed": 5015,
      "Ġconfidence": 5016,
      "Bl": 5017,
      "ĠLords": 5018,
      "istration": 5019,
      "ena": 5020,
      "kin": 5021,
      "OG": 5022,
      "ĠSchool": 5023,
      "pie": 5024,
      "PH": 5025,
      "Ġtim": 5026,
      "Ġinformed": 5027,
      "Ġmeasures": 5028,
      "ĠRel": 5029,
      "Ġwholly": 5030,
      "Ġwel": 5031,
      "xion": 5032,
      "pent": 5033,
      "Ġhitherto": 5034,
      "himself": 5035,
      "inburgh": 5036,
      "kins": 5037,
      "sex": 5038,
      "Med": 5039,
      "ĠGovern": 5040,
      "ref": 5041,
      "Ġdog": 5042,
      "retched": 5043,
      "Me": 5044,
      "Ġtail": 5045,
      "Ġways": 5046,
      "Ġjourney": 5047,
      "hi": 5048,
      "ero": 5049,
      "view": 5050,
      "Ġaccident": 5051,
      "rue": 5052,
      "Ġfaithful": 5053,
      "Ġqueen": 5054,
      "Ġforming": 5055,
      "lla": 5056,
      "Ġmess": 5057,
      "Â§": 5058,
      "line": 5059,
      "Ġ>": 5060,
      "ĠYes": 5061,
      "Par": 5062,
      "ĠLy": 5063,
      "Ġworse": 5064,
      "Ġacquainted": 5065,
      "tin": 5066,
      "*.": 5067,
      "Ġsection": 5068,
      "del": 5069,
      "Ġobservation": 5070,
      "inch": 5071,
      "Ġactually": 5072,
      "Char": 5073,
      "Ġtrad": 5074,
      "OND": 5075,
      "Ġinstruct": 5076,
      "Ġgoods": 5077,
      "Ġfix": 5078,
      "Ġperpet": 5079,
      "Ġpreserved": 5080,
      "Ġsquare": 5081,
      "ĠBill": 5082,
      "isk": 5083,
      "Ġleading": 5084,
      "inations": 5085,
      ",,": 5086,
      "Ġrelative": 5087,
      "Ġtempor": 5088,
      "Ġsteam": 5089,
      "Ġdece": 5090,
      "Ġconclusion": 5091,
      "Ġassistance": 5092,
      "wich": 5093,
      "sey": 5094,
      "ials": 5095,
      "ilities": 5096,
      "Ġbelonging": 5097,
      "Ġwished": 5098,
      "ĠBu": 5099,
      "Ġul": 5100,
      "Ġstream": 5101,
      "pping": 5102,
      "Ġnoticed": 5103,
      "Ġthrone": 5104,
      "Ġmilk": 5105,
      "Ġendeavour": 5106,
      "Ġunited": 5107,
      "OD": 5108,
      "Ġlod": 5109,
      "did": 5110,
      "Ġcompletely": 5111,
      "Ġ!\"": 5112,
      "cientific": 5113,
      "Ġbearing": 5114,
      "Some": 5115,
      "ĠProfessor": 5116,
      "34": 5117,
      "Ġconsequently": 5118,
      "Ġpropri": 5119,
      "Ġideas": 5120,
      "ĠDu": 5121,
      "Ġbreast": 5122,
      "bur": 5123,
      "88": 5124,
      "Ġtheory": 5125,
      "iture": 5126,
      "Ġrecol": 5127,
      "ĠVer": 5128,
      "Ġpreviously": 5129,
      "enance": 5130,
      "VI": 5131,
      "Ġstrongly": 5132,
      "Ġproceeded": 5133,
      "bi": 5134,
      "cn": 5135,
      "Ġinvestig": 5136,
      "aths": 5137,
      "ĠGen": 5138,
      "adem": 5139,
      "Ġnational": 5140,
      "factory": 5141,
      "aft": 5142,
      "Ġ?\"": 5143,
      "fficient": 5144,
      "ĠJanuary": 5145,
      "ĠFirst": 5146,
      "ements": 5147,
      "Ġendeav": 5148,
      "32": 5149,
      "Ġthreat": 5150,
      "Ġkilled": 5151,
      "Ġexecution": 5152,
      "Ġlic": 5153,
      "Ġresolved": 5154,
      "Ġprivile": 5155,
      "Ġfarther": 5156,
      "64": 5157,
      "raction": 5158,
      "state": 5159,
      "Ġ:-": 5160,
      "mouth": 5161,
      "Ġbones": 5162,
      "arth": 5163,
      "Ġexperiments": 5164,
      "Ġrocks": 5165,
      "Ġdrawing": 5166,
      "Thus": 5167,
      "Ġdiseases": 5168,
      "Ġbrain": 5169,
      "Ġextended": 5170,
      "ĠĠĠĠĠĠ": 5171,
      "Ġalarm": 5172,
      "Ġben": 5173,
      "Ġladies": 5174,
      "abled": 5175,
      "rank": 5176,
      "Ġroots": 5177,
      "Ġ+": 5178,
      "ĠBlack": 5179,
      "Ġhung": 5180,
      "theless": 5181,
      "Ġyourself": 5182,
      "Ġcommitted": 5183,
      "Ġwicked": 5184,
      "ĠPark": 5185,
      "Ġbeat": 5186,
      "ground": 5187,
      "Ġexamined": 5188,
      "Ġgenius": 5189,
      "ĠAust": 5190,
      "Ġowing": 5191,
      "inced": 5192,
      "Ġconfined": 5193,
      "Ġthence": 5194,
      "Ġoccasionally": 5195,
      "Ġforest": 5196,
      "Ġshowed": 5197,
      "necessary": 5198,
      "Sp": 5199,
      "lement": 5200,
      "Ġeccles": 5201,
      "acles": 5202,
      "Ġcompet": 5203,
      "however": 5204,
      "Ġfallen": 5205,
      "ĠVal": 5206,
      "ellow": 5207,
      "Ġbis": 5208,
      "Ġeste": 5209,
      "stead": 5210,
      "Ġban": 5211,
      "bus": 5212,
      "name": 5213,
      "Ġpapers": 5214,
      "Ġfashion": 5215,
      "Ġapost": 5216,
      "ĠBen": 5217,
      "Do": 5218,
      "Ġarr": 5219,
      "Ġagreed": 5220,
      "umption": 5221,
      "Ġtwice": 5222,
      "fast": 5223,
      "held": 5224,
      "Ġintention": 5225,
      "Ġlevel": 5226,
      "Ġcommission": 5227,
      "ushed": 5228,
      "ĠColonel": 5229,
      "fr": 5230,
      "ĠGreen": 5231,
      "Ġrain": 5232,
      "Ġpour": 5233,
      "Ġtriumph": 5234,
      "ĠWater": 5235,
      "ĠEvery": 5236,
      "Ġsoldiers": 5237,
      "Ġsimply": 5238,
      "tical": 5239,
      "gate": 5240,
      "rian": 5241,
      "Ġ70": 5242,
      "Ġevidently": 5243,
      "Ġconversation": 5244,
      "Ġsettled": 5245,
      "Ġgrown": 5246,
      "gener": 5247,
      "ĠJews": 5248,
      "irect": 5249,
      "thus": 5250,
      "effect": 5251,
      "Ġchair": 5252,
      "thought": 5253,
      "llect": 5254,
      "inet": 5255,
      "ael": 5256,
      "ĠLove": 5257,
      "interest": 5258,
      "Ġtur": 5259,
      "alem": 5260,
      "English": 5261,
      "raid": 5262,
      ".),": 5263,
      "Ġwound": 5264,
      "Ġraise": 5265,
      "ĠLib": 5266,
      "Ġai": 5267,
      "ĠSeptember": 5268,
      "Ġindul": 5269,
      "uris": 5270,
      "Ġirrit": 5271,
      "Ġreasons": 5272,
      "ey": 5273,
      "father": 5274,
      "mas": 5275,
      "ĠTre": 5276,
      "Ġgenus": 5277,
      "Ġchanged": 5278,
      "Ġhom": 5279,
      "61": 5280,
      "ipt": 5281,
      "ieve": 5282,
      "henomen": 5283,
      "Ġkings": 5284,
      "arest": 5285,
      "CHAPTER": 5286,
      "fig": 5287,
      "Ġeleg": 5288,
      "ization": 5289,
      "Ġsor": 5290,
      "Ġbehold": 5291,
      "Ġsource": 5292,
      "Ġball": 5293,
      "Ġcruel": 5294,
      "Ġstriking": 5295,
      "cohol": 5296,
      "abb": 5297,
      "'.": 5298,
      "lis": 5299,
      "Ġfir": 5300,
      "Ġadapt": 5301,
      "ropri": 5302,
      "Ġinternal": 5303,
      "bly": 5304,
      "aling": 5305,
      "Well": 5306,
      "div": 5307,
      "lets": 5308,
      "Ġwanted": 5309,
      "Ġlose": 5310,
      "Ġunknown": 5311,
      "Ġow": 5312,
      "Ġegg": 5313,
      "cester": 5314,
      "aunt": 5315,
      "Ġcorrupt": 5316,
      "Ġspect": 5317,
      "ĠFr": 5318,
      "unday": 5319,
      "rical": 5320,
      "ĠNap": 5321,
      "inus": 5322,
      "ĠIll": 5323,
      "Ġfate": 5324,
      "Ġduke": 5325,
      "Ġdinner": 5326,
      "Ġincluding": 5327,
      "Ġsought": 5328,
      "ĠDel": 5329,
      "war": 5330,
      "Ġstreet": 5331,
      "Ġbone": 5332,
      "rag": 5333,
      "Ġvarieties": 5334,
      "Ġsupplied": 5335,
      "58": 5336,
      "ĠStr": 5337,
      "Ġexplain": 5338,
      "59": 5339,
      "Ġchurches": 5340,
      "Ġble": 5341,
      "Ġpleasant": 5342,
      "ĠHospital": 5343,
      "say": 5344,
      "Ġstatement": 5345,
      "Ġpoison": 5346,
      "Ġult": 5347,
      "Ġtone": 5348,
      "make": 5349,
      "ĠCastle": 5350,
      "ror": 5351,
      "Ġexhibited": 5352,
      "opp": 5353,
      "Ġslightly": 5354,
      "Ġcup": 5355,
      "Brit": 5356,
      "iency": 5357,
      "ĠServ": 5358,
      "ĠKings": 5359,
      "Ġcolon": 5360,
      "sels": 5361,
      "ĠNovember": 5362,
      "miss": 5363,
      "Ġwo": 5364,
      "Br": 5365,
      "Ġmankind": 5366,
      "Ġstraight": 5367,
      "teenth": 5368,
      "Ġcredit": 5369,
      "small": 5370,
      "turn": 5371,
      "ĠChristians": 5372,
      "Ġactual": 5373,
      "Ġsatisfied": 5374,
      "Ġrising": 5375,
      "Ġtroub": 5376,
      "Ġ44": 5377,
      "Ġbrief": 5378,
      "Ag": 5379,
      "Ġfamiliar": 5380,
      "Ġexception": 5381,
      "ĠJoseph": 5382,
      "Ġ32": 5383,
      "criptions": 5384,
      "62": 5385,
      "ulars": 5386,
      "Ġessential": 5387,
      "Ġwindow": 5388,
      "Ġdirectly": 5389,
      "Ġends": 5390,
      "each": 5391,
      "Ġran": 5392,
      "Ġsovere": 5393,
      "enant": 5394,
      "whole": 5395,
      "Ġcollected": 5396,
      "Ġdur": 5397,
      "acious": 5398,
      "57": 5399,
      "mem": 5400,
      "Ġproud": 5401,
      "Ġshut": 5402,
      "Ġquestions": 5403,
      "Ġju": 5404,
      "phere": 5405,
      "people": 5406,
      "atre": 5407,
      "Ġlying": 5408,
      "Ġaware": 5409,
      "Ġgar": 5410,
      "Ġ80": 5411,
      "Ġmanifest": 5412,
      "iae": 5413,
      "Ġstones": 5414,
      "ĠEmperor": 5415,
      "Ġorgans": 5416,
      "Ġoccurs": 5417,
      "Ġsail": 5418,
      "ums": 5419,
      "Ġjoined": 5420,
      "mense": 5421,
      "Ġmerc": 5422,
      "Mar": 5423,
      "ĠDev": 5424,
      "Ġsaf": 5425,
      "minster": 5426,
      "Ġcontinu": 5427,
      "Ġbitter": 5428,
      "aret": 5429,
      "Ġswell": 5430,
      "ĠEven": 5431,
      "Ġtowns": 5432,
      "ĠMus": 5433,
      "Ġapparently": 5434,
      "ĠJournal": 5435,
      "',": 5436,
      "ĠElizabeth": 5437,
      "68": 5438,
      "Ġmarket": 5439,
      "Ġtotal": 5440,
      "Which": 5441,
      "Ġsituated": 5442,
      "Yet": 5443,
      "Ġtempt": 5444,
      "ĠWho": 5445,
      "Ġinnoc": 5446,
      "Ġforced": 5447,
      "Ġcord": 5448,
      "ĠSol": 5449,
      "rt": 5450,
      "ulations": 5451,
      "Ġavoid": 5452,
      "67": 5453,
      "las": 5454,
      "Ġrelations": 5455,
      "OC": 5456,
      "ĠLand": 5457,
      "cap": 5458,
      "mis": 5459,
      "Ġroof": 5460,
      "Ġdeliver": 5461,
      "63": 5462,
      "Ġconsent": 5463,
      "Ġpriest": 5464,
      "lance": 5465,
      "Ġarise": 5466,
      "Ġantiqu": 5467,
      "erk": 5468,
      "Ġjoin": 5469,
      "Ġliquid": 5470,
      "ounce": 5471,
      "Ġsod": 5472,
      "Ġring": 5473,
      "Ġband": 5474,
      "Ġfancy": 5475,
      "Ġspeed": 5476,
      "ccess": 5477,
      "mes": 5478,
      "plete": 5479,
      "Ġsmo": 5480,
      "Ġtube": 5481,
      "Ġpan": 5482,
      "Why": 5483,
      "illa": 5484,
      "Ġcontent": 5485,
      "ĠLieut": 5486,
      "ICAL": 5487,
      "Ġflow": 5488,
      "back": 5489,
      "pen": 5490,
      "Ġchoice": 5491,
      "DE": 5492,
      "ildren": 5493,
      "cel": 5494,
      "Ġsteps": 5495,
      "ĠFrancis": 5496,
      "Ġbal": 5497,
      "Ġfurnished": 5498,
      "six": 5499,
      "AG": 5500,
      "ounding": 5501,
      "uty": 5502,
      "King": 5503,
      "ĠColl": 5504,
      "Ġgrowing": 5505,
      "posing": 5506,
      "ourn": 5507,
      "Ġ178": 5508,
      "natural": 5509,
      "Ġexperiment": 5510,
      "both": 5511,
      "another": 5512,
      "year": 5513,
      "ĠNat": 5514,
      "ĠUniversity": 5515,
      "Ġuniform": 5516,
      "Ġaccord": 5517,
      "Ġgrass": 5518,
      "ĠCur": 5519,
      "wall": 5520,
      "iable": 5521,
      "ĠVI": 5522,
      "Ġrig": 5523,
      "Ġcommence": 5524,
      "Ġkeeping": 5525,
      "otton": 5526,
      "Ġtb": 5527,
      "Ġpair": 5528,
      "ography": 5529,
      "Ġrail": 5530,
      "ĠLouis": 5531,
      "mention": 5532,
      "Ġobsc": 5533,
      "Ġrob": 5534,
      "dep": 5535,
      "icles": 5536,
      "adow": 5537,
      "Ġaverage": 5538,
      "Ġacute": 5539,
      "Ġwait": 5540,
      "igns": 5541,
      "Ġdegrees": 5542,
      "Ġpossibly": 5543,
      "anted": 5544,
      "Ġobed": 5545,
      "Ġ57": 5546,
      "Ġloved": 5547,
      "Ġacquaint": 5548,
      "circ": 5549,
      "ĠEr": 5550,
      "ĠDecember": 5551,
      "Ġprecipit": 5552,
      "Ġblind": 5553,
      "Ġinterests": 5554,
      "ĠAuthor": 5555,
      "Ġaddressed": 5556,
      "Ġabst": 5557,
      "ficial": 5558,
      "Ġwilling": 5559,
      "!-": 5560,
      "Ġactions": 5561,
      "Ġprovince": 5562,
      "Ġsex": 5563,
      "cu": 5564,
      "ĠGo": 5565,
      "Ġsouls": 5566,
      "piration": 5567,
      "Ġoperations": 5568,
      "Ġannual": 5569,
      "tu": 5570,
      "Ġrules": 5571,
      "pring": 5572,
      "Ġmaid": 5573,
      "Ġassured": 5574,
      "Ġmoon": 5575,
      "orders": 5576,
      "Ġdiffer": 5577,
      "Ġstar": 5578,
      "Ġhabits": 5579,
      "Ġlect": 5580,
      "ĠScott": 5581,
      "ĠCO": 5582,
      "Ġapproach": 5583,
      "Ġsatisfaction": 5584,
      "Ġlearning": 5585,
      "ĠSpanish": 5586,
      "Fig": 5587,
      "Ġrub": 5588,
      "greg": 5589,
      "Ġliable": 5590,
      "Ġcoal": 5591,
      "Ġcrim": 5592,
      "Ġlips": 5593,
      "Ġbare": 5594,
      "van": 5595,
      "writ": 5596,
      "Ġascend": 5597,
      "Ġsheep": 5598,
      "55": 5599,
      "Ġ''": 5600,
      "ensions": 5601,
      "Ġleaf": 5602,
      "Ġhumble": 5603,
      "iche": 5604,
      "host": 5605,
      "Ġdistress": 5606,
      "ĠSan": 5607,
      "nn": 5608,
      "Ġauthors": 5609,
      "Ġfier": 5610,
      "Ġbapt": 5611,
      "asp": 5612,
      "Ġconstantly": 5613,
      "ĠOffic": 5614,
      "inder": 5615,
      "Ġsupported": 5616,
      "Ġlif": 5617,
      "Ġdisposed": 5618,
      "ĠMany": 5619,
      "Ġsilence": 5620,
      "Ġunfortun": 5621,
      "Ġ58": 5622,
      "Ġprotection": 5623,
      "Ġalle": 5624,
      "ĠJac": 5625,
      "Ġunion": 5626,
      "Ġ||": 5627,
      "Ġ177": 5628,
      "Ġreward": 5629,
      "liest": 5630,
      "Ġposter": 5631,
      "Ġident": 5632,
      "street": 5633,
      "rection": 5634,
      "Ġarchitect": 5635,
      "pus": 5636,
      "EE": 5637,
      "Ġlooks": 5638,
      "Ġerected": 5639,
      "amily": 5640,
      "Ġrecently": 5641,
      "Ġprefer": 5642,
      "Ġpopulation": 5643,
      "Ġutmost": 5644,
      "ienced": 5645,
      "yer": 5646,
      "Ġconsult": 5647,
      "'ve": 5648,
      "Ġdrew": 5649,
      "Ġplaint": 5650,
      "Ġomn": 5651,
      "Ġarrangement": 5652,
      "Ġcure": 5653,
      "ĠGentle": 5654,
      "Ġsou": 5655,
      "sl": 5656,
      "Ġrefused": 5657,
      "General": 5658,
      "Ġacknowled": 5659,
      "Ġincon": 5660,
      "ships": 5661,
      "ĠLu": 5662,
      "ublin": 5663,
      "Ġdemon": 5664,
      "times": 5665,
      "'re": 5666,
      "Ġ59": 5667,
      "Ġthank": 5668,
      "Ġoccasions": 5669,
      "Ġblessed": 5670,
      "usive": 5671,
      "ĠFore": 5672,
      "Ġbox": 5673,
      "etch": 5674,
      "Ġdefe": 5675,
      "Ġabsor": 5676,
      "Ġtemple": 5677,
      "Ġrequest": 5678,
      "aneous": 5679,
      "reason": 5680,
      "Ġwear": 5681,
      "Ġinflammation": 5682,
      "ĠDep": 5683,
      "'^": 5684,
      "ĠMore": 5685,
      "Ġtiss": 5686,
      "non": 5687,
      "Ġcompared": 5688,
      "itated": 5689,
      "trans": 5690,
      "pended": 5691,
      "cation": 5692,
      "Ġfinding": 5693,
      "Ġnut": 5694,
      "Ġtou": 5695,
      "ĠĠĠĠĠĠĠĠĠĠĠĠĠĠĠĠĠĠĠĠĠĠĠĠ": 5696,
      "Ġexpense": 5697,
      "Ġbreath": 5698,
      "Ġcontract": 5699,
      "Ġknight": 5700,
      "oqu": 5701,
      "ĠTest": 5702,
      "While": 5703,
      "ĠFort": 5704,
      "ĠVict": 5705,
      "cretion": 5706,
      "ĠBoard": 5707,
      "anation": 5708,
      "ĠItalian": 5709,
      "Ġsearch": 5710,
      "Ġfreely": 5711,
      "Ġadvice": 5712,
      "Ġears": 5713,
      "Ġcarrying": 5714,
      "inth": 5715,
      "Ġguilty": 5716,
      "Ġflour": 5717,
      "EST": 5718,
      "ky": 5719,
      "Ġsurely": 5720,
      "born": 5721,
      "Ġsli": 5722,
      "ocal": 5723,
      "olland": 5724,
      "ĠMajor": 5725,
      "Ġchosen": 5726,
      "Ġsuccessful": 5727,
      "exam": 5728,
      "Ġhall": 5729,
      "69": 5730,
      "ĠPhys": 5731,
      "rain": 5732,
      "Ġruin": 5733,
      "Ġef": 5734,
      "Ġseparated": 5735,
      "Ġfill": 5736,
      "icious": 5737,
      "vii": 5738,
      "Ġpu": 5739,
      "pret": 5740,
      "Ġlung": 5741,
      "Ġfreedom": 5742,
      "Ġboys": 5743,
      "Ġfoundation": 5744,
      "Ġschools": 5745,
      "Ġbelief": 5746,
      "Ġatmos": 5747,
      "ucted": 5748,
      "Ġast": 5749,
      "Ġdevoted": 5750,
      "Ġthinking": 5751,
      "seen": 5752,
      "Ġcolours": 5753,
      "llor": 5754,
      "Ġanxious": 5755,
      "mind": 5756,
      "Ġuniversal": 5757,
      "placed": 5758,
      "Ġrequires": 5759,
      "Ġspecimen": 5760,
      "given": 5761,
      "Ġhills": 5762,
      "Ġclosely": 5763,
      "Ġconscious": 5764,
      "Ġafraid": 5765,
      "ĠProtest": 5766,
      "Te": 5767,
      "Ġmuc": 5768,
      "Ġeternal": 5769,
      "Ġmighty": 5770,
      "rait": 5771,
      "Ġremedy": 5772,
      "Ġrunning": 5773,
      "Ġregret": 5774,
      "alysis": 5775,
      "allel": 5776,
      "Ġmarch": 5777,
      "Ġeverything": 5778,
      "Ġ190": 5779,
      "Ġservices": 5780,
      "Ġempire": 5781,
      "Our": 5782,
      "stre": 5783,
      "Ġskill": 5784,
      "Ġmixture": 5785,
      "ĠHeaven": 5786,
      "41": 5787,
      "erusalem": 5788,
      "lia": 5789,
      "Ġplates": 5790,
      "Ġcomposition": 5791,
      "arts": 5792,
      "Ġirregular": 5793,
      "Ġsanct": 5794,
      "Ġyes": 5795,
      "atively": 5796,
      "friend": 5797,
      "took": 5798,
      "enses": 5799,
      "sa": 5800,
      "Ġrapidly": 5801,
      "ĠSil": 5802,
      "borough": 5803,
      "Ġsmooth": 5804,
      "aratus": 5805,
      "Ġcompre": 5806,
      "Mrs": 5807,
      "Ġcattle": 5808,
      "Ġlit": 5809,
      "Ġinfinite": 5810,
      "Henry": 5811,
      "half": 5812,
      "Ġspent": 5813,
      "Ġprem": 5814,
      "Ġconqu": 5815,
      "Ġclosed": 5816,
      "Ne": 5817,
      "Ġupwards": 5818,
      "respect": 5819,
      "iege": 5820,
      "Ġaged": 5821,
      "ĠTown": 5822,
      "Ġfamous": 5823,
      "ofe": 5824,
      "ĠSea": 5825,
      "ĠSecretary": 5826,
      "ĠThou": 5827,
      "KS": 5828,
      "Ġhearing": 5829,
      "Ġlegs": 5830,
      "iit": 5831,
      "Ġremaining": 5832,
      "Ġprejud": 5833,
      "Ġrights": 5834,
      "fall": 5835,
      "Ġcalls": 5836,
      "post": 5837,
      "Ġforces": 5838,
      "Ġsnow": 5839,
      "hus": 5840,
      "ancing": 5841,
      "rim": 5842,
      "Ġcastle": 5843,
      "Ġease": 5844,
      "Ġthine": 5845,
      "iot": 5846,
      "Ġabdom": 5847,
      "Ġyon": 5848,
      "Ġinstant": 5849,
      "RI": 5850,
      "Ġsharp": 5851,
      "qual": 5852,
      "Ġintellect": 5853,
      "Ġaston": 5854,
      "asc": 5855,
      "Ġzeal": 5856,
      "Ġpup": 5857,
      "erves": 5858,
      "^,": 5859,
      "consider": 5860,
      "Ġsust": 5861,
      "Ġlimited": 5862,
      "Ġcareful": 5863,
      "Ro": 5864,
      "OH": 5865,
      "iate": 5866,
      "pool": 5867,
      "ĠCommons": 5868,
      "Ġsale": 5869,
      "Ġdignity": 5870,
      "Ġdistinction": 5871,
      "Ġdisapp": 5872,
      "Ġformation": 5873,
      "Ġlime": 5874,
      "ĠEv": 5875,
      "Ġsugar": 5876,
      "Ġmanners": 5877,
      "Ġgained": 5878,
      "therefore": 5879,
      "Ġdestruction": 5880,
      "ĠApost": 5881,
      "Ġbig": 5882,
      "arter": 5883,
      "Ġwi": 5884,
      "ĠAssoci": 5885,
      "uble": 5886,
      "wa": 5887,
      "Ġacted": 5888,
      "Ġdare": 5889,
      "ĠFebruary": 5890,
      "ĠEdinburgh": 5891,
      "iana": 5892,
      "det": 5893,
      "esides": 5894,
      "nation": 5895,
      "Ġperman": 5896,
      "Ġdischarge": 5897,
      "Ġrough": 5898,
      "Ġmission": 5899,
      "Ġsitting": 5900,
      "TON": 5901,
      "author": 5902,
      "Ġstop": 5903,
      "Ġmaterials": 5904,
      "UN": 5905,
      "Ġdisposition": 5906,
      "Ġfavourable": 5907,
      "thur": 5908,
      "Ġnews": 5909,
      "istered": 5910,
      "rows": 5911,
      "Ġremove": 5912,
      "Ġaccordingly": 5913,
      "Ġneighbourhood": 5914,
      "Ġcert": 5915,
      "ĠMel": 5916,
      "Ġsafety": 5917,
      "unction": 5918,
      "Ġpolicy": 5919,
      "ĠGermany": 5920,
      "ĠCap": 5921,
      "icians": 5922,
      "yet": 5923,
      "Ġornament": 5924,
      "Ġloud": 5925,
      "ustry": 5926,
      "Ġabroad": 5927,
      "Ġobjection": 5928,
      "Ġsins": 5929,
      "ĠHeb": 5930,
      "ĠWales": 5931,
      "whom": 5932,
      "ĠHill": 5933,
      "Ġvisited": 5934,
      "Ġvo": 5935,
      "Ġreflect": 5936,
      "key": 5937,
      "Ġbi": 5938,
      "cean": 5939,
      "Ġentrance": 5940,
      "Ġestim": 5941,
      "matter": 5942,
      "Ġprecise": 5943,
      "aming": 5944,
      "Ġframe": 5945,
      "rers": 5946,
      "ĠRE": 5947,
      "princi": 5948,
      "ĠFriend": 5949,
      "Ġexclaim": 5950,
      "Ġaband": 5951,
      "42": 5952,
      "43": 5953,
      "Ġcreature": 5954,
      "happy": 5955,
      "Ġdelay": 5956,
      "Ġgroup": 5957,
      "vity": 5958,
      "Ġdepri": 5959,
      "Ġ189": 5960,
      "Ġrect": 5961,
      "Ġloose": 5962,
      "ĠAdd": 5963,
      "Ġeminent": 5964,
      "ĠHol": 5965,
      "question": 5966,
      "Ġvisible": 5967,
      "Ġdivers": 5968,
      "Ġcust": 5969,
      "think": 5970,
      "Ġsav": 5971,
      "PE": 5972,
      "Ġcalm": 5973,
      "Yes": 5974,
      "Ġwings": 5975,
      "Ġpill": 5976,
      "worthy": 5977,
      "cia": 5978,
      "Ġglorious": 5979,
      "Ġengra": 5980,
      "END": 5981,
      "onia": 5982,
      "Ġconnection": 5983,
      "ifications": 5984,
      "Ġquickly": 5985,
      "Ġvols": 5986,
      "ĠFe": 5987,
      "Ġstrugg": 5988,
      "Ġcreated": 5989,
      "Ġbore": 5990,
      "omet": 5991,
      "ĠJo": 5992,
      "Ġprisoner": 5993,
      "life": 5994,
      "ĠSecond": 5995,
      "ĠPhilip": 5996,
      "han": 5997,
      "Ġapt": 5998,
      "arc": 5999,
      "Ġmoist": 6000,
      "eting": 6001,
      "Ġarranged": 6002,
      "Such": 6003,
      "ĠAlexander": 6004,
      "Ġarrival": 6005,
      "Ġsuit": 6006,
      "Ġrenew": 6007,
      "Ġpains": 6008,
      "Ġscale": 6009,
      "log": 6010,
      "ĠTom": 6011,
      "care": 6012,
      "Ġpatients": 6013,
      "Ġagreeable": 6014,
      "Ġimpression": 6015,
      "fin": 6016,
      "houses": 6017,
      "Ġhandsome": 6018,
      "Ġburied": 6019,
      "Ġta": 6020,
      "Ġopposition": 6021,
      "Ġfifteen": 6022,
      "Ġcam": 6023,
      "ĠMount": 6024,
      "arian": 6025,
      "aux": 6026,
      "Ġdefect": 6027,
      "*,": 6028,
      "Ġadvantages": 6029,
      "oubted": 6030,
      "Ġministers": 6031,
      "Ġchapter": 6032,
      "Ġsilent": 6033,
      "ĠGarden": 6034,
      "Ġpromised": 6035,
      "ĠSax": 6036,
      "grace": 6037,
      "num": 6038,
      "Ġnamely": 6039,
      "Ġcourage": 6040,
      "Ġrecon": 6041,
      "Ġprospect": 6042,
      "Ġsuggested": 6043,
      "idel": 6044,
      "Ġefforts": 6045,
      "za": 6046,
      "Ġbuildings": 6047,
      "Ġedge": 6048,
      "Ġconcerned": 6049,
      "Ġsentence": 6050,
      "positions": 6051,
      "ĠCity": 6052,
      "Ġphenomen": 6053,
      "Ġbrethren": 6054,
      "Ġtub": 6055,
      "Ġfamilies": 6056,
      "Ġsacrifice": 6057,
      "amin": 6058,
      "yng": 6059,
      "bably": 6060,
      "ESS": 6061,
      "Ġschol": 6062,
      "Ġoutside": 6063,
      "TS": 6064,
      "udd": 6065,
      "Ġtells": 6066,
      "going": 6067,
      "Ġparticulars": 6068,
      "Ġammon": 6069,
      "Ġgrey": 6070,
      "Ġaside": 6071,
      "Ġproceedings": 6072,
      "ĠDay": 6073,
      "Ġchamber": 6074,
      "Ġexplained": 6075,
      "aration": 6076,
      "quare": 6077,
      "gn": 6078,
      "Ġnecessarily": 6079,
      "Ġconj": 6080,
      "incess": 6081,
      "Your": 6082,
      "Ġqualities": 6083,
      "Ġcommanded": 6084,
      "athered": 6085,
      "Ġthanks": 6086,
      "ĠYour": 6087,
      "ĠBell": 6088,
      "Co": 6089,
      "Ġtendency": 6090,
      "alty": 6091,
      "Ġric": 6092,
      "Ġboat": 6093,
      "bor": 6094,
      "Ġmaintain": 6095,
      "ĠBed": 6096,
      "ĠOffice": 6097,
      "win": 6098,
      "ĠLong": 6099,
      "Ġerect": 6100,
      "Ġabsolutely": 6101,
      "igs": 6102,
      "asses": 6103,
      "Ġdifficulties": 6104,
      "illy": 6105,
      "OB": 6106,
      "ĠThose": 6107,
      "Ġquod": 6108,
      "Ġpages": 6109,
      "Ġinfant": 6110,
      "force": 6111,
      "Ġsche": 6112,
      "far": 6113,
      "Ġbecoming": 6114,
      "Ġcheer": 6115,
      "asant": 6116,
      "ĠJohnson": 6117,
      "Ġcopper": 6118,
      "Ġcells": 6119,
      "Ġtype": 6120,
      "pons": 6121,
      "Ġmild": 6122,
      "mount": 6123,
      "Ġunable": 6124,
      "ji": 6125,
      "Ġthereby": 6126,
      "ĠKe": 6127,
      "ming": 6128,
      "account": 6129,
      "Ġnotwithstanding": 6130,
      "arded": 6131,
      "mor": 6132,
      "rub": 6133,
      "Ġacquired": 6134,
      "Ġvii": 6135,
      "attered": 6136,
      "Ġrighteous": 6137,
      "Ġingen": 6138,
      "Ġhut": 6139,
      "ige": 6140,
      "Ġissued": 6141,
      "Ġphot": 6142,
      ",*": 6143,
      "elf": 6144,
      "ribution": 6145,
      "Ġmidst": 6146,
      "Ġteach": 6147,
      "Ġgate": 6148,
      "Ġsulphur": 6149,
      "Ġconfirm": 6150,
      "ache": 6151,
      "ĠEst": 6152,
      "Ġtrace": 6153,
      "usions": 6154,
      "Ġexisting": 6155,
      "tri": 6156,
      "Ġhorn": 6157,
      "Ġmonarch": 6158,
      "ĠJul": 6159,
      "Ġwli": 6160,
      "oln": 6161,
      "Ġpit": 6162,
      "Man": 6163,
      "Ġconscience": 6164,
      "ĠTime": 6165,
      "ĠRem": 6166,
      "Ġshame": 6167,
      "Ġaccounts": 6168,
      "hich": 6169,
      "Ġgrounds": 6170,
      "Ġfavourite": 6171,
      "Ġprint": 6172,
      "Ġimagine": 6173,
      "Ġblo": 6174,
      "Ġparents": 6175,
      "Ġdelicate": 6176,
      "give": 6177,
      "comp": 6178,
      "Ġadditional": 6179,
      "Ġbroke": 6180,
      "Ġtn": 6181,
      "Ġinduced": 6182,
      "ĠPost": 6183,
      "Ġhealthy": 6184,
      "Ġgrie": 6185,
      "ao": 6186,
      "Ġuncle": 6187,
      "ĠDi": 6188,
      "oria": 6189,
      "Can": 6190,
      "Ġton": 6191,
      "Ġfortun": 6192,
      "Ġsuspic": 6193,
      "osph": 6194,
      "eration": 6195,
      "seless": 6196,
      "conf": 6197,
      "Ġdeeply": 6198,
      "observ": 6199,
      "Ġhyp": 6200,
      "Ġtoler": 6201,
      "Ġcharged": 6202,
      "ĠMet": 6203,
      "appeared": 6204,
      "Ġtrain": 6205,
      "Ġreck": 6206,
      "Ġimmense": 6207,
      "ali": 6208,
      "Ġdiscovery": 6209,
      "^'": 6210,
      "osom": 6211,
      "Ġinjury": 6212,
      "cip": 6213,
      "Enter": 6214,
      "Ġpetition": 6215,
      "Ġnovel": 6216,
      "ĠCrown": 6217,
      "Ġoriginally": 6218,
      "...": 6219,
      "Ġcontempt": 6220,
      "ĠMark": 6221,
      "asted": 6222,
      "Ġblow": 6223,
      "nds": 6224,
      "Ġlest": 6225,
      "ications": 6226,
      "Ġstreets": 6227,
      "Ġresidence": 6228,
      "Ġspeaks": 6229,
      "Ġproduction": 6230,
      "Ġoi": 6231,
      "Ġholding": 6232,
      "Ġsuffering": 6233,
      "Ġceremon": 6234,
      "Ġfu": 6235,
      "erick": 6236,
      "Ġignorant": 6237,
      "Ġpity": 6238,
      "Ġshowing": 6239,
      "Ġexecuted": 6240,
      "oir": 6241,
      "ifies": 6242,
      "Ġgetting": 6243,
      "iastical": 6244,
      "Ġdevelopment": 6245,
      "Ġdoc": 6246,
      "orter": 6247,
      "ĠWas": 6248,
      "Ġdefendant": 6249,
      "Ġcy": 6250,
      "uity": 6251,
      "Ġinterior": 6252,
      "56": 6253,
      "Ġimprovement": 6254,
      "ĠSunday": 6255,
      "Ġsympath": 6256,
      "Ġvary": 6257,
      "ĠFa": 6258,
      "ĠBank": 6259,
      "ante": 6260,
      "^.": 6261,
      "Ġdiameter": 6262,
      "ĠSl": 6263,
      "Ġenable": 6264,
      "aks": 6265,
      "achment": 6266,
      "Ġcir": 6267,
      "eping": 6268,
      "Ġwaa": 6269,
      "Ġmarks": 6270,
      "Ġaltern": 6271,
      "Thomas": 6272,
      "Ġfairly": 6273,
      "Ġfulf": 6274,
      "77": 6275,
      "Ġom": 6276,
      "ĠChron": 6277,
      "Ġinquiry": 6278,
      "Ġsuitable": 6279,
      "vated": 6280,
      "Ġturning": 6281,
      "Ġfinished": 6282,
      "Dig": 6283,
      "Ġstro": 6284,
      "ĠRob": 6285,
      "ĠPen": 6286,
      "Ġcircle": 6287,
      "uce": 6288,
      "Ġalcohol": 6289,
      "Ġsocial": 6290,
      "public": 6291,
      "Ġpasses": 6292,
      "Ġchron": 6293,
      "ĠCy": 6294,
      "Ġ188": 6295,
      "Ġmajesty": 6296,
      "Ġvul": 6297,
      "pract": 6298,
      "ĠDeath": 6299,
      "Ġmedicine": 6300,
      "too": 6301,
      "Ġinclined": 6302,
      "Ġeager": 6303,
      "Ġdetails": 6304,
      "Ġly": 6305,
      "Ġviolence": 6306,
      "whose": 6307,
      "Ġfinally": 6308,
      "Ġresolution": 6309,
      "Ġprud": 6310,
      "Tis": 6311,
      "Ġinterrupt": 6312,
      "Ġbanks": 6313,
      "ani": 6314,
      "Ġmembrane": 6315,
      "Ġwounded": 6316,
      "Ġther": 6317,
      "Ġdepth": 6318,
      "Ġstir": 6319,
      "aU": 6320,
      "Ġgrief": 6321,
      "Ġsaved": 6322,
      "Ġseeds": 6323,
      "Es": 6324,
      "oyage": 6325,
      "ĠBay": 6326,
      "Ġpunishment": 6327,
      "Ġpull": 6328,
      "urious": 6329,
      "orial": 6330,
      "Ġinvent": 6331,
      "ĠTH": 6332,
      "Ġcommenced": 6333,
      "ago": 6334,
      "spect": 6335,
      "Ġlot": 6336,
      "RY": 6337,
      "ĠHence": 6338,
      "Ġscientific": 6339,
      "ĠAthen": 6340,
      "ĠGold": 6341,
      "ĠHel": 6342,
      "Ġmagnific": 6343,
      "because": 6344,
      "Ġmuscles": 6345,
      "ribute": 6346,
      "vest": 6347,
      "Ġcountenance": 6348,
      "Ġhes": 6349,
      "Ġou": 6350,
      "proper": 6351,
      "TO": 6352,
      "Ġregion": 6353,
      "during": 6354,
      "ida": 6355,
      "Ġrecommended": 6356,
      "hor": 6357,
      "ĠProf": 6358,
      "aturday": 6359,
      "aning": 6360,
      "Ġknowing": 6361,
      "ĠYe": 6362,
      "ĠAmong": 6363,
      "Ġexamples": 6364,
      "Ġenabled": 6365,
      "ĠTreat": 6366,
      "Ġappeal": 6367,
      "Ġshalt": 6368,
      "Ġbrill": 6369,
      "Ġtran": 6370,
      "Ġsubsequent": 6371,
      "orig": 6372,
      "raw": 6373,
      "import": 6374,
      "Ġdull": 6375,
      "ĠLat": 6376,
      "tes": 6377,
      "Ġpassages": 6378,
      "Ġshot": 6379,
      "Im": 6380,
      "Ġdust": 6381,
      "Ġpainted": 6382,
      "world": 6383,
      "Ġ69": 6384,
      "Ġearlier": 6385,
      "Ġpayment": 6386,
      "Ġcart": 6387,
      "Ġrecorded": 6388,
      "Ġlux": 6389,
      "cult": 6390,
      "Ġpermitted": 6391,
      "ker": 6392,
      "heat": 6393,
      "othed": 6394,
      "Ġphysical": 6395,
      "Ġarts": 6396,
      "French": 6397,
      "Ġexcited": 6398,
      "Ġmiss": 6399,
      "Ġcities": 6400,
      "Ġslowly": 6401,
      "Gr": 6402,
      "Ġpriests": 6403,
      "Ġrelated": 6404,
      "Ġtestimony": 6405,
      "dent": 6406,
      "izing": 6407,
      "Ġsensible": 6408,
      "Ġtask": 6409,
      "cern": 6410,
      "ola": 6411,
      "ĠFred": 6412,
      "Ġbond": 6413,
      "Ġburst": 6414,
      "Ġimpr": 6415,
      "ĠChristianity": 6416,
      "stitute": 6417,
      "Ġfloor": 6418,
      "Ġinner": 6419,
      "Ġeffected": 6420,
      "Ġstim": 6421,
      "ARY": 6422,
      "arse": 6423,
      "OUS": 6424,
      "ĠDun": 6425,
      "ĠAfrica": 6426,
      "bot": 6427,
      "Ġpardon": 6428,
      "Ġfailed": 6429,
      "Ġlover": 6430,
      "second": 6431,
      "ALL": 6432,
      "Ġmajority": 6433,
      "Ġna": 6434,
      "ailing": 6435,
      "EW": 6436,
      "Ġintim": 6437,
      "ducing": 6438,
      "says": 6439,
      "Ġimage": 6440,
      "Ġcounter": 6441,
      "days": 6442,
      "Ġwet": 6443,
      "Ġ;\"": 6444,
      "ĠCent": 6445,
      "Ġexha": 6446,
      "chlor": 6447,
      "Church": 6448,
      "Ġnervous": 6449,
      "andy": 6450,
      "ilton": 6451,
      "Ġecon": 6452,
      "ĠTy": 6453,
      "dig": 6454,
      "ĠMuseum": 6455,
      "ĠScripture": 6456,
      "idents": 6457,
      "Ġsurrounded": 6458,
      "Ġindividuals": 6459,
      "Ġsooner": 6460,
      "IF": 6461,
      "Ġdriven": 6462,
      "Ġstandard": 6463,
      "treat": 6464,
      "posal": 6465,
      "ĠJerusalem": 6466,
      "ĠAN": 6467,
      "mentioned": 6468,
      "strong": 6469,
      "Ġimproved": 6470,
      "ĠBre": 6471,
      "actions": 6472,
      "tending": 6473,
      "Ġmechan": 6474,
      "ĠBot": 6475,
      "Ġgrew": 6476,
      "Ġgods": 6477,
      "OUR": 6478,
      "prov": 6479,
      "Ġplaintiff": 6480,
      "Ġrestored": 6481,
      "character": 6482,
      "James": 6483,
      "Â®": 6484,
      "quire": 6485,
      "ĠWall": 6486,
      "sure": 6487,
      "Ġmi": 6488,
      "Ġbot": 6489,
      "Ġrelating": 6490,
      "charged": 6491,
      "esc": 6492,
      "retch": 6493,
      "Ġindif": 6494,
      "Ġempt": 6495,
      "Ġthoroughly": 6496,
      "Ġgent": 6497,
      "cest": 6498,
      "Ġtrif": 6499,
      "Ġthinks": 6500,
      "Ġmoderate": 6501,
      "Ġrarely": 6502,
      "da": 6503,
      "asy": 6504,
      "ĠPass": 6505,
      "ĠKent": 6506,
      "ustomed": 6507,
      "Ġbrave": 6508,
      "ala": 6509,
      "Ġseized": 6510,
      "Ġoft": 6511,
      "Ġobvious": 6512,
      "still": 6513,
      "Ġimperfect": 6514,
      "Ġpresents": 6515,
      "ugg": 6516,
      "ocr": 6517,
      "yard": 6518,
      "Ġaim": 6519,
      "vals": 6520,
      "allow": 6521,
      "Ġunderstanding": 6522,
      "ĠUnder": 6523,
      "Ġhid": 6524,
      "Ġprosper": 6525,
      "Ġpalace": 6526,
      "Ġbell": 6527,
      "Ġfeatures": 6528,
      "Ġmax": 6529,
      "prove": 6530,
      "iscop": 6531,
      "jus": 6532,
      "Ġvac": 6533,
      "Ġalive": 6534,
      "ĠDutch": 6535,
      "Ġmetal": 6536,
      "Ġing": 6537,
      "Ġwarn": 6538,
      "amen": 6539,
      "Ġwhereas": 6540,
      "Ġbat": 6541,
      "Ġsecurity": 6542,
      "Their": 6543,
      "rines": 6544,
      "orks": 6545,
      "INE": 6546,
      "ĠBon": 6547,
      "erson": 6548,
      "Ġcow": 6549,
      "Ġartific": 6550,
      "Ġhappen": 6551,
      "ĠBible": 6552,
      "number": 6553,
      "Ġwonderful": 6554,
      "ĠPol": 6555,
      "Ġcontri": 6556,
      "Ġmistake": 6557,
      "ĠDivine": 6558,
      "Ġestablishment": 6559,
      "Ġproceeding": 6560,
      "Ġcrime": 6561,
      "Ġamid": 6562,
      "ulating": 6563,
      "assad": 6564,
      "disc": 6565,
      "fulness": 6566,
      "Ġborne": 6567,
      "Ġengine": 6568,
      "Ġcommunication": 6569,
      "pture": 6570,
      "--------": 6571,
      "Ġgolden": 6572,
      "Ġpil": 6573,
      "agg": 6574,
      "means": 6575,
      "above": 6576,
      "ĠWorld": 6577,
      "Ġwishes": 6578,
      "olate": 6579,
      ");": 6580,
      "ĠWorks": 6581,
      "Ġobey": 6582,
      "fee": 6583,
      "ĠJer": 6584,
      "sen": 6585,
      "Ġexisted": 6586,
      "church": 6587,
      "Ġsmile": 6588,
      "ĠĠĠĠĠĠĠ": 6589,
      "ĠDublin": 6590,
      "ĠPresident": 6591,
      "UB": 6592,
      "Ġdying": 6593,
      "Ġnatives": 6594,
      "Ġdiscussion": 6595,
      "Ġspite": 6596,
      "sea": 6597,
      "Ġhoped": 6598,
      "Ġoe": 6599,
      "satis": 6600,
      "struct": 6601,
      "Ġlabours": 6602,
      "Ġattain": 6603,
      "Ġsplendid": 6604,
      "pul": 6605,
      "Ġportions": 6606,
      "Ġdomin": 6607,
      "Ġ67": 6608,
      "ĠSer": 6609,
      "Ġsigns": 6610,
      "ede": 6611,
      "osition": 6612,
      "aine": 6613,
      "Ġneglect": 6614,
      "Fl": 6615,
      "mg": 6616,
      "Ġpas": 6617,
      "nde": 6618,
      "Ġvolunt": 6619,
      "Ġflo": 6620,
      "ima": 6621,
      "ĠIS": 6622,
      "Ġdarkness": 6623,
      "Ġplanted": 6624,
      "Ġ68": 6625,
      "Ġpap": 6626,
      "Ġouter": 6627,
      "Ġ42": 6628,
      "ĠOrder": 6629,
      "oting": 6630,
      "Ġpack": 6631,
      "igne": 6632,
      "whether": 6633,
      "Ġaspect": 6634,
      "oli": 6635,
      "Ġrom": 6636,
      "ocked": 6637,
      "54": 6638,
      "ĠMur": 6639,
      "Ġbears": 6640,
      "ĠDor": 6641,
      "incoln": 6642,
      "Ġadapted": 6643,
      "Ġimpress": 6644,
      "larged": 6645,
      "Ġtiie": 6646,
      "ygen": 6647,
      "Ġimpl": 6648,
      "themselves": 6649,
      "xed": 6650,
      "Ġurine": 6651,
      "Charles": 6652,
      "full": 6653,
      "Ġcommittee": 6654,
      "ĠChem": 6655,
      "51": 6656,
      "Ġ41": 6657,
      "ĠPur": 6658,
      "Ġspecific": 6659,
      "Ġwants": 6660,
      "Ġstorm": 6661,
      "Ġrul": 6662,
      "Ġlegal": 6663,
      "Ġprofit": 6664,
      "taking": 6665,
      "ĠXX": 6666,
      "hat": 6667,
      "Ġhospital": 6668,
      "Ġlake": 6669,
      "Ġretreat": 6670,
      "Ġvice": 6671,
      "ĠSim": 6672,
      "Ġbeds": 6673,
      "Ġfaint": 6674,
      "hedral": 6675,
      "Ġdisturb": 6676,
      "Ġsorts": 6677,
      "52": 6678,
      "Ġxxx": 6679,
      "Ġquoted": 6680,
      "elle": 6681,
      "oubt": 6682,
      "Ġmaintained": 6683,
      "ighth": 6684,
      "Ġamend": 6685,
      "orus": 6686,
      "inding": 6687,
      "ean": 6688,
      "Ġaffections": 6689,
      "ĠHead": 6690,
      "Ġnerves": 6691,
      "ĠCambridge": 6692,
      "Ġearl": 6693,
      "Ġpreserve": 6694,
      "oil": 6695,
      "istle": 6696,
      "Ġreputation": 6697,
      "Ġsuccession": 6698,
      "ĠHolland": 6699,
      "Ġtea": 6700,
      "mans": 6701,
      "Ġpatron": 6702,
      "Ġwing": 6703,
      "ugh": 6704,
      "viii": 6705,
      "acr": 6706,
      "master": 6707,
      "Ġappropri": 6708,
      "Pe": 6709,
      "bb": 6710,
      "Ġparallel": 6711,
      "ISH": 6712,
      "Ġcontempl": 6713,
      "ĠVIII": 6714,
      "Ġemployment": 6715,
      "TE": 6716,
      "Ġ}": 6717,
      "incl": 6718,
      "Ġconstruction": 6719,
      "Ġignorance": 6720,
      "achers": 6721,
      "Ġelements": 6722,
      "iac": 6723,
      "alis": 6724,
      "ĠFig": 6725,
      "Ġihe": 6726,
      "Ġaffl": 6727,
      "ĠBaron": 6728,
      "Ġtomb": 6729,
      "ĠBro": 6730,
      "Ġflight": 6731,
      "noon": 6732,
      "Ġfalls": 6733,
      "ateful": 6734,
      "Ġstem": 6735,
      "ciet": 6736,
      "Ġconfirmed": 6737,
      "Ġencl": 6738,
      "Ġhoriz": 6739,
      "nature": 6740,
      "Ant": 6741,
      "cket": 6742,
      "ique": 6743,
      "Ġdeny": 6744,
      "Ġregards": 6745,
      "pecial": 6746,
      "nothing": 6747,
      "icus": 6748,
      "Ġwherein": 6749,
      "UE": 6750,
      "Thou": 6751,
      "Ġinstruction": 6752,
      "Ġverse": 6753,
      "Ġconceive": 6754,
      "lit": 6755,
      "aze": 6756,
      "Ġbringing": 6757,
      "Ġtin": 6758,
      "Ġproject": 6759,
      "tering": 6760,
      "former": 6761,
      "ĠTO": 6762,
      "Ġassumed": 6763,
      "Ġcitiz": 6764,
      "ĠÂ©": 6765,
      "Ġremarked": 6766,
      "Ġchapel": 6767,
      "bours": 6768,
      "Ġcheck": 6769,
      "Ġabsurd": 6770,
      "ĠSaviour": 6771,
      "Ġmarry": 6772,
      "Ġdream": 6773,
      "sw": 6774,
      "umns": 6775,
      "Ġwritings": 6776,
      "ignation": 6777,
      "thy": 6778,
      "Aug": 6779,
      "ĠChap": 6780,
      "late": 6781,
      "Ġcalling": 6782,
      "Ġoffence": 6783,
      "Ġwoods": 6784,
      "Ġfalling": 6785,
      "Ġemperor": 6786,
      "Ġcoat": 6787,
      "Ġguide": 6788,
      "Ġarose": 6789,
      "ilis": 6790,
      "Ġputting": 6791,
      "Ġfields": 6792,
      "Ġquantities": 6793,
      "Ġscheme": 6794,
      "Ġcompelled": 6795,
      "unc": 6796,
      "ici": 6797,
      "Ġcaptain": 6798,
      "inf": 6799,
      "organ": 6800,
      "lay": 6801,
      "ban": 6802,
      "Ġfacult": 6803,
      "Ġnost": 6804,
      "ifts": 6805,
      "Ġstranger": 6806,
      "ira": 6807,
      "Ġmental": 6808,
      "Ġgran": 6809,
      "Ġworst": 6810,
      "ustrious": 6811,
      "90": 6812,
      "ĠEdition": 6813,
      "Ġaltar": 6814,
      "antage": 6815,
      "cases": 6816,
      "ĠHad": 6817,
      "Ġfel": 6818,
      "Ġnarr": 6819,
      "CTION": 6820,
      "Ġrange": 6821,
      "Ġexists": 6822,
      "Ġcarriage": 6823,
      "oked": 6824,
      "uine": 6825,
      "cum": 6826,
      "Ġavail": 6827,
      "Ġtuber": 6828,
      "Ġexplanation": 6829,
      "eight": 6830,
      "ĠInf": 6831,
      "lab": 6832,
      "Ġgather": 6833,
      "Ġheir": 6834,
      "Ġgun": 6835,
      "ancholy": 6836,
      "ĠDE": 6837,
      "Ġliterature": 6838,
      "Ġdish": 6839,
      "Ġwaste": 6840,
      "Ġpersec": 6841,
      "Ġmargin": 6842,
      "Ġarrest": 6843,
      "Ġtrib": 6844,
      "Ġcritic": 6845,
      "Ġfold": 6846,
      "Ġopposed": 6847,
      "ĠAssociation": 6848,
      "iat": 6849,
      "tro": 6850,
      "Ġgre": 6851,
      "Ġfriendship": 6852,
      "Ġchest": 6853,
      "Ġantic": 6854,
      "Ġshel": 6855,
      "usual": 6856,
      "ancellor": 6857,
      "Ġprincip": 6858,
      "person": 6859,
      "Ġjustly": 6860,
      "ĠOrd": 6861,
      "Ġsubstances": 6862,
      "Ġcalculated": 6863,
      "alogue": 6864,
      "Su": 6865,
      "ĠCamp": 6866,
      "ĠAnne": 6867,
      "OF": 6868,
      "inated": 6869,
      "ĠFer": 6870,
      "Ġwarrant": 6871,
      "success": 6872,
      "high": 6873,
      "erving": 6874,
      "Bar": 6875,
      "Ġdecre": 6876,
      "Ġmurder": 6877,
      "umm": 6878,
      "ĠBa": 6879,
      "Ġsho": 6880,
      "net": 6881,
      "urance": 6882,
      "Ġmile": 6883,
      "Ġcha": 6884,
      "orable": 6885,
      "Ġcaught": 6886,
      "Ġfinal": 6887,
      "uting": 6888,
      "Ġanterior": 6889,
      "Ġexperienced": 6890,
      "Ġwithdra": 6891,
      "Ġconsisting": 6892,
      "Ġprovisions": 6893,
      "Ġelement": 6894,
      "Ġcab": 6895,
      "Ġpref": 6896,
      "Ġbark": 6897,
      "brought": 6898,
      "Ġrespects": 6899,
      "Ġdict": 6900,
      "Ġattempted": 6901,
      "Ġdebt": 6902,
      "SC": 6903,
      "Ġaccepted": 6904,
      "ĠDuring": 6905,
      "hard": 6906,
      "Ġexamine": 6907,
      "ĠBrown": 6908,
      "/'": 6909,
      "olis": 6910,
      "Ġoh": 6911,
      "ĠSat": 6912,
      "URE": 6913,
      "Ġwindows": 6914,
      "Ġterrit": 6915,
      "Ġtower": 6916,
      "Ġburning": 6917,
      "Ġpowder": 6918,
      "ĠEll": 6919,
      "Ġauthorities": 6920,
      "adder": 6921,
      "onday": 6922,
      "sing": 6923,
      "urther": 6924,
      "ĠBab": 6925,
      "Ġcentral": 6926,
      "morrow": 6927,
      "ĠUnion": 6928,
      "ĠThy": 6929,
      "53": 6930,
      "always": 6931,
      "inese": 6932,
      "Ġconducted": 6933,
      "Ġsky": 6934,
      "subject": 6935,
      "Ġconvinced": 6936,
      "TR": 6937,
      "Ġpound": 6938,
      "Ġgift": 6939,
      "ĠCommissioners": 6940,
      "Ġrivers": 6941,
      "aughters": 6942,
      "pub": 6943,
      "ĠArab": 6944,
      "Ġdeclare": 6945,
      "Ġacting": 6946,
      "Ġdistricts": 6947,
      "Ġmeat": 6948,
      "unct": 6949,
      "Ġreceiving": 6950,
      "anded": 6951,
      "Ġruns": 6952,
      "ĠCape": 6953,
      "ees": 6954,
      "Ġprevented": 6955,
      "Ġtherein": 6956,
      "ĠRh": 6957,
      "ĠLo": 6958,
      "Ġreported": 6959,
      "Ġkiss": 6960,
      "Ġindependent": 6961,
      "ĠMill": 6962,
      "ĠDer": 6963,
      "onder": 6964,
      "Ġmyst": 6965,
      "ĠLeg": 6966,
      "Ġsatisfactory": 6967,
      "Ġclo": 6968,
      "Ġdomestic": 6969,
      "Ġmould": 6970,
      "Ġbull": 6971,
      "ĠGre": 6972,
      "Ġafforded": 6973,
      "Ġcontact": 6974,
      "Ġsoldier": 6975,
      "either": 6976,
      "Ġfathers": 6977,
      "Ġlaug": 6978,
      "angers": 6979,
      "uy": 6980,
      "cannot": 6981,
      "Ġjealous": 6982,
      "berg": 6983,
      "Ġrecover": 6984,
      "Ġextract": 6985,
      "aus": 6986,
      "osh": 6987,
      "ĠGal": 6988,
      "Ġrays": 6989,
      "agon": 6990,
      "-,": 6991,
      "ĠNich": 6992,
      "ĠTrade": 6993,
      "away": 6994,
      "Ġdemonstr": 6995,
      "Ġyards": 6996,
      "Ġdecom": 6997,
      "chants": 6998,
      "IAN": 6999,
      "ĠCard": 7000,
      "Ġadvent": 7001,
      "Ġindis": 7002,
      "ĠGall": 7003,
      "cribe": 7004,
      "Av": 7005,
      "Ġclaims": 7006,
      "ĠGospel": 7007,
      "hist": 7008,
      "Ġdevil": 7009,
      "ĠGovernor": 7010,
      "ĠEuropean": 7011,
      "Ġprayers": 7012,
      "Ġounces": 7013,
      "Ġworked": 7014,
      "Ġclimate": 7015,
      "ĠIsland": 7016,
      "iner": 7017,
      "Ġimagination": 7018,
      "Ġbee": 7019,
      "Ġcens": 7020,
      "irk": 7021,
      "Ġ*'": 7022,
      "akers": 7023,
      "things": 7024,
      "Ġbridge": 7025,
      "ILL": 7026,
      "Ġapparatus": 7027,
      "Ġmanufacture": 7028,
      "ĠPlace": 7029,
      "inous": 7030,
      "Ġcard": 7031,
      "Ġ200": 7032,
      "Ġsalvation": 7033,
      "mble": 7034,
      "Ġtreaty": 7035,
      "ĠPortug": 7036,
      "Ġfifth": 7037,
      "Ġmart": 7038,
      "several": 7039,
      "ĠPeople": 7040,
      "Ġnu": 7041,
      "Ġcontents": 7042,
      "ĠId": 7043,
      "super": 7044,
      "Ġenergy": 7045,
      "Ġretired": 7046,
      "ruit": 7047,
      "Ġindustry": 7048,
      "cope": 7049,
      "third": 7050,
      "Ġshade": 7051,
      "Ġdated": 7052,
      "Ġlust": 7053,
      "Ġprices": 7054,
      "amps": 7055,
      "ĠMah": 7056,
      "according": 7057,
      "Ġsentiments": 7058,
      "ĠDen": 7059,
      "vate": 7060,
      "Ġlof": 7061,
      "Ġvir": 7062,
      "annel": 7063,
      "Ġsolic": 7064,
      "isen": 7065,
      "BR": 7066,
      "Ġproduct": 7067,
      "Ġdetermine": 7068,
      "Ġterrible": 7069,
      "Ġ90": 7070,
      "Ġpainful": 7071,
      "olas": 7072,
      "Ġni": 7073,
      "Ġperceive": 7074,
      "olia": 7075,
      "ĠVirgin": 7076,
      "ACE": 7077,
      "ichard": 7078,
      "Ġpatri": 7079,
      "Ġhang": 7080,
      "Ġscri": 7081,
      "Ġceased": 7082,
      "Ġdeveloped": 7083,
      "Ġconcluded": 7084,
      "parts": 7085,
      "castle": 7086,
      "Ġatmosphere": 7087,
      "Ġfan": 7088,
      "ĠUpon": 7089,
      "Ġnorthern": 7090,
      "Ġcomparison": 7091,
      "Ġprinces": 7092,
      "parent": 7093,
      "itus": 7094,
      "Ġsell": 7095,
      "oys": 7096,
      "Ġlig": 7097,
      "Ġvolumes": 7098,
      "Ġpurchase": 7099,
      "Ġhunt": 7100,
      "Ġremoval": 7101,
      "ĠAh": 7102,
      "rup": 7103,
      "Ġalike": 7104,
      "duct": 7105,
      "Ġalk": 7106,
      "Ġ`": 7107,
      "Ġchemical": 7108,
      "Ġhol": 7109,
      "isting": 7110,
      "Ġfruits": 7111,
      "ylon": 7112,
      "Cor": 7113,
      "Ġvalley": 7114,
      "ĠSus": 7115,
      "Ġcoloured": 7116,
      "passed": 7117,
      "Ġproducing": 7118,
      "Ġphr": 7119,
      "Ġoffend": 7120,
      "Ġcompleted": 7121,
      "ĠMoses": 7122,
      "Ġsever": 7123,
      "Ġcrop": 7124,
      "exper": 7125,
      "agues": 7126,
      "ĠSE": 7127,
      "owards": 7128,
      "Ġrot": 7129,
      "Ġconclude": 7130,
      "lord": 7131,
      "asures": 7132,
      "Ġnaked": 7133,
      "Ġincreasing": 7134,
      "Sm": 7135,
      "ĠThough": 7136,
      "Ġintent": 7137,
      "ENTS": 7138,
      "ĠRight": 7139,
      "ĠAR": 7140,
      "Ġsumm": 7141,
      "zo": 7142,
      "Ġkill": 7143,
      "ĠAre": 7144,
      "zes": 7145,
      "idi": 7146,
      "Ġintelligence": 7147,
      "ĠWestminster": 7148,
      "BER": 7149,
      "ĠSk": 7150,
      "SS": 7151,
      "tre": 7152,
      "Ġwanting": 7153,
      "Ġincluded": 7154,
      "Ġcombined": 7155,
      "uni": 7156,
      "venant": 7157,
      "pline": 7158,
      "Ġconsequences": 7159,
      "izes": 7160,
      "plicity": 7161,
      "diction": 7162,
      "Ġsovereign": 7163,
      "Ġvictory": 7164,
      "inking": 7165,
      "Ġeffort": 7166,
      "nr": 7167,
      "itized": 7168,
      "Ġprosec": 7169,
      "ĠPot": 7170,
      "Ġmasters": 7171,
      "aws": 7172,
      "rap": 7173,
      "ichael": 7174,
      "Ġshortly": 7175,
      "Ġrequis": 7176,
      "bat": 7177,
      "imus": 7178,
      "within": 7179,
      "Ġangle": 7180,
      "Ġix": 7181,
      "Ġclim": 7182,
      "ĠJacob": 7183,
      "rews": 7184,
      "nut": 7185,
      "Ġanalog": 7186,
      "tl": 7187,
      "Ġaug": 7188,
      "Ġmovement": 7189,
      "ĠIndeed": 7190,
      "cli": 7191,
      "Ġstopped": 7192,
      "Ġencourage": 7193,
      "Ġintroduction": 7194,
      "illery": 7195,
      "ĠIsa": 7196,
      "Ġpoetry": 7197,
      "Ġdecay": 7198,
      "Ġbegins": 7199,
      "Ġgrain": 7200,
      "Ġpublication": 7201,
      "Ġnotion": 7202,
      "Ġice": 7203,
      "Ġgrains": 7204,
      "manner": 7205,
      "Ġescaped": 7206,
      "Ġlaugh": 7207,
      "Ġlament": 7208,
      "Ġreasonable": 7209,
      "Ġgardens": 7210,
      "Ġacquaintance": 7211,
      "Ġprecious": 7212,
      "prom": 7213,
      "Ġthrew": 7214,
      "Ġdesirable": 7215,
      "Ġperfection": 7216,
      "Ġfright": 7217,
      "LES": 7218,
      "Ġphilosophy": 7219,
      "Ac": 7220,
      "Ġuncertain": 7221,
      "Ġextremity": 7222,
      "ĠLetter": 7223,
      "Ġclay": 7224,
      "estab": 7225,
      "Ġsixty": 7226,
      "forth": 7227,
      "Ġrespons": 7228,
      "istence": 7229,
      "unning": 7230,
      "Ġhaue": 7231,
      "Ġrefuse": 7232,
      "Ġvision": 7233,
      "MAN": 7234,
      "Ġbon": 7235,
      "Thy": 7236,
      "agree": 7237,
      "Ġdirections": 7238,
      "Ġie": 7239,
      "Ġcu": 7240,
      "Ġkindness": 7241,
      "resses": 7242,
      "Ġfert": 7243,
      "ĠActs": 7244,
      "Ġcandid": 7245,
      "Ġislands": 7246,
      "Ġyours": 7247,
      "Ġconsiderably": 7248,
      "arum": 7249,
      "George": 7250,
      "death": 7251,
      "Ġwalked": 7252,
      "Ġburnt": 7253,
      "arrison": 7254,
      "Ġgame": 7255,
      "NOT": 7256,
      "ĠConstant": 7257,
      "sk": 7258,
      "pse": 7259,
      "inson": 7260,
      "ĠAdmir": 7261,
      "iverpool": 7262,
      "young": 7263,
      "Ġconfusion": 7264,
      "pot": 7265,
      "vin": 7266,
      "Ġenorm": 7267,
      "vern": 7268,
      "Ġoath": 7269,
      "sed": 7270,
      "ĠFour": 7271,
      "ano": 7272,
      "build": 7273,
      "Ġattacked": 7274,
      "Ġfleet": 7275,
      "Ġspecul": 7276,
      "Ġhit": 7277,
      "Ġgenerous": 7278,
      "ĠTemple": 7279,
      "Ġprize": 7280,
      "Ġcommerce": 7281,
      "burn": 7282,
      "best": 7283,
      "wed": 7284,
      "abor": 7285,
      "Ġpermanent": 7286,
      "].": 7287,
      "Ġren": 7288,
      "ĠTri": 7289,
      "Ġ170": 7290,
      "iest": 7291,
      "Ġsorry": 7292,
      "ser": 7293,
      "Ġ/.": 7294,
      "Ġhonourable": 7295,
      "cet": 7296,
      "Ġpassions": 7297,
      "Ġbosom": 7298,
      "cially": 7299,
      "iM": 7300,
      "ĠCommon": 7301,
      "ĠAmb": 7302,
      "return": 7303,
      "ĠThom": 7304,
      "Ġsurprise": 7305,
      "Ġcavity": 7306,
      "Ġbath": 7307,
      "ousin": 7308,
      "ĠChina": 7309,
      "ĠStep": 7310,
      "Ġpulse": 7311,
      "Ġpartial": 7312,
      "Ġearliest": 7313,
      "Ġusing": 7314,
      "Ġconverted": 7315,
      "'*": 7316,
      "Oct": 7317,
      "Ġcontrad": 7318,
      "ĠIndians": 7319,
      "oring": 7320,
      "Ġgathered": 7321,
      "Ġbarbar": 7322,
      "Ġattract": 7323,
      "real": 7324,
      "ĠWalter": 7325,
      "aceous": 7326,
      "inks": 7327,
      "uther": 7328,
      "ĠBuck": 7329,
      "ults": 7330,
      "Ġtravel": 7331,
      "ĠArthur": 7332,
      "ĠGer": 7333,
      "Ġimpart": 7334,
      "ulus": 7335,
      "ĠSupp": 7336,
      "akspe": 7337,
      "Ġfest": 7338,
      "ciences": 7339,
      "Ġdeed": 7340,
      "Ġpreparation": 7341,
      "Digitized": 7342,
      "Ġexpedition": 7343,
      "often": 7344,
      "lying": 7345,
      "Ġnearer": 7346,
      "ensis": 7347,
      "Ġoffices": 7348,
      "Ġ$": 7349,
      "aining": 7350,
      "Ġdetect": 7351,
      "Ġmu": 7352,
      "ART": 7353,
      "Mon": 7354,
      "Ġsyn": 7355,
      "Ġlimits": 7356,
      "Ġos": 7357,
      "SON": 7358,
      "oresaid": 7359,
      "alks": 7360,
      "Ġvener": 7361,
      "ĠGrand": 7362,
      "ĠSaturday": 7363,
      "empor": 7364,
      "Ġadministration": 7365,
      "Ġexclaimed": 7366,
      "bt": 7367,
      "fluence": 7368,
      "Ġmic": 7369,
      "Ġcultivated": 7370,
      "AK": 7371,
      "Ġveins": 7372,
      "mun": 7373,
      "Ġeggs": 7374,
      "Ġram": 7375,
      "Ġadds": 7376,
      "Ġhollow": 7377,
      "dict": 7378,
      "Ġamuse": 7379,
      "Ġcompound": 7380,
      "Ġtha": 7381,
      "Ġdistinguish": 7382,
      "Ġelegant": 7383,
      "Ġcompass": 7384,
      "Ġdefic": 7385,
      "Ġconviction": 7386,
      "Ġperf": 7387,
      "Ġexceedingly": 7388,
      "works": 7389,
      "iT": 7390,
      "Ġconnexion": 7391,
      "Ġ160": 7392,
      "Ġwretched": 7393,
      "different": 7394,
      "?'": 7395,
      "ĠLanc": 7396,
      "Ġlungs": 7397,
      "Ġbegun": 7398,
      "etic": 7399,
      "Ġnoise": 7400,
      "lation": 7401,
      "Ġaccess": 7402,
      "CON": 7403,
      "Ġshed": 7404,
      "Ġobedience": 7405,
      "Ġliver": 7406,
      "ĠAnother": 7407,
      "Ġtall": 7408,
      "ĠRomans": 7409,
      "Ġah": 7410,
      "version": 7411,
      "since": 7412,
      "joined": 7413,
      "Ġwhis": 7414,
      "Ġsiege": 7415,
      "Ġutterly": 7416,
      "render": 7417,
      "Ġgospel": 7418,
      "Ġconsidering": 7419,
      "Ġaccomplished": 7420,
      "iron": 7421,
      "Ġsecured": 7422,
      "itudes": 7423,
      "Ġsaith": 7424,
      "coming": 7425,
      "Ġsuggest": 7426,
      "ulent": 7427,
      "note": 7428,
      "wit": 7429,
      "yd": 7430,
      "Ġforgotten": 7431,
      "town": 7432,
      "Ġentering": 7433,
      "Amer": 7434,
      "Ġcorresponding": 7435,
      "Ġendeavoured": 7436,
      "Ġrecovered": 7437,
      "AIN": 7438,
      "try": 7439,
      "dise": 7440,
      "olla": 7441,
      "Ġelection": 7442,
      "ermon": 7443,
      "geons": 7444,
      "ushing": 7445,
      "Ġviii": 7446,
      "till": 7447,
      "white": 7448,
      "Ġsettlement": 7449,
      "Ġbend": 7450,
      "Ġprovision": 7451,
      "ĠWat": 7452,
      "otic": 7453,
      "Ġunfortunate": 7454,
      "Gen": 7455,
      "Ġintest": 7456,
      "Ġconvenient": 7457,
      "Ġshadow": 7458,
      "Ġprisoners": 7459,
      "Ġordin": 7460,
      "Ġcreatures": 7461,
      "idity": 7462,
      "Ġcirculation": 7463,
      "ĠHo": 7464,
      "ĠThree": 7465,
      "Ġlegisl": 7466,
      "opes": 7467,
      "ciation": 7468,
      "ĠAccording": 7469,
      "Ġcas": 7470,
      "ental": 7471,
      "urred": 7472,
      "Ġweakness": 7473,
      "Ġproperties": 7474,
      "Ġdoubtless": 7475,
      "Ġdozen": 7476,
      "West": 7477,
      "Ġaltered": 7478,
      "Ġ51": 7479,
      "Ġartist": 7480,
      "Ġliterary": 7481,
      "ĠJustice": 7482,
      "Ġinten": 7483,
      "Ver": 7484,
      "leep": 7485,
      "edge": 7486,
      "avy": 7487,
      "Ġtissue": 7488,
      "Ġdoors": 7489,
      "ĠMod": 7490,
      "ĠEss": 7491,
      "near": 7492,
      "ĠPublic": 7493,
      "Ġpoem": 7494,
      "Ġpleasing": 7495,
      "Ġelectric": 7496,
      "Ġunex": 7497,
      "done": 7498,
      "ferences": 7499,
      "ĠWork": 7500,
      "Ġproduces": 7501,
      "Ġwand": 7502,
      "ĠReport": 7503,
      "lu": 7504,
      "Ġrude": 7505,
      "ĠHaving": 7506,
      "astern": 7507,
      "Ġarising": 7508,
      "OP": 7509,
      "exp": 7510,
      "Ġwidow": 7511,
      "Ġstars": 7512,
      "ĠPs": 7513,
      "Ġmagistr": 7514,
      "ĠZe": 7515,
      "Ġcanal": 7516,
      "Vol": 7517,
      "ĠLincoln": 7518,
      "Ġbetw": 7519,
      "isation": 7520,
      "oubtedly": 7521,
      "bear": 7522,
      "rend": 7523,
      "uated": 7524,
      "vention": 7525,
      "dest": 7526,
      "Ġpursued": 7527,
      "mat": 7528,
      "Ġmyster": 7529,
      "Ġcounsel": 7530,
      "Ġlargest": 7531,
      "itc": 7532,
      "thers": 7533,
      "Ġremembered": 7534,
      "ĠHor": 7535,
      "Ġadvoc": 7536,
      "Ġ150": 7537,
      "Ġwin": 7538,
      "Chap": 7539,
      "ois": 7540,
      "Ġnose": 7541,
      "Ġjuris": 7542,
      "ga": 7543,
      "acqu": 7544,
      "ĠKingdom": 7545,
      "Ġinstantly": 7546,
      "Ġstatute": 7547,
      "Ue": 7548,
      "struction": 7549,
      "uds": 7550,
      "Ġdreadful": 7551,
      "Ġslave": 7552,
      "Ġoccasioned": 7553,
      "onic": 7554,
      "uming": 7555,
      "ava": 7556,
      "ĠWhile": 7557,
      "ertions": 7558,
      "Ġventure": 7559,
      "Ġnay": 7560,
      "reement": 7561,
      "Ġenlarged": 7562,
      "Jan": 7563,
      "reign": 7564,
      "Ġbay": 7565,
      "ĠRussia": 7566,
      "ĠVII": 7567,
      "Ġbent": 7568,
      "uation": 7569,
      "Ġremed": 7570,
      "ieu": 7571,
      "Ġtale": 7572,
      "Ġpenet": 7573,
      "rick": 7574,
      "Ġaccustomed": 7575,
      "VER": 7576,
      "rich": 7577,
      "ĠKnight": 7578,
      "Rev": 7579,
      "Ġelsewhere": 7580,
      "Ġagricult": 7581,
      "vas": 7582,
      "ĠAccount": 7583,
      "ervation": 7584,
      "ĠHowever": 7585,
      "blood": 7586,
      "istrict": 7587,
      "Ġlovely": 7588,
      "Ġfitted": 7589,
      "hibition": 7590,
      "amph": 7591,
      "Ġarea": 7592,
      "soever": 7593,
      "ĠLP": 7594,
      "ĠRog": 7595,
      "eling": 7596,
      "Ġdoctor": 7597,
      "ensity": 7598,
      "Ġdrop": 7599,
      "Ġabundant": 7600,
      "Ġincom": 7601,
      "Ġcourts": 7602,
      "ĠDoctor": 7603,
      "Ġtt": 7604,
      "Ġcharacteristic": 7605,
      "cho": 7606,
      "Ġsetting": 7607,
      "Ġworn": 7608,
      "Ġlu": 7609,
      "Ġdepends": 7610,
      "imum": 7611,
      "rad": 7612,
      "py": 7613,
      "ĠPle": 7614,
      "Ġflame": 7615,
      "Ġmethods": 7616,
      "Ġelected": 7617,
      "ĠPR": 7618,
      "Ġeloqu": 7619,
      "folk": 7620,
      "Ġcopies": 7621,
      "almost": 7622,
      "grat": 7623,
      "ĠTw": 7624,
      "Ġslender": 7625,
      "coloured": 7626,
      "Ġenjoyed": 7627,
      "phy": 7628,
      "hill": 7629,
      "ĠHa": 7630,
      "Ġ^^": 7631,
      "Ġ54": 7632,
      "employ": 7633,
      "eded": 7634,
      "sider": 7635,
      "city": 7636,
      "ĠTurn": 7637,
      "Ġpurple": 7638,
      "Ġvap": 7639,
      "Ġslaves": 7640,
      "Ġtransport": 7641,
      "once": 7642,
      "Ġhide": 7643,
      "Ġtranslation": 7644,
      "Ġcontinually": 7645,
      "Ġwaiting": 7646,
      ";\"": 7647,
      "nl": 7648,
      "tures": 7649,
      "Ġgay": 7650,
      "Ġdescribe": 7651,
      "Ġselected": 7652,
      "Ġincons": 7653,
      "Ġcorner": 7654,
      "Ġbeside": 7655,
      "ĠCountry": 7656,
      "VII": 7657,
      "Ġretire": 7658,
      "uced": 7659,
      "Bo": 7660,
      "Ġdrops": 7661,
      "Ġgi": 7662,
      "Ġperceived": 7663,
      "Ġretain": 7664,
      "Don": 7665,
      "Ġinher": 7666,
      "Ste": 7667,
      "rather": 7668,
      "HI": 7669,
      "ĠProtestant": 7670,
      "ĠAdam": 7671,
      "Ġlob": 7672,
      "ĠVe": 7673,
      "vag": 7674,
      "Ġrepent": 7675,
      "mediate": 7676,
      "Ġtoward": 7677,
      "Ġfled": 7678,
      "Ġcultivation": 7679,
      "Ġremote": 7680,
      "Ġcutting": 7681,
      "leet": 7682,
      "lain": 7683,
      "weet": 7684,
      "Ġoxygen": 7685,
      "Ġhistorical": 7686,
      "Ġfinest": 7687,
      "ATE": 7688,
      "jr": 7689,
      "Ġmelancholy": 7690,
      "ĠEt": 7691,
      "Ġfinds": 7692,
      "Ġdilig": 7693,
      "Ġcyl": 7694,
      "ineas": 7695,
      "Ġquarters": 7696,
      "covered": 7697,
      "Ġtemp": 7698,
      "shaped": 7699,
      "Ġanticip": 7700,
      "Ġteaching": 7701,
      "Ġwhenever": 7702,
      "Ġcatch": 7703,
      "Ġih": 7704,
      "lections": 7705,
      "Ġfunctions": 7706,
      "Ġcott": 7707,
      "Ġtrem": 7708,
      "Ġtermed": 7709,
      "Miss": 7710,
      "grow": 7711,
      "Ġseve": 7712,
      "olation": 7713,
      "Ġvirtues": 7714,
      "Though": 7715,
      "isms": 7716,
      "Ġbishops": 7717,
      "Ġlog": 7718,
      ":-": 7719,
      "Ġjudges": 7720,
      "fc": 7721,
      "Ġcolumns": 7722,
      "Ġshell": 7723,
      "Ġwinds": 7724,
      "perfect": 7725,
      "Ġposterior": 7726,
      "Ġhind": 7727,
      "Ġresistance": 7728,
      "ocation": 7729,
      "Ġsacrific": 7730,
      "ĠTim": 7731,
      "Ġseated": 7732,
      "rier": 7733,
      "inence": 7734,
      "Ġlords": 7735,
      "British": 7736,
      "ended": 7737,
      "aylor": 7738,
      "Ġretained": 7739,
      "Acc": 7740,
      "Ġfet": 7741,
      "ollen": 7742,
      "Ġdistinctly": 7743,
      "Ġbrilliant": 7744,
      "left": 7745,
      "commun": 7746,
      "Ġhurt": 7747,
      "Ġdesigned": 7748,
      "Ġmerits": 7749,
      "iosity": 7750,
      "Ġfeed": 7751,
      "compl": 7752,
      "78": 7753,
      "Ġwelcome": 7754,
      "Ġsigh": 7755,
      "Ġnevertheless": 7756,
      "VOL": 7757,
      "Ġphenomena": 7758,
      "ĠRelig": 7759,
      "Ġmoving": 7760,
      "cit": 7761,
      "Ġreality": 7762,
      "arms": 7763,
      "encies": 7764,
      "Ġmultitude": 7765,
      "Ġ169": 7766,
      "Ġprovide": 7767,
      "Ġafternoon": 7768,
      "words": 7769,
      "isher": 7770,
      "main": 7771,
      "ĠMarg": 7772,
      "ĠBesides": 7773,
      "Ġwrought": 7774,
      "Ġfurnish": 7775,
      "AU": 7776,
      "mil": 7777,
      "mund": 7778,
      "Ġvaried": 7779,
      "Ġpositive": 7780,
      "Ġcolumn": 7781,
      "OHN": 7782,
      "Ġpressed": 7783,
      "Ġrooms": 7784,
      "hal": 7785,
      "gent": 7786,
      "word": 7787,
      "Ġvit": 7788,
      "Ġengage": 7789,
      "Ġlibrary": 7790,
      "Ġtribe": 7791,
      "Ġsurprised": 7792,
      "-.": 7793,
      "Ġdenied": 7794,
      "Ġconve": 7795,
      "Ġkindly": 7796,
      "amation": 7797,
      "Ġinsects": 7798,
      "Ġadhe": 7799,
      "ĠHand": 7800,
      "heriff": 7801,
      "Ġrespective": 7802,
      "Ġbehalf": 7803,
      "wind": 7804,
      "does": 7805,
      "Ġinduce": 7806,
      "Ġeffic": 7807,
      "Des": 7808,
      "Ġalluded": 7809,
      "Ġdespair": 7810,
      "Ġleads": 7811,
      "ĠDur": 7812,
      "few": 7813,
      "Ġreturning": 7814,
      "Ġliberal": 7815,
      "Ġoblong": 7816,
      "Ġunhappy": 7817,
      "Ġattained": 7818,
      "chess": 7819,
      "cus": 7820,
      "ĠLetters": 7821,
      "Ġstrike": 7822,
      "mur": 7823,
      "Ġinserted": 7824,
      "Ġcease": 7825,
      "represent": 7826,
      "Ġtalents": 7827,
      "Ġscenes": 7828,
      "hent": 7829,
      "Ġsilk": 7830,
      "ĠBurg": 7831,
      "ĠDom": 7832,
      "Ġtotally": 7833,
      "Ġvulgar": 7834,
      "continued": 7835,
      "ORY": 7836,
      "Ġhospit": 7837,
      "arte": 7838,
      "Ġprevailed": 7839,
      "Ġbelongs": 7840,
      "green": 7841,
      "Ġpier": 7842,
      "Ġturns": 7843,
      "Ġblessing": 7844,
      "uscript": 7845,
      "Ġcompanion": 7846,
      "Ġrevolution": 7847,
      "ĠPap": 7848,
      "ipes": 7849,
      "Ġthir": 7850,
      "acted": 7851,
      "Ġcharity": 7852,
      "Ġnom": 7853,
      "Ġmisery": 7854,
      "Ġbutter": 7855,
      "leness": 7856,
      "Ġlb": 7857,
      "unch": 7858,
      "Ġautumn": 7859,
      "Ġtribes": 7860,
      "Gl": 7861,
      "Ġarmed": 7862,
      "Ġencoura": 7863,
      "Ġaccum": 7864,
      "looking": 7865,
      "Ġgross": 7866,
      "Ġconsec": 7867,
      "72": 7868,
      "dire": 7869,
      "Ġinnocent": 7870,
      "gh": 7871,
      "ader": 7872,
      "Ġsubmit": 7873,
      "oni": 7874,
      "Ġwrites": 7875,
      "GL": 7876,
      "bation": 7877,
      "Ġdecision": 7878,
      "Ġboiling": 7879,
      "Ġuseless": 7880,
      "pay": 7881,
      "yne": 7882,
      "particular": 7883,
      "posure": 7884,
      "imately": 7885,
      "pired": 7886,
      "amount": 7887,
      "utor": 7888,
      "ĠCle": 7889,
      "Ġdiet": 7890,
      "Ġremainder": 7891,
      "Ġtremb": 7892,
      "Ġcollege": 7893,
      "Ġbloom": 7894,
      "Ġsurv": 7895,
      "ĠDem": 7896,
      "Ġurged": 7897,
      "terday": 7898,
      "89": 7899,
      "Ġplainly": 7900,
      "ei": 7901,
      "Ġprior": 7902,
      "everal": 7903,
      "ght": 7904,
      "open": 7905,
      "ĠBath": 7906,
      "Ġdoctrines": 7907,
      "mt": 7908,
      "Ġdisorder": 7909,
      "Ġape": 7910,
      "Ġerrors": 7911,
      "illes": 7912,
      "Ġmanagement": 7913,
      "following": 7914,
      "ĠPract": 7915,
      "Ġadmiration": 7916,
      "wt": 7917,
      "ĠPharm": 7918,
      "PR": 7919,
      "ĠBet": 7920,
      "urbed": 7921,
      "dam": 7922,
      "making": 7923,
      "Ġaforesaid": 7924,
      "ĠHum": 7925,
      "ĠCro": 7926,
      "Ġroll": 7927,
      "agger": 7928,
      "Apr": 7929,
      "Ġbrings": 7930,
      "Ġpermit": 7931,
      "Ġlan": 7932,
      "71": 7933,
      "Ġmiserable": 7934,
      "Ġrecords": 7935,
      "otted": 7936,
      "Hy": 7937,
      "Ġappointment": 7938,
      "Ġcer": 7939,
      "Ġmistaken": 7940,
      "blem": 7941,
      "Ġbid": 7942,
      "Ġarguments": 7943,
      "Ġgovernor": 7944,
      "Ġcapacity": 7945,
      "ĠScotch": 7946,
      "vous": 7947,
      "Ġaffair": 7948,
      "ĠRiver": 7949,
      "cim": 7950,
      "icult": 7951,
      "Ġvegetable": 7952,
      "Ġmedium": 7953,
      "Ġaccompany": 7954,
      "ĠStat": 7955,
      "75": 7956,
      "inqu": 7957,
      "picuous": 7958,
      "Ġyounger": 7959,
      "oute": 7960,
      "Ġample": 7961,
      "Ġtliat": 7962,
      "Ġholds": 7963,
      "Ġdried": 7964,
      "ĠPray": 7965,
      "Ġinconven": 7966,
      "nto": 7967,
      "Ġlowest": 7968,
      "gow": 7969,
      "liness": 7970,
      "ĠInc": 7971,
      "Ġay": 7972,
      "ĠPoet": 7973,
      "Ġclouds": 7974,
      "Ġglab": 7975,
      "riages": 7976,
      "France": 7977,
      "76": 7978,
      "Ġinstruments": 7979,
      "ĠBoth": 7980,
      "Ġchoose": 7981,
      "Ġneglected": 7982,
      "Ġorganic": 7983,
      "hension": 7984,
      "Ġbought": 7985,
      "ĠChinese": 7986,
      "conne": 7987,
      "isons": 7988,
      "Ġadorn": 7989,
      "leton": 7990,
      "enger": 7991,
      "Ġattempts": 7992,
      "human": 7993,
      "Ġtradition": 7994,
      "Ġmagnificent": 7995,
      "ĠCON": 7996,
      "Ġcrystall": 7997,
      "umberland": 7998,
      "anus": 7999,
      "inge": 8000,
      "Ġhereafter": 8001,
      "Ġstudents": 8002,
      "Ġhell": 8003,
      "Ġbuy": 8004,
      "QU": 8005,
      "ĠRussian": 8006,
      "ĠRoad": 8007,
      "agh": 8008,
      "tive": 8009,
      "Ġprepare": 8010,
      "ĠMis": 8011,
      "Ġseal": 8012,
      "stru": 8013,
      "ĠCong": 8014,
      "Ġfed": 8015,
      "],": 8016,
      "ĠCross": 8017,
      "Ġfeast": 8018,
      "ĠPrice": 8019,
      "Ġmischief": 8020,
      "Maj": 8021,
      "ĠCome": 8022,
      "Ġcontinues": 8023,
      "ĠTestament": 8024,
      "Ġneat": 8025,
      "rat": 8026,
      "period": 8027,
      "Ġcovering": 8028,
      "Ġexcuse": 8029,
      "Ġascertained": 8030,
      "ixt": 8031,
      "proved": 8032,
      "Ġheated": 8033,
      "Ġassigned": 8034,
      "went": 8035,
      "portions": 8036,
      "ademy": 8037,
      "Ġcommencement": 8038,
      "Ġentertained": 8039,
      "Ġextending": 8040,
      "ĠPower": 8041,
      "Ġassume": 8042,
      "ĠWed": 8043,
      "ĠManchester": 8044,
      "Ġbetray": 8045,
      "Ġdetail": 8046,
      "aign": 8047,
      "ĠCounty": 8048,
      "Spe": 8049,
      "ĠLight": 8050,
      "vet": 8051,
      "ĠEle": 8052,
      "Ġanat": 8053,
      "bow": 8054,
      "ĠRet": 8055,
      "lers": 8056,
      "Car": 8057,
      "istics": 8058,
      "ĠSand": 8059,
      "Ġmasses": 8060,
      "oma": 8061,
      "Ġmortal": 8062,
      "Ġenthus": 8063,
      "Ġbelonged": 8064,
      "rep": 8065,
      "Ġsentiment": 8066,
      "board": 8067,
      "Ġreform": 8068,
      "ĠBart": 8069,
      "Ġstronger": 8070,
      "Ġesteem": 8071,
      "gence": 8072,
      "Ġpatent": 8073,
      "Ġadmirable": 8074,
      "Ġchain": 8075,
      "Ġdeemed": 8076,
      "iries": 8077,
      "lime": 8078,
      "Ġhia": 8079,
      "Ġhay": 8080,
      "Ġagent": 8081,
      "Ġancest": 8082,
      "ju": 8083,
      "cop": 8084,
      "ristol": 8085,
      "Ġsaints": 8086,
      "ĠGent": 8087,
      "Ġmarble": 8088,
      "Ġartificial": 8089,
      "ampton": 8090,
      "Ġclothes": 8091,
      "ĠEN": 8092,
      "comes": 8093,
      "icating": 8094,
      "ĠLinn": 8095,
      "Ġended": 8096,
      "ĠJones": 8097,
      "Ġfingers": 8098,
      "Ġlofty": 8099,
      "Ġaccommod": 8100,
      "gro": 8101,
      "Ġinsol": 8102,
      "inners": 8103,
      "Ġshop": 8104,
      "Ġthousands": 8105,
      "Ġlion": 8106,
      "lee": 8107,
      "Ġinside": 8108,
      "west": 8109,
      "top": 8110,
      "Ġgoodness": 8111,
      "love": 8112,
      "ĠGrace": 8113,
      "beaut": 8114,
      "Ġmistress": 8115,
      "rene": 8116,
      "Ġrepair": 8117,
      "Ġ65": 8118,
      "ĠDra": 8119,
      "Gu": 8120,
      "?-": 8121,
      "Ġcongreg": 8122,
      "ummer": 8123,
      "ĠSen": 8124,
      "Ġempty": 8125,
      "Ġcrowd": 8126,
      "Ġvine": 8127,
      "close": 8128,
      "Ġreview": 8129,
      "mediately": 8130,
      "ĠPrinci": 8131,
      "Ġprocure": 8132,
      "perate": 8133,
      "affect": 8134,
      "requently": 8135,
      "Ġbatt": 8136,
      "offee": 8137,
      "ĠNational": 8138,
      "bal": 8139,
      "Ġarter": 8140,
      "ĠCond": 8141,
      "Ġregions": 8142,
      "Ġocean": 8143,
      "eur": 8144,
      "illings": 8145,
      "Ġdaughters": 8146,
      "better": 8147,
      "bas": 8148,
      "piece": 8149,
      "ben": 8150,
      "Ġdoubtful": 8151,
      "Ġgrou": 8152,
      "Ġsite": 8153,
      "utt": 8154,
      "Ġapprehend": 8155,
      "Ġexhibit": 8156,
      "owe": 8157,
      "July": 8158,
      "dale": 8159,
      "eenth": 8160,
      "Ġammonia": 8161,
      "itud": 8162,
      "afford": 8163,
      "bad": 8164,
      "Ġflood": 8165,
      "sil": 8166,
      "Ġstead": 8167,
      "Ġeldest": 8168,
      "gel": 8169,
      "PL": 8170,
      "Ġsees": 8171,
      "viously": 8172,
      "bri": 8173,
      "eman": 8174,
      "Ġperiods": 8175,
      "Ġante": 8176,
      "court": 8177,
      "cat": 8178,
      "Was": 8179,
      "umen": 8180,
      "Ġoutward": 8181,
      "Ġdesigns": 8182,
      "istent": 8183,
      "Ġprincipally": 8184,
      "Ġlimbs": 8185,
      "ĠMartin": 8186,
      "Ġtons": 8187,
      "Ġcharges": 8188,
      "Ġcondemned": 8189,
      "Ġbron": 8190,
      "Ġintr": 8191,
      "79": 8192,
      "Ġnerve": 8193,
      "Ġpatience": 8194,
      "Ġcenturies": 8195,
      "appears": 8196,
      "VIII": 8197,
      "La": 8198,
      "lif": 8199,
      "perhaps": 8200,
      "Ġgratitude": 8201,
      "omed": 8202,
      "ĠHind": 8203,
      "Ah": 8204,
      "ĠBR": 8205,
      "Ġimmort": 8206,
      "Ġacknowledged": 8207,
      "Em": 8208,
      "Ġvoyage": 8209,
      "Ġactivity": 8210,
      "ques": 8211,
      "colour": 8212,
      "poration": 8213,
      "Ġstrengthen": 8214,
      "Ġcher": 8215,
      "Ġdeparture": 8216,
      "Ġscul": 8217,
      "LL": 8218,
      "circum": 8219,
      "ĠTurk": 8220,
      "Ap": 8221,
      "Ġinterested": 8222,
      "Ġsounds": 8223,
      "Ġgene": 8224,
      "ĠTro": 8225,
      "ĠPerhaps": 8226,
      "Ġensu": 8227,
      "Ġguns": 8228,
      "ods": 8229,
      "ĠWm": 8230,
      "Ġstarted": 8231,
      "otions": 8232,
      "eps": 8233,
      "riday": 8234,
      "ĠChief": 8235,
      "ĠMadame": 8236,
      "artment": 8237,
      "except": 8238,
      "Ġcreation": 8239,
      "ĠRose": 8240,
      "Ġdru": 8241,
      "Ġpotass": 8242,
      "ito": 8243,
      "Ġperformance": 8244,
      "stud": 8245,
      ".).": 8246,
      "Ġfinger": 8247,
      "Ġprompt": 8248,
      "Ġconceived": 8249,
      "lv": 8250,
      "Ġguilt": 8251,
      "Ġgracious": 8252,
      "ĠSamuel": 8253,
      "ighter": 8254,
      "Ġnoted": 8255,
      "ĠĠĠĠĠĠĠĠĠĠĠĠĠĠĠĠĠĠĠĠĠĠĠĠĠĠĠĠĠĠĠĠ": 8256,
      "velled": 8257,
      "ĠBas": 8258,
      "Ġassembled": 8259,
      "ample": 8260,
      "Ġfears": 8261,
      "Ġ56": 8262,
      "Ġanxiety": 8263,
      "Ġsympathy": 8264,
      "Ġspots": 8265,
      "Ġ64": 8266,
      "ĠHort": 8267,
      "dy": 8268,
      "ĠLordship": 8269,
      "ifully": 8270,
      "Ġsem": 8271,
      "Ġsore": 8272,
      "bene": 8273,
      "Ġpractised": 8274,
      "generally": 8275,
      "Ġey": 8276,
      "ptic": 8277,
      "ele": 8278,
      "Ġfeeble": 8279,
      "ĠYoung": 8280,
      "ĠGil": 8281,
      "Ġdram": 8282,
      "occasion": 8283,
      "Scot": 8284,
      "Ġ53": 8285,
      "Ġcomplaint": 8286,
      "dec": 8287,
      "ĠAgain": 8288,
      "Ġangry": 8289,
      "pered": 8290,
      "Ġacres": 8291,
      "oleon": 8292,
      "Ġvest": 8293,
      "osity": 8294,
      "Among": 8295,
      "Ġrage": 8296,
      "free": 8297,
      "Ġtreasure": 8298,
      "Ġgrows": 8299,
      "Ġabundance": 8300,
      "inger": 8301,
      "Ġattributed": 8302,
      "ĠNever": 8303,
      "def": 8304,
      "fif": 8305,
      "offic": 8306,
      "lan": 8307,
      "Ġconveyed": 8308,
      "inea": 8309,
      "Ġterror": 8310,
      "Ġwalking": 8311,
      "Ġcontrol": 8312,
      "Ġwil": 8313,
      "faces": 8314,
      "ictions": 8315,
      "urely": 8316,
      "apes": 8317,
      "Ġsecre": 8318,
      "ACT": 8319,
      "pow": 8320,
      "isse": 8321,
      "Ġinstitution": 8322,
      "Ġimprison": 8323,
      "Ġuses": 8324,
      "Ġthroat": 8325,
      "Ġvag": 8326,
      "ĠDid": 8327,
      "ĠPoor": 8328,
      "Ġcomparatively": 8329,
      "rained": 8330,
      "Ġpurchased": 8331,
      "Ġnurs": 8332,
      "Ġbreadth": 8333,
      "Upon": 8334,
      "Ġounce": 8335,
      "joining": 8336,
      "Ġbeloved": 8337,
      "Ġscattered": 8338,
      "Ġneeds": 8339,
      "Ġincor": 8340,
      "Ġstudied": 8341,
      "ĠQU": 8342,
      "Ġobserves": 8343,
      "Ġsenses": 8344,
      "Ġana": 8345,
      "Ġpaint": 8346,
      "Ġ~": 8347,
      "House": 8348,
      "ĠReview": 8349,
      "terbury": 8350,
      "ceptible": 8351,
      "Ġreturns": 8352,
      "sufficient": 8353,
      "raits": 8354,
      "incre": 8355,
      "Ġgenuine": 8356,
      "ado": 8357,
      "Ġtorn": 8358,
      "Ġflatter": 8359,
      "Ġmutual": 8360,
      "lique": 8361,
      "Ġcompr": 8362,
      "Ġspl": 8363,
      "Ġabdomen": 8364,
      "Sec": 8365,
      "ulf": 8366,
      "ĠAsia": 8367,
      "Ġjury": 8368,
      "short": 8369,
      "liv": 8370,
      "spirit": 8371,
      "Ġidle": 8372,
      "Another": 8373,
      "enter": 8374,
      "Ġcomment": 8375,
      "ources": 8376,
      "Ġprocured": 8377,
      "inj": 8378,
      "ONDON": 8379,
      "Ġbreaking": 8380,
      "Ġhate": 8381,
      "iveness": 8382,
      "Ġdrive": 8383,
      "Ġhym": 8384,
      "ĠDar": 8385,
      "ĠSun": 8386,
      "Ġintend": 8387,
      "pson": 8388,
      "74": 8389,
      "Ġabsent": 8390,
      "gone": 8391,
      "Ġmoreover": 8392,
      "round": 8393,
      "ĠChancellor": 8394,
      "rod": 8395,
      "Ġplenty": 8396,
      "Ġproceeds": 8397,
      "Ġbenef": 8398,
      "olved": 8399,
      "Ġgirls": 8400,
      "ĠLiverpool": 8401,
      "find": 8402,
      "ĠGib": 8403,
      "igation": 8404,
      "allic": 8405,
      "Two": 8406,
      "gree": 8407,
      "Ġanch": 8408,
      "Hist": 8409,
      "Ġidol": 8410,
      "Ġhappens": 8411,
      "Ġprey": 8412,
      "gal": 8413,
      "Ġquad": 8414,
      "Ġprovinces": 8415,
      "possess": 8416,
      "Mi": 8417,
      "Ġfaces": 8418,
      "bable": 8419,
      "Ġphysician": 8420,
      "ella": 8421,
      "Ġtranslated": 8422,
      "Ġadmission": 8423,
      "akspeare": 8424,
      "org": 8425,
      "ĠWin": 8426,
      "din": 8427,
      "urrection": 8428,
      "Christian": 8429,
      "acent": 8430,
      "ĠStud": 8431,
      "Ġenormous": 8432,
      "Ġborrow": 8433,
      "relig": 8434,
      "Lady": 8435,
      "arches": 8436,
      "Ġangels": 8437,
      "Ġtide": 8438,
      "irl": 8439,
      "ĠNotes": 8440,
      "Ġdeparted": 8441,
      "hands": 8442,
      "tho": 8443,
      "Ġpropriet": 8444,
      "Ġpious": 8445,
      "ometer": 8446,
      "inery": 8447,
      "Ġcombination": 8448,
      "ĠLew": 8449,
      "iage": 8450,
      "LET": 8451,
      "wen": 8452,
      "fied": 8453,
      "Ġtouching": 8454,
      "wart": 8455,
      "adies": 8456,
      "Ġboil": 8457,
      "ĠHome": 8458,
      "Ġcoin": 8459,
      "past": 8460,
      "Ġconject": 8461,
      "ĠJu": 8462,
      "Ġobt": 8463,
      "Ġattacks": 8464,
      "icine": 8465,
      "Ġhumour": 8466,
      "ographical": 8467,
      "Ġambition": 8468,
      "ĠFR": 8469,
      "Ġsubsequently": 8470,
      "emor": 8471,
      "olics": 8472,
      "Ġhem": 8473,
      "ĠGreeks": 8474,
      "Ġham": 8475,
      "Ġtouched": 8476,
      "Ġoccurrence": 8477,
      "Ġmillions": 8478,
      "Ġdeclaration": 8479,
      "Ġpunct": 8480,
      "Ġexcit": 8481,
      "inv": 8482,
      "Great": 8483,
      "spring": 8484,
      "ĠCirc": 8485,
      "intend": 8486,
      "oso": 8487,
      "Ġembra": 8488,
      "ĠMons": 8489,
      "Ġpretend": 8490,
      "cession": 8491,
      "Ġconsisted": 8492,
      "Ġfriendly": 8493,
      "Ġray": 8494,
      "Ġrequisite": 8495,
      "ĠGreece": 8496,
      "June": 8497,
      "Ġdepartment": 8498,
      "cord": 8499,
      "ĠPop": 8500,
      "Ġstrictly": 8501,
      "Ġfolly": 8502,
      ",^": 8503,
      "Page": 8504,
      "Ġrival": 8505,
      "Ġstern": 8506,
      "Ġlateral": 8507,
      "esar": 8508,
      "Ġpunish": 8509,
      "Ġalb": 8510,
      "ĠNothing": 8511,
      "Ġobser": 8512,
      "health": 8513,
      "Ġstore": 8514,
      "cieties": 8515,
      "ĠFair": 8516,
      "Ġpresently": 8517,
      "Sy": 8518,
      "fat": 8519,
      "Ġmm": 8520,
      "Ġ79": 8521,
      "prise": 8522,
      "Ġmes": 8523,
      "ĠBeing": 8524,
      "ĠHay": 8525,
      "pop": 8526,
      "azine": 8527,
      "Ġslain": 8528,
      "Ir": 8529,
      "Ġsmell": 8530,
      "Ã¡": 8531,
      "Ġeleven": 8532,
      "mother": 8533,
      "Ġ120": 8534,
      "Ġrevel": 8535,
      "ĠCast": 8536,
      "alry": 8537,
      "Ġ61": 8538,
      "ĠHard": 8539,
      "ussia": 8540,
      "ĠFrank": 8541,
      "Ġfeather": 8542,
      "Ġcircular": 8543,
      "Ġtroubles": 8544,
      "ĠExt": 8545,
      "asse": 8546,
      "tli": 8547,
      "-^": 8548,
      "Ġobtaining": 8549,
      "Ġrises": 8550,
      "Ġ52": 8551,
      "woman": 8552,
      "Ġdressed": 8553,
      "ulse": 8554,
      "rea": 8555,
      "Ġadding": 8556,
      "Sept": 8557,
      "Ġdemanded": 8558,
      "pear": 8559,
      "erity": 8560,
      "Ġiod": 8561,
      "Ġpronounced": 8562,
      "Ġacknowledge": 8563,
      "Ġruins": 8564,
      "ĠAbout": 8565,
      "hur": 8566,
      "Ġwages": 8567,
      "Ġ%": 8568,
      "Har": 8569,
      "Ġcaly": 8570,
      "Ġprecisely": 8571,
      "Ġgates": 8572,
      "Ġsigned": 8573,
      "Ġhal": 8574,
      "ĠAld": 8575,
      "Ġevils": 8576,
      "CI": 8577,
      "Ġdefinite": 8578,
      "Ġdesires": 8579,
      "Ġrele": 8580,
      "Ġstrain": 8581,
      "system": 8582,
      "Ġmerchant": 8583,
      "pain": 8584,
      "Ġfunction": 8585,
      "Ġfierce": 8586,
      "cked": 8587,
      "Ġdesirous": 8588,
      "doubt": 8589,
      "ĠGoth": 8590,
      "Ġscorn": 8591,
      "fed": 8592,
      "Ġlargely": 8593,
      "Capt": 8594,
      "enc": 8595,
      "Ġsurgeon": 8596,
      "Ġdissolved": 8597,
      "claimed": 8598,
      "ĠIl": 8599,
      "Ġappend": 8600,
      "App": 8601,
      "ĠCour": 8602,
      "ĠTor": 8603,
      "Ġtent": 8604,
      "length": 8605,
      "Ġarises": 8606,
      "ĠFox": 8607,
      "ĠMonday": 8608,
      "oping": 8609,
      "Ġdispens": 8610,
      "uesday": 8611,
      "Ġintense": 8612,
      "Ġcovenant": 8613,
      "Ġ168": 8614,
      "Ġborder": 8615,
      "Ġverses": 8616,
      "tn": 8617,
      "Ġinvari": 8618,
      "heard": 8619,
      "Ġprobability": 8620,
      "reth": 8621,
      "Ġba": 8622,
      "Ġweigh": 8623,
      "money": 8624,
      "omical": 8625,
      "ranch": 8626,
      "Ġperse": 8627,
      "cast": 8628,
      "quisite": 8629,
      "volution": 8630,
      "Ġcheap": 8631,
      "dev": 8632,
      "Ġcomprehend": 8633,
      "mort": 8634,
      "Ġinquire": 8635,
      "ĠInn": 8636,
      "Ġnice": 8637,
      "Ġspend": 8638,
      "mighty": 8639,
      "eri": 8640,
      "perial": 8641,
      "Ġxii": 8642,
      "Ġofficial": 8643,
      "fortune": 8644,
      "ĠAy": 8645,
      "Ġhydrogen": 8646,
      "ĠSou": 8647,
      "ĠSwed": 8648,
      "ĠOrig": 8649,
      "Ġphrase": 8650,
      "Ġfare": 8651,
      "Ġfourteen": 8652,
      "ĠMost": 8653,
      "Ġwestern": 8654,
      "Cont": 8655,
      "quet": 8656,
      "ignant": 8657,
      "GH": 8658,
      "Ġsmoke": 8659,
      "EX": 8660,
      "children": 8661,
      "erts": 8662,
      "ĠBapt": 8663,
      "ĠField": 8664,
      "ĠVan": 8665,
      "flict": 8666,
      "Ġbowels": 8667,
      "ka": 8668,
      "lon": 8669,
      "Ġach": 8670,
      "early": 8671,
      "orkshire": 8672,
      "itic": 8673,
      "iations": 8674,
      "pared": 8675,
      "ĠLond": 8676,
      "ĠSix": 8677,
      "PP": 8678,
      "soon": 8679,
      "Ġincap": 8680,
      "ilia": 8681,
      "ceeded": 8682,
      "joice": 8683,
      "Ġportrait": 8684,
      "Ġadmire": 8685,
      "Ġbag": 8686,
      "Ġcitizens": 8687,
      "odes": 8688,
      "Ġplea": 8689,
      "Ġecclesiastical": 8690,
      "Ġgeneration": 8691,
      "ping": 8692,
      "aver": 8693,
      "Ġestates": 8694,
      "ITH": 8695,
      "learn": 8696,
      "urer": 8697,
      "Ġomitted": 8698,
      "Ġmercury": 8699,
      "Ġsect": 8700,
      "Ġdevotion": 8701,
      "Ġsouthern": 8702,
      "Ġfoss": 8703,
      "ighed": 8704,
      "tree": 8705,
      "Ġcel": 8706,
      "Ġapproaching": 8707,
      "iie": 8708,
      "omething": 8709,
      "pence": 8710,
      "Ġcook": 8711,
      "Ġprivilege": 8712,
      "Ġthread": 8713,
      "Ġdial": 8714,
      "Ġfh": 8715,
      "Ġstudent": 8716,
      "Ġthi": 8717,
      "ĠTower": 8718,
      "olution": 8719,
      "received": 8720,
      "iph": 8721,
      "unter": 8722,
      "Ġdispute": 8723,
      "Ġdivide": 8724,
      "Ġrisk": 8725,
      "Like": 8726,
      "ĠCe": 8727,
      "ursday": 8728,
      "Ġwheat": 8729,
      "Ġva": 8730,
      "usively": 8731,
      "Ġdischarged": 8732,
      "Ġprofound": 8733,
      "ĠStock": 8734,
      "Ġspare": 8735,
      "irg": 8736,
      "North": 8737,
      "Ġoffering": 8738,
      "Ġdogs": 8739,
      "Ġming": 8740,
      "Ġexchange": 8741,
      "ĠHaw": 8742,
      "ĠLORD": 8743,
      "Ġprotest": 8744,
      "Ġrepres": 8745,
      "Ġstudies": 8746,
      "ĠOp": 8747,
      "Ġphosph": 8748,
      "Ġarrive": 8749,
      "Ġforbid": 8750,
      "Ġelder": 8751,
      "fts": 8752,
      "Ġdeprived": 8753,
      "Ġinhab": 8754,
      "Ġanger": 8755,
      "neys": 8756,
      "Ġimagined": 8757,
      "Ġ63": 8758,
      "twenty": 8759,
      "rage": 8760,
      "Robert": 8761,
      "azed": 8762,
      "adel": 8763,
      "ĠaU": 8764,
      "unto": 8765,
      "nesday": 8766,
      "Ġcareer": 8767,
      "Ġsurvey": 8768,
      "ĠLam": 8769,
      "Ġwhereby": 8770,
      "Ġbasis": 8771,
      "Ġplans": 8772,
      "Ġconstructed": 8773,
      "Ġfoolish": 8774,
      "Ġregiment": 8775,
      "looked": 8776,
      "Ġulcer": 8777,
      "Cal": 8778,
      "Ġinterpret": 8779,
      "Ġrepeat": 8780,
      "Ġaper": 8781,
      "nel": 8782,
      "Again": 8783,
      "oty": 8784,
      "Ġoc": 8785,
      "Ġwed": 8786,
      "ĠEnd": 8787,
      "ether": 8788,
      "Ġeighteen": 8789,
      "March": 8790,
      "Ġdiminished": 8791,
      "Ġ159": 8792,
      "Ġmovements": 8793,
      "usal": 8794,
      "Ġsuspect": 8795,
      "oirs": 8796,
      "ĠLim": 8797,
      "appro": 8798,
      "ĠLibrary": 8799,
      "ĠSar": 8800,
      "ĠSaint": 8801,
      "Ġgallant": 8802,
      "ĠFlore": 8803,
      "Ġuterus": 8804,
      "difficult": 8805,
      "Edward": 8806,
      "Ġintellectual": 8807,
      "Ġfibres": 8808,
      "zed": 8809,
      "si": 8810,
      "indeed": 8811,
      "Ġalteration": 8812,
      "nu": 8813,
      "Ġlimit": 8814,
      "Ġshoot": 8815,
      "sometimes": 8816,
      "ogue": 8817,
      "ĠHave": 8818,
      "school": 8819,
      "ĠMarsh": 8820,
      "Ġwore": 8821,
      "icable": 8822,
      "Ġcommunity": 8823,
      "Ġsteel": 8824,
      "quant": 8825,
      "Ġ300": 8826,
      "Ġdescended": 8827,
      "ambers": 8828,
      "Ġassure": 8829,
      "gi": 8830,
      "Ġwitnesses": 8831,
      "ila": 8832,
      "ĠFlor": 8833,
      "ĠAlb": 8834,
      "Ġintervals": 8835,
      "Ġexcite": 8836,
      "iders": 8837,
      "abs": 8838,
      "Ġfirmly": 8839,
      "itself": 8840,
      "Ġsubmitted": 8841,
      "sole": 8842,
      "although": 8843,
      "Ġduly": 8844,
      "ontal": 8845,
      "ASS": 8846,
      "Ġheavenly": 8847,
      "assador": 8848,
      "Ġdeliber": 8849,
      "Ġedges": 8850,
      "omp": 8851,
      "Ġhaz": 8852,
      "Ġbalance": 8853,
      "Ġdescribes": 8854,
      "ecause": 8855,
      "ĠMichael": 8856,
      "Ġlordship": 8857,
      "Ġditto": 8858,
      "Ġoo": 8859,
      "Ġ71": 8860,
      "Ġlively": 8861,
      "onies": 8862,
      "Ġincident": 8863,
      "Ġconceal": 8864,
      "Ġlights": 8865,
      "Ġpainting": 8866,
      "MON": 8867,
      "Ġrhe": 8868,
      "Ġnormal": 8869,
      "Ġsuspicion": 8870,
      "Ġwashed": 8871,
      "Ġexh": 8872,
      "Ġdisplayed": 8873,
      "chequer": 8874,
      "Ġsolitary": 8875,
      "Ġdiscipline": 8876,
      "Ġhed": 8877,
      "CL": 8878,
      "quar": 8879,
      "Ġowner": 8880,
      "ĠSince": 8881,
      "Ġolder": 8882,
      "ĠArchbishop": 8883,
      "Dec": 8884,
      "Ġfoul": 8885,
      "bted": 8886,
      "Ġtimber": 8887,
      "Ġdesert": 8888,
      "Ġcompanions": 8889,
      "Ġfought": 8890,
      "ki": 8891,
      "engers": 8892,
      "Ġcotton": 8893,
      "AW": 8894,
      "orax": 8895,
      "Ġexceeding": 8896,
      "Che": 8897,
      "iva": 8898,
      "Ġ--": 8899,
      "Ġhumanity": 8900,
      "ĠSi": 8901,
      "imo": 8902,
      "Ġcuriosity": 8903,
      "Ġ66": 8904,
      "Ġdisgrace": 8905,
      "Ġmuscular": 8906,
      "Ġapproved": 8907,
      "Ġaccurate": 8908,
      "lasting": 8909,
      "changed": 8910,
      "ĠLab": 8911,
      "AST": 8912,
      "ymph": 8913,
      "Ġ78": 8914,
      "Ġsets": 8915,
      "Ġnegative": 8916,
      "ĠWel": 8917,
      "ĠSa": 8918,
      "Ġcoarse": 8919,
      "73": 8920,
      "lated": 8921,
      "ĠMid": 8922,
      "Ġmotives": 8923,
      "quest": 8924,
      "Ġpersuaded": 8925,
      "Ġpropose": 8926,
      "Ġappet": 8927,
      "Ġtemporary": 8928,
      "Feb": 8929,
      "Ġinvestigation": 8930,
      "Ġmachine": 8931,
      "har": 8932,
      "Ġdense": 8933,
      "ifi": 8934,
      "Ġvote": 8935,
      "Ġcontrast": 8936,
      "Phil": 8937,
      "persons": 8938,
      "ĠIslands": 8939,
      "itle": 8940,
      "eless": 8941,
      "ĠLeaves": 8942,
      "Ġshout": 8943,
      "ĠMort": 8944,
      "ĠRus": 8945,
      "towards": 8946,
      "Ġfount": 8947,
      "Ġinvited": 8948,
      "Ġtumour": 8949,
      "urse": 8950,
      "Ġassociated": 8951,
      "Ġwax": 8952,
      "Ġber": 8953,
      "ete": 8954,
      "ĠFar": 8955,
      "Ġselect": 8956,
      "Richard": 8957,
      "Ġdio": 8958,
      "ĠCarl": 8959,
      "Ġevap": 8960,
      "otal": 8961,
      "ĠSav": 8962,
      "Ġstraw": 8963,
      ",.": 8964,
      "ĠRail": 8965,
      "nit": 8966,
      "Ġchronic": 8967,
      "Ġuns": 8968,
      "ĠIllustr": 8969,
      "iards": 8970,
      "Ġdrag": 8971,
      "enny": 8972,
      "Ġconcent": 8973,
      "Ġdiscourse": 8974,
      "Ġwaves": 8975,
      "Ġrespectable": 8976,
      "Ġresemblance": 8977,
      "oric": 8978,
      "Ġsalts": 8979,
      "Ġantiquity": 8980,
      "ocity": 8981,
      "Ġreports": 8982,
      "lii": 8983,
      "Ġsty": 8984,
      "Ġunjust": 8985,
      "ĠFrederick": 8986,
      "ĠLiber": 8987,
      "bod": 8988,
      "Ġelevated": 8989,
      "ĠBull": 8990,
      "ENE": 8991,
      "ĠHebrew": 8992,
      "Ġdisse": 8993,
      "Ġeastern": 8994,
      "ĠHope": 8995,
      "ĠPeace": 8996,
      "Ġraising": 8997,
      "Ġxi": 8998,
      "sign": 8999,
      "Ġexhibition": 9000,
      "First": 9001,
      "Ġperpetual": 9002,
      "Ġneut": 9003,
      "places": 9004,
      "ipped": 9005,
      "sembly": 9006,
      "atical": 9007,
      "aired": 9008,
      "Ġclerk": 9009,
      "Ġdivisions": 9010,
      "Que": 9011,
      "apan": 9012,
      "ĠBefore": 9013,
      "Ġwrath": 9014,
      "Ġappreci": 9015,
      "Ġvigour": 9016,
      "ĠÂ°": 9017,
      "Ġfeature": 9018,
      "ĠHan": 9019,
      "itia": 9020,
      "rin": 9021,
      "Ġarrangements": 9022,
      "especially": 9023,
      "Ġ89": 9024,
      "ĠNight": 9025,
      "Ġtraced": 9026,
      "faith": 9027,
      "Ġdeter": 9028,
      "itur": 9029,
      "Ġ75": 9030,
      "brance": 9031,
      "ermons": 9032,
      "Ġneighbouring": 9033,
      "Ġhole": 9034,
      "Ġcommunicated": 9035,
      "Ġinvolved": 9036,
      "Ġcommercial": 9037,
      "Ġangel": 9038,
      "Ġpursue": 9039,
      "NOTES": 9040,
      "Ġsending": 9041,
      "Ġ88": 9042,
      "Ġdw": 9043,
      "Ġepit": 9044,
      "ĠDomin": 9045,
      "uties": 9046,
      "adows": 9047,
      "ĠArtic": 9048,
      "Are": 9049,
      "Ġindicated": 9050,
      "otte": 9051,
      "Ġchloride": 9052,
      "Ġblame": 9053,
      "mented": 9054,
      "ĠTer": 9055,
      "anguage": 9056,
      "Before": 9057,
      "beg": 9058,
      "opinion": 9059,
      "ĠObserv": 9060,
      "ĠBal": 9061,
      "ĠPerson": 9062,
      "Ġglance": 9063,
      "Ġrebell": 9064,
      "ĠOR": 9065,
      "Ġthither": 9066,
      "ngth": 9067,
      "Ġslightest": 9068,
      "Ġ62": 9069,
      "iere": 9070,
      "ĠEssex": 9071,
      "Ġphysi": 9072,
      "Ġstamp": 9073,
      "liter": 9074,
      "idney": 9075,
      "aging": 9076,
      "cian": 9077,
      "Ġhu": 9078,
      "Ġpreferred": 9079,
      "Ġcolony": 9080,
      "Ġattending": 9081,
      "Ġeee": 9082,
      "ĠBi": 9083,
      "AGE": 9084,
      "Ġlimb": 9085,
      "Sur": 9086,
      "Ġcant": 9087,
      "ĠSuff": 9088,
      "keep": 9089,
      "Ġstruggle": 9090,
      "Ġrestore": 9091,
      "ĠStan": 9092,
      "Ġcousin": 9093,
      "Ġboats": 9094,
      "gend": 9095,
      "regard": 9096,
      "ĠÃ©": 9097,
      "Ġrailway": 9098,
      "OV": 9099,
      "Ġmonument": 9100,
      "ĠCOM": 9101,
      "olf": 9102,
      "ĠPor": 9103,
      "Ġcontrovers": 9104,
      "Ġrejected": 9105,
      "acco": 9106,
      "Ġbladder": 9107,
      "Ġvital": 9108,
      "Ġoccupy": 9109,
      "Ġtar": 9110,
      "Ġpick": 9111,
      "Ġell": 9112,
      "Ġrow": 9113,
      "Ġtear": 9114,
      "knowledge": 9115,
      "icester": 9116,
      "Ġhonours": 9117,
      "Ġdeserve": 9118,
      "ĠScriptures": 9119,
      "isle": 9120,
      "Ġshining": 9121,
      "Ġlaying": 9122,
      "Ġwire": 9123,
      "ĠMax": 9124,
      "Ġcolle": 9125,
      "Ġprimary": 9126,
      "Ġfome": 9127,
      "Ġpope": 9128,
      "Ġprin": 9129,
      "Ġobscure": 9130,
      "umer": 9131,
      "ammar": 9132,
      "Ġore": 9133,
      "Ġmom": 9134,
      "Ġflag": 9135,
      "ĠGlou": 9136,
      "Ġsummon": 9137,
      "Ġundoubtedly": 9138,
      "ĠWord": 9139,
      "ĠCant": 9140,
      "Ġinstructions": 9141,
      "Ġattendance": 9142,
      "Ġoxide": 9143,
      "ĠBat": 9144,
      "Ġsixteen": 9145,
      "ĠMargaret": 9146,
      "Ġtab": 9147,
      "esley": 9148,
      "pare": 9149,
      "cra": 9150,
      "Ġreception": 9151,
      "Ġuncommon": 9152,
      "itchen": 9153,
      "Ġwounds": 9154,
      "Ġsuspended": 9155,
      "Ġsubstant": 9156,
      "Ġtrying": 9157,
      "ĠPhilosop": 9158,
      "Ġredd": 9159,
      "Ġtrunk": 9160,
      "scape": 9161,
      "Ġdeposited": 9162,
      "Ġsafely": 9163,
      "Ġrighteousness": 9164,
      "foot": 9165,
      "gentle": 9166,
      "Ġinjured": 9167,
      "'-": 9168,
      "Ġprocesses": 9169,
      "BE": 9170,
      "Ġsixth": 9171,
      "Ġabol": 9172,
      "Ġic": 9173,
      "IGH": 9174,
      "stat": 9175,
      "IE": 9176,
      "class": 9177,
      "ĠMadam": 9178,
      "wife": 9179,
      "ĠSep": 9180,
      "ORT": 9181,
      "tha": 9182,
      "ĠTimes": 9183,
      "geance": 9184,
      "Ma": 9185,
      "Ġdeeds": 9186,
      "Ġmulti": 9187,
      "hig": 9188,
      "Ġanci": 9189,
      "Ġowe": 9190,
      "Ġdiscern": 9191,
      "Ġprominent": 9192,
      "Ġrelates": 9193,
      "Ġsatisfy": 9194,
      "aund": 9195,
      "Ġplayed": 9196,
      "ĠAtt": 9197,
      "Ġroads": 9198,
      "sions": 9199,
      "ĠIndies": 9200,
      "Ġpropag": 9201,
      "Ġtables": 9202,
      "eches": 9203,
      "Ġstick": 9204,
      "Ġsteep": 9205,
      "Ġsunk": 9206,
      "Ġbv": 9207,
      "Ġlance": 9208,
      "rr": 9209,
      "Ġexercised": 9210,
      "Ġcontribut": 9211,
      "Ġmas": 9212,
      "Ġreflection": 9213,
      "uration": 9214,
      "mann": 9215,
      "Ġsupplies": 9216,
      "ĠNatural": 9217,
      "ieur": 9218,
      "Ġster": 9219,
      "got": 9220,
      "Ġconform": 9221,
      "Ġcli": 9222,
      "Ġfailure": 9223,
      "uli": 9224,
      "ARDEN": 9225,
      "feet": 9226,
      "ĠPlant": 9227,
      "similar": 9228,
      "Ġbatter": 9229,
      "Ġbestowed": 9230,
      "Ġprevail": 9231,
      "Ġweary": 9232,
      "Ġcrossed": 9233,
      "Ġartery": 9234,
      "ĠMarquis": 9235,
      "Ġacquire": 9236,
      "ifl": 9237,
      "Ġpreached": 9238,
      "icli": 9239,
      "April": 9240,
      "PT": 9241,
      "Ġoak": 9242,
      "lication": 9243,
      "azing": 9244,
      "onge": 9245,
      "ĠBow": 9246,
      "rac": 9247,
      "fere": 9248,
      "oche": 9249,
      "Ġwooden": 9250,
      "Ġliquor": 9251,
      "pled": 9252,
      "oused": 9253,
      "Ġfab": 9254,
      "door": 9255,
      "Ġpiety": 9256,
      "ointment": 9257,
      "ĠPitt": 9258,
      "Ġquit": 9259,
      "Ġea": 9260,
      "flow": 9261,
      "Ġawful": 9262,
      "Having": 9263,
      "mist": 9264,
      "ĠJack": 9265,
      "ĠMother": 9266,
      "idem": 9267,
      "leys": 9268,
      "Ġagreement": 9269,
      "Ġdiss": 9270,
      "ĠYear": 9271,
      "Ġconver": 9272,
      "Ġshield": 9273,
      "ori": 9274,
      "rol": 9275,
      "^-": 9276,
      "Ġ'*": 9277,
      "ĠLect": 9278,
      "Ill": 9279,
      "giving": 9280,
      "ĠPan": 9281,
      "Ġbree": 9282,
      "Ġdetermination": 9283,
      "Ġboast": 9284,
      "Ġaffirm": 9285,
      "Ġrelieved": 9286,
      "Ġhoney": 9287,
      "Ġ00": 9288,
      "test": 9289,
      "ĠTen": 9290,
      "Ġtheatre": 9291,
      "Ġdismiss": 9292,
      "ĠLittle": 9293,
      "Ġbrick": 9294,
      "ĠSuper": 9295,
      "apse": 9296,
      "grad": 9297,
      "Ġquot": 9298,
      "appearance": 9299,
      "Ġmorbid": 9300,
      "already": 9301,
      "vertis": 9302,
      "raham": 9303,
      "Ġinvention": 9304,
      "ĠON": 9305,
      "Ġsport": 9306,
      "Ġreli": 9307,
      "ĠAustral": 9308,
      "Ġseparation": 9309,
      "Ġnest": 9310,
      "Ġpoets": 9311,
      "glass": 9312,
      "Ġgland": 9313,
      "poor": 9314,
      "Ġpots": 9315,
      "oster": 9316,
      "allowed": 9317,
      "Ġillustrated": 9318,
      "Ġsurrounding": 9319,
      "fold": 9320,
      "Ġpretended": 9321,
      "Ġlawful": 9322,
      "Mat": 9323,
      "Ġministry": 9324,
      "ĠBurn": 9325,
      "South": 9326,
      "Ġheirs": 9327,
      "ounter": 9328,
      "Ul": 9329,
      "ĠWhether": 9330,
      "Ġproofs": 9331,
      "ĠArmy": 9332,
      "Ġcommend": 9333,
      "latter": 9334,
      "ĠLane": 9335,
      "conscious": 9336,
      "Ġenqu": 9337,
      "Ġconquer": 9338,
      "consequ": 9339,
      "Ġtort": 9340,
[...]
