{
  "version": "1.0",
  "truncation": null,
  "padding": null,
  "added_tokens": [
    {
      "id": 0,
      "content": "<|pad|>",
      "single_word": false,
      "lstrip": false,
      "rstrip": false,
      "normalized": false,
      "special": true
    },
    {
      "id": 1,
      "content": "<|unk|>",
      "single_word": false,
      "lstrip": false,
      "rstrip": false,
      "normalized": false,
      "special": true
    },
    {
      "id": 2,
      "content": "<|mask|>",
      "single_word": false,
      "lstrip": false,
      "rstrip": false,
      "normalized": false,
      "special": true
    },
    {
      "id": 3,
      "content": "<|bos|>",
      "single_word": false,
      "lstrip": false,
      "rstrip": false,
      "normalized": false,
      "special": true
    },
    {
      "id": 4,
      "content": "<|eos|>",
      "single_word": false,
      "lstrip": false,
      "rstrip": false,
      "normalized": false,
      "special": true
    },
    {
      "id": 5,
      "content": "<|system|>",
      "single_word": false,
      "lstrip": false,
      "rstrip": false,
      "normalized": false,
      "special": true
    },
    {
      "id": 6,
      "content": "<|user|>",
      "single_word": false,
      "lstrip": false,
      "rstrip": false,
      "normalized": false,
      "special": true
    },
    {
      "id": 7,
      "content": "<|assistant|>",
      "single_word": false,
      "lstrip": false,
      "rstrip": false,
      "normalized": false,
      "special": true
    }
  ],
  "normalizer": null,
  "pre_tokenizer": {
    "type": "ByteLevel",
    "add_prefix_space": false,
    "trim_offsets": true,
    "use_regex": true
  },
  "post_processor": {
    "type": "TemplateProcessing",
    "single": [
      {
        "Sequence": {
          "id": "A",
          "type_id": 0
        }
      }
    ],
    "pair": [
      {
        "Sequence": {
          "id": "A",
          "type_id": 0
        }
      },
      {
        "Sequence": {
          "id": "B",
          "type_id": 1
        }
      }
    ],
    "special_tokens": {}
  },
  "decoder": {
    "type": "ByteLevel",
    "add_prefix_space": true,
    "trim_offsets": true,
    "use_regex": true
  },
  "model": {
    "type": "BPE",
    "dropout": null,
    "unk_token": "<|unk|>",
    "continuing_subword_prefix": null,
    "end_of_word_suffix": null,
    "fuse_unk": false,
    "byte_fallback": false,
    "ignore_merges": false,
    "vocab": {
      "<|pad|>": 0,
      "<|unk|>": 1,
      "<|mask|>": 2,
      "<|bos|>": 3,
      "<|eos|>": 4,
      "<|system|>": 5,
      "<|user|>": 6,
      "<|assistant|>": 7,
      "!": 8,
      "\"": 9,
      "#": 10,
      "$": 11,
      "%": 12,
      "&": 13,
      "'": 14,
      "(": 15,
      ")": 16,
      "*": 17,
      "+": 18,
      ",": 19,
      "-": 20,
      ".": 21,
      "/": 22,
      "0": 23,
      "1": 24,
      "2": 25,
      "3": 26,
      "4": 27,
      "5": 28,
      "6": 29,
      "7": 30,
      "8": 31,
      "9": 32,
      ":": 33,
      ";": 34,
      "<": 35,
      "=": 36,
      ">": 37,
      "?": 38,
      "@": 39,
      "A": 40,
      "B": 41,
      "C": 42,
      "D": 43,
      "E": 44,
      "F": 45,
      "G": 46,
      "H": 47,
      "I": 48,
      "J": 49,
      "K": 50,
      "L": 51,
      "M": 52,
      "N": 53,
      "O": 54,
      "P": 55,
      "Q": 56,
      "R": 57,
      "S": 58,
      "T": 59,
      "U": 60,
      "V": 61,
      "W": 62,
      "X": 63,
      "Y": 64,
      "Z": 65,
      "[": 66,
      "\\": 67,
      "]": 68,
      "^": 69,
      "_": 70,
      "`": 71,
      "a": 72,
      "b": 73,
      "c": 74,
      "d": 75,
      "e": 76,
      "f": 77,
      "g": 78,
      "h": 79,
      "i": 80,
      "j": 81,
      "k": 82,
      "l": 83,
      "m": 84,
      "n": 85,
      "o": 86,
      "p": 87,
      "q": 88,
      "r": 89,
      "s": 90,
      "t": 91,
      "u": 92,
      "v": 93,
      "w": 94,
      "x": 95,
      "y": 96,
      "z": 97,
      "{": 98,
      "|": 99,
      "}": 100,
      "~": 101,
      "¡": 102,
      "¢": 103,
      "£": 104,
      "¤": 105,
      "¥": 106,
      "¦": 107,
      "§": 108,
      "¨": 109,
      "©": 110,
      "ª": 111,
      "«": 112,
      "¬": 113,
      "®": 114,
      "¯": 115,
      "°": 116,
      "±": 117,
      "²": 118,
      "³": 119,
      "´": 120,
      "µ": 121,
      "¶": 122,
      "·": 123,
      "¸": 124,
      "¹": 125,
      "º": 126,
      "»": 127,
      "¼": 128,
      "½": 129,
      "¾": 130,
      "¿": 131,
      "Â": 132,
      "Ã": 133,
      "Ä": 134,
      "Å": 135,
      "Æ": 136,
      "Ç": 137,
      "È": 138,
      "É": 139,
      "Ê": 140,
      "Ë": 141,
      "Ì": 142,
      "Í": 143,
      "Î": 144,
      "Ï": 145,
      "Ð": 146,
      "Ñ": 147,
      "Ò": 148,
      "×": 149,
      "Ø": 150,
      "Û": 151,
      "ß": 152,
      "à": 153,
      "á": 154,
      "â": 155,
      "ã": 156,
      "î": 157,
      "ï": 158,
      "ð": 159,
      "Ċ": 160,
      "č": 161,
      "Ġ": 162,
      "Ģ": 163,
      "ģ": 164,
      "Ĥ": 165,
      "ĥ": 166,
      "Ħ": 167,
      "ħ": 168,
      "Ĩ": 169,
      "ĩ": 170,
      "Ī": 171,
      "ī": 172,
      "Ĭ": 173,
      "ĭ": 174,
      "Į": 175,
      "į": 176,
      "İ": 177,
      "ı": 178,
      "Ĳ": 179,
      "ĳ": 180,
      "Ĵ": 181,
      "ĵ": 182,
      "Ķ": 183,
      "ķ": 184,
      "ĸ": 185,
      "Ĺ": 186,
      "ĺ": 187,
      "Ļ": 188,
      "ļ": 189,
      "Ľ": 190,
      "ľ": 191,
      "Ŀ": 192,
      "ŀ": 193,
      "Ł": 194,
      "ł": 195,
      "Ń": 196,
      "Ġt": 197,
      "he": 198,
      "Ġa": 199,
      "in": 200,
      "Ġs": 201,
      "Ġthe": 202,
      "Ġw": 203,
      "re": 204,
      "ou": 205,
      "on": 206,
      "er": 207,
      "nd": 208,
      "Ġb": 209,
      "ha": 210,
      "is": 211,
      "Ġm": 212,
      "it": 213,
      "Ġc": 214,
      "ing": 215,
      "Ġf": 216,
      "Ġd": 217,
      "es": 218,
      "Ġo": 219,
      "Ġto": 220,
      "an": 221,
      "ll": 222,
      "or": 223,
      "ed": 224,
      "en": 225,
      "Ġand": 226,
      "Ġp": 227,
      "Ġl": 228,
      "ar": 229,
      "Ġy": 230,
      "Ġg": 231,
      "ĠI": 232,
      "at": 233,
      "Ġof": 234,
      "Ġyou": 235,
      "Ġh": 236,
      "Ġin": 237,
      "om": 238,
      "hat": 239,
      "as": 240,
      "Ġn": 241,
      "Ġhe": 242,
      "le": 243,
      "ay": 244,
      "ve": 245,
      "ĠT": 246,
      "ic": 247,
      "ow": 248,
      "ot": 249,
      "Ġbe": 250,
      "Ġ\"": 251,
      "Ġha": 252,
      "us": 253,
      "al": 254,
      "id": 255,
      "Ġe": 256,
      "Ġis": 257,
      "et": 258,
      "Ġon": 259,
      "Ġit": 260,
      "im": 261,
      "Ġth": 262,
      "ac": 263,
      "ld": 264,
      "Ġ-": 265,
      "Ġre": 266,
      "ut": 267,
      "ĠA": 268,
      "ver": 269,
      "Ġthat": 270,
      "'s": 271,
      "ĠS": 272,
      "ĠThe": 273,
      "ir": 274,
      "ly": 275,
      "gh": 276,
      "Ġ--": 277,
      "ke": 278,
      "Ġst": 279,
      "ion": 280,
      "ent": 281,
      "ad": 282,
      "if": 283,
      "oo": 284,
      "st": 285,
      "Ġdo": 286,
      "Ġfor": 287,
      "ri": 288,
      "out": 289,
      "se": 290,
      "ith": 291,
      "ro": 292,
      "am": 293,
      "Ġwas": 294,
      "Ġas": 295,
      "ĠH": 296,
      "..": 297,
      "Ġu": 298,
      "Ġan": 299,
      "all": 300,
      "Ġwe": 301,
      "her": 302,
      "Ġwith": 303,
      "Ġhis": 304,
      "ĠM": 305,
      "ĠB": 306,
      "ĠW": 307,
      "'t": 308,
      "ght": 309,
      "Ġme": 310,
      "ec": 311,
      "ill": 312,
      "Ġmy": 313,
      "čĊ": 314,
      "Ġwh": 315,
      "ur": 316,
      "ter": 317,
      "Ġk": 318,
      "ce": 319,
      "ĠC": 320,
      "Ġare": 321,
      ".\"": 322,
      "ra": 323,
      "Ġman": 324,
      "Ġj": 325,
      "Ġli": 326,
      "ks": 327,
      "ays": 328,
      "op": 329,
      "Ġhave": 330,
      "Ġnot": 331,
      "ch": 332,
      "Ġse": 333,
      "Ġat": 334,
      "Ġne": 335,
      "il": 336,
      "ome": 337,
      "un": 338,
      "ant": 339,
      "Ġyour": 340,
      "ould": 341,
      "ust": 342,
      "ĠD": 343,
      "hen": 344,
      "ess": 345,
      "ĠG": 346,
      "ge": 347,
      "Ġgo": 348,
      "art": 349,
      "ell": 350,
      "li": 351,
      "Ġcan": 352,
      "Ġso": 353,
      "ĠP": 354,
      "ore": 355,
      "Ġsa": 356,
      "our": 357,
      "pp": 358,
      "Ġher": 359,
      "Ġup": 360,
      "Ġbut": 361,
      "Ġsh": 362,
      "Ġthey": 363,
      "est": 364,
      "um": 365,
      "ĠJ": 366,
      "ers": 367,
      "ĠL": 368,
      "Ġout": 369,
      "ist": 370,
      "The": 371,
      "one": 372,
      "Ġall": 373,
      "Ġwor": 374,
      "?\"": 375,
      "Ġhim": 376,
      "Ġone": 377,
      "and": 378,
      "ain": 379,
      "king": 380,
      "ul": 381,
      "ind": 382,
      "el": 383,
      "ol": 384,
      "Ġab": 385,
      "Ġkn": 386,
      "Ġfr": 387,
      "Ġr": 388,
      "Ġsays": 389,
      "ĠHe": 390,
      "ife": 391,
      "th": 392,
      "Ġthis": 393,
      "very": 394,
      "ct": 395,
      "Ġwhat": 396,
      "ĠF": 397,
      "ack": 398,
      "Ġget": 399,
      "Ġshe": 400,
      "ĠR": 401,
      "...": 402,
      "end": 403,
      "Ġint": 404,
      "Ġcon": 405,
      "ation": 406,
      "ally": 407,
      "ked": 408,
      "han": 409,
      "ry": 410,
      "ĠN": 411,
      "od": 412,
      "Ġor": 413,
      "ake": 414,
      "Ġex": 415,
      "os": 416,
      "ear": 417,
      "ab": 418,
      "ĠE": 419,
      "Ġcom": 420,
      "ate": 421,
      "ĠO": 422,
      "Ġde": 423,
      "Ġlike": 424,
      "ure": 425,
      "ood": 426,
      "What": 427,
      "Ġfrom": 428,
      "Ġsaid": 429,
      "use": 430,
      "ig": 431,
      "Ġwhen": 432,
      "rou": 433,
      "uc": 434,
      "Ġwho": 435,
      "qu": 436,
      "Ġknow": 437,
      "ast": 438,
      "You": 439,
      "Ġal": 440,
      "Ġlo": 441,
      "Ġabout": 442,
      "lf": 443,
      "em": 444,
      "ive": 445,
      "red": 446,
      "!\"": 447,
      "Ġjust": 448,
      "Ġhad": 449,
      "nt": 450,
      "ard": 451,
      "ight": 452,
      "Ġthem": 453,
      "Ġsp": 454,
      "ong": 455,
      "ep": 456,
      "Ġinto": 457,
      "ame": 458,
      "Ġthere": 459,
      "Ġwill": 460,
      "Ġdid": 461,
      "Ġv": 462,
      "Ġno": 463,
      "Ġby": 464,
      "ide": 465,
      "ime": 466,
      "Ġle": 467,
      "ak": 468,
      "ond": 469,
      "'m": 470,
      "ie": 471,
      "Ġpe": 472,
      "ity": 473,
      "res": 474,
      "own": 475,
      "ous": 476,
      "hing": 477,
      "ther": 478,
      "ven": 479,
      "ink": 480,
      "Ġif": 481,
      "ause": 482,
      "ine": 483,
      "Ġdon": 484,
      "ag": 485,
      "Ġgu": 486,
      "ud": 487,
      "Ġloo": 488,
      "ĠIt": 489,
      "Ġpl": 490,
      "ice": 491,
      "Ġwant": 492,
      "Ġpro": 493,
      "ople": 494,
      "hy": 495,
      "oc": 496,
      "Ġbl": 497,
      "Ġwould": 498,
      "Ġsome": 499,
      "Ġch": 500,
      "ick": 501,
      "itt": 502,
      "Ġtheir": 503,
      "Ġtime": 504,
      "ect": 505,
      "Ġany": 506,
      "ish": 507,
      "ost": 508,
      "reat": 509,
      "Ġhas": 510,
      "Ġrep": 511,
      "oy": 512,
      "Ġfe": 513,
      "Ġother": 514,
      "ving": 515,
      "Ġbec": 516,
      "Ġoff": 517,
      "ves": 518,
      "ass": 519,
      "Ġag": 520,
      "ies": 521,
      "ace": 522,
      "Ġwere": 523,
      "ap": 524,
      "ort": 525,
      "Ġback": 526,
      "Ġpeople": 527,
      "Ġevery": 528,
      "ĠK": 529,
      "Ġcl": 530,
      "Ġwal": 531,
      "'re": 532,
      "Ġcall": 533,
      "Ġsu": 534,
      "other": 535,
      "Ġus": 536,
      "Ġover": 537,
      "ite": 538,
      "Ġ'": 539,
      "Ġtr": 540,
      "are": 541,
      "Ġthen": 542,
      "Ġro": 543,
      "Ġour": 544,
      "fter": 545,
      "Ġday": 546,
      "ich": 547,
      "Ġdown": 548,
      "ian": 549,
      "Ġsay": 550,
      "riend": 551,
      "Ġthing": 552,
      "Ġhow": 553,
      "Ġsee": 554,
      "Ġwom": 555,
      "Ġlife": 556,
      "ne": 557,
      "ble": 558,
      "ff": 559,
      "Ġonly": 560,
      "Ġguy": 561,
      "here": 562,
      "Ġmore": 563,
      "ip": 564,
      "ree": 565,
      "irst": 566,
      "Ġcould": 567,
      "self": 568,
      "ĠYou": 569,
      "wo": 570,
      "ile": 571,
      "pt": 572,
      "Ġ1": 573,
      "Ġdoes": 574,
      "urn": 575,
      "Ġen": 576,
      "ence": 577,
      "Ġjo": 578,
      "ber": 579,
      "Ġun": 580,
      ",\"": 581,
      "ose": 582,
      "Ġqu": 583,
      "ull": 584,
      "Ġgot": 585,
      "Ġam": 586,
      "ach": 587,
      "Ġtell": 588,
      "Ġtoo": 589,
      "Ġim": 590,
      "ment": 591,
      "Ġthan": 592,
      "per": 593,
      "ĠSt": 594,
      "Ġfirst": 595,
      "iz": 596,
      "ren": 597,
      "Ġbet": 598,
      "uck": 599,
      "Ġar": 600,
      "Ġrepli": 601,
      "Ġasks": 602,
      "Ġthink": 603,
      "we": 604,
      "Ġsm": 605,
      "ild": 606,
      "Ġmake": 607,
      "omet": 608,
      "right": 609,
      "act": 610,
      "Ġgood": 611,
      "Ġsc": 612,
      "ound": 613,
      "age": 614,
      "ue": 615,
      "Ġlove": 616,
      "Ġpr": 617,
      "Ġbeen": 618,
      "Ġasked": 619,
      "ĠAnd": 620,
      "Ġnever": 621,
      "man": 622,
      "pl": 623,
      "wn": 624,
      "'ll": 625,
      "og": 626,
      "Ġagain": 627,
      "Ġwife": 628,
      "ĠThey": 629,
      "ittle": 630,
      "Ġway": 631,
      "au": 632,
      "ire": 633,
      "Ġbecause": 634,
      "Ġbar": 635,
      "ĠShe": 636,
      "round": 637,
      "Ġold": 638,
      "ater": 639,
      "Ġdr": 640,
      "'ve": 641,
      "ather": 642,
      "able": 643,
      "Ġhapp": 644,
      "hes": 645,
      "hed": 646,
      "mer": 647,
      "ĠTh": 648,
      "Ġyear": 649,
      "Ġfriend": 650,
      "Ġwhich": 651,
      "Ġgoing": 652,
      "nder": 653,
      "Ġstart": 654,
      "Ġwoman": 655,
      "ans": 656,
      "Ġnew": 657,
      "thing": 658,
      "Ġdis": 659,
      "ng": 660,
      "row": 661,
      "Ġhand": 662,
      "Ġgir": 663,
      "ress": 664,
      "ting": 665,
      "Ġthou": 666,
      "ath": 667,
      "fore": 668,
      "ways": 669,
      "xt": 670,
      "orn": 671,
      "ĠY": 672,
      "Ġneed": 673,
      "ĠCh": 674,
      "Ġac": 675,
      "ĠSo": 676,
      "Ġtwo": 677,
      "Ġnow": 678,
      "ctor": 679,
      "ĠBut": 680,
      "fe": 681,
      "Ġbr": 682,
      "ved": 683,
      "Ġworld": 684,
      "way": 685,
      "ave": 686,
      "Ġcou": 687,
      "akes": 688,
      "Why": 689,
      "Ġsomet": 690,
      "Ġco": 691,
      "ions": 692,
      "Ġtake": 693,
      "ple": 694,
      "ty": 695,
      "Ġte": 696,
      "Ġwr": 697,
      "ary": 698,
      "Ġfl": 699,
      "sp": 700,
      "Ġ2": 701,
      "Ġcar": 702,
      "Ġlittle": 703,
      "ĠGod": 704,
      "Ġright": 705,
      "ail": 706,
      "Ġgoes": 707,
      "ew": 708,
      "ade": 709,
      "Ġalways": 710,
      "Ġafter": 711,
      "ory": 712,
      "ĠJo": 713,
      "Ġdec": 714,
      "00": 715,
      "Ġreally": 716,
      "ens": 717,
      "uch": 718,
      "Ġeven": 719,
      "Ġfind": 720,
      "Ġpre": 721,
      "Ġvery": 722,
      "Ġshould": 723,
      "Ġsec": 724,
      "ness": 725,
      "ĠU": 726,
      "ub": 727,
      "av": 728,
      "Ġfeel": 729,
      "Ġlong": 730,
      "har": 731,
      "My": 732,
      "ious": 733,
      "hn": 734,
      "ang": 735,
      "rough": 736,
      "iss": 737,
      "int": 738,
      "les": 739,
      "Ġhome": 740,
      "Ġunder": 741,
      "Ġmuch": 742,
      "Ġpo": 743,
      "ah": 744,
      "ump": 745,
      "Ġwhere": 746,
      "He": 747,
      "ise": 748,
      "ook": 749,
      "Ġwork": 750,
      "erson": 751,
      "Ġad": 752,
      "ny": 753,
      "ase": 754,
      "Ġke": 755,
      "Ġbeing": 756,
      "ĠV": 757,
      "ord": 758,
      "ove": 759,
      "Ġsomething": 760,
      "Ġown": 761,
      "lie": 762,
      "Ġbefore": 763,
      "Ġapp": 764,
      "ool": 765,
      "It": 766,
      "Ġreal": 767,
      "Ġcont": 768,
      "ĠIn": 769,
      "Ġturn": 770,
      "Ġra": 771,
      "day": 772,
      "ĠWhat": 773,
      "Ġaround": 774,
      "ock": 775,
      "Ġhere": 776,
      "ful": 777,
      "Ġgreat": 778,
      "ial": 779,
      "ream": 780,
      "Ġlet": 781,
      "iv": 782,
      "Ġwent": 783,
      "Ġdif": 784,
      "Ġtold": 785,
      "ark": 786,
      "ated": 787,
      "Ġput": 788,
      "ance": 789,
      "Ġthings": 790,
      "ĠWe": 791,
      "Ġper": 792,
      "Ġcome": 793,
      "te": 794,
      "Ġboy": 795,
      "Ġbu": 796,
      "Ġhead": 797,
      "ob": 798,
      "Ġthrough": 799,
      "ft": 800,
      "Ġnight": 801,
      "Ġpart": 802,
      "Ġthought": 803,
      "Ġnext": 804,
      "ody": 805,
      "Ġwalks": 806,
      "Ġmom": 807,
      "Ġchan": 808,
      "ady": 809,
      "oss": 810,
      "old": 811,
      "How": 812,
      "'d": 813,
      "Ġrem": 814,
      "Ġgirl": 815,
      "ouse": 816,
      "Ġ(": 817,
      "ical": 818,
      "Ġche": 819,
      "aking": 820,
      "ily": 821,
      "sh": 822,
      "Ġmost": 823,
      "Ġsha": 824,
      "ign": 825,
      "Ġdidn": 826,
      "ia": 827,
      "Ġey": 828,
      "Ġits": 829,
      "ons": 830,
      "aw": 831,
      "ss": 832,
      "ough": 833,
      "Ġdes": 834,
      "ru": 835,
      "ult": 836,
      "Ġperson": 837,
      "Ġgive": 838,
      "ars": 839,
      "Ġreplies": 840,
      "Ġmen": 841,
      "Ġhar": 842,
      "Ġstill": 843,
      "ried": 844,
      "Ġend": 845,
      "Ġwhy": 846,
      "If": 847,
      "igh": 848,
      "ait": 849,
      "ating": 850,
      "ecause": 851,
      "Ġsame": 852,
      "ever": 853,
      "oth": 854,
      "Ġact": 855,
      "oney": 856,
      "gg": 857,
      "ee": 858,
      "Ġsex": 859,
      "ĠWhen": 860,
      "led": 861,
      "orm": 862,
      "Ġdiffe": 863,
      "Ġever": 864,
      "Ġlast": 865,
      "ps": 866,
      "Ġtal": 867,
      "Ġword": 868,
      "Ġmany": 869,
      "Ġdoor": 870,
      "Ġdoctor": 871,
      "Ġmust": 872,
      "Ġlook": 873,
      "imes": 874,
      "Ġfin": 875,
      "Ġtry": 876,
      "ĠAn": 877,
      "Ġyears": 878,
      "Ġdri": 879,
      "Ġgr": 880,
      "get": 881,
      "Ġimp": 882,
      "atch": 883,
      "Ġop": 884,
      "ween": 885,
      "be": 886,
      "ins": 887,
      "Ġmade": 888,
      "Ġcomes": 889,
      "Ġanother": 890,
      "ict": 891,
      "ĠJohn": 892,
      "Well": 893,
      "Ġhum": 894,
      "We": 895,
      "ender": 896,
      "Ġwhile": 897,
      "aut": 898,
      "side": 899,
      "Ġsecond": 900,
      "ont": 901,
      "ower": 902,
      "Ġthose": 903,
      "ning": 904,
      "Ġgra": 905,
      "Ġchild": 906,
      "Ġbetween": 907,
      "Ġatt": 908,
      "ird": 909,
      "Ġbelie": 910,
      "ward": 911,
      "Ġaway": 912,
      "Ġjoke": 913,
      "Ġ*": 914,
      "Ġ3": 915,
      "Ġstop": 916,
      "Ġbest": 917,
      "Ġem": 918,
      "Ġcomp": 919,
      "ual": 920,
      "band": 921,
      "oll": 922,
      "Ġmay": 923,
      "Ġhel": 924,
      "ĠIf": 925,
      "Ġmin": 926,
      "Ġcame": 927,
      "its": 928,
      "Ġpass": 929,
      "rist": 930,
      "Ġrun": 931,
      "No": 932,
      "iness": 933,
      "Ġsl": 934,
      "Ġcr": 935,
      "usband": 936,
      "Ġgets": 937,
      "Ġplay": 938,
      "Ġtra": 939,
      "Ġgi": 940,
      "up": 941,
      "Ġbig": 942,
      "less": 943,
      "ĠThat": 944,
      "ings": 945,
      "ho": 946,
      "ied": 947,
      "ĠOne": 948,
      "Ġfar": 949,
      "Ġwell": 950,
      "Ġmon": 951,
      "Ġresp": 952,
      "Ġkid": 953,
      "Ġsur": 954,
      "Ġmind": 955,
      "Ġreplied": 956,
      "ible": 957,
      "Ġhard": 958,
      "Ġnothing": 959,
      "Ġroom": 960,
      "Ġcomm": 961,
      "Ġwithout": 962,
      "ĠMe": 963,
      "so": 964,
      "Ġlooks": 965,
      "air": 966,
      "Ġkeep": 967,
      "Ġfew": 968,
      "ened": 969,
      "Ġstr": 970,
      "artender": 971,
      "Ġdog": 972,
      "Ġeach": 973,
      "ually": 974,
      "Ġlight": 975,
      "Ġmo": 976,
      "ib": 977,
      "Ġhear": 978,
      "Ġson": 979,
      "aught": 980,
      "pe": 981,
      "Ġmar": 982,
      "kes": 983,
      "ott": 984,
      "Ġwait": 985,
      "Ġsomeone": 986,
      "Ġthin": 987,
      "ĠAs": 988,
      "udd": 989,
      "ents": 990,
      "ert": 991,
      "ope": 992,
      "Ġstand": 993,
      "na": 994,
      "Ġheart": 995,
      "ĠBecause": 996,
      "Ġbad": 997,
      "Ġgl": 998,
      "Ġi": 999,
      "cess": 1000,
      "Th": 1001,
      "ĠMy": 1002,
      "Ġbus": 1003,
      "vel": 1004,
      "az": 1005,
      "Ġkind": 1006,
      "ross": 1007,
      "Ġread": 1008,
      "ican": 1009,
      "Ġhouse": 1010,
      "vers": 1011,
      "Ġbeg": 1012,
      "Ġhelp": 1013,
      "Ġrec": 1014,
      "Ġbre": 1015,
      "Ġent": 1016,
      "bs": 1017,
      "ĠHow": 1018,
      "Ġpol": 1019,
      "Ġyoung": 1020,
      "ts": 1021,
      "Ġans": 1022,
      "Ġdecid": 1023,
      "When": 1024,
      "Ġdoesn": 1025,
      "ience": 1026,
      "Ġfather": 1027,
      "anc": 1028,
      "ute": 1029,
      "Ġass": 1030,
      "Ġhusband": 1031,
      "Ġbeaut": 1032,
      "ĠDe": 1033,
      "Ġsw": 1034,
      "Ġbo": 1035,
      "ner": 1036,
      "ident": 1037,
      "ĠBe": 1038,
      "Ġthree": 1039,
      "acher": 1040,
      "Ġser": 1041,
      "Ġname": 1042,
      "Ġbetter": 1043,
      "Ġbartender": 1044,
      "cl": 1045,
      "So": 1046,
      "iet": 1047,
      "Ġfound": 1048,
      "ors": 1049,
      "ĠAfter": 1050,
      "Ġshow": 1051,
      "ank": 1052,
      "ĠThere": 1053,
      "ates": 1054,
      "Ġfam": 1055,
      "Ġanything": 1056,
      "Ġmother": 1057,
      "ition": 1058,
      "Ġpull": 1059,
      "cept": 1060,
      "ger": 1061,
      "Ġdoing": 1062,
      "ms": 1063,
      "Ġleft": 1064,
      "olog": 1065,
      "atter": 1066,
      "Ġmean": 1067,
      "There": 1068,
      "Ġonce": 1069,
      "Ġask": 1070,
      "Ġlive": 1071,
      "Ġord": 1072,
      "Ġmoney": 1073,
      "Ġwomen": 1074,
      "ĠThis": 1075,
      "Ġthese": 1076,
      "Ġface": 1077,
      "Ġexp": 1078,
      "Ġsure": 1079,
      "ale": 1080,
      "Ġcalled": 1081,
      "vent": 1082,
      "Ġenough": 1083,
      "Ġlater": 1084,
      "Ġhaving": 1085,
      "ĠAmer": 1086,
      "uth": 1087,
      "stand": 1088,
      "Ġeyes": 1089,
      "Ġwee": 1090,
      "Ġsaw": 1091,
      "eter": 1092,
      "ĠChrist": 1093,
      "ĠTr": 1094,
      "rence": 1095,
      "Ġconf": 1096,
      "ck": 1097,
      "und": 1098,
      "ĠAl": 1099,
      "Ġeverything": 1100,
      "Ġcha": 1101,
      "Ġ$": 1102,
      "Ġbed": 1103,
      "Ġspe": 1104,
      "Ġboth": 1105,
      "Ġgen": 1106,
      "Ġacc": 1107,
      "Ġfun": 1108,
      "Ġdad": 1109,
      "Ġpri": 1110,
      "als": 1111,
      "Ġunt": 1112,
      "Ġel": 1113,
      "Ġkill": 1114,
      "ĠNo": 1115,
      "my": 1116,
      "Ġsk": 1117,
      "ier": 1118,
      "ient": 1119,
      "Ġbit": 1120,
      "Ġwanted": 1121,
      "Ġhuman": 1122,
      "Ġbelieve": 1123,
      "Ġlot": 1124,
      "Ġinst": 1125,
      "Ġlear": 1126,
      "That": 1127,
      "ole": 1128,
      "Ġtakes": 1129,
      "Ġquest": 1130,
      "ane": 1131,
      "ret": 1132,
      "ling": 1133,
      "ĠDo": 1134,
      "ph": 1135,
      "Ġplace": 1136,
      "Ġret": 1137,
      "Ġtoday": 1138,
      "Ġ5": 1139,
      "Ġseem": 1140,
      "ations": 1141,
      "Ġhimself": 1142,
      "Ġple": 1143,
      "Ġuse": 1144,
      "Ġph": 1145,
      "app": 1146,
      "Ġlau": 1147,
      "chool": 1148,
      "ĠThen": 1149,
      "ense": 1150,
      "Ġblack": 1151,
      "Oh": 1152,
      "And": 1153,
      "Ġrest": 1154,
      "Ġtri": 1155,
      "itting": 1156,
      "Ġalso": 1157,
      "enc": 1158,
      "ned": 1159,
      "oot": 1160,
      "rent": 1161,
      "uss": 1162,
      "Ġhands": 1163,
      "ism": 1164,
      "ince": 1165,
      "Ġtook": 1166,
      ".'": 1167,
      "Ġeat": 1168,
      "ount": 1169,
      "Ġcle": 1170,
      "ered": 1171,
      "Ġwater": 1172,
      "ets": 1173,
      "Ġcount": 1174,
      "Ġpain": 1175,
      "In": 1176,
      "!!": 1177,
      "Ġgetting": 1178,
      "ines": 1179,
      "Ġproble": 1180,
      "ĠOn": 1181,
      "ash": 1182,
      "Ġred": 1183,
      "Ġchange": 1184,
      "sel": 1185,
      "Ġres": 1186,
      "Ġunderstand": 1187,
      "ize": 1188,
      "leep": 1189,
      "utes": 1190,
      "Ġexpl": 1191,
      "rew": 1192,
      "ĠTo": 1193,
      "orry": 1194,
      "Ġlooking": 1195,
      "ĠHis": 1196,
      "gs": 1197,
      "Ġansw": 1198,
      "Ġhor": 1199,
      "med": 1200,
      "Ġuntil": 1201,
      "orning": 1202,
      "arent": 1203,
      "Ġyourself": 1204,
      "Ġhour": 1205,
      "ĠRe": 1206,
      "iful": 1207,
      "oice": 1208,
      "ix": 1209,
      "Ġfall": 1210,
      "Ġwrong": 1211,
      "Ġpres": 1212,
      "Ġide": 1213,
      "Ġsuch": 1214,
      "Ġhat": 1215,
      "rest": 1216,
      "ately": 1217,
      "ction": 1218,
      "Do": 1219,
      "Ġmakes": 1220,
      "Ġtells": 1221,
      "Ġsmall": 1222,
      "Ġfriends": 1223,
      "Ġheard": 1224,
      "Ġter": 1225,
      "**": 1226,
      "the": 1227,
      "not": 1228,
      "Ġpoint": 1229,
      "Ġind": 1230,
      "Ġmorning": 1231,
      "Ġdisc": 1232,
      "Ġmoment": 1233,
      "\".": 1234,
      "Ġwalk": 1235,
      "Ġschool": 1236,
      "bb": 1237,
      "Ġdifference": 1238,
      "Ġdead": 1239,
      "Ġdream": 1240,
      "Ġblond": 1241,
      "Ġdrink": 1242,
      ").": 1243,
      "Ġele": 1244,
      "Ġsim": 1245,
      "Ġjob": 1246,
      "Ġcare": 1247,
      "ists": 1248,
      "Ġwords": 1249,
      "Ġwind": 1250,
      "ris": 1251,
      "Ġwar": 1252,
      "Ġsuc": 1253,
      "Ġcons": 1254,
      "Ġcour": 1255,
      "ying": 1256,
      "ĠIs": 1257,
      "Ġpar": 1258,
      "Ġinc": 1259,
      "Ġlooked": 1260,
      "ared": 1261,
      "Ġelse": 1262,
      "Ġmight": 1263,
      "Ġpen": 1264,
      "âĢ": 1265,
      "Ġinter": 1266,
      "Ġsees": 1267,
      "pped": 1268,
      "Ġexper": 1269,
      "ĠMar": 1270,
      "ĠFr": 1271,
      "Ġteacher": 1272,
      "ering": 1273,
      "body": 1274,
      "Ġpower": 1275,
      "son": 1276,
      "Ġfull": 1277,
      "ĠBr": 1278,
      "Ġstarted": 1279,
      "selves": 1280,
      "ember": 1281,
      "amp": 1282,
      "Ġwatch": 1283,
      "Ġbeautiful": 1284,
      "ows": 1285,
      "unk": 1286,
      "room": 1287,
      "Ġeveryone": 1288,
      "Ġpast": 1289,
      "Ġmyself": 1290,
      "Ġbecome": 1291,
      "Ġrel": 1292,
      "Ġinf": 1293,
      "ired": 1294,
      "hind": 1295,
      "Ġfamily": 1296,
      "ason": 1297,
      "ĠMan": 1298,
      "Ġ4": 1299,
      "oul": 1300,
      "Ġopen": 1301,
      "aster": 1302,
      "key": 1303,
      "dom": 1304,
      "Ġwhole": 1305,
      "ude": 1306,
      "ited": 1307,
      "Ġminutes": 1308,
      "ĠAll": 1309,
      "Ġwon": 1310,
      "idd": 1311,
      "Ġmatter": 1312,
      "Ġtimes": 1313,
      "Ġperf": 1314,
      "Ġbra": 1315,
      "ister": 1316,
      "Ġside": 1317,
      "ics": 1318,
      "But": 1319,
      "ature": 1320,
      "Ġfront": 1321,
      "br": 1322,
      "ged": 1323,
      "Ġsn": 1324,
      "ically": 1325,
      "Ġdays": 1326,
      "light": 1327,
      "Ġhold": 1328,
      "udden": 1329,
      "Ġyell": 1330,
      "Ġbab": 1331,
      "Ġstarts": 1332,
      "Ġfav": 1333,
      "ead": 1334,
      "Ġwish": 1335,
      "ĠSc": 1336,
      "ĠAd": 1337,
      "Ġposs": 1338,
      "Ġsupp": 1339,
      "Ġothers": 1340,
      "ants": 1341,
      "me": 1342,
      "ship": 1343,
      "Ġcat": 1344,
      "Ġear": 1345,
      "ility": 1346,
      "ĠUn": 1347,
      "Ġused": 1348,
      "Ġfree": 1349,
      "Ġdone": 1350,
      "Ġhigh": 1351,
      "Ġpret": 1352,
      "Ġtrying": 1353,
      "ĠWhy": 1354,
      "ER": 1355,
      "Ġlost": 1356,
      "aven": 1357,
      "Ġbehind": 1358,
      "ĠQ": 1359,
      "umb": 1360,
      "Ġbody": 1361,
      "Ġstud": 1362,
      "Ġjump": 1363,
      "Ġwalking": 1364,
      "arth": 1365,
      "Ġfact": 1366,
      "Ġfore": 1367,
      "Ġ10": 1368,
      "Ġinv": 1369,
      "Ġdeath": 1370,
      "ĠDon": 1371,
      "ither": 1372,
      "Ġlaugh": 1373,
      "ĠNot": 1374,
      "Ġchar": 1375,
      "Ġcouldn": 1376,
      "ald": 1377,
      "ax": 1378,
      "Ġshit": 1379,
      "Ġsitting": 1380,
      "Ġob": 1381,
      "ĠSp": 1382,
      "Ġlaw": 1383,
      "unch": 1384,
      "lfriend": 1385,
      "Ġfuc": 1386,
      "uff": 1387,
      "Ġsleep": 1388,
      "Ġtw": 1389,
      "Ġwond": 1390,
      "esus": 1391,
      "used": 1392,
      "Ġdecided": 1393,
      "Ġquestion": 1394,
      "Ġtoget": 1395,
      "vie": 1396,
      "Ġtogether": 1397,
      "ĠFor": 1398,
      "Ġlead": 1399,
      "ĠCl": 1400,
      "ĠAr": 1401,
      "Ġbuy": 1402,
      "ĠYour": 1403,
      "ames": 1404,
      "inc": 1405,
      "ony": 1406,
      "Ġmus": 1407,
      "Ġdro": 1408,
      "Ġguys": 1409,
      "Ġsing": 1410,
      "Ġdifferent": 1411,
      "An": 1412,
      "Ġtrue": 1413,
      "Ġfoll": 1414,
      "Ġset": 1415,
      "Ġref": 1416,
      "aughter": 1417,
      "Ġchildren": 1418,
      "Ġseen": 1419,
      "ably": 1420,
      "Ġrespond": 1421,
      "ster": 1422,
      "ative": 1423,
      "Ġfinally": 1424,
      "oke": 1425,
      "Ġstory": 1426,
      "Ġblonde": 1427,
      "ject": 1428,
      "This": 1429,
      "Ġgave": 1430,
      "ĠWh": 1431,
      "att": 1432,
      "Ġproblem": 1433,
      "Ġvis": 1434,
      "ma": 1435,
      "ears": 1436,
      "Ġmet": 1437,
      "Ġhappened": 1438,
      "Ġpriest": 1439,
      "Ġbro": 1440,
      "Ġcannot": 1441,
      "ĠAt": 1442,
      "ices": 1443,
      "Ġdie": 1444,
      "Ġsign": 1445,
      "Ġself": 1446,
      "Ġsub": 1447,
      "Ġcouple": 1448,
      "Ġthird": 1449,
      "ĠMr": 1450,
      "Ġclass": 1451,
      "Ġsoc": 1452,
      "Ġaw": 1453,
      "Ġroad": 1454,
      "She": 1455,
      "ug": 1456,
      "aring": 1457,
      "ork": 1458,
      "Ġreturn": 1459,
      "ike": 1460,
      "Ġlady": 1461,
      "Ġtruth": 1462,
      "ized": 1463,
      "uring": 1464,
      "ined": 1465,
      "outh": 1466,
      "ped": 1467,
      "ĠEvery": 1468,
      "Ġdark": 1469,
      "ten": 1470,
      "Ġgirlfriend": 1471,
      "dit": 1472,
      "Ġ&": 1473,
      "Ġmaking": 1474,
      "ular": 1475,
      "Ġfood": 1476,
      "ots": 1477,
      "Ġwhite": 1478,
      "Ġste": 1479,
      "Ġart": 1480,
      "Ġeas": 1481,
      "Ġhell": 1482,
      "Ġturns": 1483,
      "Ġ:": 1484,
      "Ġknew": 1485,
      "Ġhappy": 1486,
      "Ġinside": 1487,
      "land": 1488,
      "Ġlea": 1489,
      "Ġball": 1490,
      "Ġpur": 1491,
      "ica": 1492,
      "Ġair": 1493,
      "Ġhot": 1494,
      "Ġsit": 1495,
      "reed": 1496,
      "Ġev": 1497,
      "aim": 1498,
      "ted": 1499,
      "Don": 1500,
      "Ġsound": 1501,
      "Ġfuck": 1502,
      "Ġcomple": 1503,
      "Ġcreat": 1504,
      "ities": 1505,
      "Ġdef": 1506,
      "Ġtalk": 1507,
      "Ġcontin": 1508,
      "Ġgrow": 1509,
      "Ġgrand": 1510,
      "ung": 1511,
      "Ġcoll": 1512,
      "Ġsaying": 1513,
      "Ġless": 1514,
      "ures": 1515,
      "Ġfell": 1516,
      "Ġleave": 1517,
      "Ġcourse": 1518,
      "ator": 1519,
      "Ġdep": 1520,
      "...\"": 1521,
      "Ġbook": 1522,
      "ues": 1523,
      "Ġyet": 1524,
      "Ġcap": 1525,
      "Ġisn": 1526,
      "Ġsil": 1527,
      "__": 1528,
      "ters": 1529,
      "ished": 1530,
      "over": 1531,
      "lig": 1532,
      "ĠBl": 1533,
      "Ġremember": 1534,
      "Ġ...": 1535,
      "Ġmiss": 1536,
      "reet": 1537,
      "Ġtalking": 1538,
      "add": 1539,
      "ched": 1540,
      "alth": 1541,
      "ought": 1542,
      "Ġhalf": 1543,
      "Ġthinking": 1544,
      "Ġliving": 1545,
      "uri": 1546,
      "Ġdeep": 1547,
      "Yes": 1548,
      "ange": 1549,
      "ex": 1550,
      "ĠAmerican": 1551,
      "ooks": 1552,
      "Ġcra": 1553,
      "oud": 1554,
      "Ġweek": 1555,
      "urt": 1556,
      "ler": 1557,
      "Ġlist": 1558,
      "Ġsy": 1559,
      "Ġ6": 1560,
      "Ġbaby": 1561,
      "uddenly": 1562,
      "elt": 1563,
      "Ġmem": 1564,
      "Ġbusiness": 1565,
      "ush": 1566,
      "Ġwasn": 1567,
      "to": 1568,
      "Ġpay": 1569,
      "ertain": 1570,
      "Did": 1571,
      "Ġpat": 1572,
      "ĠBill": 1573,
      "Ġbear": 1574,
      "aj": 1575,
      "Ġsoul": 1576,
      "Ġexplain": 1577,
      "âĢ¦": 1578,
      "Ġfly": 1579,
      "ĠPeter": 1580,
      "Ġkids": 1581,
      "Ġidea": 1582,
      "Ġline": 1583,
      "orge": 1584,
      "Ġchick": 1585,
      "eah": 1586,
      "Ġhope": 1587,
      "ĠNow": 1588,
      "Ġbuild": 1589,
      "Ġstore": 1590,
      "cer": 1591,
      "Ġfollow": 1592,
      "Ġagainst": 1593,
      "Ġins": 1594,
      "umber": 1595,
      "icer": 1596,
      "ready": 1597,
      "Hey": 1598,
      "ician": 1599,
      "oun": 1600,
      "Ġthough": 1601,
      "Ġfire": 1602,
      "Ġimport": 1603,
      "Ġsince": 1604,
      "Ġreg": 1605,
      "ĠEng": 1606,
      "ĠTrump": 1607,
      "Ġ9": 1608,
      "Ġmeet": 1609,
      "Ġanyone": 1610,
      "ories": 1611,
      "ĠJust": 1612,
      "osed": 1613,
      "Ġwalked": 1614,
      "Ġable": 1615,
      "iting": 1616,
      "Ġparent": 1617,
      "Ġdrin": 1618,
      "Ġdist": 1619,
      "Ġmonth": 1620,
      "Ġhorse": 1621,
      "Ġfavor": 1622,
      "?'": 1623,
      "Ġdoll": 1624,
      "ressed": 1625,
      "IN": 1626,
      "Ġlives": 1627,
      "Ġmeans": 1628,
      "Ġyes": 1629,
      "ract": 1630,
      "most": 1631,
      "Ġflo": 1632,
      "Ġwhe": 1633,
      "Ġve": 1634,
      "Ġalready": 1635,
      "ĠLife": 1636,
      "Ġthinks": 1637,
      "Ġdra": 1638,
      "aper": 1639,
      "Ġturned": 1640,
      "ital": 1641,
      "Ġvoice": 1642,
      "ys": 1643,
      "Two": 1644,
      "gr": 1645,
      "Ġcow": 1646,
      "eth": 1647,
      "Ġext": 1648,
      "tern": 1649,
      "Ġquick": 1650,
      "Ġwants": 1651,
      "Ġfight": 1652,
      "ĠJesus": 1653,
      "Ġtest": 1654,
      "Ġfail": 1655,
      "Ġstra": 1656,
      "ror": 1657,
      "fort": 1658,
      "ĠWill": 1659,
      "icks": 1660,
      "Ġexc": 1661,
      "Ġsorry": 1662,
      "Ġalone": 1663,
      "Ġpretty": 1664,
      "du": 1665,
      "Ġfear": 1666,
      "Ġ20": 1667,
      "ution": 1668,
      "Ġfa": 1669,
      "Ġri": 1670,
      "Ġcoming": 1671,
      "\",": 1672,
      "ently": 1673,
      "Ġeye": 1674,
      "ef": 1675,
      "Ġmed": 1676,
      "Ġplease": 1677,
      "ĠGe": 1678,
      "lish": 1679,
      "ĠGreat": 1680,
      "ĠGu": 1681,
      "Ġbring": 1682,
      "Ġloc": 1683,
      "Ġwin": 1684,
      "Ġappro": 1685,
      ":.": 1686,
      "irt": 1687,
      "Ġreason": 1688,
      "head": 1689,
      "ific": 1690,
      "ham": 1691,
      "where": 1692,
      "OU": 1693,
      "Ġimag": 1694,
      "irit": 1695,
      "Ġlar": 1696,
      "Ġbrother": 1697,
      "Ġdied": 1698,
      "Ġgives": 1699,
      "Ġbeer": 1700,
      "ĠJohnny": 1701,
      "Ġhit": 1702,
      "kay": 1703,
      "ĠSh": 1704,
      "Ġacross": 1705,
      "oon": 1706,
      "by": 1707,
      "ifty": 1708,
      "Ġtried": 1709,
      "Ġshout": 1710,
      "ĠOr": 1711,
      "Ġwall": 1712,
      "000": 1713,
      "Ġhair": 1714,
      "Ġsent": 1715,
      "Ġsat": 1716,
      "Ġsuccess": 1717,
      "ĠWith": 1718,
      "ĠHar": 1719,
      "One": 1720,
      "ita": 1721,
      "ama": 1722,
      "Ġbott": 1723,
      "Ġshop": 1724,
      "ĠTH": 1725,
      "Ġorder": 1726,
      "rying": 1727,
      "ina": 1728,
      "onna": 1729,
      "Ġopp": 1730,
      "ift": 1731,
      "Ġtou": 1732,
      "reen": 1733,
      "Ġanswer": 1734,
      "com": 1735,
      "Ġcross": 1736,
      "Ġfarmer": 1737,
      "ĠZ": 1738,
      "ats": 1739,
      "Ġmag": 1740,
      "Ġcountry": 1741,
      "Ġupon": 1742,
      "Ġdin": 1743,
      "iter": 1744,
      "ches": 1745,
      "aid": 1746,
      "Ġstay": 1747,
      "ality": 1748,
      "Ġland": 1749,
      "Ġperfect": 1750,
      "ik": 1751,
      "Ġbreak": 1752,
      "orrow": 1753,
      "To": 1754,
      "Ġtop": 1755,
      "Ġtable": 1756,
      "Ġthrow": 1757,
      "ĠWell": 1758,
      "Ġspec": 1759,
      "Ġed": 1760,
      "ĠCan": 1761,
      "Ġoutside": 1762,
      "ĠNew": 1763,
      "ison": 1764,
      "Ġimportant": 1765,
      "Ġfelt": 1766,
      "Ġplan": 1767,
      "Ġscream": 1768,
      "wards": 1769,
      "Ġadd": 1770,
      "Ġdrunk": 1771,
      "They": 1772,
      "Ġsense": 1773,
      "Ġinte": 1774,
      "aur": 1775,
      "Ġguess": 1776,
      "ken": 1777,
      "Ġfucking": 1778,
      "ĠLe": 1779,
      "ney": 1780,
      "Ġactually": 1781,
      "rees": 1782,
      "irth": 1783,
      "anger": 1784,
      "Ġap": 1785,
      "ination": 1786,
      "uture": 1787,
      "Ġhours": 1788,
      "ield": 1789,
      "Ġtree": 1790,
      "ton": 1791,
      "Ġmill": 1792,
      "ges": 1793,
      "Ġdem": 1794,
      "Ġstep": 1795,
      "eople": 1796,
      "iddle": 1797,
      "iec": 1798,
      "gin": 1799,
      "ĠHer": 1800,
      "ised": 1801,
      "Ġcop": 1802,
      "Ġmil": 1803,
      "ote": 1804,
      "Ġnews": 1805,
      "Ġtrans": 1806,
      "--": 1807,
      "any": 1808,
      "Ġprof": 1809,
      "Ġfavorite": 1810,
      "Ġsal": 1811,
      "gu": 1812,
      "ls": 1813,
      "Ġjokes": 1814,
      "Ġcor": 1815,
      "cle": 1816,
      "Ġcut": 1817,
      "acks": 1818,
      "Ġshort": 1819,
      "Ġeng": 1820,
      "angu": 1821,
      "Ġfour": 1822,
      "Ġgonna": 1823,
      "Ġpenis": 1824,
      "As": 1825,
      "Ġlearn": 1826,
      "co": 1827,
      "Ġnear": 1828,
      "Ġleast": 1829,
      "sy": 1830,
      "Ġparents": 1831,
      "Ġnice": 1832,
      "Ġfing": 1833,
      "ments": 1834,
      "Ġsoon": 1835,
      "Ġarri": 1836,
      "ones": 1837,
      "ĠAk": 1838,
      "Ġfish": 1839,
      "Ġmouth": 1840,
      "urch": 1841,
      "Ġfeeling": 1842,
      "Ġoften": 1843,
      "joy": 1844,
      "iver": 1845,
      "lic": 1846,
      "Ġdriver": 1847,
      "Ġwindow": 1848,
      "Ġbas": 1849,
      "Ġmarried": 1850,
      "Ġbreat": 1851,
      "Ġmove": 1852,
      "ured": 1853,
      "ully": 1854,
      "Ġeff": 1855,
      "ĠCar": 1856,
      "Ġ8": 1857,
      "aces": 1858,
      "Ġz": 1859,
      "Ġcommon": 1860,
      "Ġcomplete": 1861,
      "ĠMic": 1862,
      "Ġprom": 1863,
      "Ġ[": 1864,
      "Ġforg": 1865,
      "iam": 1866,
      "ĠNe": 1867,
      "ese": 1868,
      "Ġwonder": 1869,
      "ager": 1870,
      "ric": 1871,
      "Ġshot": 1872,
      "Ġhate": 1873,
      "Ġexperience": 1874,
      "ĠJew": 1875,
      "Ġnec": 1876,
      "bo": 1877,
      "rog": 1878,
      "Ġlegs": 1879,
      "Ġpos": 1880,
      "Ġheaven": 1881,
      "Ġpub": 1882,
      "Ġblood": 1883,
      "Ġstrong": 1884,
      "Ġ7": 1885,
      "Ġexist": 1886,
      "Ġfuture": 1887,
      "Ġhappen": 1888,
      "Ġgener": 1889,
      "gy": 1890,
      "io": 1891,
      "aken": 1892,
      "bert": 1893,
      "Ġphone": 1894,
      "Ġwis": 1895,
      "Ġsir": 1896,
      "Ġdecides": 1897,
      "iously": 1898,
      "ĠGra": 1899,
      "ries": 1900,
      "ledge": 1901,
      "Ġwhis": 1902,
      "Ġalmost": 1903,
      "Ġsurp": 1904,
      "Ġtaking": 1905,
      "what": 1906,
      "Ġalong": 1907,
      "Ġsun": 1908,
      "Ġdaughter": 1909,
      "Ġanim": 1910,
      "zy": 1911,
      "ced": 1912,
      "atur": 1913,
      "Ġearth": 1914,
      "Ġswe": 1915,
      "ĠPr": 1916,
      "oes": 1917,
      "oose": 1918,
      "Ġquite": 1919,
      "Ġpost": 1920,
      "vice": 1921,
      "Ġground": 1922,
      "ĠGeorge": 1923,
      "Ġcre": 1924,
      "itive": 1925,
      "Ġexpect": 1926,
      "AT": 1927,
      "Ġdick": 1928,
      "ighb": 1929,
      "Ġsol": 1930,
      "amed": 1931,
      "ives": 1932,
      "Ġsqu": 1933,
      "rol": 1934,
      "ĠDad": 1935,
      "aches": 1936,
      "Ġrather": 1937,
      "Ġthemselves": 1938,
      "St": 1939,
      "ĠIr": 1940,
      "Ġinterest": 1941,
      "ery": 1942,
      "Every": 1943,
      "ĠSte": 1944,
      "ĠWho": 1945,
      "Ġhon": 1946,
      "Ġdest": 1947,
      "Ġtown": 1948,
      "erman": 1949,
      "Ġworking": 1950,
      "Ġbirth": 1951,
      "Ġabs": 1952,
      "Ġbel": 1953,
      "medi": 1954,
      "Ġali": 1955,
      "ĠLail": 1956,
      "Ġes": 1957,
      "ĠLove": 1958,
      "Be": 1959,
      "AN": 1960,
      "aul": 1961,
      "mp": 1962,
      "Ġconst": 1963,
      "ĠGifty": 1964,
      "ĠLailah": 1965,
      "Ġhist": 1966,
      "yer": 1967,
      "ĠRo": 1968,
      "hys": 1969,
      "Ġofficer": 1970,
      "Ġknows": 1971,
      "ĠAkita": 1972,
      "Ġwood": 1973,
      "Ġbegin": 1974,
      "Ġchicken": 1975,
      "Ġty": 1976,
      "Ġleg": 1977,
      "Ġgod": 1978,
      "con": 1979,
      "Ġdire": 1980,
      "ĠEnglish": 1981,
      "Ġclose": 1982,
      "Ġlarge": 1983,
      "rible": 1984,
      "ĠAb": 1985,
      "Ġoffice": 1986,
      "ires": 1987,
      "ention": 1988,
      "Ġfloor": 1989,
      "cc": 1990,
      "bably": 1991,
      "Ġcertain": 1992,
      "Ġstreet": 1993,
      "iety": 1994,
      "but": 1995,
      "Ġage": 1996,
      "ging": 1997,
      "Ġago": 1998,
      "Ġglass": 1999,
      "Ġsuff": 2000,
      "On": 2001,
      "ĠCom": 2002,
      "Ġsmil": 2003,
      "ky": 2004,
      "sc": 2005,
      "Ġten": 2006,
      ",'": 2007,
      "Ġenjoy": 2008,
      "Ġamaz": 2009,
      "Ġitself": 2010,
      "icked": 2011,
      "ology": 2012,
      "Ġpiec": 2013,
      "Ġslow": 2014,
      "Ġwaiting": 2015,
      "For": 2016,
      "Ġval": 2017,
      "arch": 2018,
      "Ġaccept": 2019,
      "OO": 2020,
      "Ġaf": 2021,
      "ĠMc": 2022,
      "Ġneighb": 2023,
      "Ġform": 2024,
      "Ġlangu": 2025,
      "Ġexam": 2026,
      "Ġann": 2027,
      "Ġwouldn": 2028,
      "now": 2029,
      "rap": 2030,
      "Ġpolice": 2031,
      "Ġfeet": 2032,
      "Ġfill": 2033,
      "Ġhu": 2034,
      "Ġrunning": 2035,
      "Ġdriving": 2036,
      "Ġspeak": 2037,
      "mas": 2038,
      "ĠSe": 2039,
      "Ġran": 2040,
      "ern": 2041,
      "Ġcir": 2042,
      "you": 2043,
      "ides": 2044,
      "ĠCon": 2045,
      "urd": 2046,
      "Ġrelig": 2047,
      "gan": 2048,
      "Ġeither": 2049,
      "Ġkiss": 2050,
      "osp": 2051,
      "Ġblind": 2052,
      "upid": 2053,
      "rot": 2054,
      "Ġbox": 2055,
      "oman": 2056,
      "Ġfunny": 2057,
      "Ġgun": 2058,
      "Ġcol": 2059,
      "Ġce": 2060,
      "ene": 2061,
      "ĠSha": 2062,
      "Ġdeal": 2063,
      "Ġcalls": 2064,
      "Who": 2065,
      "Ġsingle": 2066,
      "Ġpray": 2067,
      "Ġstanding": 2068,
      "Ġgame": 2069,
      "Ġones": 2070,
      "ians": 2071,
      "Ġbath": 2072,
      "Ġwrite": 2073,
      "Ġworth": 2074,
      "Ġpot": 2075,
      "ĠAm": 2076,
      "Ġsad": 2077,
      "Ġpop": 2078,
      "Ġill": 2079,
      "Ġbecom": 2080,
      ",.": 2081,
      "Ġfoot": 2082,
      "read": 2083,
      "fully": 2084,
      "Ġtast": 2085,
      "ages": 2086,
      "Ġinstead": 2087,
      "Ġmiddle": 2088,
      "Ġdinner": 2089,
      "Ġresponds": 2090,
      "ĠDav": 2091,
      "ief": 2092,
      "aked": 2093,
      "Ġhun": 2094,
      "Ġborn": 2095,
      "Ġfem": 2096,
      "Ġgrou": 2097,
      "Ġpick": 2098,
      "Ġpolit": 2099,
      "Ġnumber": 2100,
      "itch": 2101,
      "Ġfaith": 2102,
      "raid": 2103,
      "ached": 2104,
      "ards": 2105,
      "Ġwithin": 2106,
      "tain": 2107,
      "Ġpulls": 2108,
      "Ġlonger": 2109,
      "airs": 2110,
      "Ġtrain": 2111,
      "Ġmusic": 2112,
      "Ġsand": 2113,
      "Ġaff": 2114,
      "oly": 2115,
      "Ġfig": 2116,
      "uts": 2117,
      "Ġallow": 2118,
      "Ġsuper": 2119,
      "Ġspend": 2120,
      "Ġrabb": 2121,
      "more": 2122,
      "ming": 2123,
      "Ġbooks": 2124,
      "ev": 2125,
      "Ġjud": 2126,
      "Ġentire": 2127,
      "Ġimmedi": 2128,
      "Ġgone": 2129,
      "Ġtom": 2130,
      "Ġbird": 2131,
      "Ġmist": 2132,
      "Ġroll": 2133,
      "ball": 2134,
      "ron": 2135,
      "Ġsuddenly": 2136,
      "ply": 2137,
      "oof": 2138,
      "ĠQu": 2139,
      "rench": 2140,
      "Ġcur": 2141,
      "Ġcold": 2142,
      "Ġrequ": 2143,
      "Ġhole": 2144,
      "Ġsister": 2145,
      "Ġneeds": 2146,
      "erv": 2147,
      "ana": 2148,
      "Ġgay": 2149,
      "Not": 2150,
      "pect": 2151,
      "Ġlisten": 2152,
      "Ġparty": 2153,
      "Ġplaying": 2154,
      "ior": 2155,
      "Ġrelation": 2156,
      "Ġfine": 2157,
      "Ġclos": 2158,
      "Ġlim": 2159,
      "ki": 2160,
      "claim": 2161,
      "ces": 2162,
      "Ġpoor": 2163,
      "Ġbill": 2164,
      "otion": 2165,
      "Ġclean": 2166,
      "Ġleaves": 2167,
      "ley": 2168,
      "ĠBar": 2169,
      "well": 2170,
      "iff": 2171,
      "Where": 2172,
      "acy": 2173,
      "Ġafraid": 2174,
      "Ġstate": 2175,
      "asure": 2176,
      "ceed": 2177,
      "Ġcommun": 2178,
      "Ġseems": 2179,
      "ection": 2180,
      "line": 2181,
      "Ġnun": 2182,
      "Ġpeace": 2183,
      "ĠSu": 2184,
      "Ġprobably": 2185,
      "Ġgiven": 2186,
      "Ġfast": 2187,
      "Ġduring": 2188,
      "Ġspirit": 2189,
      "cious": 2190,
      "Ġhang": 2191,
      "All": 2192,
      "Ġnature": 2193,
      "rage": 2194,
      "ĠTwo": 2195,
      "Ġcompl": 2196,
      "Ġdrive": 2197,
      "Ġdiv": 2198,
      "Ġdou": 2199,
      "Ġdam": 2200,
      "Ġpulled": 2201,
      "ational": 2202,
      "ains": 2203,
      "Ġdev": 2204,
      "Ġbag": 2205,
      "Ġclear": 2206,
      "af": 2207,
      "ĠSund": 2208,
      "Ġwatching": 2209,
      "Ġgirls": 2210,
      "Ġpaper": 2211,
      "ĠInd": 2212,
      "Ġfat": 2213,
      "ĠFin": 2214,
      "ider": 2215,
      "lect": 2216,
      "Ġcoff": 2217,
      "Ġcal": 2218,
      "Ġequ": 2219,
      "vern": 2220,
      "itc": 2221,
      "ON": 2222,
      "Ġquickly": 2223,
      "ĠEd": 2224,
      "Ġlanguage": 2225,
      "Ġplane": 2226,
      "Ġtrou": 2227,
      "Ġhappens": 2228,
      "oid": 2229,
      "bar": 2230,
      "Ġsmell": 2231,
      "ocked": 2232,
      "Ġhealth": 2233,
      "Ġforget": 2234,
      "Ġeating": 2235,
      "Ġhistory": 2236,
      "ĠChar": 2237,
      "Ġpants": 2238,
      "Ġloved": 2239,
      "Ġanswers": 2240,
      "ises": 2241,
      "Ġshall": 2242,
      "Ġpossible": 2243,
      "Ġruns": 2244,
      "iving": 2245,
      "cha": 2246,
      "RE": 2247,
      "Ġsometimes": 2248,
      "hel": 2249,
      "Ġfive": 2250,
      "Ġmillion": 2251,
      "Ġeasy": 2252,
      "Ġfinds": 2253,
      "ĠWor": 2254,
      "Ġbull": 2255,
      "ey": 2256,
      "gth": 2257,
      "antly": 2258,
      "iced": 2259,
      "Your": 2260,
      "iny": 2261,
      "Ġang": 2262,
      "ask": 2263,
      "Ġchurch": 2264,
      "ĠSunday": 2265,
      "Ġboss": 2266,
      "ĠYOU": 2267,
      "view": 2268,
      "empt": 2269,
      "Ġclot": 2270,
      "Ġknowledge": 2271,
      "mm": 2272,
      "enn": 2273,
      "ĠGerman": 2274,
      "zz": 2275,
      "riage": 2276,
      "ĠRuss": 2277,
      "Ġblow": 2278,
      "Ġstupid": 2279,
      "Ġsmile": 2280,
      "Ġcent": 2281,
      "ĠLet": 2282,
      "Ġsold": 2283,
      "Ġsecret": 2284,
      "Ġbur": 2285,
      "Ġarms": 2286,
      "Ġpresent": 2287,
      "Ġlate": 2288,
      "Ġmonths": 2289,
      "bed": 2290,
      "els": 2291,
      "aks": 2292,
      "gn": 2293,
      "Ġrelationship": 2294,
      "ipp": 2295,
      "Ġdisapp": 2296,
      "Just": 2297,
      "Ġmis": 2298,
      "Ġir": 2299,
      "Ġsimply": 2300,
      "Ġimmediately": 2301,
      "ially": 2302,
      "Ġnamed": 2303,
      "ĠEx": 2304,
      "Ġsell": 2305,
      "Ġlose": 2306,
      "Ġmod": 2307,
      "Ġsend": 2308,
      "no": 2309,
      "Ġmir": 2310,
      "lease": 2311,
      "After": 2312,
      "ession": 2313,
      "Ġdollars": 2314,
      "ĠDavid": 2315,
      "Ġgroup": 2316,
      "Ġshoot": 2317,
      "Ġcheck": 2318,
      "ze": 2319,
      "Ġarm": 2320,
      "Ġtouch": 2321,
      "Ġmess": 2322,
      "Is": 2323,
      "Ġca": 2324,
      "reedom": 2325,
      "phan": 2326,
      "Ġmine": 2327,
      "Ġbegan": 2328,
      "ĠMay": 2329,
      "inese": 2330,
      "ding": 2331,
      "men": 2332,
      "ĠJim": 2333,
      "rect": 2334,
      "Ġexact": 2335,
      "ĠTe": 2336,
      "ĠPaul": 2337,
      "ping": 2338,
      "ĠMex": 2339,
      "Ġphys": 2340,
      "Ġav": 2341,
      "Ġbeauty": 2342,
      "Ġstri": 2343,
      "ĠMart": 2344,
      "Ġ19": 2345,
      "Ġadm": 2346,
      "ĠSome": 2347,
      "Ġ,": 2348,
      "Ġtelling": 2349,
      "Ġstraight": 2350,
      "Ġready": 2351,
      "Ġbegins": 2352,
      "Ġtrust": 2353,
      "Ġourselves": 2354,
      "Then": 2355,
      "yn": 2356,
      "itude": 2357,
      "ĠChristmas": 2358,
      "Ġcorn": 2359,
      "Ġgovern": 2360,
      "ĠJe": 2361,
      "Ġintell": 2362,
      "Ġdreams": 2363,
      "lo": 2364,
      "LL": 2365,
      "VE": 2366,
      "Ġcatch": 2367,
      "Ġloud": 2368,
      "sych": 2369,
      "ision": 2370,
      "hem": 2371,
      "ĠSm": 2372,
      "urious": 2373,
      "rought": 2374,
      "Ġgiving": 2375,
      "Ġhuge": 2376,
      "tt": 2377,
      "ĠBob": 2378,
      "Ġhappiness": 2379,
      "ĠAmerica": 2380,
      "ĠRed": 2381,
      "Me": 2382,
      "ustom": 2383,
      "stem": 2384,
      "ĠNor": 2385,
      "Ġlocal": 2386,
      "Ġbank": 2387,
      "Ġtaken": 2388,
      "Ġmad": 2389,
      "Ġjoy": 2390,
      "lex": 2391,
      "Ġchance": 2392,
      "oph": 2393,
      "llen": 2394,
      "ĠPro": 2395,
      "cri": 2396,
      "erc": 2397,
      "ucks": 2398,
      "Ġknown": 2399,
      "Ġprot": 2400,
      "Ġbeat": 2401,
      ".\"\"": 2402,
      "idge": 2403,
      "ĠLittle": 2404,
      "terday": 2405,
      "uit": 2406,
      "orts": 2407,
      "ium": 2408,
      "Ġpun": 2409,
      "Ġdiff": 2410,
      "iding": 2411,
      "par": 2412,
      "ips": 2413,
      "Ġsits": 2414,
      "aced": 2415,
      "Ġhop": 2416,
      "Ġ?": 2417,
      "Ġstuff": 2418,
      "rom": 2419,
      "Ġyells": 2420,
      "non": 2421,
      "ĠWal": 2422,
      "hael": 2423,
      "Ġbought": 2424,
      "mon": 2425,
      "oint": 2426,
      "Ġlawyer": 2427,
      "ĠDoctor": 2428,
      "ĠIrish": 2429,
      "IT": 2430,
      "how": 2431,
      "ING": 2432,
      "ousand": 2433,
      "Ġdrinking": 2434,
      "ivers": 2435,
      "irl": 2436,
      "Ġgold": 2437,
      "iction": 2438,
      "!'": 2439,
      "iverse": 2440,
      "ĠPl": 2441,
      "Ġaren": 2442,
      "Ġengine": 2443,
      "Ġcoun": 2444,
      "ĠEm": 2445,
      "Ġaccident": 2446,
      "que": 2447,
      "Ġduck": 2448,
      "Ġign": 2449,
      "Ġcrow": 2450,
      "Ġworry": 2451,
      "Now": 2452,
      "Ġmor": 2453,
      "Ġtravel": 2454,
      "Ġstopped": 2455,
      "Ġsong": 2456,
      "Ġclim": 2457,
      "Ġweeks": 2458,
      "Ġorders": 2459,
      "ĠWilliam": 2460,
      "Ġice": 2461,
      "Ġpict": 2462,
      "ĠAre": 2463,
      "Ġquiet": 2464,
      "Ġcost": 2465,
      "olute": 2466,
      "Ġcase": 2467,
      "Ġburn": 2468,
      "ĠJames": 2469,
      "Ġkept": 2470,
      "ored": 2471,
      "Ġhurt": 2472,
      "Ġcharac": 2473,
      "ĠDeb": 2474,
      "Ġgenie": 2475,
      "addy": 2476,
      "Ġluck": 2477,
      "Ġbrought": 2478,
      "Ġcontrol": 2479,
      "Ġwhatever": 2480,
      "Ġowner": 2481,
      "Ġcirc": 2482,
      "Ġchoose": 2483,
      "ometimes": 2484,
      "Man": 2485,
      "unt": 2486,
      "Because": 2487,
      "ression": 2488,
      "ospital": 2489,
      "hh": 2490,
      "rit": 2491,
      "Ġopens": 2492,
      "ring": 2493,
      "ĠRic": 2494,
      "Ġsurv": 2495,
      "ĠFrench": 2496,
      "Ġkilled": 2497,
      "Ġstren": 2498,
      "Ġreading": 2499,
      "Ġneeded": 2500,
      "ified": 2501,
      "rec": 2502,
      "ape": 2503,
      "Ġwearing": 2504,
      "Ġcompletely": 2505,
      "ilt": 2506,
      "God": 2507,
      "Ġtowards": 2508,
      "pose": 2509,
      "Ġsick": 2510,
      "Ġreality": 2511,
      "Ġpract": 2512,
      "Ġminute": 2513,
      "Ġwear": 2514,
      "?!": 2515,
      "Ġbathroom": 2516,
      "Ġcaught": 2517,
      "Ġputs": 2518,
      "ental": 2519,
      "aps": 2520,
      "Ġwhether": 2521,
      "Ġcoffee": 2522,
      "ES": 2523,
      "Ġsky": 2524,
      "Ġ.": 2525,
      "ploy": 2526,
      "inite": 2527,
      "ences": 2528,
      "Ġspecial": 2529,
      "ok": 2530,
      "Ġexclaim": 2531,
      "Ġprodu": 2532,
      "Ġseat": 2533,
      "Ġsin": 2534,
      "Ġrespect": 2535,
      "ray": 2536,
      "hood": 2537,
      "lies": 2538,
      "Some": 2539,
      "aa": 2540,
      "Ġcool": 2541,
      "11": 2542,
      "Ġconfused": 2543,
      "Ġpiece": 2544,
      "ishing": 2545,
      "ĠTom": 2546,
      "ustr": 2547,
      "pa": 2548,
      "Ġterrible": 2549,
      "ĠMom": 2550,
      "ĠKing": 2551,
      "Ġrece": 2552,
      "Ġsystem": 2553,
      "ume": 2554,
      "Ġasking": 2555,
      "Ġhaven": 2556,
      "Ġant": 2557,
      "mb": 2558,
      "ventually": 2559,
      "hard": 2560,
      "ulb": 2561,
      "Ġspace": 2562,
      "ĠTHE": 2563,
      "ĠChinese": 2564,
      "velop": 2565,
      "ĠPat": 2566,
      "ivid": 2567,
      "ruct": 2568,
      "Ġlearned": 2569,
      "Ġking": 2570,
      "Ġknock": 2571,
      "ĠOh": 2572,
      "come": 2573,
      "iol": 2574,
      "stit": 2575,
      "ogn": 2576,
      "Ġmeaning": 2577,
      "Ġocc": 2578,
      "che": 2579,
      "Yeah": 2580,
      "ury": 2581,
      "Ġresult": 2582,
      "Ġclothes": 2583,
      "Ġdiffic": 2584,
      "Ġpartic": 2585,
      "bit": 2586,
      "Ġempt": 2587,
      "Ġdecide": 2588,
      "ĠLord": 2589,
      "uation": 2590,
      "owers": 2591,
      "rop": 2592,
      "Ġlie": 2593,
      "haps": 2594,
      "Ġbecame": 2595,
      "uses": 2596,
      "Ġrestaur": 2597,
      "ĠBilly": 2598,
      "Ġid": 2599,
      "Ġworks": 2600,
      "undred": 2601,
      "____": 2602,
      "Ġnaked": 2603,
      "Ġru": 2604,
      "oe": 2605,
      "Ġda": 2606,
      "Ġnoticed": 2607,
      "Ġworst": 2608,
      "Ġthousand": 2609,
      "ĠSam": 2610,
      "Ġcrying": 2611,
      "irty": 2612,
      "Ġbottle": 2613,
      "Ġhospital": 2614,
      "20": 2615,
      "anna": 2616,
      "Ġexcept": 2617,
      "de": 2618,
      "Ġobs": 2619,
      "Ġbecomes": 2620,
      "Ġfreedom": 2621,
      "Ġdate": 2622,
      "Ġmeant": 2623,
      "ortun": 2624,
      "ox": 2625,
      "Ġbreath": 2626,
      "Ġamazing": 2627,
      "ement": 2628,
      "Ġlaughing": 2629,
      "Ġapart": 2630,
      "Ġcomput": 2631,
      "IS": 2632,
      "Ġnor": 2633,
      "Ġelect": 2634,
      "Ġthoughts": 2635,
      "echn": 2636,
      "Ġ**": 2637,
      "Ġfair": 2638,
      "Ġsociety": 2639,
      "Ġlived": 2640,
      "Are": 2641,
      "wered": 2642,
      "Ġgovernment": 2643,
      "Can": 2644,
      "Ġtomorrow": 2645,
      "Ġcompany": 2646,
      "Ġlif": 2647,
      "Ġwriting": 2648,
      "Ġsurpris": 2649,
      "Al": 2650,
      "enty": 2651,
      "10": 2652,
      "Ġbuilding": 2653,
      "Ġpassed": 2654,
      "Ġbell": 2655,
      "ocks": 2656,
      "ĠStep": 2657,
      "iew": 2658,
      "Ġ100": 2659,
      "ĠMichael": 2660,
      "Ġhur": 2661,
      "Ġlay": 2662,
      "eral": 2663,
      "Ġcond": 2664,
      "Ġsix": 2665,
      "Ġpath": 2666,
      "Let": 2667,
      "Ġbroken": 2668,
      "oses": 2669,
      "Ġmaybe": 2670,
      "ased": 2671,
      "Ġchoice": 2672,
      "boy": 2673,
      "aff": 2674,
      "Ġblue": 2675,
      "itchen": 2676,
      "Ġmid": 2677,
      "Ġwat": 2678,
      "Ġgolf": 2679,
      "ech": 2680,
      "lin": 2681,
      "chie": 2682,
      "Ġsimple": 2683,
      "Ġopened": 2684,
      "form": 2685,
      "uly": 2686,
      "Ġmovie": 2687,
      "Ġalive": 2688,
      "rugg": 2689,
      "ĠGood": 2690,
      "go": 2691,
      "Ġadv": 2692,
      "Ġtreat": 2693,
      "ĠMary": 2694,
      "ĠChristian": 2695,
      "Ġrealize": 2696,
      "ette": 2697,
      "Ġfield": 2698,
      "ĠPres": 2699,
      "Ġstrength": 2700,
      "ĠJack": 2701,
      "cent": 2702,
      "Ġusing": 2703,
      "ency": 2704,
      "Ġgas": 2705,
      "Ġanswered": 2706,
      "Ġegg": 2707,
      "atic": 2708,
      "Ġconvers": 2709,
      "Ġround": 2710,
      "Ġstops": 2711,
      "ued": 2712,
      "ĠFinally": 2713,
      "aching": 2714,
      "Ġherself": 2715,
      "roll": 2716,
      "ĠGo": 2717,
      "yond": 2718,
      "Ġesc": 2719,
      "Ġrich": 2720,
      "ani": 2721,
      "Ġban": 2722,
      "Wh": 2723,
      "Ġsave": 2724,
      "Ġtoile": 2725,
      "omen": 2726,
      "Ex": 2727,
      "arden": 2728,
      "Ġfrog": 2729,
      "Ġquestions": 2730,
      "istic": 2731,
      "Ġgreatest": 2732,
      "AR": 2733,
      "Ġcult": 2734,
      "gel": 2735,
      "Ġsweet": 2736,
      "ĠPh": 2737,
      "ĠWorld": 2738,
      "??": 2739,
      "let": 2740,
      "pes": 2741,
      "ĠGr": 2742,
      "Ġrestaurant": 2743,
      "EE": 2744,
      "Ġseemed": 2745,
      "aint": 2746,
      "Ġtruck": 2747,
      "idence": 2748,
      "Ġforward": 2749,
      "nock": 2750,
      "Ġseeing": 2751,
      "Ġgreen": 2752,
      "Ġmanager": 2753,
      "Ġdrinks": 2754,
      "Ġstrange": 2755,
      "isf": 2756,
      "ising": 2757,
      "idha": 2758,
      "Ġpsych": 2759,
      "asish": 2760,
      "ĠDebasish": 2761,
      "ĠMridha": 2762,
      "Ġsilence": 2763,
      "ĠAg": 2764,
      "Ġballs": 2765,
      "Ġinform": 2766,
      "ĠOf": 2767,
      "Ġmot": 2768,
      "Ġhundred": 2769,
      "OR": 2770,
      "ential": 2771,
      "?!\"": 2772,
      "!!!": 2773,
      "Ġswim": 2774,
      "Ġparrot": 2775,
      "50": 2776,
      "ining": 2777,
      "olic": 2778,
      "Ġur": 2779,
      "Ġproblems": 2780,
      "Ġworse": 2781,
      "Ġspeed": 2782,
      "that": 2783,
      "Ġmount": 2784,
      "Ġpig": 2785,
      "ĠThan": 2786,
      "hip": 2787,
      "Ġprocess": 2788,
      "Ġneighbor": 2789,
      "lim": 2790,
      "usion": 2791,
      "Ġmarriage": 2792,
      "ĠCo": 2793,
      "Ġstick": 2794,
      "Ġkeeps": 2795,
      "Ġchair": 2796,
      "ances": 2797,
      "Ġbrain": 2798,
      "Ġforever": 2799,
      "ĠFl": 2800,
      "eck": 2801,
      "Ġelephan": 2802,
      "chan": 2803,
      "ste": 2804,
      "Ġprison": 2805,
      "Ġcrazy": 2806,
      "set": 2807,
      "Ġmach": 2808,
      "Ġabsolute": 2809,
      "Ġcause": 2810,
      "At": 2811,
      "Ġjudge": 2812,
      "Ġokay": 2813,
      "Ġcity": 2814,
      "Ġmark": 2815,
      "Ġpock": 2816,
      "ĠDonald": 2817,
      "ocr": 2818,
      "like": 2819,
      "Ġtick": 2820,
      "Ġer": 2821,
      "Ġtot": 2822,
      "Ġview": 2823,
      "Ġsum": 2824,
      "alian": 2825,
      "atural": 2826,
      "urb": 2827,
      "Ġfix": 2828,
      "ĠPeople": 2829,
      "ĠWar": 2830,
      "Ġearly": 2831,
      "urs": 2832,
      "ĠYes": 2833,
      "Ġfil": 2834,
      "vol": 2835,
      "Ġexactly": 2836,
      "Ġdifficult": 2837,
      "pre": 2838,
      "lt": 2839,
      "ived": 2840,
      "Ġeduc": 2841,
      "erry": 2842,
      "fr": 2843,
      "ĠBy": 2844,
      "Ġpil": 2845,
      "Ġsever": 2846,
      "Ġyesterday": 2847,
      "itten": 2848,
      "Ġevil": 2849,
      "aged": 2850,
      "Ġways": 2851,
      "oooo": 2852,
      "Ġpet": 2853,
      "Ġ50": 2854,
      "Ġbroke": 2855,
      "inary": 2856,
      "entle": 2857,
      "Ġfeels": 2858,
      "Ġcustom": 2859,
      "work": 2860,
      "Ġknowing": 2861,
      "Ġscrew": 2862,
      "Ġsocial": 2863,
      "ilos": 2864,
      "ously": 2865,
      "ĠJoe": 2866,
      "ushed": 2867,
      "Ġuniverse": 2868,
      "Ġskin": 2869,
      "ĠThom": 2870,
      "une": 2871,
      "ĠOnce": 2872,
      "Ġfemale": 2873,
      "friend": 2874,
      "dd": 2875,
      "Ġanymore": 2876,
      "Ġstuck": 2877,
      "Ġnotices": 2878,
      "Ġpublic": 2879,
      "Ġtrouble": 2880,
      "Ġslowly": 2881,
      "Ġpack": 2882,
      "for": 2883,
      "Ġfit": 2884,
      "ams": 2885,
      "Ġonto": 2886,
      "Ġtoilet": 2887,
      "Ġkitchen": 2888,
      "iest": 2889,
      "Ġstudent": 2890,
      "ization": 2891,
      "ĠWhere": 2892,
      "Ġmass": 2893,
      "People": 2894,
      "Ġfart": 2895,
      "Ġstar": 2896,
      "Ġattention": 2897,
      "Ġboys": 2898,
      "Ġstands": 2899,
      "Ġabove": 2900,
      "Three": 2901,
      "Ġweak": 2902,
      "ĠFather": 2903,
      "Ġlab": 2904,
      "Ġcreate": 2905,
      "Ġdevelop": 2906,
      "Ġbirthday": 2907,
      "fl": 2908,
      "Ġcry": 2909,
      "rupt": 2910,
      "Ġimm": 2911,
      "Ġangry": 2912,
      "Ġscient": 2913,
      "Ġdeli": 2914,
      "isc": 2915,
      "Ġrub": 2916,
      "Ġcrowd": 2917,
      "Ġ12": 2918,
      "ividual": 2919,
      "Ġtor": 2920,
      "icking": 2921,
      "Ġpatient": 2922,
      "Ġreach": 2923,
      "Ġmat": 2924,
      "Ġnecess": 2925,
      "lder": 2926,
      "roud": 2927,
      "Ġlunch": 2928,
      "Ġpu": 2929,
      "Ġjour": 2930,
      "fer": 2931,
      "ibly": 2932,
      "erk": 2933,
      "amb": 2934,
      "Ġrealized": 2935,
      "Ġpriv": 2936,
      "Ġcourage": 2937,
      "ites": 2938,
      "eg": 2939,
      "ibility": 2940,
      "Ġnod": 2941,
      "Ġdress": 2942,
      "Ġempty": 2943,
      "Ġdet": 2944,
      "Ġseveral": 2945,
      "ĠDr": 2946,
      "Ġcook": 2947,
      "iot": 2948,
      "een": 2949,
      "Ġwa": 2950,
      "Ġkey": 2951,
      "Ġfool": 2952,
      "Ġcounter": 2953,
      "rise": 2954,
      "omb": 2955,
      "Ġcolle": 2956,
      "incip": 2957,
      "Ġori": 2958,
      "ta": 2959,
      "Ġsea": 2960,
      "Ch": 2961,
      "Ġshare": 2962,
      "Ġtired": 2963,
      "pping": 2964,
      "OP": 2965,
      "eless": 2966,
      "Ġsoft": 2967,
      "Ġprov": 2968,
      "ĠSec": 2969,
      "eed": 2970,
      "Ġaut": 2971,
      "ended": 2972,
      "Ġstories": 2973,
      "Ġsupposed": 2974,
      "ills": 2975,
      "Ġnorm": 2976,
      "ĠApp": 2977,
      "Ġsort": 2978,
      "eterm": 2979,
      "Ġpregn": 2980,
      "ili": 2981,
      "Ġhears": 2982,
      "Ġdraw": 2983,
      "Ġachie": 2984,
      "Ġfalls": 2985,
      "OT": 2986,
      "ĠRobert": 2987,
      "Ġjumps": 2988,
      "Ġdoub": 2989,
      "izing": 2990,
      "Ġdesire": 2991,
      "Ġchallen": 2992,
      "Ġfarm": 2993,
      "ov": 2994,
      "ĠAdel": 2995,
      "Ġinsp": 2996,
      "Ġstood": 2997,
      "ĠMat": 2998,
      "Ġtruly": 2999,
      "Ġremain": 3000,
      "Ġtaste": 3001,
      "ĠMur": 3002,
      "Tr": 3003,
      "Ġcomfort": 3004,
      "port": 3005,
      "aja": 3006,
      "Ġsituation": 3007,
      "Ġindividual": 3008,
      "Ġboat": 3009,
      "Ġrecogn": 3010,
      "aling": 3011,
      "Ġton": 3012,
      "Ġshar": 3013,
      "CK": 3014,
      "Ġcam": 3015,
      "uro": 3016,
      "Ġpassion": 3017,
      "Ġhonest": 3018,
      "With": 3019,
      "Ġrace": 3020,
      "Ġpersonal": 3021,
      "Ġconv": 3022,
      "Ġopportun": 3023,
      "ĠJu": 3024,
      "Ġdanger": 3025,
      "rely": 3026,
      "ĠScott": 3027,
      "Ġhoney": 3028,
      "Ġscience": 3029,
      "Ġreligion": 3030,
      "Ġsmo": 3031,
      "EN": 3032,
      "Ġhol": 3033,
      "gest": 3034,
      "Ġviol": 3035,
      "Ġdemand": 3036,
      "Ġreturns": 3037,
      "ooking": 3038,
      "Ġhig": 3039,
      "Ġpress": 3040,
      "Ġrob": 3041,
      "Ġdirect": 3042,
      "ingly": 3043,
      "Ġholding": 3044,
      "ĠUp": 3045,
      "Ġbal": 3046,
      "ĠRussian": 3047,
      "Ġrock": 3048,
      "Ġbeyond": 3049,
      "Ġproceed": 3050,
      "Ġpurpose": 3051,
      "ĠAdelaja": 3052,
      "Ġshows": 3053,
      "Ġintellig": 3054,
      "Ġring": 3055,
      "ensive": 3056,
      "Ġseconds": 3057,
      "izz": 3058,
      "ĠFirst": 3059,
      "AS": 3060,
      "Ġug": 3061,
      "ĠMartin": 3062,
      "Ġpiss": 3063,
      "Ġble": 3064,
      "Ġlevel": 3065,
      "Ġfingers": 3066,
      "ĠPol": 3067,
      "ĠBoy": 3068,
      "ĠChe": 3069,
      "hal": 3070,
      "Ġhowever": 3071,
      "icans": 3072,
      "Ġmain": 3073,
      "Ġcharacter": 3074,
      "Ġbow": 3075,
      "Ġeffect": 3076,
      "Ġtechn": 3077,
      "ae": 3078,
      "oday": 3079,
      "Ġtears": 3080,
      "Ġfur": 3081,
      "ĠDay": 3082,
      "Ġenem": 3083,
      "Ġpositive": 3084,
      "Ġ30": 3085,
      "yl": 3086,
      "Dad": 3087,
      "Ġtre": 3088,
      "Ġunc": 3089,
      "Jo": 3090,
      "Ġsens": 3091,
      "erve": 3092,
      "ĠTim": 3093,
      "bers": 3094,
      "Ġmale": 3095,
      "Ġshouts": 3096,
      "Ġgri": 3097,
      "Ġanimals": 3098,
      "astic": 3099,
      "Ġneg": 3100,
      "Ġconversation": 3101,
      "Ġship": 3102,
      "Ġhung": 3103,
      "ĠMexican": 3104,
      "Re": 3105,
      "ĠSim": 3106,
      "Ġrul": 3107,
      "Ġsli": 3108,
      "Ġsurprised": 3109,
      "Ġwild": 3110,
      "roy": 3111,
      "anta": 3112,
      "apan": 3113,
      "Ġfinger": 3114,
      "Life": 3115,
      "Ġrespons": 3116,
      "Have": 3117,
      "Ġattract": 3118,
      "Ġsafe": 3119,
      "host": 3120,
      "Ġsteps": 3121,
      "Ġcock": 3122,
      "Ġletter": 3123,
      "Ġlies": 3124,
      "cher": 3125,
      "ĠRichard": 3126,
      "Ġmonkey": 3127,
      "Ġcream": 3128,
      "ivity": 3129,
      "Ġgift": 3130,
      "Ġsearch": 3131,
      "Ġcorner": 3132,
      "Ġproud": 3133,
      "Ġobject": 3134,
      "ails": 3135,
      "Ġsheep": 3136,
      "ĠHell": 3137,
      "ords": 3138,
      "Ġwed": 3139,
      "AA": 3140,
      "Ġrac": 3141,
      "Ġaccount": 3142,
      "Ġlow": 3143,
      "Ġproper": 3144,
      "Ġdies": 3145,
      "Ġassh": 3146,
      "Ġener": 3147,
      "Ġspent": 3148,
      "Ġgentle": 3149,
      "Ġtoward": 3150,
      "Ġfinal": 3151,
      "ĠSar": 3152,
      "ĠWhite": 3153,
      "Ġmagic": 3154,
      "Ġrain": 3155,
      "mar": 3156,
      "uman": 3157,
      "Ġfinished": 3158,
      "ĠLike": 3159,
      "ĠUS": 3160,
      "Ġmilk": 3161,
      "avy": 3162,
      "Ġthank": 3163,
      "ossible": 3164,
      "Ġworked": 3165,
      "duc": 3166,
      "Ġpir": 3167,
      "Ġbrings": 3168,
      "Ġanimal": 3169,
      "ĠGl": 3170,
      "Ġtrip": 3171,
      "Ġleaving": 3172,
      "abb": 3173,
      "ĠDid": 3174,
      "Ġdrop": 3175,
      "Ġahead": 3176,
      "ĠJewish": 3177,
      "arently": 3178,
      "ggest": 3179,
      "ĠMus": 3180,
      "dy": 3181,
      "Ġcomputer": 3182,
      "Ġinvent": 3183,
      "Ġpunch": 3184,
      "ĠMon": 3185,
      "arian": 3186,
      "Ġsmart": 3187,
      "Ġrabbit": 3188,
      "ĠPar": 3189,
      "Ġprep": 3190,
      "Ġsupport": 3191,
      "bl": 3192,
      "ĠSon": 3193,
      "ai": 3194,
      "Ġpresident": 3195,
      "wh": 3196,
      "lebr": 3197,
      "ounds": 3198,
      "Ġliter": 3199,
      "Ġwarm": 3200,
      "ument": 3201,
      "Ġolder": 3202,
      "Ġcamp": 3203,
      "Ġnobody": 3204,
      "ĠAny": 3205,
      "Ġpicture": 3206,
      "ĠOur": 3207,
      "Ġorgan": 3208,
      "ĠSw": 3209,
      "Ġplaces": 3210,
      "Ġvisit": 3211,
      "ĠHowever": 3212,
      "Ġamong": 3213,
      "essor": 3214,
      "ĠWhile": 3215,
      "Ġ15": 3216,
      "Ġcell": 3217,
      "Ġrad": 3218,
      "Ġdesign": 3219,
      "reme": 3220,
      "reg": 3221,
      "Ġmemory": 3222,
      "Ġelephant": 3223,
      "Ã©": 3224,
      "ologist": 3225,
      "Ġben": 3226,
      "Ġbedroom": 3227,
      "Ġstars": 3228,
      "Ġheld": 3229,
      "Ġ#": 3230,
      "Ġdear": 3231,
      "Ġserve": 3232,
      "Ġdeterm": 3233,
      "Ġheads": 3234,
      "Ġemploy": 3235,
      "Ġreve": 3236,
      "ĠEn": 3237,
      "Ġsus": 3238,
      "Ġriver": 3239,
      "fast": 3240,
      "Ġpregnant": 3241,
      "Ġinterview": 3242,
      "Ġhy": 3243,
      "Ġaction": 3244,
      "Ġcand": 3245,
      "Ġshoes": 3246,
      "do": 3247,
      "Good": 3248,
      "Ġmoments": 3249,
      "Ġpocket": 3250,
      "Ġparticular": 3251,
      "cy": 3252,
      "Ġvac": 3253,
      "ius": 3254,
      "Ġvict": 3255,
      "Ġsandw": 3256,
      "Ġclub": 3257,
      "tered": 3258,
      "hell": 3259,
      "Ġcreated": 3260,
      "Ġobv": 3261,
      "ees": 3262,
      "Ġlearning": 3263,
      "Ġdamn": 3264,
      "Ġinvest": 3265,
      "iven": 3266,
      "ĠTV": 3267,
      "'.": 3268,
      "allow": 3269,
      "Ġlone": 3270,
      "ĠGrand": 3271,
      "Ġopt": 3272,
      "ĠMark": 3273,
      "Ġsuggest": 3274,
      "Ġforest": 3275,
      "ugg": 3276,
      "urse": 3277,
      "Ġtype": 3278,
      "Ġorigin": 3279,
      "ĠHen": 3280,
      "Ġexperi": 3281,
      "ĠEarth": 3282,
      "sing": 3283,
      "inkink": 3284,
      "ĠGen": 3285,
      "Ġfilled": 3286,
      "olf": 3287,
      "Ġbeha": 3288,
      "illa": 3289,
      "Ġevening": 3290,
      "otes": 3291,
      "Ġmoon": 3292,
      "father": 3293,
      "Ġrepe": 3294,
      "Ġemotion": 3295,
      "rand": 3296,
      "ĠPope": 3297,
      "SF": 3298,
      "ghed": 3299,
      "irgin": 3300,
      "Ġstrugg": 3301,
      "Ġbutt": 3302,
      "inal": 3303,
      "Ġexcited": 3304,
      "Ġbudd": 3305,
      "Ġride": 3306,
      "ected": 3307,
      "Ġwake": 3308,
      "fortun": 3309,
      "aker": 3310,
      "attle": 3311,
      "Ġcorrect": 3312,
      "Ġdi": 3313,
      "Ġetern": 3314,
      "Ġrecently": 3315,
      "itted": 3316,
      "Ġtries": 3317,
      "ĠThomas": 3318,
      "rag": 3319,
      "Ġwhose": 3320,
      "Ġund": 3321,
      "Ġcondom": 3322,
      "ĠBet": 3323,
      "ancy": 3324,
      "Ġlibr": 3325,
      "Ġdel": 3326,
      "Ġlad": 3327,
      "oved": 3328,
      "ker": 3329,
      "ases": 3330,
      "Ġsales": 3331,
      "elf": 3332,
      "izes": 3333,
      "Ġsatisf": 3334,
      "ĠPer": 3335,
      "ids": 3336,
      "Ġsac": 3337,
      "ĠFrank": 3338,
      "Ġforce": 3339,
      "ĠPresident": 3340,
      "ĠWas": 3341,
      "ify": 3342,
      "ato": 3343,
      "het": 3344,
      "Ġfollowing": 3345,
      "Ġbottom": 3346,
      "Ġdesp": 3347,
      "resh": 3348,
      "under": 3349,
      "Ġcalm": 3350,
      "ĠHeaven": 3351,
      "Ġconn": 3352,
      "SFW": 3353,
      "Ġusually": 3354,
      "met": 3355,
      "Ġoper": 3356,
      "ĠArt": 3357,
      "Ġbright": 3358,
      "Ġdogs": 3359,
      "Ġservice": 3360,
      "ĠPo": 3361,
      "ĠPear": 3362,
      "Ġwisdom": 3363,
      "Ġchec": 3364,
      "Ġresponded": 3365,
      "conom": 3366,
      "Ġmaster": 3367,
      "ĠBen": 3368,
      "iday": 3369,
      "Ġwonderful": 3370,
      "Ġmachine": 3371,
      "Ġbri": 3372,
      "Ġconcer": 3373,
      "ĠJapan": 3374,
      "ĠRob": 3375,
      "Ġenc": 3376,
      "Ġbeach": 3377,
      "ED": 3378,
      "rey": 3379,
      "Ġbread": 3380,
      "OW": 3381,
      "oring": 3382,
      "ĠGuy": 3383,
      "Ġprincip": 3384,
      "ĠMor": 3385,
      "str": 3386,
      "Ġchanged": 3387,
      "pper": 3388,
      "ĠCha": 3389,
      "ĠFrom": 3390,
      "Ġstudents": 3391,
      "hemat": 3392,
      "Okay": 3393,
      "Ġtem": 3394,
      "redit": 3395,
      "Ġvalue": 3396,
      "Ġtrees": 3397,
      "Ġattempt": 3398,
      "Ġlion": 3399,
      "ĠRep": 3400,
      "Ġ!": 3401,
      "Ġmurd": 3402,
      "ĠDave": 3403,
      "ĠSteve": 3404,
      "ilosop": 3405,
      "imate": 3406,
      "ĠOb": 3407,
      "Ġvill": 3408,
      "Ġteam": 3409,
      "Ġwoods": 3410,
      "Ġess": 3411,
      "osing": 3412,
      "apt": 3413,
      "Ġlying": 3414,
      "Ġcup": 3415,
      "Ġeventually": 3416,
      "antic": 3417,
      "Ġarg": 3418,
      "Ġsnow": 3419,
      "Ġlaughed": 3420,
      "Ġsounds": 3421,
      "Ġchief": 3422,
      "Ġcash": 3423,
      "illy": 3424,
      "iling": 3425,
      "Ġgrant": 3426,
      "ĠEr": 3427,
      "Ġgrabs": 3428,
      "Ġbeginning": 3429,
      "Ġwishes": 3430,
      "Ġfigure": 3431,
      "Ġweight": 3432,
      "Ġpoints": 3433,
      "ĠCharles": 3434,
      "vert": 3435,
      "cean": 3436,
      "ĠGet": 3437,
      "Ġbare": 3438,
      "ugs": 3439,
      "ĠGirl": 3440,
      "ussy": 3441,
      "Ġdiscuss": 3442,
      "iod": 3443,
      "Doctor": 3444,
      "Sorry": 3445,
      "coh": 3446,
      "Ġtax": 3447,
      "ilar": 3448,
      "ĠDE": 3449,
      "Ġenv": 3450,
      "uel": 3451,
      "Than": 3452,
      "oh": 3453,
      "vered": 3454,
      "rel": 3455,
      "Ġcig": 3456,
      "Ġhide": 3457,
      "Gu": 3458,
      "Ġagrees": 3459,
      "ĠWife": 3460,
      "itler": 3461,
      "Ġfre": 3462,
      "Ġdesert": 3463,
      "Ġclaim": 3464,
      "Ġiss": 3465,
      "Ġcelebr": 3466,
      "Ġextra": 3467,
      "utter": 3468,
      "Ġugly": 3469,
      "ĠSch": 3470,
      "Ġpoet": 3471,
      "action": 3472,
      "Ġmeat": 3473,
      "Ġallowed": 3474,
      "Ġboyfriend": 3475,
      "Ġenergy": 3476,
      "asc": 3477,
      "ivil": 3478,
      "Ġgar": 3479,
      "ĠTw": 3480,
      "Ġshocked": 3481,
      "ĠNever": 3482,
      "rr": 3483,
      "Ġincl": 3484,
      "Ġloves": 3485,
      "off": 3486,
      "Ġweird": 3487,
      "Love": 3488,
      "ĠBrit": 3489,
      "Ġthrew": 3490,
      "Ġden": 3491,
      "stairs": 3492,
      "Ġteach": 3493,
      "Ġimpossible": 3494,
      "Ġcard": 3495,
      "Ġattack": 3496,
      "Ġbless": 3497,
      "Ġdescri": 3498,
      "Ġtonight": 3499,
      "Ġthanks": 3500,
      "ĠThree": 3501,
      "ses": 3502,
      "Ġavoid": 3503,
      "ĠWis": 3504,
      "ĠThink": 3505,
      "ĠBlack": 3506,
      "Ġast": 3507,
      "Ġnone": 3508,
      "Ġcomplain": 3509,
      "Ġwine": 3510,
      "Ġdig": 3511,
      "Ġnotice": 3512,
      "Ġserious": 3513,
      "Ġbelief": 3514,
      "Ġcalling": 3515,
      "Ġideas": 3516,
      "Ġshirt": 3517,
      "ĠEven": 3518,
      "Ġpilot": 3519,
      "Ġhero": 3520,
      "night": 3521,
      "Ġgro": 3522,
      "Ġmoved": 3523,
      "war": 3524,
      "ĠCr": 3525,
      "Ġfruit": 3526,
      "Ġnatural": 3527,
      "overed": 3528,
      "Ġcompet": 3529,
      "gl": 3530,
      "Ġwheel": 3531,
      "ĠAgain": 3532,
      "Ġneck": 3533,
      "Ġrid": 3534,
      "Ġyours": 3535,
      "ĠOnly": 3536,
      "ability": 3537,
      "Ġmoving": 3538,
      "ĠHim": 3539,
      "ERS": 3540,
      "Ġaud": 3541,
      "uthor": 3542,
      "wise": 3543,
      "Ġsilent": 3544,
      "ĠEli": 3545,
      "Ġlog": 3546,
      "Ġbreast": 3547,
      "Ġya": 3548,
      "Ġfeed": 3549,
      "ĠGraham": 3550,
      "ann": 3551,
      "ends": 3552,
      "Ġexistence": 3553,
      "Ġaware": 3554,
      "Ġthrows": 3555,
      "ĠOther": 3556,
      "rass": 3557,
      "ĠPe": 3558,
      "Ġspell": 3559,
      "Ġdying": 3560,
      "Ġstorm": 3561,
      "Ġpolic": 3562,
      "Ġpark": 3563,
      "Ġbelong": 3564,
      "Ġgarden": 3565,
      "oices": 3566,
      "ĠTime": 3567,
      "yr": 3568,
      "Ġremind": 3569,
      "Ġintern": 3570,
      "Ġenter": 3571,
      "ems": 3572,
      "Ġteeth": 3573,
      "Wow": 3574,
      "Ġident": 3575,
      "Ġwrote": 3576,
      "inter": 3577,
      "Ġwaiter": 3578,
      "Ġsmoke": 3579,
      "wor": 3580,
      "Ġfamous": 3581,
      "ĠIndian": 3582,
      "Ġnose": 3583,
      "gram": 3584,
      "ĠStephen": 3585,
      "gress": 3586,
      "aly": 3587,
      "ID": 3588,
      "rib": 3589,
      "gers": 3590,
      "Ġwritten": 3591,
      "ades": 3592,
      "vies": 3593,
      "Ġdance": 3594,
      "ĠSmith": 3595,
      "ona": 3596,
      "ode": 3597,
      "Ġcollege": 3598,
      "ending": 3599,
      "book": 3600,
      "Ġflight": 3601,
      "Ġcondition": 3602,
      "Ġfailure": 3603,
      "ĠWoman": 3604,
      "ns": 3605,
      "erm": 3606,
      "Ġreached": 3607,
      "Ġarrest": 3608,
      "Ġlips": 3609,
      "eness": 3610,
      "Ġprostit": 3611,
      "Ġwedding": 3612,
      "ecially": 3613,
      "Ġputting": 3614,
      "Ġinches": 3615,
      "Ġeverybody": 3616,
      "Ġnote": 3617,
      "?\"\"": 3618,
      "ander": 3619,
      "iment": 3620,
      "stein": 3621,
      "Ġcheese": 3622,
      "Ġcontinue": 3623,
      "Ġhearing": 3624,
      "Ġsmiles": 3625,
      "ari": 3626,
      "ĠBook": 3627,
      "Ġwise": 3628,
      "ively": 3629,
      "Ġposition": 3630,
      "Ġagreed": 3631,
      "Ġmate": 3632,
      "ĠAfr": 3633,
      "Ġability": 3634,
      "Ġ^": 3635,
      "Ġfoc": 3636,
      "OM": 3637,
      "pers": 3638,
      "asy": 3639,
      "Ġasshole": 3640,
      "iate": 3641,
      "Ġexplains": 3642,
      "ĠAN": 3643,
      "Ġmirror": 3644,
      "Ġnormal": 3645,
      "Ġmovies": 3646,
      "por": 3647,
      "ocol": 3648,
      "ĠInt": 3649,
      "Ġtour": 3650,
      "Ġpair": 3651,
      "Ġdarkness": 3652,
      "Ġeducation": 3653,
      "val": 3654,
      "Ġbitch": 3655,
      "Ġmaj": 3656,
      "ami": 3657,
      "just": 3658,
      "Ġtall": 3659,
      "berg": 3660,
      "Ġ18": 3661,
      "Ġcontinues": 3662,
      "Ġidiot": 3663,
      "Ġamount": 3664,
      "Ġunderstanding": 3665,
      "ĠHave": 3666,
      "bbed": 3667,
      "Ġsize": 3668,
      "urity": 3669,
      "Ġbigger": 3670,
      "Ġabsolutely": 3671,
      "))": 3672,
      "Ġpool": 3673,
      "Ġtwice": 3674,
      "Ġopin": 3675,
      "itation": 3676,
      "ĠYork": 3677,
      "Ġpleasure": 3678,
      "eal": 3679,
      "ĠHill": 3680,
      "ĠSuddenly": 3681,
      "anda": 3682,
      "Ġanyway": 3683,
      "Ġsle": 3684,
      "Ġimagination": 3685,
      "ership": 3686,
      "Ġsubject": 3687,
      "Ġate": 3688,
      "Ġfle": 3689,
      "Ġperhaps": 3690,
      "ĠEveryone": 3691,
      "Ġshouldn": 3692,
      "Ġscreaming": 3693,
      "Ġthr": 3694,
      "ique": 3695,
      "Ġshut": 3696,
      "Ġyelled": 3697,
      "barrass": 3698,
      "eared": 3699,
      "Ġarrived": 3700,
      "Ġchest": 3701,
      "Ġris": 3702,
      "Ġsurprise": 3703,
      "pha": 3704,
      "Ġproduct": 3705,
      "Ġmonk": 3706,
      "Ġoffer": 3707,
      "ĠNothing": 3708,
      "Ġbreakfast": 3709,
      "ĠEl": 3710,
      "Ġfavour": 3711,
      "Ġstat": 3712,
      "ka": 3713,
      "Ġimagine": 3714,
      "Ġband": 3715,
      "Ġpowerful": 3716,
      "ĠSat": 3717,
      "Ġappear": 3718,
      "Ġnuts": 3719,
      "board": 3720,
      "Ġdrops": 3721,
      "Ġcircum": 3722,
      "tr": 3723,
      "Sometimes": 3724,
      "ĠMother": 3725,
      "ĠAlex": 3726,
      "Ġconscious": 3727,
      "yle": 3728,
      "Ġbiggest": 3729,
      "Ġpers": 3730,
      "ux": 3731,
      "Ġlights": 3732,
      "Ġcab": 3733,
      "Of": 3734,
      "pro": 3735,
      "initely": 3736,
      "Ġapproaches": 3737,
      "Ġnon": 3738,
      "Ġbase": 3739,
      "Ġleader": 3740,
      "Ġcarry": 3741,
      "Ġends": 3742,
      "Ġwanna": 3743,
      "Ġcontinued": 3744,
      "100": 3745,
      "Ġflying": 3746,
      "Look": 3747,
      "ij": 3748,
      "Ġcowboy": 3749,
      "wood": 3750,
      "Ġsuffering": 3751,
      "Ġwilling": 3752,
      "Ġbuilt": 3753,
      "Ġsexual": 3754,
      "Ġmissing": 3755,
      "Ġphot": 3756,
      "Ġscared": 3757,
      "Ġdollar": 3758,
      "irm": 3759,
      "Ġpee": 3760,
      "Ġinvol": 3761,
      "Ġfeelings": 3762,
      "ishes": 3763,
      "Ġdevil": 3764,
      "ĠPri": 3765,
      "Ġsomebody": 3766,
      "Ġoppos": 3767,
      "Sh": 3768,
      "Ġopportunity": 3769,
      "Ġstation": 3770,
      "ubb": 3771,
      "ĠSanta": 3772,
      "ĠHenry": 3773,
      "Ġsight": 3774,
      "keep": 3775,
      "Ġmeal": 3776,
      "Ġapple": 3777,
      "Ġhook": 3778,
      "Ġdumb": 3779,
      "Ġjourney": 3780,
      "Ġtaught": 3781,
      "Mom": 3782,
      "ication": 3783,
      "Ġdoubt": 3784,
      "Ġghost": 3785,
      "Ġtow": 3786,
      "Ġhotel": 3787,
      "Ġinfl": 3788,
      "Ġtwenty": 3789,
      "Ġfucked": 3790,
      "Ġreturned": 3791,
      "Ġdivor": 3792,
      "Ġaccom": 3793,
      "Ġextreme": 3794,
      "Ġeconom": 3795,
      "Ġshouted": 3796,
      "ett": 3797,
      "Ġpirate": 3798,
      "Sure": 3799,
      "Ġmarket": 3800,
      "year": 3801,
      "Ġboo": 3802,
      "Ġdropped": 3803,
      "Ġannoun": 3804,
      "Ġpicked": 3805,
      "Ġreply": 3806,
      "Ġcloser": 3807,
      "ww": 3808,
      "Ġincre": 3809,
      "NSFW": 3810,
      "Ġpan": 3811,
      "Ġspot": 3812,
      "May": 3813,
      "ĠItalian": 3814,
      "Ġprop": 3815,
      "Ġhanging": 3816,
      "Sir": 3817,
      "Ġmast": 3818,
      "Ġdirty": 3819,
      "Ġpussy": 3820,
      "Ġisland": 3821,
      "His": 3822,
      "Ġjumped": 3823,
      "Ġocean": 3824,
      "?\".": 3825,
      "ales": 3826,
      "ĠChan": 3827,
      "idden": 3828,
      "time": 3829,
      "ĠIsra": 3830,
      "US": 3831,
      "fortunately": 3832,
      "ĠWisdom": 3833,
      "Ġvan": 3834,
      "Ġtiny": 3835,
      "oop": 3836,
      "house": 3837,
      "Ġ''": 3838,
      "Ġeverywhere": 3839,
      "Ġelder": 3840,
      "Ġshoulder": 3841,
      "Ġalcoh": 3842,
      "uccess": 3843,
      "Ġmoral": 3844,
      "aret": 3845,
      "Ġexplained": 3846,
      "ĠHapp": 3847,
      "itter": 3848,
      "ĠKe": 3849,
      "ĠHitler": 3850,
      "Ġshad": 3851,
      "Ġporn": 3852,
      "ception": 3853,
      "Ġfort": 3854,
      "Ġsandwich": 3855,
      "Ġloss": 3856,
      "Ġmiles": 3857,
      "ĠHarry": 3858,
      "Our": 3859,
      "Ġcaptain": 3860,
      "Ġneither": 3861,
      "Ġexclaims": 3862,
      "amn": 3863,
      "ĠIm": 3864,
      "of": 3865,
      "Ġwit": 3866,
      "Ġgreater": 3867,
      "ĠAdam": 3868,
      "Ġgeneral": 3869,
      "Ġspread": 3870,
      "Ġsepar": 3871,
      "Ġsudden": 3872,
      "ource": 3873,
      "Ġachieve": 3874,
      "Ġhall": 3875,
      "Ġcrit": 3876,
      "Ġsmiled": 3877,
      "Ġcast": 3878,
      "ulf": 3879,
      "Ġengineer": 3880,
      "Ġmathemat": 3881,
      "la": 3882,
      "ĠIS": 3883,
      "ĠX": 3884,
      "Never": 3885,
      "rem": 3886,
      "Ġnames": 3887,
      "Ġbuck": 3888,
      "Ġpicks": 3889,
      "ĠMag": 3890,
      "Ġperiod": 3891,
      "pet": 3892,
      "Ġpian": 3893,
      "Ġcloud": 3894,
      "Ġdesk": 3895,
      "Ġwhom": 3896,
      "Ġauthor": 3897,
      "Ġsuit": 3898,
      "ruction": 3899,
      "ĠDis": 3900,
      "gged": 3901,
      "Ġphysical": 3902,
      "Ġbunch": 3903,
      "icians": 3904,
      "cell": 3905,
      "Ġasleep": 3906,
      "',": 3907,
      "ĠCanad": 3908,
      "Ġemer": 3909,
      "ĠSir": 3910,
      "ĠPlease": 3911,
      "Ġcourt": 3912,
      "inn": 3913,
      "Ġmyster": 3914,
      "ĠâĢ": 3915,
      "Ġimpro": 3916,
      "sem": 3917,
      "Ġmistake": 3918,
      "Ġok": 3919,
      "Ġseek": 3920,
      "ashed": 3921,
      "ĠOff": 3922,
      "Ġfinish": 3923,
      "ĠIrishman": 3924,
      "Ġpaid": 3925,
      "Ġhill": 3926,
      "iron": 3927,
      "Ġanger": 3928,
      "Ġwealth": 3929,
      "Ġsleeping": 3930,
      "kin": 3931,
      "Ġdeg": 3932,
      "Ġclearly": 3933,
      "ours": 3934,
      "Ġembarrass": 3935,
      "icide": 3936,
      "Ġboard": 3937,
      "Ġdestroy": 3938,
      "rie": 3939,
      "rab": 3940,
      "Ġapprec": 3941,
      "ĠSus": 3942,
      "Ġest": 3943,
      "Ġgrass": 3944,
      "ĠTol": 3945,
      "Ġtele": 3946,
      "ĠWat": 3947,
      "Ġcolor": 3948,
      "izza": 3949,
      "vil": 3950,
      "John": 3951,
      "uct": 3952,
      "Ġbattle": 3953,
      "ushes": 3954,
      "Ġmater": 3955,
      "nib": 3956,
      "ino": 3957,
      "ograp": 3958,
      "Ġmult": 3959,
      "Ġconsider": 3960,
      "Ġfurther": 3961,
      "Ġloving": 3962,
      "Ġincred": 3963,
      "assion": 3964,
      "Ġsuccessful": 3965,
      "Ġstarting": 3966,
      "kn": 3967,
      "Ġmeeting": 3968,
      "gar": 3969,
      "ening": 3970,
      "using": 3971,
      "asm": 3972,
      "Ġcover": 3973,
      "ĠAnt": 3974,
      "rer": 3975,
      "Ġesp": 3976,
      "ĠCol": 3977,
      "Ġfalling": 3978,
      "Ġworried": 3979,
      "Ġrom": 3980,
      "Ġfuneral": 3981,
      "ĠBefore": 3982,
      "ĠOld": 3983,
      "Ġterror": 3984,
      "AL": 3985,
      "ym": 3986,
      "Ġclerk": 3987,
      "Ġnerv": 3988,
      "Ġhom": 3989,
      "Ġagree": 3990,
      "uce": 3991,
      "though": 3992,
      "cient": 3993,
      "Ġbes": 3994,
      "!!\"": 3995,
      "ĠME": 3996,
      "ulation": 3997,
      "Ġslight": 3998,
      "Ġlack": 3999,
      "Ġnurse": 4000,
      "urope": 4001,
      "Ġunless": 4002,
      "Ġexample": 4003,
      "stood": 4004,
      "ĠMen": 4005,
      "hest": 4006,
      "Ġupset": 4007,
      "uk": 4008,
      "Ġremem": 4009,
      "Ġperform": 4010,
      "Ġtight": 4011,
      "Ġplayed": 4012,
      "Hell": 4013,
      "Ġreaches": 4014,
      "rif": 4015,
      "ĠHere": 4016,
      "Ġprotect": 4017,
      "ĠOut": 4018,
      "Ġprofessor": 4019,
      "Ġdoc": 4020,
      "job": 4021,
      "ĠJohnson": 4022,
      "Ġrepl": 4023,
      "Ġflat": 4024,
      "ided": 4025,
      "Ġliked": 4026,
      "abeth": 4027,
      "Ġla": 4028,
      "tle": 4029,
      "Ġclock": 4030,
      "Ġrules": 4031,
      "Ġfresh": 4032,
      "Ġcollect": 4033,
      "Ġliber": 4034,
      "ĠBeing": 4035,
      "ĠMaybe": 4036,
      "Ġprice": 4037,
      "ĠCor": 4038,
      "otten": 4039,
      "ancing": 4040,
      "inton": 4041,
      "Ġfan": 4042,
      "aving": 4043,
      "Ġclimb": 4044,
      "Any": 4045,
      "Ġlikes": 4046,
      "icious": 4047,
      "Ġgrowing": 4048,
      "Ġcrack": 4049,
      "Ġsomewhere": 4050,
      "Ġyeah": 4051,
      "ables": 4052,
      "pri": 4053,
      "Ġscreams": 4054,
      "Ġmath": 4055,
      "ĠTO": 4056,
      "rat": 4057,
      "ĠSer": 4058,
      "unette": 4059,
      "Ġvision": 4060,
      "eds": 4061,
      "Ġears": 4062,
      "Ġannoy": 4063,
      "Ġodd": 4064,
      "Ġsentence": 4065,
      "Ġculture": 4066,
      "Ġeight": 4067,
      "ological": 4068,
      "Ġdistance": 4069,
      "Ġadvice": 4070,
      "Ġbulb": 4071,
      "iat": 4072,
      "ration": 4073,
      "Ġshowed": 4074,
      "Ġbuddy": 4075,
      "Ġzoo": 4076,
      "Ġtext": 4077,
      "ĠFe": 4078,
      "ĠRem": 4079,
      "Ġcars": 4080,
      "ĠSee": 4081,
      "Ġforgot": 4082,
      "ĠTheir": 4083,
      "atholic": 4084,
      "zen": 4085,
      "oned": 4086,
      "ĠLa": 4087,
      "Ġguard": 4088,
      "Donald": 4089,
      "Ġappears": 4090,
      "Ġfellow": 4091,
      "ĠColl": 4092,
      "Ġwriter": 4093,
      "Ġspiritual": 4094,
      "onse": 4095,
      "ĠSpirit": 4096,
      "Ġdisappoint": 4097,
      "Ġprove": 4098,
      "Ġreligious": 4099,
      "Ġ\\": 4100,
      "raph": 4101,
      "Here": 4102,
      "Ġinformation": 4103,
      "Ġraised": 4104,
      "Ġphilosop": 4105,
      "Ġbi": 4106,
      "Ġcivil": 4107,
      "Ġmarry": 4108,
      "ĠLaw": 4109,
      "Ġhumor": 4110,
      "Ġpolitical": 4111,
      "inct": 4112,
      "itz": 4113,
      "enced": 4114,
      "Ġstudy": 4115,
      "Ġinteresting": 4116,
      "ĠJapanese": 4117,
      "Ġcru": 4118,
      "Ġshower": 4119,
      "order": 4120,
      "ĠJose": 4121,
      "Ġ/": 4122,
      "Ġrabbi": 4123,
      "Ġfence": 4124,
      "Ġeffort": 4125,
      "ained": 4126,
      "Ġjew": 4127,
      "Ġpasses": 4128,
      "Ġinn": 4129,
      "Ġeggs": 4130,
      "olm": 4131,
      "Ġheavy": 4132,
      "aded": 4133,
      "ints": 4134,
      "Ġflowers": 4135,
      "ĠTeacher": 4136,
      "Ġfant": 4137,
      "Ġdrown": 4138,
      "Ġenemy": 4139,
      "ilities": 4140,
      "Ġfac": 4141,
      "Ġwatched": 4142,
      "Ġdise": 4143,
      "ĠAbout": 4144,
      "when": 4145,
      "Ġdressed": 4146,
      "icle": 4147,
      "ĠBible": 4148,
      "Ġarrives": 4149,
      "Son": 4150,
      "Ġmasturb": 4151,
      "Ġmechan": 4152,
      "Ġdiscover": 4153,
      "Ġchocol": 4154,
      "Ġpaint": 4155,
      "Ġmajor": 4156,
      "Ġstone": 4157,
      "Little": 4158,
      "),": 4159,
      "alk": 4160,
      "Ġstom": 4161,
      "].": 4162,
      "lief": 4163,
      "can": 4164,
      "why": 4165,
      "Ġoffic": 4166,
      "iveness": 4167,
      "ĠWH": 4168,
      "imp": 4169,
      "Ġteen": 4170,
      "Ġdeb": 4171,
      "ĠHouse": 4172,
      "Ġdangerous": 4173,
      "Ġwide": 4174,
      "eman": 4175,
      "ivor": 4176,
      "TI": 4177,
      "Ġdesper": 4178,
      "Ġelderly": 4179,
      "Ġrequest": 4180,
      "Ġclosed": 4181,
      "Ġeasily": 4182,
      "Ġcurious": 4183,
      "Ġnecessary": 4184,
      "asons": 4185,
      "rets": 4186,
      "Ġfavourite": 4187,
      "Bl": 4188,
      "Ġwoke": 4189,
      "Ġespecially": 4190,
      "Ġroof": 4191,
      "Ġsurround": 4192,
      "Ġgrew": 4193,
      "Ġcharge": 4194,
      "ĠSand": 4195,
      "uns": 4196,
      "ĠMa": 4197,
      "ĠJon": 4198,
      "lier": 4199,
      "acle": 4200,
      "Ġparts": 4201,
      "VEL": 4202,
      "Ġhigher": 4203,
      "Ġsoldier": 4204,
      "ushing": 4205,
      "Ġstairs": 4206,
      "Ġfighting": 4207,
      "ĠJeff": 4208,
      "Ġgrandfather": 4209,
      "Ġvag": 4210,
      "Ġbusy": 4211,
      "ĠPut": 4212,
      "Ġgrad": 4213,
      "AM": 4214,
      "Ġedge": 4215,
      "obody": 4216,
      "jo": 4217,
      "Ġprefer": 4218,
      "Ġbrand": 4219,
      "Ġattitude": 4220,
      "umbers": 4221,
      "ĠMal": 4222,
      "Ġprogram": 4223,
      "rain": 4224,
      "Ġpassen": 4225,
      "Ġdiscovered": 4226,
      "ĠFriend": 4227,
      "Ġmountain": 4228,
      "Ġladies": 4229,
      "Ġdue": 4230,
      "ĠMad": 4231,
      "harm": 4232,
      "ĠBig": 4233,
      "Ġult": 4234,
      "ference": 4235,
      "Ġwet": 4236,
      "Ġbite": 4237,
      "roc": 4238,
      "ĠNext": 4239,
      "ept": 4240,
      "Ġexec": 4241,
      "Ġmaterial": 4242,
      "ĠDes": 4243,
      "Ġartist": 4244,
      "Ok": 4245,
      "ĠGreen": 4246,
      "Ġreport": 4247,
      "Ġbrown": 4248,
      "Ġended": 4249,
      "ĠHusband": 4250,
      "ĠSuper": 4251,
      "Ġhumans": 4252,
      "ival": 4253,
      "Ġinner": 4254,
      "lor": 4255,
      "ners": 4256,
      "ĠThese": 4257,
      "Ġfinding": 4258,
      "ET": 4259,
      "ĠEurope": 4260,
      "ĠIT": 4261,
      "aries": 4262,
      "bulb": 4263,
      "Ġpure": 4264,
      "ĠUnited": 4265,
      "ĠCap": 4266,
      "Ġpor": 4267,
      "arr": 4268,
      "Ġgrace": 4269,
      "Ġwakes": 4270,
      "Ġbike": 4271,
      "Ġtea": 4272,
      "Ġchem": 4273,
      "Ġhearts": 4274,
      "Ġpractice": 4275,
      "ĠJoke": 4276,
      "iring": 4277,
      "Ġapolog": 4278,
      "OK": 4279,
      "bell": 4280,
      "ifer": 4281,
      "Ġham": 4282,
      "usted": 4283,
      "ĠIsrael": 4284,
      "ores": 4285,
      "Ġresults": 4286,
      "miss": 4287,
      "Ġticket": 4288,
      "ye": 4289,
      "Ġlamp": 4290,
      "ulous": 4291,
      "Ġwip": 4292,
      "Ġnearly": 4293,
      "Ġfro": 4294,
      "Ġbutter": 4295,
      "Ġlean": 4296,
      "Ġburst": 4297,
      "Ġlets": 4298,
      "ĠEdit": 4299,
      "VELOP": 4300,
      "inist": 4301,
      "Ġenters": 4302,
      "ĠDEVELOP": 4303,
      "Ġrese": 4304,
      "ocking": 4305,
      "ĠGold": 4306,
      "ĠDEVELOPERS": 4307,
      "back": 4308,
      "ĠWay": 4309,
      "Ġ25": 4310,
      "cuse": 4311,
      "cend": 4312,
      "ĠSaint": 4313,
      "ĠCal": 4314,
      "Ġchanges": 4315,
      "Jesus": 4316,
      "Ġlistening": 4317,
      "ety": 4318,
      "Ġprivate": 4319,
      "Ġunf": 4320,
      "rick": 4321,
      "Ġsne": 4322,
      "ĠEverything": 4323,
      "unny": 4324,
      "Ġspeech": 4325,
      "Ġnoise": 4326,
      "Ġdrugs": 4327,
      "Ġbrunette": 4328,
      "Ġveget": 4329,
      "Ġtrad": 4330,
      "ĠEliz": 4331,
      "ĠKnock": 4332,
      "ran": 4333,
      "Ġfishing": 4334,
      "ĠMo": 4335,
      "ĠMind": 4336,
      "sky": 4337,
      "ording": 4338,
      "ĠAmericans": 4339,
      "Ġain": 4340,
      "Ġdonkey": 4341,
      "Ġopposite": 4342,
      "Ġbeings": 4343,
      "Ġbridge": 4344,
      "rich": 4345,
      "ĠWood": 4346,
      "Ġvirt": 4347,
      "Ġescape": 4348,
      "Ġmental": 4349,
      "Ġpizza": 4350,
      "Ġrule": 4351,
      "Ġhost": 4352,
      "ĠThose": 4353,
      "Ġvillage": 4354,
      "Ġhes": 4355,
      "Ġcannib": 4356,
      "Ġspl": 4357,
      "hings": 4358,
      "vis": 4359,
      "Ġgoal": 4360,
      "ĠLast": 4361,
      "Ġminds": 4362,
      "Ġintelligence": 4363,
      "ĠKen": 4364,
      "Ġquar": 4365,
      "Ġresponse": 4366,
      "Go": 4367,
      "iers": 4368,
      "owing": 4369,
      "ĠFar": 4370,
      "ini": 4371,
      "Ġcommunity": 4372,
      "ext": 4373,
      "ĠQue": 4374,
      "Ġdry": 4375,
      "ament": 4376,
      "ĠIN": 4377,
      "Ġdeer": 4378,
      "bered": 4379,
      "Ġpromise": 4380,
      "ĠTell": 4381,
      "geon": 4382,
      "olly": 4383,
      "Ġlaughs": 4384,
      "inking": 4385,
      "Ġbreaks": 4386,
      "Ġmedical": 4387,
      "ĠEnglishman": 4388,
      "volution": 4389,
      "Ġactions": 4390,
      "ĠLiving": 4391,
      "ĠMiss": 4392,
      "Ġdrug": 4393,
      "ĠAnn": 4394,
      "Ġexpress": 4395,
      "Ġindeed": 4396,
      "Ġprostitute": 4397,
      "rian": 4398,
      "odor": 4399,
      "ĠDeath": 4400,
      "Ġcustomer": 4401,
      "ĠTake": 4402,
      "ĠTex": 4403,
      "Ġnation": 4404,
      "oles": 4405,
      "ĠSarah": 4406,
      "Ġpa": 4407,
      "Ġcomed": 4408,
      "Ġprofession": 4409,
      "Ġhonor": 4410,
      "Ġtong": 4411,
      "Ġlucky": 4412,
      "mit": 4413,
      "Ġjar": 4414,
      "Ġarea": 4415,
      "pered": 4416,
      "ĠMuslim": 4417,
      "Ġlaid": 4418,
      "Ġgotta": 4419,
      "Ġcovered": 4420,
      "ighs": 4421,
      "Ġmessage": 4422,
      "19": 4423,
      "ural": 4424,
      "ĠDark": 4425,
      "Ġmix": 4426,
      "kend": 4427,
      "Ġoriginal": 4428,
      "ĠBrown": 4429,
      "itary": 4430,
      "Once": 4431,
      ":\"": 4432,
      "Ġstage": 4433,
      "Ġharm": 4434,
      "itor": 4435,
      "der": 4436,
      "icated": 4437,
      "ĠObama": 4438,
      "Ġwanting": 4439,
      "Ġkilling": 4440,
      "Ġlightbulb": 4441,
      "Ġweren": 4442,
      "osity": 4443,
      "Ġignor": 4444,
      "Ġplanet": 4445,
      "ĠSteven": 4446,
      "Ġterm": 4447,
      "Ġbirds": 4448,
      "Ġhungry": 4449,
      "ils": 4450,
      "Ġdouble": 4451,
      "Ġbarman": 4452,
      "ĠAlan": 4453,
      "sed": 4454,
      "ĠHel": 4455,
      "Ġdecision": 4456,
      "hered": 4457,
      "iger": 4458,
      "gging": 4459,
      "Ġprayer": 4460,
      "Ġpuzz": 4461,
      "ĠClinton": 4462,
      "ĠReddit": 4463,
      "Ġtotally": 4464,
      "Ġfollowed": 4465,
      "ĠDick": 4466,
      "ads": 4467,
      "iration": 4468,
      "ĠCra": 4469,
      "Ġhadn": 4470,
      "Ġbat": 4471,
      "ĠStar": 4472,
      "Ġbehav": 4473,
      "Ġreddit": 4474,
      "ĠFred": 4475,
      "Ġcomb": 4476,
      "Ġspeaking": 4477,
      "su": 4478,
      "igg": 4479,
      "Ġjack": 4480,
      "ĠJimmy": 4481,
      "Ġfired": 4482,
      "Ġpieces": 4483,
      "ĠDream": 4484,
      "Ġdoctors": 4485,
      "Ġpal": 4486,
      "acking": 4487,
      "ĠSatan": 4488,
      "ĠDoes": 4489,
      "ĠHey": 4490,
      "Ġpopular": 4491,
      "ares": 4492,
      "Ġdaily": 4493,
      "Ġbucks": 4494,
      "Ġmoves": 4495,
      "ĠElizabeth": 4496,
      "Ġinterested": 4497,
      "Ġwaste": 4498,
      "ek": 4499,
      "Ġlonely": 4500,
      "Ġtrick": 4501,
      "Ġletters": 4502,
      "ppy": 4503,
      "Ġ..": 4504,
      "Ġvol": 4505,
      "!!!\"": 4506,
      "Ġsuck": 4507,
      "ĠEve": 4508,
      "Ġhunter": 4509,
      "anced": 4510,
      "Ġarrested": 4511,
      "Ġhumanity": 4512,
      "ĠSal": 4513,
      "Ġfaster": 4514,
      "Ġdoors": 4515,
      "arc": 4516,
      "Ġthreat": 4517,
      "Ġunderstood": 4518,
      "kien": 4519,
      "ĠWithout": 4520,
      "inting": 4521,
      "Ġmum": 4522,
      "ĠWr": 4523,
      "ĠTurn": 4524,
      "ironment": 4525,
      "Ġdisg": 4526,
      "ache": 4527,
      "ded": 4528,
      "Ġcows": 4529,
      "Ġcancer": 4530,
      "orter": 4531,
      "Ġordered": 4532,
      "Ġrepost": 4533,
      "Ġglad": 4534,
      "ĠInst": 4535,
      "rad": 4536,
      "Ġsimilar": 4537,
      "hand": 4538,
      "hold": 4539,
      "Ġtail": 4540,
      "Ġdirection": 4541,
      "Ġsmoking": 4542,
      "Ġtherefore": 4543,
      "Ġchallenge": 4544,
      "elly": 4545,
      "osh": 4546,
      "nal": 4547,
      "ops": 4548,
      "ĠTolkien": 4549,
      "mate": 4550,
      "otions": 4551,
      "ĠSometimes": 4552,
      "Ġspo": 4553,
      "Ġexpensive": 4554,
      "ĠMill": 4555,
      "Ġfailed": 4556,
      "Ġ11": 4557,
      "Ġsecurity": 4558,
      "aith": 4559,
      "irus": 4560,
      "law": 4561,
      "Ġmerely": 4562,
      "Ġadult": 4563,
      "ĠLee": 4564,
      "Ġlibrary": 4565,
      "Ġthro": 4566,
      "ule": 4567,
      "Ġproceeds": 4568,
      "ĠHeart": 4569,
      "Ġweekend": 4570,
      "aby": 4571,
      "asion": 4572,
      "Ġplant": 4573,
      "Ġpage": 4574,
      "Ġbelow": 4575,
      "TH": 4576,
      "ĠStory": 4577,
      "ĠMore": 4578,
      "Ġgrave": 4579,
      "Ġtit": 4580,
      "pr": 4581,
      "aine": 4582,
      "Ġseven": 4583,
      "Ġflies": 4584,
      "arily": 4585,
      "Ġunivers": 4586,
      "Ġchocolate": 4587,
      "Ġpill": 4588,
      "ĠNight": 4589,
      "onder": 4590,
      "Ġ40": 4591,
      "Ġshape": 4592,
      "Ġcarrying": 4593,
      "Ġhealthy": 4594,
      "________": 4595,
      "\"?": 4596,
      "epend": 4597,
      "Ġregular": 4598,
      "LE": 4599,
      "Ġforth": 4600,
      "Ġwel": 4601,
      "icles": 4602,
      "Ġpink": 4603,
      "ĠBudd": 4604,
      "Ġpossess": 4605,
      "AD": 4606,
      "Ġpred": 4607,
      "Ġdont": 4608,
      "ĠYoung": 4609,
      "Ġdefinitely": 4610,
      "Ġbang": 4611,
      "oms": 4612,
      "attoo": 4613,
      "orilla": 4614,
      "Ġled": 4615,
      "Ġhits": 4616,
      "Ġholy": 4617,
      "Ġvamp": 4618,
      "Please": 4619,
      "ĠMac": 4620,
      "Ġcertainly": 4621,
      "noon": 4622,
      "icate": 4623,
      "ĠMike": 4624,
      "Ġlaughter": 4625,
      "iation": 4626,
      "Ġplayer": 4627,
      "Ġcapt": 4628,
      "Ġtribe": 4629,
      "Ġaccidentally": 4630,
      "ral": 4631,
      "Ġbecoming": 4632,
      "helle": 4633,
      "Ġmatters": 4634,
      "Ġmissed": 4635,
      "inate": 4636,
      "Ġgates": 4637,
      "Ġregard": 4638,
      "Ġstaring": 4639,
      "Ġbased": 4640,
      "Ġpengu": 4641,
      "aled": 4642,
      "Ġfrustr": 4643,
      "Ġbound": 4644,
      "verage": 4645,
      "ĠPet": 4646,
      "Ġapartment": 4647,
      "Ġmort": 4648,
      "Today": 4649,
      "Ġdude": 4650,
      "Ġcurrent": 4651,
      "Ġrepres": 4652,
      "Ġexclaimed": 4653,
      "Ġapproached": 4654,
      "this": 4655,
      "Ġlines": 4656,
      "Ġopinion": 4657,
      "Ġtill": 4658,
      "Ġsurvive": 4659,
      "ĠStates": 4660,
      "Ġpush": 4661,
      "Ġkick": 4662,
      "Ġ200": 4663,
      "Ġfootball": 4664,
      "Ġmodern": 4665,
      "Ġrecord": 4666,
      "ĠWomen": 4667,
      "ĠNorth": 4668,
      "Ġprev": 4669,
      "ĠSun": 4670,
      "ĠThanks": 4671,
      "Ġintro": 4672,
      "cul": 4673,
      "bow": 4674,
      "ĠCatholic": 4675,
      "Ġbast": 4676,
      "Nothing": 4677,
      "Ġnegative": 4678,
      "CH": 4679,
      "ĠCity": 4680,
      "Ġbrothers": 4681,
      "ĠSex": 4682,
      "Ġsuicide": 4683,
      "Ġeasier": 4684,
      "Ġbod": 4685,
      "Ġdent": 4686,
      "ĠLou": 4687,
      "Ġspoke": 4688,
      "acon": 4689,
      "ching": 4690,
      "Ġtooth": 4691,
      "sec": 4692,
      "Ġgiant": 4693,
      "Ġpant": 4694,
      "Ġprogress": 4695,
      "Ġperfectly": 4696,
      "put": 4697,
      "Ġpleas": 4698,
      "Ġlikely": 4699,
      "Ġcake": 4700,
      "Ġnovel": 4701,
      "ĠAnth": 4702,
      "Ġyounger": 4703,
      "Ġmistakes": 4704,
      "mother": 4705,
      "rs": 4706,
      "ram": 4707,
      "ĠSure": 4708,
      "Ġvar": 4709,
      "ĠIts": 4710,
      "ca": 4711,
      "Ġrele": 4712,
      "ĠDead": 4713,
      "Ġmouse": 4714,
      "Ġhanded": 4715,
      "Ġbabies": 4716,
      "?\",": 4717,
      "Ġsummer": 4718,
      "Con": 4719,
      "she": 4720,
      "Ġmeasure": 4721,
      "Ġwondering": 4722,
      "orses": 4723,
      "Ġwash": 4724,
      "Ġconcl": 4725,
      "mun": 4726,
      "alse": 4727,
      "ĠWhich": 4728,
      "Ġextremely": 4729,
      "icy": 4730,
      "Ġsuffer": 4731,
      "ĠHillary": 4732,
      "Ġaim": 4733,
      "Ġhorn": 4734,
      "inger": 4735,
      "Ġlake": 4736,
      "Ġupstairs": 4737,
      "Ġhasn": 4738,
      "HH": 4739,
      "Ġdom": 4740,
      "ĠBritish": 4741,
      "Ġgrab": 4742,
      "Ġmemories": 4743,
      "ĠJane": 4744,
      "Ġjoin": 4745,
      "Ġquality": 4746,
      "Ġknees": 4747,
      "Ġserv": 4748,
      "Ġwinter": 4749,
      "ĠDem": 4750,
      "Ġcommand": 4751,
      "Ġsucceed": 4752,
      "Ġroo": 4753,
      "omy": 4754,
      "Ġpoetry": 4755,
      "oted": 4756,
      "ĠMrs": 4757,
      "iles": 4758,
      "ĠLight": 4759,
      "ĠWest": 4760,
      "Ġ14": 4761,
      "Which": 4762,
      "Ġvers": 4763,
      "ĠSl": 4764,
      "Ġcommit": 4765,
      "ĠPhil": 4766,
      "onym": 4767,
      "istory": 4768,
      "Ġlosing": 4769,
      "Ġenvironment": 4770,
      "know": 4771,
      "Ġdisease": 4772,
      "Ġtend": 4773,
      "Ġwha": 4774,
      "Ġvictim": 4775,
      "Ġgrabbed": 4776,
      "Ġwhiskey": 4777,
      "Ġdivorce": 4778,
      "ĠBu": 4779,
      "Ġfully": 4780,
      "Ġgrandpa": 4781,
      "sequ": 4782,
      "weet": 4783,
      "play": 4784,
      "ĠMost": 4785,
      "Ġproduc": 4786,
      "Ġnearby": 4787,
      "athy": 4788,
      "Ġconside": 4789,
      "Ġhorrible": 4790,
      "....": 4791,
      "ishment": 4792,
      "Ġbowl": 4793,
      "Ġconsidered": 4794,
      "ĠDani": 4795,
      "ĠSil": 4796,
      "ading": 4797,
      "Ġanybody": 4798,
      "Ġturning": 4799,
      "ĠJoseph": 4800,
      "Ġver": 4801,
      "isted": 4802,
      "Te": 4803,
      "ĠSher": 4804,
      "Ġmail": 4805,
      "Ġmanage": 4806,
      "Ġblank": 4807,
      "Ġstring": 4808,
      "Ġbarely": 4809,
      "aming": 4810,
      "Ġconstantly": 4811,
      "Hello": 4812,
      "Ġvide": 4813,
      "Ġlimit": 4814,
      "Ġdut": 4815,
      "Ġanal": 4816,
      "Ġafternoon": 4817,
      "omething": 4818,
      "Ġalcohol": 4819,
      "Ġagent": 4820,
      "ĠChild": 4821,
      "known": 4822,
      "Ġmedic": 4823,
      "Ġstole": 4824,
      "ĠAustr": 4825,
      "Ġcompan": 4826,
      "ĠBre": 4827,
      "Ġweap": 4828,
      "bet": 4829,
      "Ġnumbers": 4830,
      "sters": 4831,
      "gery": 4832,
      "Ġpotential": 4833,
      "oup": 4834,
      "Ġ0": 4835,
      "ĠJews": 4836,
      "Give": 4837,
      "sub": 4838,
      "Ġdating": 4839,
      "Ġknife": 4840,
      "Ġattend": 4841,
      "ĠQueen": 4842,
      "Ġfund": 4843,
      "Ġriding": 4844,
      "ĠPaulo": 4845,
      "ifts": 4846,
      "onscious": 4847,
      "ground": 4848,
      "alf": 4849,
      "yes": 4850,
      "ption": 4851,
      "Ġhandle": 4852,
      "Ġhomeless": 4853,
      "AY": 4854,
      "itiz": 4855,
      "Ġoffered": 4856,
      "Ġpharm": 4857,
      "ĠDan": 4858,
      "Ġiron": 4859,
      "Ġnervous": 4860,
      "Ġgrin": 4861,
      "Ġcontent": 4862,
      "agn": 4863,
      "Ġstranger": 4864,
      "Ġtattoo": 4865,
      "Ġsusp": 4866,
      "Ġconc": 4867,
      "Ġobviously": 4868,
      "ooked": 4869,
      "elho": 4870,
      "Ġinclud": 4871,
      "Ġexpression": 4872,
      "Ġmut": 4873,
      "ĠSorry": 4874,
      "Ah": 4875,
      "Ġtip": 4876,
      "Ġholds": 4877,
      "Ġmanaged": 4878,
      "Ġtransform": 4879,
      "Ġorange": 4880,
      "Ġquit": 4881,
      "Ġraise": 4882,
      "Get": 4883,
      "iled": 4884,
      "ĠPot": 4885,
      "Ġrise": 4886,
      "Ġbuys": 4887,
      "ĠOK": 4888,
      "Un": 4889,
      "Ġsaved": 4890,
      "ĠCoelho": 4891,
      "ipped": 4892,
      "ĠJoy": 4893,
      "Ġelev": 4894,
      "arry": 4895,
      "illed": 4896,
      "reets": 4897,
      "Ġtongue": 4898,
      "ĠWould": 4899,
      "Ġmembers": 4900,
      "oli": 4901,
      "Ġpassing": 4902,
      "iant": 4903,
      "wear": 4904,
      "UCK": 4905,
      "Ġep": 4906,
      "ĠChris": 4907,
      "Ġwhispered": 4908,
      "Ġdrag": 4909,
      "Ġswallow": 4910,
      "Ġtechnology": 4911,
      "ĠQuotes": 4912,
      "ĠPriest": 4913,
      "rell": 4914,
      "Ġsomehow": 4915,
      "Ġet": 4916,
      "Ġcats": 4917,
      "Ġinflu": 4918,
      "Ġcontact": 4919,
      "UT": 4920,
      "Ġkinds": 4921,
      "Ġstret": 4922,
      "Ġprec": 4923,
      "ĠMem": 4924,
      "Ġcrime": 4925,
      "ula": 4926,
      "Ġyelling": 4927,
      "See": 4928,
      "ĠPaddy": 4929,
      "kind": 4930,
      "Ġleads": 4931,
      "ĠCard": 4932,
      "Ġdust": 4933,
      "ĠRight": 4934,
      "Ġanywhere": 4935,
      "Ġbenef": 4936,
      "Ġfocus": 4937,
      "icted": 4938,
      "Ġsurf": 4939,
      "Ġfault": 4940,
      "First": 4941,
      "oir": 4942,
      "Ġconcerned": 4943,
      "Ġune": 4944,
      "Ġpolitics": 4945,
      "ĠGuide": 4946,
      "ĠChina": 4947,
      "Ġgreet": 4948,
      "Ġnowhere": 4949,
      "Ġmel": 4950,
      "olution": 4951,
      "gen": 4952,
      "Ġflower": 4953,
      "abbi": 4954,
      "Thank": 4955,
      "arn": 4956,
      "ators": 4957,
      "Ġsouls": 4958,
      "Ġfulf": 4959,
      "Ġbeside": 4960,
      "ĠLew": 4961,
      "ĠON": 4962,
      "Ġwalls": 4963,
      "aren": 4964,
      "Ġemotions": 4965,
      "mo": 4966,
      "Ġsalesman": 4967,
      "isions": 4968,
      "isher": 4969,
      "ashes": 4970,
      "Ġpossibly": 4971,
      "hey": 4972,
      "Ġrose": 4973,
      "Ġharder": 4974,
      "ĠOver": 4975,
      "ĠKnow": 4976,
      "iliar": 4977,
      "rified": 4978,
      "Ġma": 4979,
      "Ġelectric": 4980,
      "Ġstomach": 4981,
      "ĠChurch": 4982,
      "ĠOF": 4983,
      "Ġattractive": 4984,
      "artment": 4985,
      "Ġshame": 4986,
      "ĠHuman": 4987,
      "Ġrights": 4988,
      "Ġworker": 4989,
      "Her": 4990,
      "ĠMed": 4991,
      "ĠDO": 4992,
      "ums": 4993,
      "ĠCarl": 4994,
      "ĠRick": 4995,
      "Ġnods": 4996,
      "Ġcircumst": 4997,
      "!\".": 4998,
      "Ġoh": 4999,
      "Ġweather": 5000,
      "Guy": 5001,
      "Ġfriendship": 5002,
      "adder": 5003,
      "Ġ201": 5004,
      "ients": 5005,
      "Ġaccompl": 5006,
      "nel": 5007,
      "olen": 5008,
      "Ġamb": 5009,
      "ĠAND": 5010,
      "Ġavail": 5011,
      "ĠSusan": 5012,
      "Ġtough": 5013,
      "ĠVal": 5014,
      "Ġquietly": 5015,
      "Ġhunting": 5016,
      "Ġtear": 5017,
      "Ġgotten": 5018,
      "Ġvirgin": 5019,
      "Ġdrove": 5020,
      "ware": 5021,
      "Ġbelieved": 5022,
      "Ġwhispers": 5023,
      "30": 5024,
      "Ġmatch": 5025,
      "rill": 5026,
      "esh": 5027,
      "oser": 5028,
      "Ġintellect": 5029,
      "Ġmotor": 5030,
      "Ġgentleman": 5031,
      "Ġ>": 5032,
      "esb": 5033,
      "Ġdemon": 5034,
      "ĠJour": 5035,
      "Ġgorilla": 5036,
      "Ġdelight": 5037,
      "Ġdaddy": 5038,
      "Ġracist": 5039,
      "Ġtool": 5040,
      "Ġdim": 5041,
      "word": 5042,
      "ograph": 5043,
      "Ġeats": 5044,
      "ĠJean": 5045,
      "Ġexha": 5046,
      "Ġtouched": 5047,
      "Ġmidget": 5048,
      "ĠJud": 5049,
      "Ġkicked": 5050,
      "Ġdrives": 5051,
      "lip": 5052,
      "Ġanx": 5053,
      "Honey": 5054,
      "Ġgather": 5055,
      "ĠDost": 5056,
      "sey": 5057,
      "anch": 5058,
      "uous": 5059,
      "Ġteaching": 5060,
      "ĠConf": 5061,
      "Ġforgotten": 5062,
      "Ġnewsp": 5063,
      "Ġscientist": 5064,
      "Ġfurious": 5065,
      "Ġreflect": 5066,
      "Ġtherap": 5067,
      "Ġpride": 5068,
      "ĠDa": 5069,
      "Ġglasses": 5070,
      "Ġfif": 5071,
      "aph": 5072,
      "inated": 5073,
      "ĠLook": 5074,
      "evsky": 5075,
      "Ġentered": 5076,
      "urance": 5077,
      "Ġreads": 5078,
      "Ġcarefully": 5079,
      "ulate": 5080,
      "Ġwhenever": 5081,
      "Ġplaced": 5082,
      "ĠST": 5083,
      "ĠWild": 5084,
      "bur": 5085,
      "Ġpounds": 5086,
      "ĠMake": 5087,
      "Ġsource": 5088,
      "Ġshakes": 5089,
      "Ġaudience": 5090,
      "Ġspeaks": 5091,
      "Ġtotal": 5092,
      "Ġrisk": 5093,
      "arm": 5094,
      "ico": 5095,
      "Ġsnake": 5096,
      "Ġshopping": 5097,
      "Ġmic": 5098,
      "Ġswear": 5099,
      "bra": 5100,
      "Ġassist": 5101,
      "ĠDou": 5102,
      "Ġexerc": 5103,
      "liness": 5104,
      "Ġju": 5105,
      "Ġstepped": 5106,
      "Ġ^^": 5107,
      "ĠRay": 5108,
      "Ġcheap": 5109,
      "Ġforgive": 5110,
      "Ġcondu": 5111,
      "Ġsuppose": 5112,
      "Ġcomplex": 5113,
      "Ġromantic": 5114,
      "ĠYeah": 5115,
      "Ġgrocer": 5116,
      "ography": 5117,
      "Excuse": 5118,
      "Ġafford": 5119,
      "aire": 5120,
      "itions": 5121,
      "Ġjail": 5122,
      "Ġpiano": 5123,
      "ĠSy": 5124,
      "Ġpoison": 5125,
      "Ġangel": 5126,
      "ĠDog": 5127,
      "Ġhurts": 5128,
      "Ġwitness": 5129,
      "Ġtied": 5130,
      "ashing": 5131,
      "Ġfigured": 5132,
      "Ġreasons": 5133,
      "Ġlover": 5134,
      "era": 5135,
      "Ġcareful": 5136,
      "ĠMaster": 5137,
      "Ġrow": 5138,
      "Ġthroat": 5139,
      "De": 5140,
      "Ġswimming": 5141,
      "Ġinvented": 5142,
      "Ġhabit": 5143,
      "Ġusual": 5144,
      "Ġlots": 5145,
      "Ġchanging": 5146,
      "Ġgrown": 5147,
      "Only": 5148,
      "Ġleans": 5149,
      "-\"": 5150,
      "win": 5151,
      "Ġport": 5152,
      "ension": 5153,
      "Ġvacation": 5154,
      "Ġfridge": 5155,
      "Ġdiet": 5156,
      "Ġchat": 5157,
      "Ġarrive": 5158,
      "Ġchoices": 5159,
      "ata": 5160,
      "Ġshock": 5161,
      "ket": 5162,
      "neck": 5163,
      "ĠChuck": 5164,
      "fect": 5165,
      "Ġsinging": 5166,
      "Ġuns": 5167,
      "Ġeveryday": 5168,
      "Ar": 5169,
      "Ġmeets": 5170,
      "Ġhorses": 5171,
      "Ġremains": 5172,
      "ĠNOT": 5173,
      "Ġhappening": 5174,
      "Ġcried": 5175,
      "ĠGive": 5176,
      "Ġscr": 5177,
      "Ġscene": 5178,
      "instein": 5179,
      "Ġcant": 5180,
      "Ġdefe": 5181,
      "Ġemp": 5182,
      "Ġpond": 5183,
      "ĠMer": 5184,
      "Ġseriously": 5185,
      "ĠFy": 5186,
      "Ġsets": 5187,
      "ĠUnder": 5188,
      "Ġappeared": 5189,
      "ĠJones": 5190,
      "Ġcareer": 5191,
      "pen": 5192,
      "Ġducks": 5193,
      "Ġspr": 5194,
      "rate": 5195,
      "ĠBest": 5196,
      "iac": 5197,
      "ĠLater": 5198,
      "ashion": 5199,
      "ĠPower": 5200,
      "Knock": 5201,
      "Ġlaws": 5202,
      "athan": 5203,
      "Ġcondoms": 5204,
      "ĠBra": 5205,
      "ĠAy": 5206,
      "real": 5207,
      "Ġnuns": 5208,
      "Ġbrief": 5209,
      "Ġconsciousness": 5210,
      "ĠAsian": 5211,
      "ĠTra": 5212,
      "ĠFyodor": 5213,
      "ĠLu": 5214,
      "ĠSur": 5215,
      "ðŁ": 5216,
      "ĠHoly": 5217,
      "Ġcraw": 5218,
      "Ġmurder": 5219,
      "ĠMel": 5220,
      "ĠKhal": 5221,
      "Everyone": 5222,
      "Ġreceived": 5223,
      "Ġcircle": 5224,
      "ĠWil": 5225,
      "Ġfilm": 5226,
      "Ġcrash": 5227,
      "oom": 5228,
      "ĠBartender": 5229,
      "Ġequal": 5230,
      "Ġlic": 5231,
      "ooper": 5232,
      "Ġacqu": 5233,
      "lection": 5234,
      "ĠBern": 5235,
      "Ġrolls": 5236,
      "owed": 5237,
      "Ġbodies": 5238,
      "Ġargument": 5239,
      "Ġsail": 5240,
      ".)": 5241,
      "isten": 5242,
      "ĠTruth": 5243,
      "keeper": 5244,
      "Ġslept": 5245,
      "incess": 5246,
      "Ġheat": 5247,
      "Ġdecl": 5248,
      "Ġstruggle": 5249,
      "inally": 5250,
      "ĠAnother": 5251,
      "Ġdeeply": 5252,
      "Ġinnoc": 5253,
      "Ġstun": 5254,
      "ĠMin": 5255,
      "atives": 5256,
      "Ġsurgery": 5257,
      "erg": 5258,
      "Ġimpressed": 5259,
      "Ġtask": 5260,
      "ourage": 5261,
      "Ġbucket": 5262,
      "Ġ13": 5263,
      "Ġmerc": 5264,
      "ĠWait": 5265,
      "Ġsports": 5266,
      "pected": 5267,
      "vest": 5268,
      "ĠPart": 5269,
      "Ġremembered": 5270,
      "ĠStud": 5271,
      "Ġearlier": 5272,
      "Alright": 5273,
      "Ġreceive": 5274,
      "Ġgain": 5275,
      "ĠCome": 5276,
      "Ġembr": 5277,
      "Come": 5278,
      "Ġuncle": 5279,
      "Com": 5280,
      "Ġwand": 5281,
      "cr": 5282,
      "Ġforced": 5283,
      "Ġrout": 5284,
      "Ġrings": 5285,
      "Ġfactory": 5286,
      "ĠJenn": 5287,
      "ĠRabbi": 5288,
      "Ġwaited": 5289,
      "Ġaverage": 5290,
      "ĠJen": 5291,
      "Ġpaying": 5292,
      "Ġtrave": 5293,
      "ĠAnne": 5294,
      "Ġfalse": 5295,
      "Ġexperiences": 5296,
      "ĠThrough": 5297,
      "Ġregret": 5298,
      "Ġmillions": 5299,
      "ala": 5300,
      "Ġblame": 5301,
      "Ġjobs": 5302,
      "Ġargu": 5303,
      "Ġevents": 5304,
      "Hi": 5305,
      "erved": 5306,
      "Wait": 5307,
      "ples": 5308,
      "Ġtalent": 5309,
      "Ġanti": 5310,
      "uli": 5311,
      "ĠVict": 5312,
      "Ġfate": 5313,
      "Great": 5314,
      "Ġcredit": 5315,
      "otic": 5316,
      "Ġradio": 5317,
      "sw": 5318,
      "ĠShan": 5319,
      "Ġrecognize": 5320,
      "uh": 5321,
      "Ġjustice": 5322,
      "ungle": 5323,
      "ara": 5324,
      "Ġmans": 5325,
      ":**": 5326,
      "Ġbrave": 5327,
      "ga": 5328,
      "ounded": 5329,
      "ii": 5330,
      "ĠHor": 5331,
      "peare": 5332,
      "nest": 5333,
      "ĠCam": 5334,
      "mic": 5335,
      "Ġstumb": 5336,
      "ĠAnthony": 5337,
      "Edit": 5338,
      "teen": 5339,
      "Ġbreasts": 5340,
      "ĠDec": 5341,
      "Ġadvent": 5342,
      "Ġyellow": 5343,
      "Ġbomb": 5344,
      "lam": 5345,
      "Ġshowing": 5346,
      "itty": 5347,
      "dis": 5348,
      "Ġmember": 5349,
      "Ġresponsibility": 5350,
      "Ġpointed": 5351,
      "och": 5352,
      "alled": 5353,
      "urkey": 5354,
      "Ġtastes": 5355,
      "ĠAngel": 5356,
      "Those": 5357,
      "IC": 5358,
      "vention": 5359,
      "Ġcontain": 5360,
      ".''": 5361,
      "rd": 5362,
      "Ġactor": 5363,
      "Ġorg": 5364,
      "ffic": 5365,
      "Ġslightly": 5366,
      "vin": 5367,
      "ĠÂ": 5368,
      "Ġimage": 5369,
      "Ġevent": 5370,
      ".,": 5371,
      "Ġyard": 5372,
      "ĠSa": 5373,
      "ĠSuccess": 5374,
      "kespeare": 5375,
      "Ġfourth": 5376,
      "atoes": 5377,
      "ĠRac": 5378,
      "ĠLead": 5379,
      "ĠDevil": 5380,
      "Ġexpected": 5381,
      "Ġye": 5382,
      "Ġblowjob": 5383,
      "Ġpainting": 5384,
      "Ġresist": 5385,
      "Ġpresence": 5386,
      "ĠFranc": 5387,
      "Ġpurs": 5388,
      "eling": 5389,
      "Ġexists": 5390,
      "IG": 5391,
      "Ġcitiz": 5392,
      "acles": 5393,
      "ackson": 5394,
      "heart": 5395,
      "Ġhidden": 5396,
      "ĠFriday": 5397,
      "ĠVol": 5398,
      "aturally": 5399,
      "Ġwooden": 5400,
      "Ġunique": 5401,
      "Ġterms": 5402,
      "Ġfirm": 5403,
      "Ġdys": 5404,
      "Ġselling": 5405,
      "Even": 5406,
      "hange": 5407,
      "âĢ¦.": 5408,
      "ĠMoon": 5409,
      "roph": 5410,
      "Ġprepared": 5411,
      "Ġdeserve": 5412,
      "Ġmention": 5413,
      "Ġrelationships": 5414,
      "ĠBro": 5415,
      "Ġkingdom": 5416,
      "aning": 5417,
      "ĠThings": 5418,
      "ĠHaw": 5419,
      "ĠPearls": 5420,
      "ĠBec": 5421,
      "Ġcenter": 5422,
      "ĠRow": 5423,
      "Ġawful": 5424,
      "Ġspending": 5425,
      "Wife": 5426,
      "Ġ16": 5427,
      "Ġmedicine": 5428,
      "gle": 5429,
      "Ġdentist": 5430,
      "Ġkeeping": 5431,
      "Ġstro": 5432,
      "Ġsteal": 5433,
      "Ġemotional": 5434,
      "Ġwaits": 5435,
      "apped": 5436,
      "Ġrope": 5437,
      "Ġamazed": 5438,
      "lessly": 5439,
      "oma": 5440,
      "Ġconvinc": 5441,
      "don": 5442,
      "rant": 5443,
      "aze": 5444,
      "zer": 5445,
      "ĠApparently": 5446,
      "Ġpartner": 5447,
      "By": 5448,
      "From": 5449,
      "pan": 5450,
      "Ġmeth": 5451,
      "Ġrole": 5452,
      "Ġmagn": 5453,
      "Ġtradition": 5454,
      "uki": 5455,
      "Ġclown": 5456,
      "cience": 5457,
      "ĠJr": 5458,
      "ĠOk": 5459,
      "vey": 5460,
      "ĠHope": 5461,
      "ĠToday": 5462,
      "Ġshots": 5463,
      "Ġrealizes": 5464,
      "Ġmultip": 5465,
      "Ġbother": 5466,
      "Ġpoliceman": 5467,
      "Ġbarber": 5468,
      "Ġeternal": 5469,
      "onde": 5470,
      "sell": 5471,
      "yal": 5472,
      "icing": 5473,
      "field": 5474,
      "Ġtie": 5475,
      "arrow": 5476,
      "Ġrepresent": 5477,
      "lock": 5478,
      "Ġinj": 5479,
      "Ġrelax": 5480,
      "ĠHand": 5481,
      "ecture": 5482,
      "Ġped": 5483,
      "oves": 5484,
      "isa": 5485,
      "Ġshook": 5486,
      "Ġyouth": 5487,
      "ĠPerson": 5488,
      "ĠKim": 5489,
      "Ġscreamed": 5490,
      "Ġsaf": 5491,
      "Ġmood": 5492,
      "Ġlesson": 5493,
      "range": 5494,
      "Ġwings": 5495,
      "ĠHam": 5496,
      "ĠRussia": 5497,
      "Ġfol": 5498,
      "ĠMcG": 5499,
      "Ġbehavior": 5500,
      "ĠKhalid": 5501,
      "IR": 5502,
      "Would": 5503,
      "ĠArab": 5504,
      "rison": 5505,
      "ston": 5506,
      "uriosity": 5507,
      "xual": 5508,
      "Ġinch": 5509,
      "OS": 5510,
      "thur": 5511,
      "ĠKore": 5512,
      "Ġbaseball": 5513,
      "ĠLady": 5514,
      "Ġske": 5515,
      "Ġknocks": 5516,
      "ĠSince": 5517,
      "Ġfiction": 5518,
      "Ġknight": 5519,
      "Ġknocked": 5520,
      "ĠLewis": 5521,
      "ĠSays": 5522,
      "ault": 5523,
      "Ġfed": 5524,
      "Ġfaces": 5525,
      "Ġpictures": 5526,
      "Fuck": 5527,
      "ĠStories": 5528,
      "Ġliqu": 5529,
      "Ġdancing": 5530,
      "Ġconfidence": 5531,
      "ĠThank": 5532,
      "Ġtun": 5533,
      "Ġbend": 5534,
      "Ġsoup": 5535,
      "ĠWall": 5536,
      "ĠAfrica": 5537,
      "ĠShakespeare": 5538,
      "Ġbene": 5539,
      "Ġadmit": 5540,
      "Maybe": 5541,
      "onymous": 5542,
      "Ġdeaf": 5543,
      "nes": 5544,
      "ĠJackson": 5545,
      "zed": 5546,
      "Ġtim": 5547,
      "Ġrequires": 5548,
      "Ġeternity": 5549,
      "Ġprim": 5550,
      "Ġtraining": 5551,
      "Ġgrade": 5552,
      "Ġunable": 5553,
      "ĠStill": 5554,
      "Ġconfident": 5555,
      "Ġcamel": 5556,
      "Ġdegree": 5557,
      "Ġthus": 5558,
      "Ġobvious": 5559,
      "Ġthick": 5560,
      "ĠJan": 5561,
      "apers": 5562,
      "Ġought": 5563,
      "Ġwra": 5564,
      "Ġmeas": 5565,
      "Ġroc": 5566,
      "Ġgolden": 5567,
      "Ġsorrow": 5568,
      "Ġ=": 5569,
      "ondon": 5570,
      "iber": 5571,
      "ĠSol": 5572,
      "Ġlegal": 5573,
      "Ġtent": 5574,
      "tery": 5575,
      "Ġblondes": 5576,
      "Whats": 5577,
      "Ġassum": 5578,
      "Ġcompetition": 5579,
      "II": 5580,
      "Ġbears": 5581,
      "lear": 5582,
      "ouses": 5583,
      "Father": 5584,
      "Ġbeers": 5585,
      "Ġ90": 5586,
      "Happ": 5587,
      "Ġbuying": 5588,
      "ĠImp": 5589,
      "Ġcapital": 5590,
      "Ġapproach": 5591,
      "Ġblew": 5592,
      "Tell": 5593,
      "Ġpulling": 5594,
      "Ġlands": 5595,
      "Ġcute": 5596,
      "Ġplate": 5597,
      "Ġmission": 5598,
      "Ġilleg": 5599,
      "Ġcashier": 5600,
      "vation": 5601,
      "Ġprovide": 5602,
      "ĠJuli": 5603,
      "Ġemployee": 5604,
      "opher": 5605,
      "abl": 5606,
      "Ġbalance": 5607,
      "Ġguide": 5608,
      "Ġchuck": 5609,
      "van": 5610,
      "Ġstates": 5611,
      "ilty": 5612,
      "Ġthousands": 5613,
      "ĠFall": 5614,
      "atory": 5615,
      "Ġseason": 5616,
      "inkinkinkink": 5617,
      "Ġpra": 5618,
      "Ġhoping": 5619,
      "ube": 5620,
      "Ġcapable": 5621,
      "Ġvideo": 5622,
      "Ġcliff": 5623,
      "Ġpissed": 5624,
      "500": 5625,
      "Ġbastard": 5626,
      "ĠLong": 5627,
      "VER": 5628,
      "Ġotherwise": 5629,
      "Ġdivine": 5630,
      "Ġsoldiers": 5631,
      "ĠBur": 5632,
      "post": 5633,
      "ĠScots": 5634,
      "icient": 5635,
      "etime": 5636,
      "they": 5637,
      "Ġtort": 5638,
      "Ġviolence": 5639,
      "ĠMil": 5640,
      "ĠBoth": 5641,
      "Ġgoat": 5642,
      "Ġinterrupt": 5643,
      "ĠFace": 5644,
      "iatrist": 5645,
      "ification": 5646,
      "Most": 5647,
      "ective": 5648,
      "Ġbreaking": 5649,
      "Ġinvited": 5650,
      "Ġimpress": 5651,
      "Ġdisgust": 5652,
      "esome": 5653,
      "ĠNobody": 5654,
      "Does": 5655,
      "anish": 5656,
      "box": 5657,
      "Ġsquare": 5658,
      "Ġrough": 5659,
      "Ġremoved": 5660,
      "acity": 5661,
      "aws": 5662,
      "Ġcontest": 5663,
      "Ġconsum": 5664,
      "Ġholes": 5665,
      "Ġinvolved": 5666,
      "illing": 5667,
      "Ġflew": 5668,
      "Ġcheer": 5669,
      "Ġsmiling": 5670,
      "acist": 5671,
      "Ġconcept": 5672,
      "Ġopening": 5673,
      "ĠRes": 5674,
      "Ġsharp": 5675,
      "ĠRon": 5676,
      "Ġproject": 5677,
      "Ġshoots": 5678,
      "omed": 5679,
      "Ġqual": 5680,
      "Ġcas": 5681,
      "Ġremove": 5682,
      "Ġsolution": 5683,
      "Ġrand": 5684,
      "Ġbored": 5685,
      "Ġlesb": 5686,
      "ĠGir": 5687,
      "Ġburied": 5688,
      "Ġweakness": 5689,
      "ĠBE": 5690,
      "pse": 5691,
      "with": 5692,
      "ĠMY": 5693,
      "Ġchildhood": 5694,
      "Ġappreciate": 5695,
      "bes": 5696,
      "Ġcher": 5697,
      "Ġdish": 5698,
      "Ġjungle": 5699,
      "ĠUpon": 5700,
      "ĠHE": 5701,
      "ĠNaz": 5702,
      "Ġtract": 5703,
      "ĠAli": 5704,
      "Ġlovely": 5705,
      "Ġimprove": 5706,
      "arl": 5707,
      "Ġordinary": 5708,
      "ĠRec": 5709,
      "ĠCont": 5710,
      "ĠTri": 5711,
      "Ġtoss": 5712,
      "ĠDh": 5713,
      "Ġsake": 5714,
      "Ġlocked": 5715,
      "Ġwid": 5716,
      "Ġstrang": 5717,
      "rection": 5718,
      "ĠEach": 5719,
      "Take": 5720,
      "Ġdemocr": 5721,
      "ĠSecond": 5722,
      "Ġcomfortable": 5723,
      "Ġpenguin": 5724,
      "Finally": 5725,
      "Ġcrim": 5726,
      "ĠTrans": 5727,
      "ĠTimmy": 5728,
      "ĠGO": 5729,
      "ĠUnfortunately": 5730,
      "Like": 5731,
      "ipping": 5732,
      "Ph": 5733,
      "ĠJac": 5734,
      "bre": 5735,
      "Ġfright": 5736,
      "Ġconsequ": 5737,
      "Ġsam": 5738,
      "ĠSouth": 5739,
      "ĠVirgin": 5740,
      "ĠTy": 5741,
      "lied": 5742,
      "HA": 5743,
      "Ġrap": 5744,
      "bec": 5745,
      "Ġburning": 5746,
      "Ġissue": 5747,
      "Ġcli": 5748,
      "ĠId": 5749,
      "osis": 5750,
      "Ġwaitress": 5751,
      "//": 5752,
      "Ġwhore": 5753,
      "Ġrare": 5754,
      "Ġsons": 5755,
      "Ġmama": 5756,
      "Ġvagina": 5757,
      "Ġrooster": 5758,
      "Ġpile": 5759,
      "ĠHistory": 5760,
      "Ġdiscip": 5761,
      "Ġdemands": 5762,
      "ĠEnd": 5763,
      "ĠRoy": 5764,
      "Ġgames": 5765,
      "Ġhardly": 5766,
      "Ġvampire": 5767,
      "Ġunderwear": 5768,
      "Ġpastor": 5769,
      "po": 5770,
      "wayo": 5771,
      "ĠTHAT": 5772,
      "Ġnet": 5773,
      "ĠWind": 5774,
      "Ġcops": 5775,
      "Ġcart": 5776,
      "Ġrolled": 5777,
      "Ġfortune": 5778,
      "Ġexcell": 5779,
      "Ġalt": 5780,
      "Ġgrandma": 5781,
      "Ġdisp": 5782,
      "Ġcouch": 5783,
      "Ġindust": 5784,
      "ummer": 5785,
      "raged": 5786,
      "Ġconfess": 5787,
      "bal": 5788,
      "Ġoffers": 5789,
      "Ġchickens": 5790,
      "Ġcircumstances": 5791,
      "then": 5792,
      "yan": 5793,
      "shona": 5794,
      "Ġhighway": 5795,
      "Ġreward": 5796,
      "Ġissues": 5797,
      "Ġconce": 5798,
      "oyevsky": 5799,
      "Ġspeeding": 5800,
      "iamond": 5801,
      "Ġproduce": 5802,
      "ĠMatshona": 5803,
      "mark": 5804,
      "Ġtheory": 5805,
      "Ġletting": 5806,
      "Ġdefin": 5807,
      "ĠVictor": 5808,
      "Ġdare": 5809,
      "aying": 5810,
      "Ġuses": 5811,
      "Ġrandom": 5812,
      "cony": 5813,
      "bing": 5814,
      "ĠAndrew": 5815,
      "Ġcompassion": 5816,
      "acing": 5817,
      "ĠCall": 5818,
      "Ġliterally": 5819,
      "ĠBry": 5820,
      "Ġpressure": 5821,
      "aves": 5822,
      "ĠInsp": 5823,
      "asp": 5824,
      "ille": 5825,
      "Ġnewspaper": 5826,
      "Ġmathematician": 5827,
      "ĠLuc": 5828,
      "Ġtracks": 5829,
      "imately": 5830,
      "liwayo": 5831,
      "reek": 5832,
      "Ġbillion": 5833,
      "ĠDhliwayo": 5834,
      "Ġmassive": 5835,
      "who": 5836,
      "Ġdump": 5837,
      "Ġ17": 5838,
      "Ġfunction": 5839,
      "Ġresearch": 5840,
      "ĠDostoyevsky": 5841,
      "Ġcritic": 5842,
      "Ġfet": 5843,
      "Ġhighest": 5844,
      "ĠJennifer": 5845,
      ".*": 5846,
      "Ġporch": 5847,
      "==": 5848,
      "ague": 5849,
      "Ġhelps": 5850,
      "Ġadded": 5851,
      "min": 5852,
      "ĠLondon": 5853,
      "ĠYet": 5854,
      "Ġhorror": 5855,
      "orgeous": 5856,
      "Ġshouting": 5857,
      "Ġshadow": 5858,
      "gels": 5859,
      "ipe": 5860,
      "ĠCaptain": 5861,
      "Ġhelped": 5862,
      "Ġsilver": 5863,
      "Ġhooker": 5864,
      "Ġpushed": 5865,
      "ĠSister": 5866,
      "kins": 5867,
      "itar": 5868,
      "ĠSelf": 5869,
      "Ġathe": 5870,
      "ths": 5871,
      "Ġsmells": 5872,
      "While": 5873,
      "alin": 5874,
      "ĠEngland": 5875,
      "arette": 5876,
      "!\",": 5877,
      "Ġarch": 5878,
      "erable": 5879,
      "Ġgym": 5880,
      "Ġoccasion": 5881,
      "ĠOli": 5882,
      "Ġcure": 5883,
      "ĠSing": 5884,
      "ĠFire": 5885,
      "Ġcloset": 5886,
      "err": 5887,
      "lyn": 5888,
      "eps": 5889,
      "Ġevidence": 5890,
      "Ġpercent": 5891,
      "Ġbalcony": 5892,
      "there": 5893,
      "Ġpit": 5894,
      "Ġridic": 5895,
      "://": 5896,
      "Ġphilosophy": 5897,
      "ixt": 5898,
      "Ġindepend": 5899,
      "Ġ80": 5900,
      "Ġlift": 5901,
      "otch": 5902,
      "Ġwhisper": 5903,
      "Ġgods": 5904,
      "Ġbutton": 5905,
      "Ġdepressed": 5906,
      "Ġescap": 5907,
      "Ġforms": 5908,
      "Ġgeneration": 5909,
      "ĠPark": 5910,
      "Ġinfinite": 5911,
      "Ġutter": 5912,
      "Ġdiss": 5913,
      "ĠFrance": 5914,
      "Ġalien": 5915,
      "ĠYOUR": 5916,
      "Ġsacrif": 5917,
      "Ġoil": 5918,
      "Ġredhead": 5919,
      "Ġsweat": 5920,
      "Ġstolen": 5921,
      "ront": 5922,
      "ĠFind": 5923,
      "Ġinstruct": 5924,
      "Ġinternet": 5925,
      "Ġkissed": 5926,
      "cing": 5927,
      "Ġmovement": 5928,
      "Ġbench": 5929,
      "Ġairpl": 5930,
      "kward": 5931,
      "ĠSn": 5932,
      "ucking": 5933,
      "Ġcreative": 5934,
      "Ġstronger": 5935,
      "Ġ24": 5936,
      "ĠAfrican": 5937,
      "Ġcage": 5938,
      "ĠReal": 5939,
      "ĠArthur": 5940,
      "Ġduty": 5941,
      "Ġhiding": 5942,
      "Ġancient": 5943,
      "ests": 5944,
      "Ġstyle": 5945,
      "Ġwindows": 5946,
      "Ġlaz": 5947,
      "Ġnine": 5948,
      "Ġdescribe": 5949,
      "Ġstream": 5950,
      "Ġdesires": 5951,
      "Ġrobot": 5952,
      "Ġgranted": 5953,
      "ĠIntern": 5954,
      "Ġvalues": 5955,
      "Ġdetermined": 5956,
      "ih": 5957,
      "yard": 5958,
      "Ġcomment": 5959,
      "raft": 5960,
      "Ġtrack": 5961,
      "ĠMeh": 5962,
      "Ġignorance": 5963,
      "Ġlower": 5964,
      "Ġnail": 5965,
      "vere": 5966,
      "Ġconnect": 5967,
      "ĠPen": 5968,
      "Teacher": 5969,
      "ĠDi": 5970,
      "Ġsearching": 5971,
      "cel": 5972,
      "emon": 5973,
      "Ġspots": 5974,
      "Ġwrit": 5975,
      "Ġinstantly": 5976,
      "Ġintelligent": 5977,
      "99": 5978,
      "Ġcrew": 5979,
      "amin": 5980,
      "raw": 5981,
      "Ġdrank": 5982,
      "Ġsongs": 5983,
      "Ġpean": 5984,
      "Ġconstant": 5985,
      "Ġembarrassed": 5986,
      "Ġcreation": 5987,
      "evin": 5988,
      "Ġentirely": 5989,
      "Ġavailable": 5990,
      "ordan": 5991,
      "ĠDaniel": 5992,
      "Ġpear": 5993,
      "fulness": 5994,
      "Ġtender": 5995,
      "Ġcharacters": 5996,
      "Ġetc": 5997,
      "Ġadop": 5998,
      "Trump": 5999,
      "))))": 6000,
      "ĠChristopher": 6001,
      "Ġwallet": 6002,
      "jokes": 6003,
      "ĠTexas": 6004,
      "Ġarmy": 6005,
      "Ġbitter": 6006,
      "Ġbasket": 6007,
      "Ġcruel": 6008,
      "vision": 6009,
      "Ġreject": 6010,
      "gun": 6011,
      "Ġsexy": 6012,
      "Ġkindness": 6013,
      "because": 6014,
      "Before": 6015,
      "Ġtaxi": 6016,
      "ĠInstead": 6017,
      "ĠAyivor": 6018,
      "ĠEss": 6019,
      "Ġworkers": 6020,
      "ĠIsraelmore": 6021,
      "ĠJay": 6022,
      "Ġwaves": 6023,
      "inity": 6024,
      "Ġpays": 6025,
      "Ġweed": 6026,
      "ĠShar": 6027,
      "Ġalright": 6028,
      "Ġgrief": 6029,
      "Time": 6030,
      "Ġsale": 6031,
      "!?\"": 6032,
      "Ġrent": 6033,
      "Ġgenius": 6034,
      "Ġtalked": 6035,
      "Ġfollows": 6036,
      "ĠBush": 6037,
      "Being": 6038,
      "Ġelevator": 6039,
      "ena": 6040,
      "etic": 6041,
      "Ġsacred": 6042,
      "Ġairport": 6043,
      "oner": 6044,
      "ĠDar": 6045,
      "ector": 6046,
      "Ġswing": 6047,
      "Ġvet": 6048,
      "uz": 6049,
      "oured": 6050,
      "anks": 6051,
      "Ġpound": 6052,
      "ĠBus": 6053,
      "Ġsends": 6054,
      "Ġoccur": 6055,
      "Ġinvestig": 6056,
      "ĠBell": 6057,
      "ĠGates": 6058,
      "Ġflag": 6059,
      "ĠDri": 6060,
      "Ġcoat": 6061,
      "ila": 6062,
      "osen": 6063,
      "Ġdecisions": 6064,
      "OL": 6065,
      "Sp": 6066,
      "Ġbee": 6067,
      "Ġsword": 6068,
      "Ġpainful": 6069,
      "ĠPatrick": 6070,
      "Ġcigarette": 6071,
      "Ġmer": 6072,
      "ĠEle": 6073,
      "Ġbeneath": 6074,
      "Ġlifetime": 6075,
      "Yo": 6076,
      "WH": 6077,
      "tic": 6078,
      "aaaa": 6079,
      "Ġpurcha": 6080,
      "Ġdestiny": 6081,
      "rows": 6082,
      "Ġsigns": 6083,
      "Ġlicense": 6084,
      "Ġwelcome": 6085,
      "ĠScotsman": 6086,
      "usi": 6087,
      "Ġuncom": 6088,
      "ĠSecret": 6089,
      "Ġsatisfied": 6090,
      "Ġseparate": 6091,
      "Pro": 6092,
      "Ġleadership": 6093,
      "uries": 6094,
      "itable": 6095,
      "ĠEinstein": 6096,
      "Ġpretend": 6097,
      "Ġgrandmother": 6098,
      "erves": 6099,
      "****": 6100,
      "gency": 6101,
      "Ġflash": 6102,
      "Ġbloody": 6103,
      "Ġsole": 6104,
      "ĠEventually": 6105,
      "ateful": 6106,
      "udes": 6107,
      "Ġmedia": 6108,
      "Ġgorgeous": 6109,
      "viet": 6110,
      "Ġapples": 6111,
      "Ġaccepted": 6112,
      "Ġkeys": 6113,
      "Ġparach": 6114,
      "Ġfacts": 6115,
      "Ġaddress": 6116,
      "Ġmonks": 6117,
      "Ġfamiliar": 6118,
      "Ġbasic": 6119,
      "Ġlanded": 6120,
      "Ġrepeated": 6121,
      "Ġsink": 6122,
      "Ġresponsible": 6123,
      "Im": 6124,
      "Ġcoc": 6125,
      "ĠLo": 6126,
      "while": 6127,
      "Ġsurely": 6128,
      "Ġconfession": 6129,
      "ida": 6130,
      "zing": 6131,
      "Ġtraged": 6132,
      "Ġspecies": 6133,
      "Ġnational": 6134,
      "Ġalthough": 6135,
      "ups": 6136,
      "Ġdisappointed": 6137,
      "ĠHA": 6138,
      "Ġsurface": 6139,
      "ĠâĢ¦": 6140,
      "ĠEll": 6141,
      "Ġmilitary": 6142,
      "Ġlun": 6143,
      "Ġgently": 6144,
      "Ġspring": 6145,
      "Ġforeign": 6146,
      "Ġparticularly": 6147,
      "Ġhappily": 6148,
      "ĠInter": 6149,
      "Ġfairy": 6150,
      "Ġtap": 6151,
      "Ġinqu": 6152,
      "ĠBack": 6153,
      "Ġens": 6154,
      "Ġwished": 6155,
      "ĠSH": 6156,
      "ighed": 6157,
      "scar": 6158,
      "ĠNorris": 6159,
      "Ġwondered": 6160,
      "ĠSoc": 6161,
      "ola": 6162,
      "Ġthy": 6163,
      "ĠAmy": 6164,
      "Ġ21": 6165,
      "Ġgrows": 6166,
      "Ġpotato": 6167,
      "Ġbanana": 6168,
      "Ġec": 6169,
      "ĠAct": 6170,
      "Ġalpha": 6171,
      "Ġunknown": 6172,
      "hag": 6173,
      "Ġladder": 6174,
      "Ġprevent": 6175,
      "ĠDaddy": 6176,
      "Ġshoulders": 6177,
      "ĠFrenchman": 6178,
      "ĠMarg": 6179,
      "ĠRose": 6180,
      "Ġpunchline": 6181,
      "Ġmechanic": 6182,
      "Ġchemist": 6183,
      "Ġsides": 6184,
      "eller": 6185,
      "ĠChief": 6186,
      "ĠSoul": 6187,
      "ntil": 6188,
      "Ġlabor": 6189,
      "ĠHun": 6190,
      "Ġpuzzled": 6191,
      "elling": 6192,
      "Ġeaten": 6193,
      "Ġgifts": 6194,
      "hi": 6195,
      "oooooooo": 6196,
      "Ġcous": 6197,
      "Ġraises": 6198,
      "Ġfancy": 6199,
      "Ġdild": 6200,
      "acc": 6201,
      "Ġcalmly": 6202,
      "Ġmethod": 6203,
      "Ġtransl": 6204,
      "Ġenjoying": 6205,
      "Ġment": 6206,
      "arant": 6207,
      "phy": 6208,
      "Ġsen": 6209,
      "ĠBat": 6210,
      "Ġmaintain": 6211,
      "Ġincredible": 6212,
      "Ġscreen": 6213,
      "Ġflesh": 6214,
      "Ġlit": 6215,
      "Ġsticks": 6216,
      "ĠHome": 6217,
      "ĠGrandpa": 6218,
      "ya": 6219,
      "agger": 6220,
      "Ġmountains": 6221,
      "Ġdirectly": 6222,
      "rim": 6223,
      "Ġphr": 6224,
      "Ġlock": 6225,
      "ounter": 6226,
      "Ġthrowing": 6227,
      "ora": 6228,
      "Ġcaused": 6229,
      "Ġfashion": 6230,
      "Ġbarn": 6231,
      "Ġperfor": 6232,
      "Ġmystery": 6233,
      "ĠUs": 6234,
      "aughters": 6235,
      "bye": 6236,
      "cut": 6237,
      "Ġshove": 6238,
      "osaur": 6239,
      "Ġexplore": 6240,
      "Ġminister": 6241,
      "Ġcris": 6242,
      "eping": 6243,
      "ublic": 6244,
      "Boy": 6245,
      "ĠMcC": 6246,
      "ĠAlbert": 6247,
      "Ġbullet": 6248,
      "Rem": 6249,
      "car": 6250,
      "Ġwinning": 6251,
      "Ġnodded": 6252,
      "ĠMehmet": 6253,
      "thew": 6254,
      "iqu": 6255,
      "Ġfake": 6256,
      "Per": 6257,
      "Ġcries": 6258,
      "ĠSpanish": 6259,
      "Ġexercise": 6260,
      "Ġgall": 6261,
      "ĠAss": 6262,
      "ĠVi": 6263,
      "long": 6264,
      "life": 6265,
      "wan": 6266,
      "utions": 6267,
      "ĠDep": 6268,
      "andra": 6269,
      "Ġveh": 6270,
      "Ġguilty": 6271,
      "Ġacting": 6272,
      "Ġcentury": 6273,
      "Ġpatter": 6274,
      "Ġdepend": 6275,
      "Ġtemper": 6276,
      "standing": 6277,
      "Ġsquir": 6278,
      "UM": 6279,
      "ĠCat": 6280,
      "Ġhated": 6281,
      "Amer": 6282,
      "Last": 6283,
      "Ġmankind": 6284,
      "org": 6285,
      "antage": 6286,
      "ĠNone": 6287,
      "Ġdespair": 6288,
      "ĠHa": 6289,
      "Ġcrap": 6290,
      "isible": 6291,
      "asing": 6292,
      "ĠBeaut": 6293,
      "Ġsolid": 6294,
      "Ġboun": 6295,
      "Ġdwar": 6296,
      "Ġhyp": 6297,
      "mission": 6298,
      "Ġshake": 6299,
      "Ġsett": 6300,
      "ources": 6301,
      "ĠOrson": 6302,
      "Ġfinishes": 6303,
      "Ġkills": 6304,
      "Ġ60": 6305,
      "eline": 6306,
      "Ġstreets": 6307,
      "ript": 6308,
      "ibilities": 6309,
      "ĠSomeone": 6310,
      "ĠWashing": 6311,
      "pent": 6312,
      "Ġgate": 6313,
      "Ġtypes": 6314,
      "Ġfixed": 6315,
      "Ġcuriosity": 6316,
      "Ġplastic": 6317,
      "ĠKat": 6318,
      "Ġactual": 6319,
      "Ab": 6320,
      "RR": 6321,
      "Ġfears": 6322,
      "ĠMond": 6323,
      "Ġpint": 6324,
      "ĠMax": 6325,
      "ĠWin": 6326,
      "Ġshaking": 6327,
      "Will": 6328,
      "Ġprecious": 6329,
      "Ġawkward": 6330,
      "ĠTerry": 6331,
      "Ġglob": 6332,
      "bbing": 6333,
      "New": 6334,
      "Very": 6335,
      "Ġshel": 6336,
      "iel": 6337,
      "wr": 6338,
      "Ġgrowth": 6339,
      "Ġbreathe": 6340,
      "Ġroot": 6341,
      "lieve": 6342,
      "Ġinstr": 6343,
      "phone": 6344,
      "mn": 6345,
      "Ġunha": 6346,
      "Ġclouds": 6347,
      "Everything": 6348,
      "ĠParis": 6349,
      "Ġprofessional": 6350,
      "ĠCraig": 6351,
      "ĠCop": 6352,
      "Men": 6353,
      "fish": 6354,
      "ero": 6355,
      "Ġpolite": 6356,
      "Ġstared": 6357,
      "uments": 6358,
      "Ġvast": 6359,
      "Ġstraw": 6360,
      "Ġexperienced": 6361,
      "ĠCreat": 6362,
      "Ġplays": 6363,
      "hetic": 6364,
      "Ġannoyed": 6365,
      "ĠAir": 6366,
      "Ġhelping": 6367,
      "Ġbreathing": 6368,
      "ĠMurat": 6369,
      "IM": 6370,
      "Ġproof": 6371,
      "EA": 6372,
      "mend": 6373,
      "imer": 6374,
      "Ġmasturbating": 6375,
      "Ġsilly": 6376,
      "ealous": 6377,
      "Ġstool": 6378,
      "Qu": 6379,
      "Ġdisappear": 6380,
      "Ġloudly": 6381,
      "iated": 6382,
      "Ġbrill": 6383,
      "gger": 6384,
      "Ġleaned": 6385,
      "riger": 6386,
      "gend": 6387,
      "Ġbatter": 6388,
      "Ġgoals": 6389,
      "arest": 6390,
      "Ġtraffic": 6391,
      "pril": 6392,
      "va": 6393,
      "ĠBo": 6394,
      "elve": 6395,
      "Ġchoo": 6396,
      "ildan": 6397,
      "Ġdisco": 6398,
      "Ġildan": 6399,
      "Ġprompt": 6400,
      "Am": 6401,
      "des": 6402,
      "haha": 6403,
      "akami": 6404,
      "Ġapparently": 6405,
      "Ġcontr": 6406,
      "Ġtroub": 6407,
      "Ġenemies": 6408,
      "Ġreact": 6409,
      "ĠMok": 6410,
      "ĠBear": 6411,
      "ĠWonder": 6412,
      "ourt": 6413,
      "Ġ\\-": 6414,
      "ulations": 6415,
      "ĠYe": 6416,
      "ĠTrue": 6417,
      "Ġpatients": 6418,
      "OOOO": 6419,
      "Ġcandy": 6420,
      "Ġscar": 6421,
      "Ġcheating": 6422,
      "Ġcy": 6423,
      "ĠHigh": 6424,
      "ĠLand": 6425,
      "Ġsperm": 6426,
      "Ġcountries": 6427,
      "Ad": 6428,
      "Ġbeating": 6429,
      "ĠMoo": 6430,
      "ĠBad": 6431,
      "fuck": 6432,
      "Ġ~": 6433,
      "Ġsolve": 6434,
      "ĠWant": 6435,
      "Ġsaving": 6436,
      "Ġcreature": 6437,
      "overn": 6438,
      "rily": 6439,
      "Ġdepends": 6440,
      "ĠâĢĵ": 6441,
      "Ġgang": 6442,
      "Ġthirst": 6443,
      "ibr": 6444,
      "Ġparking": 6445,
      "ĠWashington": 6446,
      "Ġplans": 6447,
      "Ġthrown": 6448,
      "Mar": 6449,
      "iches": 6450,
      "Ġenth": 6451,
      "Ġaside": 6452,
      "Ġsignific": 6453,
      "Ġdeliver": 6454,
      "Ġentertain": 6455,
      "Ġglory": 6456,
      "Ġultimate": 6457,
      "da": 6458,
      "ĠPre": 6459,
      "Ġcarried": 6460,
      "Ġvisits": 6461,
      "Ġsafety": 6462,
      "Ġneighbour": 6463,
      "Ġbags": 6464,
      "IF": 6465,
      "Friend": 6466,
      "Ġblock": 6467,
      "Ġthroughout": 6468,
      "ĠMurakami": 6469,
      "athered": 6470,
      "Ġserved": 6471,
      "Ġleaders": 6472,
      "Ġvalu": 6473,
      "AAAA": 6474,
      "ĠNO": 6475,
      "ĠState": 6476,
      "ĠAc": 6477,
      "Ġloose": 6478,
      "worth": 6479,
      "oops": 6480,
      "ĠBrad": 6481,
      "Ġwave": 6482,
      "Ġbelt": 6483,
      "Ġcleaning": 6484,
      "agan": 6485,
      "otted": 6486,
      "Ġut": 6487,
      "Ġcauses": 6488,
      "ĠRobin": 6489,
      "Ġtits": 6490,
      "Ġcooking": 6491,
      "Ġrhy": 6492,
      "Dear": 6493,
      "Ġpump": 6494,
      "Ġredneck": 6495,
      "ĠOfficer": 6496,
      "Ġholiday": 6497,
      "Ġfifty": 6498,
      "ĠMir": 6499,
      "agon": 6500,
      "Ġtalks": 6501,
      "Ġswitch": 6502,
      "ĠPolice": 6503,
      "Ġborrow": 6504,
      "Ġreception": 6505,
      "Ġprincipal": 6506,
      "Ġhesit": 6507,
      "ĠSaid": 6508,
      "Ġworship": 6509,
      "Ġfallen": 6510,
      "Ġwatches": 6511,
      "Ġpassenger": 6512,
      "ĠCass": 6513,
      "place": 6514,
      "ĠKevin": 6515,
      "Ġaccess": 6516,
      "Mr": 6517,
      "Ġflu": 6518,
      "Ġcreating": 6519,
      "Ġpanties": 6520,
      "Ġlen": 6521,
      "amm": 6522,
      "Ġpreacher": 6523,
      "Ġpops": 6524,
      "Ġairplane": 6525,
      "Ġbones": 6526,
      "Ġgoodness": 6527,
      "ĠGermany": 6528,
      "erer": 6529,
      "lymp": 6530,
      "ĠJuan": 6531,
      "Ġstayed": 6532,
      "ĠFUCK": 6533,
      "ĠStop": 6534,
      "Ġminor": 6535,
      "iform": 6536,
      "elcome": 6537,
      "ĠHaruki": 6538,
      "Ġillegal": 6539,
      "hamed": 6540,
      "Ġpersonality": 6541,
      "Ġdesperate": 6542,
      "Ġdirt": 6543,
      "ĠCanadian": 6544,
      "Ġcelebrate": 6545,
      "Ġaffect": 6546,
      "Ġfrequ": 6547,
      "ĠHappy": 6548,
      "Ġwives": 6549,
      "ifest": 6550,
      "Damn": 6551,
      "uted": 6552,
      "Ġaband": 6553,
      "Ġintense": 6554,
      "Ġconqu": 6555,
      "Ġloan": 6556,
      "Ġdeeper": 6557,
      "hant": 6558,
      "ĠPrince": 6559,
      "Ġded": 6560,
      "Ġho": 6561,
      "ĠBlue": 6562,
      "Ġrequire": 6563,
      "ĠEaster": 6564,
      "Ġessential": 6565,
      "Ġconvinced": 6566,
      "Ġaccording": 6567,
      "ĠMatthew": 6568,
      "Ġarguing": 6569,
      "Ġimper": 6570,
      "Ġmiracle": 6571,
      "Ġmotiv": 6572,
      "Ġturkey": 6573,
      "oogle": 6574,
      "ĠRoman": 6575,
      "Really": 6576,
      "EO": 6577,
      "Ġsins": 6578,
      "Ġexpecting": 6579,
      "Ġgrocery": 6580,
      "bu": 6581,
      "Ġstress": 6582,
      "new": 6583,
      "Ġpatience": 6584,
      "Ġunex": 6585,
      "ĠDoc": 6586,
      "Ġhob": 6587,
      "orted": 6588,
      "Ġtoast": 6589,
      "Ġmere": 6590,
      "rences": 6591,
      "Ġbringing": 6592,
      "Ġmotion": 6593,
      "Ġconcent": 6594,
      "Ġcuts": 6595,
      "Ġbadly": 6596,
      "eding": 6597,
      "Ġsch": 6598,
      "ĠTen": 6599,
      "ĠRus": 6600,
      "Ġexchange": 6601,
      "Ġpenc": 6602,
      "verse": 6603,
      "ulated": 6604,
      "Ġrum": 6605,
      "Ġuseless": 6606,
      "Ġfemin": 6607,
      "Ġcards": 6608,
      "Ġ*\"": 6609,
      "Ġcommitted": 6610,
      "Ġnut": 6611,
      "Ġignore": 6612,
      "Ġshoe": 6613,
      "odka": 6614,
      "Ġovercome": 6615,
      "Ġmodel": 6616,
      "Ġinfluence": 6617,
      "sm": 6618,
      "ditions": 6619,
      "iker": 6620,
      "ĠCent": 6621,
      "aging": 6622,
      "Ġapply": 6623,
      "15": 6624,
      "itan": 6625,
      "Ġpin": 6626,
      "ĠCla": 6627,
      "down": 6628,
      "Ġbars": 6629,
      "Ġparad": 6630,
      "Ġalphabet": 6631,
      "ĠDrag": 6632,
      "Ġburned": 6633,
      "Ġeth": 6634,
      "Ġcommunication": 6635,
      "Ġheight": 6636,
      "Ġinev": 6637,
      "ingu": 6638,
      "ĠSay": 6639,
      "ĠHard": 6640,
      "ĠRain": 6641,
      "ĠErnest": 6642,
      "ĠFrancis": 6643,
      "IL": 6644,
      "Ġresc": 6645,
      "Ġcannibal": 6646,
      "see": 6647,
      "Ġversion": 6648,
      "ĠDuring": 6649,
      "Ġsmaller": 6650,
      "colm": 6651,
      "Ġawake": 6652,
      "Ġrate": 6653,
      "Thanks": 6654,
      "Ġgarb": 6655,
      "Ġlogic": 6656,
      "ĠSuzy": 6657,
      "ĠGenie": 6658,
      "Ġpromised": 6659,
      "Ġwins": 6660,
      "ĠToo": 6661,
      "Ġdaughters": 6662,
      "Ġow": 6663,
      "Ġcontract": 6664,
      "Ġposted": 6665,
      "Ġincluding": 6666,
      "osc": 6667,
      "agle": 6668,
      "ĠNeil": 6669,
      "Ġlawn": 6670,
      "Ġcreatures": 6671,
      "kel": 6672,
      "Ġbeliefs": 6673,
      "Ġannounced": 6674,
      "Ġmask": 6675,
      "ros": 6676,
      "Ġhorny": 6677,
      "Ġdefinition": 6678,
      "ĠAnonymous": 6679,
      "Ġge": 6680,
      "ERE": 6681,
      "Ġinvisible": 6682,
      "Ġinsult": 6683,
      "Ġsighs": 6684,
      "uls": 6685,
      "Someone": 6686,
      "ĠAM": 6687,
      "ĠFore": 6688,
      "Ġhandsome": 6689,
      "Ġsurgeon": 6690,
      "Ġneighbors": 6691,
      "Ġpsychiatrist": 6692,
      "Ġboring": 6693,
      "Ġnarrow": 6694,
      "ĠEast": 6695,
      "ĠYear": 6696,
      "Ġskills": 6697,
      "Ġexcuse": 6698,
      "Ġscientists": 6699,
      "Ġautom": 6700,
      "Le": 6701,
      "estern": 6702,
      "gic": 6703,
      "arks": 6704,
      "ader": 6705,
      "plete": 6706,
      "Ġhardest": 6707,
      "pret": 6708,
      "Ġawesome": 6709,
      "Ġshooting": 6710,
      "Ġmetal": 6711,
      "Ġstruct": 6712,
      "ĠHol": 6713,
      "inson": 6714,
      "Ġdirector": 6715,
      "Ġdespite": 6716,
      "Ġquarter": 6717,
      "orious": 6718,
      "Ġmanner": 6719,
      "Ġnights": 6720,
      "Ġconfl": 6721,
      "ĠApple": 6722,
      "ĠPutin": 6723,
      "ĠMalcolm": 6724,
      "Ġspin": 6725,
      "ether": 6726,
      "ĠAh": 6727,
      "ĠHu": 6728,
      "iler": 6729,
      "ĠLuck": 6730,
      "These": 6731,
      "Ġconditions": 6732,
      "ĠAnna": 6733,
      "Ġrequired": 6734,
      "\\*": 6735,
      "Ġlarger": 6736,
      "Ġtragedy": 6737,
      "rors": 6738,
      "Ġgest": 6739,
      "Ġego": 6740,
      "Ġjumping": 6741,
      "Ġvirtue": 6742,
      "Ġrocks": 6743,
      "Ġpossibility": 6744,
      "Ġlaying": 6745,
      "Ġhundreds": 6746,
      "Ġsacrifice": 6747,
      "ĠSomething": 6748,
      "Ġcontem": 6749,
      "Ġbacon": 6750,
      "ĠVan": 6751,
      "Ġpause": 6752,
      "Ġelement": 6753,
      "Ġwarning": 6754,
      "Ġmagician": 6755,
      "Ġarchit": 6756,
      "CE": 6757,
      "Ġtests": 6758,
      "Ġforces": 6759,
      "Ġinstinct": 6760,
      "Ġclever": 6761,
      "Ġcatches": 6762,
      "Ġassistant": 6763,
      "Ġwriters": 6764,
      "omer": 6765,
      "cont": 6766,
      "ppers": 6767,
      "ĠRog": 6768,
      "cles": 6769,
      "ĠPeace": 6770,
      "hern": 6771,
      "Ġgradu": 6772,
      "12": 6773,
      "dog": 6774,
      "iforn": 6775,
      "berry": 6776,
      "apping": 6777,
      "Ġneighborhood": 6778,
      "Ġaston": 6779,
      "zard": 6780,
      "Ġpointing": 6781,
      "Ġformer": 6782,
      "ĠBa": 6783,
      "ĠÂ£": 6784,
      "Ġdildo": 6785,
      "ĠIce": 6786,
      "Ġhouses": 6787,
      "Ġimpact": 6788,
      "Ġoccup": 6789,
      "AK": 6790,
      "Ġbond": 6791,
      "ĠTay": 6792,
      "ĠCow": 6793,
      "Ġje": 6794,
      "Ġplenty": 6795,
      "Ġvarious": 6796,
      "Ġcum": 6797,
      "Ġeager": 6798,
      "ĠDor": 6799,
      "avor": 6800,
      "Ġsav": 6801,
      "Ġguitar": 6802,
      "Ġtrunk": 6803,
      "Ġchecks": 6804,
      "Old": 6805,
      "Ġchose": 6806,
      "ĠBlood": 6807,
      "ĠWilliams": 6808,
      "ĠFour": 6809,
      "shit": 6810,
      "ĠPoems": 6811,
      "Ġtitle": 6812,
      "was": 6813,
      "Ġabuse": 6814,
      "rella": 6815,
      "giving": 6816,
      "had": 6817,
      "Ġrefriger": 6818,
      "Ġtherapist": 6819,
      "bie": 6820,
      "ĠKate": 6821,
      "Ġsurrounded": 6822,
      "alph": 6823,
      "ĠFaith": 6824,
      "Ġassume": 6825,
      "ĠKeep": 6826,
      "ĠPotter": 6827,
      "ĠPal": 6828,
      "Ġpanic": 6829,
      "amental": 6830,
      "Ġliterature": 6831,
      "ĠMargaret": 6832,
      "your": 6833,
      "Ġpour": 6834,
      "ĠSan": 6835,
      "Ġstaff": 6836,
      "ĠFacebook": 6837,
      "hea": 6838,
      "Ġbum": 6839,
      "ĠLear": 6840,
      "UN": 6841,
      "igator": 6842,
      "Ġbrot": 6843,
      "Ġconfront": 6844,
      "Ġbump": 6845,
      "ilies": 6846,
      "ĠCommun": 6847,
      "unning": 6848,
      "ubl": 6849,
      "ĠLaure": 6850,
      "Ġsed": 6851,
      "ials": 6852,
      "Ġchecked": 6853,
      "Ġbud": 6854,
      "Ġfra": 6855,
      "Ġkidding": 6856,
      "ountain": 6857,
      "Ġjuice": 6858,
      "affe": 6859,
      "Ġprecise": 6860,
      "inic": 6861,
      "ĠApril": 6862,
      "Ġrefuse": 6863,
      "Ġthirty": 6864,
      "Ġdepartment": 6865,
      "App": 6866,
      "eli": 6867,
      "Ġnurs": 6868,
      "Ġrear": 6869,
      "Ġload": 6870,
      "Ġhammer": 6871,
      "alking": 6872,
      "rous": 6873,
      "ĠWatson": 6874,
      "Ġpassengers": 6875,
      "erest": 6876,
      "ĠAtt": 6877,
      "Ġpurple": 6878,
      "Ġtesticles": 6879,
      "ĠSamuel": 6880,
      "Ġenthusi": 6881,
      "gment": 6882,
      "Ġrelief": 6883,
      "osition": 6884,
      "Ġturt": 6885,
      "oming": 6886,
      "ĠCould": 6887,
      "Ġrushed": 6888,
      "plic": 6889,
      "Ġheaded": 6890,
      "Ġtravell": 6891,
      "ester": 6892,
      "ĠRub": 6893,
      "ĠAng": 6894,
      "ĠHall": 6895,
      "chair": 6896,
      "Ġgender": 6897,
      "Ġhipp": 6898,
      "Ġmonster": 6899,
      "Ġsuperior": 6900,
      "Ġshore": 6901,
      "Ġsetting": 6902,
      "Women": 6903,
      "Ġshr": 6904,
      "Ġconstruction": 6905,
      "ĠEdward": 6906,
      "Ġrobber": 6907,
      "Ġtar": 6908,
      "Ġactiv": 6909,
      "Ġrevolution": 6910,
      "elle": 6911,
      "Ġshared": 6912,
      "Ġbusinessman": 6913,
      "Ġbackwards": 6914,
      "Ġbride": 6915,
      "yers": 6916,
      "yth": 6917,
      "ĠFro": 6918,
      "Ġtempt": 6919,
      "Ġdiamond": 6920,
      "ĠSoviet": 6921,
      "Ġsucks": 6922,
      "Ġjealous": 6923,
      "Ġrude": 6924,
      "ĠNature": 6925,
      "ado": 6926,
      "ĠPur": 6927,
      "Ġsymb": 6928,
      "Husband": 6929,
      "Ġloses": 6930,
      "Ġhip": 6931,
      "..\"": 6932,
      "ĠMars": 6933,
      "arling": 6934,
      "ĠCanada": 6935,
      "Ġfasc": 6936,
      "ĠTony": 6937,
      "Ġbeard": 6938,
      "ĠCause": 6939,
      "alt": 6940,
      "pective": 6941,
      "ĠNick": 6942,
      "ĠBrian": 6943,
      "Ġfrustrated": 6944,
      "gent": 6945,
      "ĠTed": 6946,
      "alia": 6947,
      "ĠSatur": 6948,
      "''": 6949,
      "ĠSnow": 6950,
      "Ġdishes": 6951,
      "Ġexecution": 6952,
      "ĠOscar": 6953,
      "ĠKas": 6954,
      "Ġendless": 6955,
      "ĠAlice": 6956,
      "Ġcabin": 6957,
      "born": 6958,
      "Ġpoem": 6959,
      "uits": 6960,
      "ĠCH": 6961,
      "Ġacts": 6962,
      "Ġstrike": 6963,
      "ĠMonday": 6964,
      "Ġsite": 6965,
      "eron": 6966,
      "ĠRock": 6967,
      "Ġgrateful": 6968,
      "Ġmob": 6969,
      "ĠSally": 6970,
      "hers": 6971,
      "oln": 6972,
      "Ġcookies": 6973,
      "ĠRachel": 6974,
      "Grand": 6975,
      "cest": 6976,
      "opter": 6977,
      "ĠLoser": 6978,
      "ĠSoon": 6979,
      "Ġsuggested": 6980,
      "Ġintegr": 6981,
      "jud": 6982,
      "ĠBru": 6983,
      "Ġbelieving": 6984,
      "eks": 6985,
      "Ġonline": 6986,
      "ĠCle": 6987,
      "ourse": 6988,
      "Ġgrat": 6989,
      "Ġpolitician": 6990,
      "alloween": 6991,
      "Ġbrains": 6992,
      "iversary": 6993,
      "ĠSpiritual": 6994,
      "Ġbutcher": 6995,
      "ĠNove": 6996,
      ".).": 6997,
      "Ġinsurance": 6998,
      "):": 6999,
      "Ġknee": 7000,
      "gain": 7001,
      "lad": 7002,
      "Ġdawn": 7003,
      "ĠTer": 7004,
      "rig": 7005,
      "ortion": 7006,
      "Ġwrites": 7007,
      "Ġpages": 7008,
      "Ġcapacity": 7009,
      "Ġkar": 7010,
      "Ġstab": 7011,
      "Ġappoint": 7012,
      "Ġlessons": 7013,
      "mel": 7014,
      "ĠFam": 7015,
      "Ġscale": 7016,
      "ancer": 7017,
      "ervation": 7018,
      "Ġsettle": 7019,
      "ronaut": 7020,
      "Ġreveal": 7021,
      "Johnny": 7022,
      "rid": 7023,
      "anny": 7024,
      "hole": 7025,
      "ĠChange": 7026,
      "mance": 7027,
      "Ġteachers": 7028,
      "hib": 7029,
      "Ġgigg": 7030,
      "Ġmostly": 7031,
      "Ġlength": 7032,
      "ua": 7033,
      "iance": 7034,
      "fortable": 7035,
      "eem": 7036,
      "Listen": 7037,
      "ĠCons": 7038,
      "lected": 7039,
      "Ġridiculous": 7040,
      "augh": 7041,
      "umph": 7042,
      "Ġpharmacist": 7043,
      "ono": 7044,
      "cho": 7045,
      "Ġsplit": 7046,
      "ĠJourney": 7047,
      "Ġadvert": 7048,
      "Ġemergency": 7049,
      "Ġrefrigerator": 7050,
      "Ġoptim": 7051,
      "inating": 7052,
      "ĠSen": 7053,
      "Ġembrace": 7054,
      "pat": 7055,
      "Ġhired": 7056,
      "Ġrefused": 7057,
      "Ġassign": 7058,
      "Ġhopes": 7059,
      "Ġslip": 7060,
      "Ġgarage": 7061,
      "olmes": 7062,
      "Ġfolks": 7063,
      "Ġlat": 7064,
      "ĠMemoir": 7065,
      "Ġintellectual": 7066,
      "ĠDian": 7067,
      "ĠOkay": 7068,
      "hop": 7069,
      "ĠLive": 7070,
      "iversity": 7071,
      "Ġhistor": 7072,
      "ĠProf": 7073,
      "Ġrush": 7074,
      "Ġsecrets": 7075,
      "Ġproperty": 7076,
      "ĠSchool": 7077,
      "ĠCarol": 7078,
      "ĠMexico": 7079,
      "ĠDemocr": 7080,
      "Remember": 7081,
      "azz": 7082,
      "Ġbelieves": 7083,
      "Ġgathered": 7084,
      "agra": 7085,
      "oty": 7086,
      "ĠFOR": 7087,
      "Ġflow": 7088,
      "Ġtraveling": 7089,
      "ĠFre": 7090,
      "asting": 7091,
      "icken": 7092,
      "Ġrecent": 7093,
      "Ġder": 7094,
      "ĠDen": 7095,
      "200": 7096,
      "whel": 7097,
      "Ġlip": 7098,
      "Ġguns": 7099,
      "ĠCaliforn": 7100,
      "Ġtank": 7101,
      "Ġstock": 7102,
      "Ġuseful": 7103,
      "ĠMany": 7104,
      "Ġhi": 7105,
      "ĠPost": 7106,
      "Ġnin": 7107,
      "ĠMoses": 7108,
      "ĠYo": 7109,
      "Ġdwarf": 7110,
      "Cl": 7111,
      "Ġstruck": 7112,
      "Ġconsist": 7113,
      "Ġcustomers": 7114,
      "hens": 7115,
      "agers": 7116,
      "ĠShannon": 7117,
      "ford": 7118,
      "sl": 7119,
      "ĠCEO": 7120,
      "Ġchosen": 7121,
      "Ġseries": 7122,
      "incoln": 7123,
      "Pol": 7124,
      "Ġleading": 7125,
      "ĠWork": 7126,
      "inder": 7127,
      "venge": 7128,
      "Ġenjoyed": 7129,
      "rugs": 7130,
      "Ġfork": 7131,
      "asses": 7132,
      "airy": 7133,
      "itement": 7134,
      "Ġnaturally": 7135,
      "zan": 7136,
      "Ġrape": 7137,
      "Ġcalcul": 7138,
      "Ġwhale": 7139,
      "ĠFried": 7140,
      "Ġpassionate": 7141,
      "lly": 7142,
      "Ġreaction": 7143,
      "ĠAcc": 7144,
      "mber": 7145,
      "ĠGame": 7146,
      "ĠRam": 7147,
      "ĠRalph": 7148,
      "ĠRef": 7149,
      "Ġceiling": 7150,
      "Ġpoop": 7151,
      "Ġideal": 7152,
      "ĠInternet": 7153,
      "RA": 7154,
      "Ġtrash": 7155,
      "Ġtyp": 7156,
      "ILL": 7157,
      "Ġcave": 7158,
      "Ġadvantage": 7159,
      "Ġcannibals": 7160,
      "idents": 7161,
      "Ġlazy": 7162,
      "Ġdece": 7163,
      "ĠLouis": 7164,
      "uf": 7165,
      "Ġrushes": 7166,
      "Ġlep": 7167,
      "Ġsport": 7168,
      "Ġidentity": 7169,
      "icycle": 7170,
      "Next": 7171,
      "Ġinit": 7172,
      "Ġkinda": 7173,
      "Ġmagical": 7174,
      "Ġvaluable": 7175,
      "ĠDisc": 7176,
      "Ġrang": 7177,
      "Ġdownstairs": 7178,
      "Ġnotes": 7179,
      "Ġvul": 7180,
      "Ġenorm": 7181,
      "Ġrefer": 7182,
      "izard": 7183,
      "Ġbrothel": 7184,
      "rier": 7185,
      "ĠAlways": 7186,
      "Ġvisiting": 7187,
      "icist": 7188,
      "usive": 7189,
      "Ġinstit": 7190,
      "Ġpills": 7191,
      "ĠGreek": 7192,
      "Ġspoon": 7193,
      "Ġimmig": 7194,
      "ĠGlad": 7195,
      "ĠSaturday": 7196,
      "Ġcos": 7197,
      "ĠVery": 7198,
      "Ġdefend": 7199,
      "Ġinsane": 7200,
      "NA": 7201,
      "Ġwitch": 7202,
      "Ġheav": 7203,
      "Ġstare": 7204,
      "ago": 7205,
      "Ġteller": 7206,
      "Ġpron": 7207,
      "Ġawareness": 7208,
      "Ġmaid": 7209,
      "Ġtrial": 7210,
      "Ġgenerally": 7211,
      "ĠGreg": 7212,
      "Ġbills": 7213,
      "ĠSeth": 7214,
      "Ġvote": 7215,
      "mind": 7216,
      "***": 7217,
      "bor": 7218,
      "uine": 7219,
      "Ġbrick": 7220,
      "Ġtelevision": 7221,
      "Ġpowers": 7222,
      "ĠFuck": 7223,
      "Ġloyal": 7224,
      "Ġselfish": 7225,
      "Ġdyslex": 7226,
      "Ġhire": 7227,
      "Ġhen": 7228,
      "Ġbeast": 7229,
      "ĠDown": 7230,
      "Ġsadness": 7231,
      "ĠAsh": 7232,
      "ĠMoore": 7233,
      "py": 7234,
      "Ġcents": 7235,
      "ligion": 7236,
      "Ġtickets": 7237,
      "ĠTaylor": 7238,
      "EL": 7239,
      "uded": 7240,
      "Ġgrapes": 7241,
      "Ġpotatoes": 7242,
      "bon": 7243,
      "Ġsteak": 7244,
      "Ġtone": 7245,
      "ĠStan": 7246,
      "asty": 7247,
      "hew": 7248,
      "ĠBang": 7249,
      "ipation": 7250,
      "Ġatheist": 7251,
      "Ġconflict": 7252,
      "lar": 7253,
      "ĠRand": 7254,
      "Ġauthority": 7255,
      "Dr": 7256,
      "Ġobst": 7257,
      "Ġproperly": 7258,
      "Ġplus": 7259,
      "Ġpleased": 7260,
      "Ġerror": 7261,
      "Ġstir": 7262,
      "astery": 7263,
      "Ġpoo": 7264,
      "Ġdiscussing": 7265,
      "Ġreader": 7266,
      "Ġtwins": 7267,
      "Ġlesbian": 7268,
      "Ġcousin": 7269,
      "ĠHolly": 7270,
      "Ġcosts": 7271,
      "Ġprevious": 7272,
      "Ġplanning": 7273,
      "Ġsalt": 7274,
      "Ġessence": 7275,
      "Ġinstant": 7276,
      "Ġillusion": 7277,
      "Ġcomputers": 7278,
      "ĠCos": 7279,
      "Ġmommy": 7280,
      "ĠWater": 7281,
      "ĠLat": 7282,
      "OC": 7283,
      "Ġthief": 7284,
      "stone": 7285,
      "Ġadventure": 7286,
      "ĠKaren": 7287,
      "osexual": 7288,
      "ollow": 7289,
      "Ġpassword": 7290,
      "Ġx": 7291,
      "Ġfold": 7292,
      "Ġtoler": 7293,
      "Ġbetray": 7294,
      "ĠJonathan": 7295,
      "ĠWilson": 7296,
      "Bob": 7297,
      "ĠHalf": 7298,
      "Ġsear": 7299,
      "Ġaltern": 7300,
      "Ġtrump": 7301,
      "ĠThought": 7302,
      "Ġdevelopment": 7303,
      "Ġangrily": 7304,
      "Ġplain": 7305,
      "Ġdisplay": 7306,
      "elled": 7307,
      "Ġinnocent": 7308,
      "Long": 7309,
      "ĠRom": 7310,
      "Ġexcitement": 7311,
      "Ġoneself": 7312,
      "Ġscientific": 7313,
      "Ġconnection": 7314,
      "etry": 7315,
      "ordinary": 7316,
      "may": 7317,
      "Ġforehead": 7318,
      "Ġproceeded": 7319,
      "lot": 7320,
      "Ġashamed": 7321,
      "ĠAlso": 7322,
      "Ġpope": 7323,
      "Ġtrade": 7324,
      "ĠAbra": 7325,
      "Ġlimited": 7326,
      "Ġreleased": 7327,
      "vy": 7328,
      "ĠRise": 7329,
      "Ġdistract": 7330,
      "Ġvoices": 7331,
      "Ġrepeat": 7332,
      "Ġscratch": 7333,
      "Ġwolf": 7334,
      "Ġhey": 7335,
      "Ġmyth": 7336,
      "Ġsaus": 7337,
      "Ġfeather": 7338,
      "Ġprize": 7339,
      "Christ": 7340,
      "iped": 7341,
      "HT": 7342,
      "mis": 7343,
      "atively": 7344,
      "Ġaspect": 7345,
      "ĠWord": 7346,
      "Ġacknow": 7347,
      "ĠRichelle": 7348,
      "ĠHalloween": 7349,
      "ulty": 7350,
      "Ġperce": 7351,
      "Ġdelicious": 7352,
      "Ġeconomy": 7353,
      "ĠIndia": 7354,
      "Ġgreeted": 7355,
      "Ġrelease": 7356,
      "Ġwashing": 7357,
      "ðŁĺ": 7358,
      "ĠGary": 7359,
      "Ġspecific": 7360,
      "Ġjournal": 7361,
      "Ġattendant": 7362,
      "nie": 7363,
      "Ġslaps": 7364,
      "Ġcharged": 7365,
      "Ġcorrupt": 7366,
      "ĠLind": 7367,
      "Ġvictory": 7368,
      "Many": 7369,
      "Ġseed": 7370,
      "Ġallows": 7371,
      "ishop": 7372,
      "Ġhighly": 7373,
      "Ġproudly": 7374,
      "Ġsuspect": 7375,
      "Know": 7376,
      "AND": 7377,
      "Ġslipped": 7378,
      "Ġincrease": 7379,
      "inks": 7380,
      "ĠOlymp": 7381,
      "Ġcheek": 7382,
      "ĠMaria": 7383,
      "Ġcreates": 7384,
      "ounce": 7385,
      "ĠAmaz": 7386,
      "anas": 7387,
      "Ġheal": 7388,
      "ĠMont": 7389,
      "Ġending": 7390,
      "reddit": 7391,
      "Ġrage": 7392,
      "Ġactivity": 7393,
      "?''": 7394,
      "Ġcopy": 7395,
      "UR": 7396,
      "ener": 7397,
      "ĠIra": 7398,
      "Ġdozen": 7399,
      "ĠRoll": 7400,
      "ierce": 7401,
      "essed": 7402,
      "ĠFear": 7403,
      "Ġrooms": 7404,
      "Ġskirt": 7405,
      "ĠSimple": 7406,
      "unc": 7407,
      "!?": 7408,
      "Wr": 7409,
      "ĠJess": 7410,
      "Another": 7411,
      "ĠNic": 7412,
      "Ġchef": 7413,
      "ĠRemember": 7414,
      "bear": 7415,
      "Ġfli": 7416,
      "Ġpicking": 7417,
      "alls": 7418,
      "Ġfamilies": 7419,
      "ĠJer": 7420,
      "ĠLess": 7421,
      "Ġrolling": 7422,
      "iner": 7423,
      "Ġcode": 7424,
      "Ġfought": 7425,
      "ĠIre": 7426,
      "Ġguarant": 7427,
      "Without": 7428,
      "Or": 7429,
      "ĠAut": 7430,
      "Ġguilt": 7431,
      "Ġflood": 7432,
      "Ġfigures": 7433,
      "Ġprinciple": 7434,
      "ĠAustralian": 7435,
      "ito": 7436,
      "ĠBrand": 7437,
      "Since": 7438,
      "ĠRich": 7439,
      "Ġbush": 7440,
      "Ġillness": 7441,
      "nam": 7442,
      "Ġshell": 7443,
      "uum": 7444,
      "Ġburd": 7445,
      "ĠSpe": 7446,
      "ĠHolmes": 7447,
      "Ġdiagn": 7448,
      "Ġindustry": 7449,
      "plex": 7450,
      "Ġsym": 7451,
      "ĠLisa": 7452,
      "Ġdestroyed": 7453,
      "look": 7454,
      "Ġbrilliant": 7455,
      "mond": 7456,
      "ĠAv": 7457,
      "Ġanniversary": 7458,
      "Ġofficers": 7459,
      "mad": 7460,
      "Ġconsid": 7461,
      "Ġkissing": 7462,
      "Ġopportunities": 7463,
      "super": 7464,
      "Ġpromptly": 7465,
      "ĠAbraham": 7466,
      "bits": 7467,
      "Ġvegan": 7468,
      "ĠAlexander": 7469,
      "Ġcitizens": 7470,
      "Ġtractor": 7471,
      "atically": 7472,
      "ĠStr": 7473,
      "Ġcough": 7474,
      "Ġprofound": 7475,
      "Ġdetermine": 7476,
      "entially": 7477,
      "ĠWend": 7478,
      "ĠCount": 7479,
      "Ġspect": 7480,
      "Ġassoc": 7481,
      "Ġconfusion": 7482,
      "ĠPerhaps": 7483,
      "Ġing": 7484,
      "geant": 7485,
      "Ġeconomic": 7486,
      "Ġchew": 7487,
      "Ġcamera": 7488,
      "fly": 7489,
      "hist": 7490,
      "vity": 7491,
      "Ġunw": 7492,
      "Ġrecom": 7493,
      "cedes": 7494,
      "den": 7495,
      "Ġcoffin": 7496,
      "??\"": 7497,
      "Ġfisher": 7498,
      "arter": 7499,
      "ĠHon": 7500,
      "umble": 7501,
      "ĠStalin": 7502,
      "rots": 7503,
      "Ġmas": 7504,
      "Ġchecking": 7505,
      "greg": 7506,
      "Ġreflection": 7507,
      "sk": 7508,
      "uations": 7509,
      "Ġborder": 7510,
      "Ġbelly": 7511,
      "Ġdeveloped": 7512,
      "Ġcoke": 7513,
      "Ġworthy": 7514,
      "Ġfrozen": 7515,
      "Ġcroc": 7516,
      "gie": 7517,
      "Ġtape": 7518,
      "ĠMaking": 7519,
      "Ġoverwhel": 7520,
      "Ġhatred": 7521,
      "ĠShort": 7522,
      "Ġweapon": 7523,
      "Ġpie": 7524,
      "ĠKill": 7525,
      "Ġdefeat": 7526,
      "Ġliberty": 7527,
      "ĠEric": 7528,
      "Ġsucking": 7529,
      "Ġcostume": 7530,
      "Ġtower": 7531,
      "ĠARE": 7532,
      "Ġexplan": 7533,
      "ĠHappiness": 7534,
      "Ġfrag": 7535,
      "Stop": 7536,
      "Ġpraying": 7537,
      "ĠMu": 7538,
      "Ġvisited": 7539,
      "ĠStudent": 7540,
      "hor": 7541,
      "walk": 7542,
      "zes": 7543,
      "ĠLincoln": 7544,
      "Ġboobs": 7545,
      "stal": 7546,
      "Ġvent": 7547,
      "oni": 7548,
      "ttp": 7549,
      "mart": 7550,
      "nded": 7551,
      "Ġhitting": 7552,
      "resp": 7553,
      "ĠAbh": 7554,
      "ĠShad": 7555,
      "Ġirrit": 7556,
      "ĠGab": 7557,
      "Ġunexpected": 7558,
      "???": 7559,
      "Ġuniversal": 7560,
      "rome": 7561,
      "Ġsigh": 7562,
      "Ġcomplaining": 7563,
      "ĠScience": 7564,
      "Ġblowing": 7565,
      "Ġindividuals": 7566,
      "road": 7567,
      "Ġsmooth": 7568,
      "ĠSub": 7569,
      "ogen": 7570,
      "Ġsymp": 7571,
      "verty": 7572,
      "Ġjacket": 7573,
      "Ġdemonstr": 7574,
      "Ġmart": 7575,
      "orrect": 7576,
      "Ġhates": 7577,
      "ANT": 7578,
      "ĠLooking": 7579,
      "Ġremote": 7580,
      "ttes": 7581,
      "RI": 7582,
      "sper": 7583,
      "ĠDiv": 7584,
      "Ġchamp": 7585,
      "aldo": 7586,
      "Ġtorn": 7587,
      "iser": 7588,
      "oting": 7589,
      "xy": 7590,
      "ifying": 7591,
      "Ġprince": 7592,
      "Ġlifted": 7593,
      "Ġuncomfortable": 7594,
      "nis": 7595,
      "belief": 7596,
      "Ġforgiveness": 7597,
      "ĠAmit": 7598,
      "ĠMiller": 7599,
      "ĠValent": 7600,
      "Ġsighed": 7601,
      "ternal": 7602,
      "Ġshat": 7603,
      "Ġlord": 7604,
      "Ġsubst": 7605,
      "Ġwaist": 7606,
      "ĠIslam": 7607,
      "Ġfeminist": 7608,
      "Ġobjects": 7609,
      "Ġperformance": 7610,
      "ĠTob": 7611,
      "Ġasp": 7612,
      "ositive": 7613,
      "ĠBatman": 7614,
      "napped": 7615,
      "Ġdelivery": 7616,
      "Ġwheelchair": 7617,
      "anity": 7618,
      "ĠCong": 7619,
      "Ġpoverty": 7620,
      "Ġpolar": 7621,
      "Ġexcellent": 7622,
      "\\-": 7623,
      "atient": 7624,
      "ĠBel": 7625,
      "ĠWolf": 7626,
      "Ġbeef": 7627,
      "ĠAust": 7628,
      "agine": 7629,
      "Ġgenuine": 7630,
      "Ġsquee": 7631,
      "ĠLyn": 7632,
      "ĠRel": 7633,
      "Ġmonastery": 7634,
      "Ġpurse": 7635,
      "Ġsugar": 7636,
      "unction": 7637,
      "ĠSea": 7638,
      "Ġstares": 7639,
      "alley": 7640,
      "Ġfantasy": 7641,
      "Ġspoken": 7642,
      "Ġfulfill": 7643,
      "umer": 7644,
      "ĠEver": 7645,
      "Ġchop": 7646,
      "Ġcomedy": 7647,
      "ST": 7648,
      "Was": 7649,
      "Ġbent": 7650,
      "ĠDel": 7651,
      "ĠRi": 7652,
      "ĠReally": 7653,
      "Ġdinosaur": 7654,
      "mod": 7655,
      "Ġlap": 7656,
      "uther": 7657,
      "Ġkiller": 7658,
      "Ġcivilization": 7659,
      "rated": 7660,
      "Ġfans": 7661,
      "ammar": 7662,
      "ĠWrit": 7663,
      "Ġexcl": 7664,
      "Ġspir": 7665,
      "Ġstunned": 7666,
      "market": 7667,
      "hyd": 7668,
      "gypt": 7669,
      "ĠHelen": 7670,
      "ĠMarc": 7671,
      "Ġtourist": 7672,
      "Ġaccent": 7673,
      "ĠClare": 7674,
      "Ġcem": 7675,
      "Ġvodka": 7676,
      "Ġperman": 7677,
      "Ġdepression": 7678,
      "Ġequally": 7679,
      "Ġoption": 7680,
      "utch": 7681,
      "Ġplayers": 7682,
      "Ġpunishment": 7683,
      "ĠWords": 7684,
      "ĠKrist": 7685,
      "Ġstaying": 7686,
      "Ġpuns": 7687,
      "ĠFarmer": 7688,
      "ĠIraq": 7689,
      "parent": 7690,
      "Ġhelic": 7691,
      "Ġslam": 7692,
      "Ġproducts": 7693,
      "kk": 7694,
      "ĠKid": 7695,
      "Ġsurre": 7696,
      "ĠWatts": 7697,
      "ĠStand": 7698,
      "ĠMcDonald": 7699,
      "ribly": 7700,
      "idae": 7701,
      "olt": 7702,
      "Ġblur": 7703,
      "ĠGeneral": 7704,
      "Ġmile": 7705,
      "Ġqueen": 7706,
      "Ġdefine": 7707,
      "Up": 7708,
      "Ġfinanc": 7709,
      "\"...": 7710,
      "Ġsailor": 7711,
      "Ġvehicle": 7712,
      "ĠPsych": 7713,
      "ggy": 7714,
      "ĠCalifornia": 7715,
      "rior": 7716,
      "Ġstrip": 7717,
      "osure": 7718,
      "Ġmos": 7719,
      "ĠMick": 7720,
      "odes": 7721,
      "Ġcomments": 7722,
      "Ġskill": 7723,
      "Ġcomplicated": 7724,
      "ĠIll": 7725,
      "arts": 7726,
      "ja": 7727,
      "unks": 7728,
      "eeee": 7729,
      "ĠBryant": 7730,
      "sha": 7731,
      "Ġdign": 7732,
      "ĠVeg": 7733,
      "Pl": 7734,
      "ĠJam": 7735,
      "Ġtrapped": 7736,
      "Ġexperiment": 7737,
      "ANG": 7738,
      "Ġmiserable": 7739,
      "hhhh": 7740,
      "Ġtale": 7741,
      "Ġwire": 7742,
      "ĠLost": 7743,
      "Ġcolors": 7744,
      "give": 7745,
      "Ġsip": 7746,
      "Ġoven": 7747,
      "ĠAw": 7748,
      "viewer": 7749,
      "ĠChristianity": 7750,
      "ĠGrace": 7751,
      "Ġnative": 7752,
      "Ġstays": 7753,
      "ĠUntil": 7754,
      "nec": 7755,
      "ĠEuropean": 7756,
      "Ġcrisis": 7757,
      "Ne": 7758,
      "ĠTha": 7759,
      "ĠBas": 7760,
      "Ġdrawn": 7761,
      "Ġenormous": 7762,
      "Ġshift": 7763,
      "Ġmomma": 7764,
      "Ġsecretary": 7765,
      "Ġweapons": 7766,
      "Ġpencil": 7767,
      "ifle": 7768,
      "inde": 7769,
      "ĠKo": 7770,
      "âĢĶ": 7771,
      "coming": 7772,
      "ictionary": 7773,
      "ĠKassem": 7774,
      "mmm": 7775,
      "ubba": 7776,
      "ĠEp": 7777,
      "hess": 7778,
      "Ġcares": 7779,
      "Ġhurry": 7780,
      "Ġphrase": 7781,
      "Ġretire": 7782,
      "Ġstatus": 7783,
      "Ġfantastic": 7784,
      "Ġcrossed": 7785,
      "Ġequality": 7786,
      "Phone": 7787,
      "ĠVirginia": 7788,
      "Ġsymbol": 7789,
      "alo": 7790,
      "ada": 7791,
      "Ġincom": 7792,
      "Ġabsence": 7793,
      "ba": 7794,
      "Ġpriests": 7795,
      "liest": 7796,
      "Ġfurn": 7797,
      "Ġsurvived": 7798,
      "ĠBruce": 7799,
      "Ġreplace": 7800,
      "ĠMiddle": 7801,
      "olve": 7802,
      "Ġnoble": 7803,
      "Ġaccomplish": 7804,
      "Ġlovers": 7805,
      "Ġseeking": 7806,
      "ĠShould": 7807,
      "Ġconduct": 7808,
      "Ġrat": 7809,
      "Ġspider": 7810,
      "ĠHas": 7811,
      "Ġreluct": 7812,
      "Ġtools": 7813,
      "Ġevolution": 7814,
      "Ġmidnight": 7815,
      "True": 7816,
      "ĠAf": 7817,
      "iffe": 7818,
      "ĠWays": 7819,
      "Ġvirus": 7820,
      "ĠYears": 7821,
      "Ġnecessarily": 7822,
      "Ġintroduc": 7823,
      "Ġexhausted": 7824,
      "water": 7825,
      "ĠSav": 7826,
      "ĠGuin": 7827,
      "Ġtorture": 7828,
      "Ġnearest": 7829,
      "ĠKal": 7830,
      "Ġlibrarian": 7831,
      "Ġunhappy": 7832,
      "ĠDougl": 7833,
      "Int": 7834,
      "foot": 7835,
      "Ġmap": 7836,
      "akers": 7837,
      "merc": 7838,
      "Ġlawyers": 7839,
      "IA": 7840,
      "ĠWow": 7841,
      "Ġunus": 7842,
      "Ġmotorcy": 7843,
      "Ġmercy": 7844,
      "ĠCross": 7845,
      "Ġtwelve": 7846,
      "Ġdegrees": 7847,
      "Ġmuff": 7848,
      "lessness": 7849,
      "Ġprior": 7850,
      "Ġconscience": 7851,
      "Ġmedium": 7852,
      "ĠRussell": 7853,
      "Ġpushing": 7854,
      "otton": 7855,
      "Ġpolicy": 7856,
      "Ġwrapped": 7857,
      "Ġ?\"": 7858,
      "ĠCamp": 7859,
      "ules": 7860,
      "pher": 7861,
      "Ġsack": 7862,
      "Ġsoap": 7863,
      "Ġexpert": 7864,
      "Ġerection": 7865,
      "ifting": 7866,
      "Ġproclaim": 7867,
      "Ġstroke": 7868,
      "othy": 7869,
      "ĠBan": 7870,
      "ĠClub": 7871,
      "Ġbroad": 7872,
      "Ġpigs": 7873,
      "ĠOliver": 7874,
      "ayer": 7875,
      "ĠChristians": 7876,
      "Ġelectr": 7877,
      "Sex": 7878,
      "ria": 7879,
      "Ġwasted": 7880,
      "ĠFive": 7881,
      "Ġclothing": 7882,
      "Ġworlds": 7883,
      "Ġchallenges": 7884,
      "Ġprinciples": 7885,
      "arettes": 7886,
      "Ġentr": 7887,
      "Ġcutting": 7888,
      "Ġshine": 7889,
      "ĠJerry": 7890,
      "ometer": 7891,
      "ibl": 7892,
      "Ġlottery": 7893,
      "uu": 7894,
      "ifted": 7895,
      "ĠFerr": 7896,
      "resa": 7897,
      "Ġperspective": 7898,
      "Ġincredibly": 7899,
      "Ġattached": 7900,
      "aac": 7901,
      "Ġwherever": 7902,
      "Make": 7903,
      "Ġfrown": 7904,
      "ĠScot": 7905,
      "Ġstealing": 7906,
      "ENT": 7907,
      "Ġcriminal": 7908,
      "ellow": 7909,
      "Ġintent": 7910,
      "Ġapplic": 7911,
      "Ġblessed": 7912,
      "Ġtarget": 7913,
      "ĠCharlie": 7914,
      "Ġrarely": 7915,
      "ĠInto": 7916,
      "Ġorgasm": 7917,
      "ĠAst": 7918,
      "ĠCa": 7919,
      "ĠFree": 7920,
      "Ġruin": 7921,
      "moon": 7922,
      "olved": 7923,
      "ogue": 7924,
      "Ġfriendly": 7925,
      "rep": 7926,
      "esy": 7927,
      "ĠAge": 7928,
      "Ġcircus": 7929,
      "ĠTommy": 7930,
      "Ġoperation": 7931,
      "Ġfifth": 7932,
      "Ġstandard": 7933,
      "Ġsniff": 7934,
      "Ġbasis": 7935,
      "Ġwasting": 7936,
      "Ġlimits": 7937,
      "Nope": 7938,
      "Ġinha": 7939,
      "ĠHaving": 7940,
      "ĠRome": 7941,
      "usions": 7942,
      "ĠAdams": 7943,
      "Ġdealer": 7944,
      "Ġprepare": 7945,
      "ĠSky": 7946,
      "Ġ70": 7947,
      "Ġfundamental": 7948,
      "ĠJama": 7949,
      "aste": 7950,
      "Ġsection": 7951,
      "Ġgaze": 7952,
      "Ġmisery": 7953,
      "Ġinterviewer": 7954,
      "ĠIreland": 7955,
      "some": 7956,
      "Ġrevol": 7957,
      "oga": 7958,
      "Ġchaos": 7959,
      "encing": 7960,
      "ĠBlonde": 7961,
      "ĠChildren": 7962,
      "ucked": 7963,
      "Ġjoined": 7964,
      "ĠRichards": 7965,
      "ĠAp": 7966,
      "asted": 7967,
      "Ġdisappeared": 7968,
      "Ġfoolish": 7969,
      "Ġcaptured": 7970,
      "40": 7971,
      "ĠKier": 7972,
      "Ġtreated": 7973,
      "Ġmysterious": 7974,
      "usty": 7975,
      "ogether": 7976,
      "Ġchain": 7977,
      "EEEE": 7978,
      "sect": 7979,
      "ĠBurn": 7980,
      "Ġhomes": 7981,
      "Ġcollection": 7982,
      "Ġdemanded": 7983,
      "after": 7984,
      "Ġangels": 7985,
      "Ġbelongs": 7986,
      "Ġnails": 7987,
      "ĠEmp": 7988,
      "ĠTre": 7989,
      "live": 7990,
      "Ġjoint": 7991,
      "Ġpoliticians": 7992,
      "rete": 7993,
      "Ġfeature": 7994,
      "ĠBaby": 7995,
      "ĠEgypt": 7996,
      "Ġque": 7997,
      "ION": 7998,
      "Ġ500": 7999,
      "Ġprayers": 8000,
      "Ġdemocracy": 8001,
      "jamin": 8002,
      "Ġdread": 8003,
      "ĠRE": 8004,
      "abor": 8005,
      "Ġtouching": 8006,
      "Ġprotest": 8007,
      "Ġanxiety": 8008,
      "](": 8009,
      "than": 8010,
      "erd": 8011,
      "esty": 8012,
      "lines": 8013,
      "zhe": 8014,
      "Ġcunt": 8015,
      "ĠBird": 8016,
      "Ġinsist": 8017,
      "ĠPatient": 8018,
      "ĠNE": 8019,
      "Ġargue": 8020,
      "Ġwealthy": 8021,
      "hall": 8022,
      "ĠHot": 8023,
      "Ġtwin": 8024,
      "mat": 8025,
      "Ġdict": 8026,
      "Ġgrey": 8027,
      "etery": 8028,
      "Ġoblig": 8029,
      "stick": 8030,
      "Ġalley": 8031,
      "ĠNik": 8032,
      "ĠIsland": 8033,
      "Ġclimbs": 8034,
      "overnment": 8035,
      "Ġalligator": 8036,
      "Ġcho": 8037,
      "ĠStone": 8038,
      "Ġsharing": 8039,
      "Daddy": 8040,
      "Ġopinions": 8041,
      "Ġparachute": 8042,
      "Girl": 8043,
      "mes": 8044,
      "Ġprescri": 8045,
      "ĠUSA": 8046,
      "Ġlistened": 8047,
      "ĠRoad": 8048,
      "zo": 8049,
      "ĠHoney": 8050,
      "Ġplants": 8051,
      "Ġsteel": 8052,
      "Ġdesigned": 8053,
      "SS": 8054,
      "ugust": 8055,
      "Ġze": 8056,
      "Ġsending": 8057,
      "Ġtreatment": 8058,
      "Ġsnee": 8059,
      "Ke": 8060,
      "Ġgiraffe": 8061,
      "Ġappropri": 8062,
      "Ġsisters": 8063,
      "Ġdirections": 8064,
      "Ġmultiple": 8065,
      "abama": 8066,
      "Ġfoundation": 8067,
      "Ġcloses": 8068,
      "uke": 8069,
      "Ġshown": 8070,
      "Ġ45": 8071,
      "looking": 8072,
      "Ġwrest": 8073,
      "bro": 8074,
      "fire": 8075,
      "yy": 8076,
      "ĠWatch": 8077,
      "spir": 8078,
      "OOF": 8079,
      "Ġeffective": 8080,
      "Jokes": 8081,
      "jac": 8082,
      "Ġreaching": 8083,
      "Ġbushes": 8084,
      "Ġprivile": 8085,
      "Put": 8086,
      "Ġsust": 8087,
      "ĠJustin": 8088,
      "Ġhunger": 8089,
      "ĠTurns": 8090,
      "ĠNazi": 8091,
      "Ġnic": 8092,
      "Ġchasing": 8093,
      "Ġimagined": 8094,
      "Ġ\"...": 8095,
      "oren": 8096,
      "ĠMexicans": 8097,
      "Ġcases": 8098,
      "ĠNich": 8099,
      "Ġstrate": 8100,
      "dec": 8101,
      "Ġsticking": 8102,
      "Ġprincess": 8103,
      "Ġ36": 8104,
      "bara": 8105,
      "Doc": 8106,
      "Ġbone": 8107,
      "Ġhoriz": 8108,
      "ĠTHIS": 8109,
      "Ġdetails": 8110,
      "ĠWinter": 8111,
      "umn": 8112,
      "uced": 8113,
      "ĠBrother": 8114,
      "Ġclimbed": 8115,
      "Ġcookie": 8116,
      "Ġroutine": 8117,
      "Ġages": 8118,
      "iece": 8119,
      "ĠLauren": 8120,
      "pris": 8121,
      "reck": 8122,
      "ilot": 8123,
      "ummy": 8124,
      "olas": 8125,
      "Ġheading": 8126,
      "onsense": 8127,
      "ruit": 8128,
      "Ġearn": 8129,
      "Ġprem": 8130,
      "Ġconvince": 8131,
      "Ġdeny": 8132,
      "Ġax": 8133,
      "Ġamer": 8134,
      "itional": 8135,
      "aux": 8136,
      "Ġemail": 8137,
      "Ġviolent": 8138,
      "Ġhelicopter": 8139,
      "PP": 8140,
      "Ġspark": 8141,
      "ipes": 8142,
      "Ġleather": 8143,
      "ĠWHAT": 8144,
      "Act": 8145,
      "nic": 8146,
      "orough": 8147,
      "Ġpours": 8148,
      "arity": 8149,
      "Ġrealised": 8150,
      "Ġtire": 8151,
      "Ġthread": 8152,
      "Ġrot": 8153,
      "lections": 8154,
      "Ġcamping": 8155,
      "ĠWhe": 8156,
      "via": 8157,
      "ologists": 8158,
      "Ġdamage": 8159,
      "Ġslave": 8160,
      "Ġboots": 8161,
      "Ġmixed": 8162,
      "rific": 8163,
      "Ġbuff": 8164,
      "Ġcrashed": 8165,
      "80": 8166,
      "aust": 8167,
      "Ġsomewhat": 8168,
      "Ġ22": 8169,
      "Ġimportance": 8170,
      "ĠDreams": 8171,
      "Ġclient": 8172,
      "hett": 8173,
      "Ġowe": 8174,
      "Ġnewly": 8175,
      "Ġtrap": 8176,
      "Ġeffects": 8177,
      "ĠGladwell": 8178,
      "iable": 8179,
      "ĠCare": 8180,
      "porary": 8181,
      "Right": 8182,
      "Ġmud": 8183,
      "Ġcurt": 8184,
      "Ġthats": 8185,
      "Ġshy": 8186,
      "ĠPearl": 8187,
      "Got": 8188,
      "atherine": 8189,
      "Ġslams": 8190,
      "Ġcomedian": 8191,
      "Po": 8192,
      "aign": 8193,
      "ĠBhag": 8194,
      "Ġperpet": 8195,
      "Ġbasically": 8196,
      "Ġpianist": 8197,
      "Jim": 8198,
      "Ma": 8199,
      "Ġclaims": 8200,
      "ios": 8201,
      "Ġdestro": 8202,
      "Nah": 8203,
      "mers": 8204,
      "chett": 8205,
      "Ġruined": 8206,
      "Ġcigarettes": 8207,
      "irts": 8208,
      "ĠKhan": 8209,
      "uclear": 8210,
      "Ġarse": 8211,
      "Ġhomework": 8212,
      "Ġimmort": 8213,
      "Ġloneliness": 8214,
      "*\"": 8215,
      "Ġwore": 8216,
      "Ġhumble": 8217,
      "ĠBenjamin": 8218,
      "Ġghosts": 8219,
      "Ġgreatness": 8220,
      "ĠComp": 8221,
      "www": 8222,
      "Ġconsequences": 8223,
      "ĠDear": 8224,
      "ĠJokes": 8225,
      "Ġrestroom": 8226,
      "ĠBow": 8227,
      "ĠMarie": 8228,
      "gal": 8229,
      "wife": 8230,
      "Ġengage": 8231,
      "Ġultimately": 8232,
      "NO": 8233,
      "iture": 8234,
      "Ha": 8235,
      "Ġbold": 8236,
      "Ġisol": 8237,
      "Ġaffair": 8238,
      "ĠTa": 8239,
      "Ġparties": 8240,
      "Ġactive": 8241,
      "ĠExper": 8242,
      "Ġtreasure": 8243,
      "ĠVegas": 8244,
      "LD": 8245,
      "Ġgreed": 8246,
      "ĠRos": 8247,
      "ĠQuest": 8248,
      "ĠMet": 8249,
      "ika": 8250,
      "Ġcompliment": 8251,
      "Ġbicycle": 8252,
      "Ġdriven": 8253,
      "Ġperfection": 8254,
      "ĠFlor": 8255,
      "Ġofficial": 8256,
      "ĠJosh": 8257,
      "ĠLaur": 8258,
      "Ġpossibilities": 8259,
      "Ġsenses": 8260,
      "Ġfacing": 8261,
      "________________": 8262,
      "About": 8263,
      "orney": 8264,
      "ĠNa": 8265,
      "Ġglobal": 8266,
      "Ġmall": 8267,
      "Ġlemon": 8268,
      "ĠRet": 8269,
      "Ġshadows": 8270,
      "ĠWithin": 8271,
      "onav": 8272,
      "ĠWars": 8273,
      "olar": 8274,
      "ĠThinking": 8275,
      "Ġremained": 8276,
      "estic": 8277,
      "Ġsoftly": 8278,
      "which": 8279,
      "ĠEssays": 8280,
      "pherd": 8281,
      "ĠWed": 8282,
      "olves": 8283,
      "Ġreporter": 8284,
      "Ġschools": 8285,
      "Ġfarts": 8286,
      "ban": 8287,
      "ĠAT": 8288,
      "irk": 8289,
      "ĠMatt": 8290,
      "Ġwhist": 8291,
      "Ġguards": 8292,
      "Ġconnected": 8293,
      "IGHT": 8294,
      "Ġefforts": 8295,
      "ĠFord": 8296,
      "Ġconvention": 8297,
      "Ġexpand": 8298,
      "unn": 8299,
      "ierre": 8300,
      "Ġballoon": 8301,
      "Ġbees": 8302,
      "ĠStreet": 8303,
      "Ġdisaster": 8304,
      "ĠEmily": 8305,
      "Ġfields": 8306,
      "Ġdrew": 8307,
      "Ġcolour": 8308,
      "Ġchances": 8309,
      "Ġfinest": 8310,
      "ĠUniverse": 8311,
      "Ġstrangers": 8312,
      "Ġcemetery": 8313,
      "fight": 8314,
      "Ġpanda": 8315,
      "ĠMod": 8316,
      "Ġblows": 8317,
      "Ġsalad": 8318,
      "rolls": 8319,
      "ĠInspiration": 8320,
      "25": 8321,
      "ĠMid": 8322,
      "Ġshelf": 8323,
      "Ġrealizing": 8324,
      "ĠAsk": 8325,
      "Ġ911": 8326,
      "Ġtennis": 8327,
      "Ġemployees": 8328,
      "ĠBoss": 8329,
      "Ġchap": 8330,
      "ĠConn": 8331,
      "ĠMichelle": 8332,
      "ĠDouglas": 8333,
      "Mic": 8334,
      "away": 8335,
      "die": 8336,
      "got": 8337,
      "rm": 8338,
      "Ġmothers": 8339,
      "Ġgodd": 8340,
      "Ġphysicist": 8341,
      "ĠWalker": 8342,
      "Ġcandid": 8343,
      "Se": 8344,
      "Su": 8345,
      "Ġric": 8346,
      "Bill": 8347,
      "Ġbrow": 8348,
      "Ġfab": 8349,
      "Ġpale": 8350,
      "Ġjam": 8351,
      "Ġdrivers": 8352,
      "Ġobli": 8353,
      "Ġinterests": 8354,
      "Ġtoy": 8355,
      "Ġtoes": 8356,
      "Ġshrugs": 8357,
      "Ġbenefit": 8358,
      "days": 8359,
      "ĠTues": 8360,
      "Ġmanifest": 8361,
      "psy": 8362,
      "rugged": 8363,
      "ĠPhilip": 8364,
      "Ġspare": 8365,
      "Ġstew": 8366,
      "Ġunfortunately": 8367,
      "Ġecst": 8368,
      "recha": 8369,
      "Ġbald": 8370,
      "Ġdisag": 8371,
      "Ġtrained": 8372,
      "anguage": 8373,
      "Ġinstrument": 8374,
      "ĠFerrari": 8375,
      "col": 8376,
      "ĠBanger": 8377,
      "ĠCassandra": 8378,
      "unted": 8379,
      "henomen": 8380,
      "Ġmush": 8381,
      "Ġpackage": 8382,
      "Ġterrorist": 8383,
      "Ġbursts": 8384,
      "isms": 8385,
      "outs": 8386,
      "ĠPlan": 8387,
      "Ġstruggling": 8388,
      "Ġturtle": 8389,
      "every": 8390,
      "erving": 8391,
      "Ġdull": 8392,
      "Ġkicks": 8393,
      "Ġpresents": 8394,
      "Ġelection": 8395,
      "Ġdestination": 8396,
      "Ġphysics": 8397,
      "ĠHad": 8398,
      "Ġdisappears": 8399,
      "Ġdip": 8400,
      "Ġshed": 8401,
      "Ġscary": 8402,
      "Ġannoying": 8403,
      "Ġblanket": 8404,
      "cast": 8405,
      "za": 8406,
      "inem": 8407,
      "udge": 8408,
      "ĠKelly": 8409,
      "Ġoptions": 8410,
      "ALL": 8411,
      "TER": 8412,
      "Ġchin": 8413,
      "ĠLev": 8414,
      "ĠEverybody": 8415,
      "Ġstatement": 8416,
      "Ġidentify": 8417,
      "Ġcircumc": 8418,
      "Ġdebate": 8419,
      "Ġfruits": 8420,
      "ĠBetter": 8421,
      "Ġmajority": 8422,
      "Ġink": 8423,
      "Ġcontempl": 8424,
      "Tom": 8425,
      "Ġoffended": 8426,
      "ogy": 8427,
      "ĠDeyth": 8428,
      "Ġexplos": 8429,
      "Ġadults": 8430,
      "Ġcompanies": 8431,
      "Ġswallowed": 8432,
      "Ġunlike": 8433,
      "lieved": 8434,
      "Ġservices": 8435,
      "arded": 8436,
      "Ġleap": 8437,
      "ĠMommy": 8438,
      "Ġpity": 8439,
      "Ġgroups": 8440,
      "rolled": 8441,
      "uge": 8442,
      "Ġlux": 8443,
      "lers": 8444,
      "esc": 8445,
      "Ġsevent": 8446,
      "ressing": 8447,
      "Ġblessing": 8448,
      "Ġpist": 8449,
      "Ġath": 8450,
      "ictions": 8451,
      "Ġcruc": 8452,
      "Ġkisses": 8453,
      "Ġvacuum": 8454,
      "UU": 8455,
      "ghan": 8456,
      "ĠGoogle": 8457,
      "Ġzomb": 8458,
      "bi": 8459,
      "asper": 8460,
      "ayed": 8461,
      "ĠRa": 8462,
      "Ġsurvival": 8463,
      "ĠHum": 8464,
      "Ġterrified": 8465,
      "Ġfaithful": 8466,
      "Ġjudgment": 8467,
      "ĠPolit": 8468,
      "Ġpillow": 8469,
      "ĠGal": 8470,
      "ainted": 8471,
      "Whatever": 8472,
      "ĠKar": 8473,
      "ildren": 8474,
      "Ġprint": 8475,
      "Ġobsc": 8476,
      "ella": 8477,
      "Ġreck": 8478,
      "Ġpine": 8479,
      "ota": 8480,
      "ĠMerc": 8481,
      "Ġbananas": 8482,
      "ĠPolish": 8483,
      "Ġtowel": 8484,
      "Ġdisgusting": 8485,
      "oine": 8486,
      "Ġlightning": 8487,
      "Ġstumbles": 8488,
      "Ġwaking": 8489,
      "Ġrational": 8490,
      "Ġcoach": 8491,
      "Ġurge": 8492,
      "Ġpleasant": 8493,
      "ĠGot": 8494,
      "ptic": 8495,
      "Ġcausing": 8496,
      "ilosoph": 8497,
      "Ġencou": 8498,
      "Ġsausage": 8499,
      "ĠNative": 8500,
      "ĠViet": 8501,
      "Ġcheated": 8502,
      "mates": 8503,
      "Ġunusual": 8504,
      "eff": 8505,
      "lete": 8506,
      "ĠRab": 8507,
      "quis": 8508,
      "Ġchips": 8509,
      "Ġclasses": 8510,
      "Ġweigh": 8511,
      "ulp": 8512,
      "ouns": 8513,
      "Ġcorpor": 8514,
      "Ġconcern": 8515,
      "ĠEv": 8516,
      "ĠJill": 8517,
      "ĠAlabama": 8518,
      "Ġleaf": 8519,
      "Ġsituations": 8520,
      "Ġsample": 8521,
      "Ġdyslexic": 8522,
      "onavirus": 8523,
      "Ġpapers": 8524,
      "Ġowned": 8525,
      "ructor": 8526,
      "ĠWalter": 8527,
      "Ġfox": 8528,
      "aboli": 8529,
      "Ġ2020": 8530,
      "Ġexpectations": 8531,
      "Ġdisbelief": 8532,
      "Ġremark": 8533,
      "Ġconstit": 8534,
      "ĠMcGill": 8535,
      "case": 8536,
      "Ġabst": 8537,
      "ĠWhatever": 8538,
      "Ġveter": 8539,
      "Ġexciting": 8540,
      "Ġprecisely": 8541,
      "ught": 8542,
      "reement": 8543,
      "rigu": 8544,
      "Mother": 8545,
      "Ġlouder": 8546,
      "Ġpacked": 8547,
      "Ġknot": 8548,
      "ablish": 8549,
      "Ġfuckin": 8550,
      "ĠNational": 8551,
      "Ġparticip": 8552,
      "Ġadvance": 8553,
      "Ġconductor": 8554,
      "uzz": 8555,
      "pson": 8556,
      "Ġcollaps": 8557,
      "rive": 8558,
      "ĠLion": 8559,
      "Always": 8560,
      "Ġsuggests": 8561,
      "ĠAbhij": 8562,
      "cup": 8563,
      "rial": 8564,
      "Ġintim": 8565,
      "Whenever": 8566,
      "Ġresources": 8567,
      "Ġvegetables": 8568,
      "ublican": 8569,
      "ĠGay": 8570,
      "quila": 8571,
      "Ġscen": 8572,
      "Ġgarbage": 8573,
      "ĠAugust": 8574,
      "ĠFem": 8575,
      "Ġscore": 8576,
      "ĠEngine": 8577,
      "Red": 8578,
      "Ġcore": 8579,
      "Ġlick": 8580,
      "Ġlaund": 8581,
      "Ġsnail": 8582,
      "Ġdeepest": 8583,
      "state": 8584,
      "bey": 8585,
      "Gen": 8586,
      "Ġfond": 8587,
      "Ġenlight": 8588,
      "Its": 8589,
      "Ġpenny": 8590,
      "oral": 8591,
      "istan": 8592,
      "Ġspray": 8593,
      "Ġunp": 8594,
      "Ġcounting": 8595,
      "Ġcrocod": 8596,
      "from": 8597,
      "ĠiPhone": 8598,
      "Woman": 8599,
      "nold": 8600,
      "Ġbeats": 8601,
      "Ġpainted": 8602,
      "Ġconstruct": 8603,
      "Ġvegetable": 8604,
      "Ġartists": 8605,
      "ĠGrandma": 8606,
      "omeday": 8607,
      "Wor": 8608,
      "Ġpeas": 8609,
      "ĠIns": 8610,
      "Ġcompre": 8611,
      "ĠNewton": 8612,
      "Ġtiger": 8613,
      "Ġdrawing": 8614,
      "ĠGre": 8615,
      "ĠBarbara": 8616,
      "ĠSimon": 8617,
      "Death": 8618,
      "ĠAbhijit": 8619,
      "14": 8620,
      "ras": 8621,
      "ĠCourt": 8622,
      "Ġmighty": 8623,
      "Ġsooner": 8624,
      "Bet": 8625,
      "cat": 8626,
      "Ġlizard": 8627,
      "Ġjeans": 8628,
      "Ġfisherman": 8629,
      "Each": 8630,
      "craft": 8631,
      "imal": 8632,
      "neath": 8633,
      "Ġ23": 8634,
      "Ġexplanation": 8635,
      "Ġmanages": 8636,
      "ĠNate": 8637,
      "ELL": 8638,
      "ĠSqu": 8639,
      "Ġven": 8640,
      "Ġchase": 8641,
      "ĠBuddha": 8642,
      "aver": 8643,
      "ĠSummer": 8644,
      "Ġinspired": 8645,
      "ĠLarry": 8646,
      "Ġsupply": 8647,
      "Ġelephants": 8648,
      "Ġuncertain": 8649,
      "Ġsensitive": 8650,
      "ervative": 8651,
      "Ġalcoholic": 8652,
      "ĠJacob": 8653,
      "idal": 8654,
      "Ġthorough": 8655,
      "ulture": 8656,
      ".'\"": 8657,
      "ĠLetters": 8658,
      "askar": 8659,
      "ien": 8660,
      "ilst": 8661,
      "ĠAdd": 8662,
      "Ġshotgun": 8663,
      "Success": 8664,
      "Ġeyeb": 8665,
      "Ġwaters": 8666,
      "iop": 8667,
      "Ġpier": 8668,
      "ĠHy": 8669,
      "Ġendure": 8670,
      "ĠKiss": 8671,
      "ĠArmy": 8672,
      "ĠLeon": 8673,
      "ĠNaskar": 8674,
      "iper": 8675,
      "Ġantic": 8676,
      "Ġstorms": 8677,
      "Ġpraise": 8678,
      "Ġnasty": 8679,
      "outhern": 8680,
      "Hel": 8681,
      "Ġours": 8682,
      "Ġcowork": 8683,
      "Ġplanned": 8684,
      "Ġgentlemen": 8685,
      "ias": 8686,
      "oving": 8687,
      "verb": 8688,
      "belie": 8689,
      "equ": 8690,
      "Ġlanguages": 8691,
      "Ġdata": 8692,
      "Ġpressed": 8693,
      "ĠRad": 8694,
      "Ġpersons": 8695,
      "Ġdiscussion": 8696,
      "Ġmotorcycle": 8697,
      "rican": 8698,
      "Ġwound": 8699,
      "Ġlately": 8700,
      "Ġwhoever": 8701,
      "Ġtub": 8702,
      "ĠII": 8703,
      "ulse": 8704,
      "Ġdefense": 8705,
      "Ġhalfway": 8706,
      "Ġextraordinary": 8707,
      "En": 8708,
      "mitted": 8709,
      "uster": 8710,
      "arer": 8711,
      "ĠGodin": 8712,
      "Ġwars": 8713,
      "Ġhealing": 8714,
      "abled": 8715,
      "Ġpractical": 8716,
      "Ġcommitment": 8717,
      "Ġconcert": 8718,
      "Ġfaced": 8719,
      "ĠCre": 8720,
      "Ġhers": 8721,
      "ĠStart": 8722,
      "Ġphoto": 8723,
      "Ġsettled": 8724,
      "Nobody": 8725,
      "uana": 8726,
      "ĠMade": 8727,
      "Ġintention": 8728,
      "Ġpearly": 8729,
      "Ġfinancial": 8730,
      "vable": 8731,
      "Ġmour": 8732,
      "Ġpi": 8733,
      "udi": 8734,
      "Ġhusbands": 8735,
      "Ġequip": 8736,
      "asket": 8737,
      "ĠRiordan": 8738,
      "sorry": 8739,
      "Ġdial": 8740,
      "Ġpockets": 8741,
      "Ġunconscious": 8742,
      "ĠONE": 8743,
      "Ġliquor": 8744,
      "ĠFlorida": 8745,
      "will": 8746,
      "isy": 8747,
      "ĠCham": 8748,
      "Ġpole": 8749,
      "ĠMaraboli": 8750,
      "Ġgenerations": 8751,
      "Ġdestruction": 8752,
      "Ġstructure": 8753,
      "ĠSad": 8754,
      "ĠBer": 8755,
      "Ġvon": 8756,
      "rolling": 8757,
      "ĠBecome": 8758,
      "Ġ+": 8759,
      "Ġperception": 8760,
      "maid": 8761,
      "ophile": 8762,
      "Ġrevealed": 8763,
      "ĠLaura": 8764,
      "ĠGand": 8765,
      "lia": 8766,
      "Ġblown": 8767,
      "ĠLeo": 8768,
      "Ġprisoner": 8769,
      "ĠMercedes": 8770,
      "ĠScottish": 8771,
      "Out": 8772,
      "Ġtamp": 8773,
      "ĠALL": 8774,
      "ĠRyan": 8775,
      "shine": 8776,
      "Ġsuffered": 8777,
      "Ġlevels": 8778,
      "Ġescaped": 8779,
      "riel": 8780,
      "clock": 8781,
      "Ġdreamed": 8782,
      "Ġpopulation": 8783,
      "ĠAustralia": 8784,
      "Sc": 8785,
      "ĠCru": 8786,
      "Ġimpression": 8787,
      "ĠDada": 8788,
      "Ġhangs": 8789,
      "Ġappointment": 8790,
      "dad": 8791,
      "idly": 8792,
      "Ġdreaming": 8793,
      "ĠGirls": 8794,
      "inals": 8795,
      "Ġdun": 8796,
      "eting": 8797,
      "ĠDean": 8798,
      "Ġexplaining": 8799,
      "Ġcurse": 8800,
      "Ġmushroom": 8801,
      "PS": 8802,
      "Ġstudying": 8803,
      "Ġhunt": 8804,
      "Ġcandle": 8805,
      "Ġdigging": 8806,
      "gins": 8807,
      "Ġwicked": 8808,
      "Ġseal": 8809,
      "Ġbeaten": 8810,
      "Ġexception": 8811,
      "amps": 8812,
      "ĠDaughter": 8813,
      "Ġrange": 8814,
      "Ġbottles": 8815,
      "Ġwipe": 8816,
      "Ġdwell": 8817,
      "ĠSix": 8818,
      "Ġmadness": 8819,
      "stitute": 8820,
      "aman": 8821,
      "ĠNeed": 8822,
      "Ġignored": 8823,
      "Ġshark": 8824,
      "Ġthunder": 8825,
      "Ġrect": 8826,
      "ribut": 8827,
      "ĠDeep": 8828,
      "ronic": 8829,
      "Ġencounter": 8830,
      "Ġlogical": 8831,
      "Ġrevenge": 8832,
      "Ġseats": 8833,
      "ailed": 8834,
      "umbled": 8835,
      "Ġbasketball": 8836,
      "Ġta": 8837,
      "ĠAlder": 8838,
      "Ġidi": 8839,
      "ĠSuperman": 8840,
      "Ġvictims": 8841,
      "Ġgratitude": 8842,
      "fall": 8843,
      "IDS": 8844,
      "zheimer": 8845,
      "eous": 8846,
      "uary": 8847,
      "ouch": 8848,
      "Ġcrossing": 8849,
      "Ġexisted": 8850,
      "Ġdignity": 8851,
      "Ġbliss": 8852,
      "Ġclinic": 8853,
      "Ġdistant": 8854,
      "CT": 8855,
      "isle": 8856,
      "Ġpersonally": 8857,
      "Ġgap": 8858,
      "employ": 8859,
      "oster": 8860,
      "azing": 8861,
      "ĠMagic": 8862,
      "LY": 8863,
      "vet": 8864,
      "ĠBubba": 8865,
      "ĠRod": 8866,
      "Ġdoorbell": 8867,
      "ĠReg": 8868,
      "ĠThor": 8869,
      "Ġmisunder": 8870,
      "ĠWoods": 8871,
      "Ġharmony": 8872,
      "Ġpursuit": 8873,
      "Ġsixt": 8874,
      "ĠHold": 8875,
      "ĠED": 8876,
      "Ġqualities": 8877,
      "Ġinterpret": 8878,
      "Ġgrandson": 8879,
      "Ġrip": 8880,
      "Ġsupermarket": 8881,
      "Ġreplaced": 8882,
      "good": 8883,
      "acked": 8884,
      "Ġsheet": 8885,
      "Ġspotted": 8886,
      "Ġserving": 8887,
      "Ġinspiration": 8888,
      "ĠBernard": 8889,
      "ĠBhagwan": 8890,
      "Sec": 8891,
      "natural": 8892,
      "ĠCast": 8893,
      "Ġbrush": 8894,
      "Ġaddict": 8895,
      "ĠKorea": 8896,
      "ĠHunter": 8897,
      "Ġpec": 8898,
      "ĠPositive": 8899,
      "ĠInf": 8900,
      "ĠHAVE": 8901,
      "bel": 8902,
      "Ġpushes": 8903,
      "Ġthumb": 8904,
      "ĠGil": 8905,
      "Ġrelated": 8906,
      "Ġrefuses": 8907,
      "duce": 8908,
      "Ġfifteen": 8909,
      "Ġsore": 8910,
      "pless": 8911,
      "soft": 8912,
      "Ġadmitted": 8913,
      "point": 8914,
      "Ġlust": 8915,
      "Ġnap": 8916,
      "Ġhabits": 8917,
      "Ġteenage": 8918,
      "Ġcoin": 8919,
      "ĠJudge": 8920,
      "ĠAntoine": 8921,
      "Happiness": 8922,
      "ĠHop": 8923,
      "Ġcharity": 8924,
      "hetti": 8925,
      "Ġdecent": 8926,
      "ĠPrincess": 8927,
      "Ġremaining": 8928,
      "ĠWilde": 8929,
      "Ġbom": 8930,
      "Ġbore": 8931,
      "Ġrifle": 8932,
      "Ġlifts": 8933,
      "fold": 8934,
      "ĠWestern": 8935,
      "Ġrising": 8936,
      "overing": 8937,
      "ĠBuild": 8938,
      "ĠTimes": 8939,
      "istics": 8940,
      "ietz": 8941,
      "ĠBetween": 8942,
      "Ġreaders": 8943,
      "Ġ69": 8944,
      "Ġ99": 8945,
      "Ġimages": 8946,
      "ecker": 8947,
      "Ġhyster": 8948,
      "Ġapologize": 8949,
      "EY": 8950,
      "Ġarrange": 8951,
      "Ġsecure": 8952,
      "Ġappearance": 8953,
      "ĠBusiness": 8954,
      ".\".": 8955,
      "Ġarrog": 8956,
      "ĠMarine": 8957,
      "Ġwidow": 8958,
      "uction": 8959,
      "Ġ;": 8960,
      "Ġgal": 8961,
      "ĠLiber": 8962,
      "Ġarts": 8963,
      "Ġreminded": 8964,
      "Ġhug": 8965,
      "Ġscare": 8966,
      "Ġsocks": 8967,
      "Ġlabel": 8968,
      "Ġdesperately": 8969,
      "arrhea": 8970,
      "Ġconclusion": 8971,
      "BI": 8972,
      "Ġfist": 8973,
      "Ġforty": 8974,
      "ĠRen": 8975,
      "Ġpreparing": 8976,
      "Ġsurrender": 8977,
      "ifferent": 8978,
      "Ġtheater": 8979,
      "Ġerect": 8980,
      "ĠDest": 8981,
      "ormal": 8982,
      "ĠRowling": 8983,
      "Ġdictionary": 8984,
      "Ġnoises": 8985,
      "Ġhonestly": 8986,
      "Ġfuel": 8987,
      "adem": 8988,
      "Ġroommate": 8989,
      "ĠUncle": 8990,
      "Ġaccepts": 8991,
      "acter": 8992,
      "Ġvs": 8993,
      "Ġstandards": 8994,
      "retty": 8995,
      "Ġfails": 8996,
      "Ġrescue": 8997,
      "ĠWritings": 8998,
      "ĠRiver": 8999,
      "Ġgrammar": 9000,
      "Ġcampaign": 9001,
      "UST": 9002,
      "Ste": 9003,
      "heard": 9004,
      "ctop": 9005,
      "Ġcoinc": 9006,
      "Ġequipment": 9007,
      ".-": 9008,
      "vant": 9009,
      "Ġgamb": 9010,
      "ĠTry": 9011,
      "Welcome": 9012,
      "ented": 9013,
      "Ġnotion": 9014,
      "Ġcommunicate": 9015,
      "Ġinformed": 9016,
      "ĠBapt": 9017,
      "Ġplat": 9018,
      "ĠGermans": 9019,
      "Ġtroubles": 9020,
      "Ġvulner": 9021,
      "bird": 9022,
      "Ġpersist": 9023,
      "ĠCAN": 9024,
      "ĠPast": 9025,
      "ĠLI": 9026,
      "angle": 9027,
      "Ġstranded": 9028,
      "ĠGoodrich": 9029,
      "ĠPir": 9030,
      "Ġmansion": 9031,
      "Em": 9032,
      "Ġreview": 9033,
      "Ġsandwiches": 9034,
      "Ġproduced": 9035,
      "lix": 9036,
      "ĠShit": 9037,
      "Ġclimbing": 9038,
      "Ġpeanut": 9039,
      "Ġpistol": 9040,
      "Ġsouth": 9041,
      "Ġsorts": 9042,
      "Ġbul": 9043,
      "Ġyo": 9044,
      "Ġdeeds": 9045,
      "Ġraw": 9046,
      "ĠâĢ¢": 9047,
      "16": 9048,
      "ĠHead": 9049,
      "Ġproced": 9050,
      "OVE": 9051,
      "rish": 9052,
      "ser": 9053,
      "ĠBon": 9054,
      "Ġafterwards": 9055,
      "Ġdescend": 9056,
      "Ġcreativity": 9057,
      "becca": 9058,
      "ĠViagra": 9059,
      "Ġthee": 9060,
      "Ġwing": 9061,
      "attles": 9062,
      "Ġburden": 9063,
      "ĠLog": 9064,
      "ĠInc": 9065,
      "ĠAnyway": 9066,
      "Ġreceptionist": 9067,
      "Ġcaut": 9068,
      "etch": 9069,
      "urm": 9070,
      "Ġcommerc": 9071,
      "Ġheadache": 9072,
      "Ġmagaz": 9073,
      "Ġbasement": 9074,
      "Ġdeliber": 9075,
      "Ġrecognized": 9076,
      "Ġthrill": 9077,
      "ĠPop": 9078,
      "Ġteaches": 9079,
      "Ġattacked": 9080,
      "Ġignorant": 9081,
      "nda": 9082,
      "Ġitems": 9083,
      "Ġformed": 9084,
      "brough": 9085,
      "Ġoral": 9086,
      "ysis": 9087,
      "Ġtasted": 9088,
      "Ge": 9089,
      "sers": 9090,
      "Ġslap": 9091,
      "Ġcrush": 9092,
      "ĠSean": 9093,
      "Ġsem": 9094,
      "ĠPract": 9095,
      "Ġcovers": 9096,
      "Ġsyn": 9097,
      "Ġencourage": 9098,
      "Ġthirsty": 9099,
      "Ġpitch": 9100,
      "thy": 9101,
      "aghetti": 9102,
      "Read": 9103,
      "Ġtas": 9104,
      "ĠDisney": 9105,
      "Ġjewel": 9106,
      "Happy": 9107,
      "Ġindependent": 9108,
      "Ġsolitude": 9109,
      "ĠFriedrich": 9110,
      "irc": 9111,
      "Ġadjust": 9112,
      "Ġslide": 9113,
      "sche": 9114,
      "Ġremembers": 9115,
      "Say": 9116,
      "five": 9117,
      "love": 9118,
      "have": 9119,
      "Ġchess": 9120,
      "Ġawait": 9121,
      "Ġpatri": 9122,
      "Ġpromises": 9123,
      "Ġachieved": 9124,
      "Ġstatue": 9125,
      "Ġpurchase": 9126,
      "mann": 9127,
      "ĠThird": 9128,
      "Ġgray": 9129,
      "Ġsucked": 9130,
      "ĠSara": 9131,
      "OME": 9132,
      "Ġinstructions": 9133,
      "ellig": 9134,
      "Ġplot": 9135,
      "Ġrail": 9136,
      "Ġinevitable": 9137,
      "zil": 9138,
      "ethe": 9139,
      "Ġneut": 9140,
      "Ġdistinct": 9141,
      "Ġlays": 9142,
      "ĠWel": 9143,
      "Ġcarries": 9144,
      "Ġabsurd": 9145,
      "Ġestablish": 9146,
      "RS": 9147,
      "sen": 9148,
      "ĠGhost": 9149,
      "Ġvoc": 9150,
      "Ġbarrel": 9151,
      "rade": 9152,
      "ĠWright": 9153,
      "ecologist": 9154,
      "Ġvi": 9155,
      "Ġglorious": 9156,
      "Ġsteering": 9157,
      "Ġmeasured": 9158,
      "ĠTest": 9159,
      "Ġbru": 9160,
      "Ġbranch": 9161,
      "Ġrealise": 9162,
      "azed": 9163,
      "ĠGrant": 9164,
      "Off": 9165,
      "lying": 9166,
      "Ġjer": 9167,
      "unte": 9168,
      "ĠExt": 9169,
      "ĠZe": 9170,
      "Art": 9171,
      "Ġcenturies": 9172,
      "ĠBobby": 9173,
      "tuce": 9174,
      "ville": 9175,
      "orous": 9176,
      "verted": 9177,
      "Ġstall": 9178,
      "ĠEmerson": 9179,
      "Ġbuddies": 9180,
      "Four": 9181,
      "GE": 9182,
      "ĠAle": 9183,
      "Ġripped": 9184,
      "ĠIndians": 9185,
      "Ġannounces": 9186,
      "ĠReflections": 9187,
      "ĠTal": 9188,
      "Ġstable": 9189,
      "Ġmarks": 9190,
      "Ġsmallest": 9191,
      "Later": 9192,
      "Ġtoe": 9193,
      "ĠBall": 9194,
      "ucker": 9195,
      "Ġsched": 9196,
      "bsolute": 9197,
      "Ġirre": 9198,
      "Ġfools": 9199,
      "Ġprovided": 9200,
      "Ġward": 9201,
      "Ġinsisted": 9202,
      "ĠBull": 9203,
      "Ġlighter": 9204,
      "Ġfathers": 9205,
      "ĠComplete": 9206,
      "Ġpauses": 9207,
      "ĠHelp": 9208,
      "ĠPete": 9209,
      "gregation": 9210,
      "rechaun": 9211,
      "onic": 9212,
      "Ġbackground": 9213,
      "Ġfucks": 9214,
      "hhh": 9215,
      "pin": 9216,
      "Ġnations": 9217,
      "ĠGar": 9218,
      "ĠFox": 9219,
      "Ġbuzz": 9220,
      "ĠSpace": 9221,
      "ĠAbd": 9222,
      "Want": 9223,
      "pack": 9224,
      "wal": 9225,
      "Ġvend": 9226,
      "ĠBeta": 9227,
      "TIL": 9228,
      "ĠLuke": 9229,
      "Ġappropriate": 9230,
      "ailing": 9231,
      "ĠInside": 9232,
      "ĠHoward": 9233,
      "Ġserves": 9234,
      "Ġmagnific": 9235,
      "rigued": 9236,
      "jack": 9237,
      "ĠCO": 9238,
      "inders": 9239,
      "ĠKeller": 9240,
      "spect": 9241,
      "Ġaddicted": 9242,
      "Mommy": 9243,
      "Fr": 9244,
      "Suddenly": 9245,
      "woman": 9246,
      "Ġease": 9247,
      "Ġdriveway": 9248,
      "Ġfarted": 9249,
      "Ġphilosopher": 9250,
      "Ġdrowning": 9251,
      "ĠPic": 9252,
      "ĠLuther": 9253,
      "Ġspite": 9254,
      "ĠPrat": 9255,
      "ĠMurphy": 9256,
      "Ġattempts": 9257,
      "Ġdiscipline": 9258,
      "iments": 9259,
      "ĠPath": 9260,
      "ĠLy": 9261,
      "ĠRun": 9262,
      "ĠRebecca": 9263,
      "Ġtruths": 9264,
      "Ġpeaceful": 9265,
      "Again": 9266,
      "Could": 9267,
      "Ġties": 9268,
      "Ġfires": 9269,
      "Ġdarling": 9270,
      "ifies": 9271,
      "ĠNun": 9272,
      "Eng": 9273,
      "pal": 9274,
      "Ġcoast": 9275,
      "duct": 9276,
      "ĠRober": 9277,
      "leton": 9278,
      "antically": 9279,
      "Ġcheeks": 9280,
      "Ġsexually": 9281,
      "ESS": 9282,
      "anth": 9283,
      "hentic": 9284,
      "odd": 9285,
      "nedy": 9286,
      "Ġsidewalk": 9287,
      "Ġfastest": 9288,
      "WW": 9289,
      "Ġvain": 9290,
      "Ġsounded": 9291,
      "Ġhaircut": 9292,
      "Ġfilling": 9293,
      "Ġstrikes": 9294,
      "did": 9295,
      "Ġinstructor": 9296,
      "ĠClass": 9297,
      "Ġsadly": 9298,
[...]
