{
  "version": "1.0",
  "truncation": null,
  "padding": null,
  "added_tokens": [
    {
      "id": 0,
      "content": "<|pad|>",
      "single_word": false,
      "lstrip": false,
      "rstrip": false,
      "normalized": false,
      "special": true
    },
    {
      "id": 1,
      "content": "<|unk|>",
      "single_word": false,
      "lstrip": false,
      "rstrip": false,
      "normalized": false,
      "special": true
    },
    {
      "id": 2,
      "content": "<|mask|>",
      "single_word": false,
      "lstrip": false,
      "rstrip": false,
      "normalized": false,
      "special": true
    },
    {
      "id": 3,
      "content": "<|bos|>",
      "single_word": false,
      "lstrip": false,
      "rstrip": false,
      "normalized": false,
      "special": true
    },
    {
      "id": 4,
      "content": "<|eos|>",
      "single_word": false,
      "lstrip": false,
      "rstrip": false,
      "normalized": false,
      "special": true
    },
    {
      "id": 5,
      "content": "<|system|>",
      "single_word": false,
      "lstrip": false,
      "rstrip": false,
      "normalized": false,
      "special": true
    },
    {
      "id": 6,
      "content": "<|user|>",
      "single_word": false,
      "lstrip": false,
      "rstrip": false,
      "normalized": false,
      "special": true
    },
    {
      "id": 7,
      "content": "<|assistant|>",
      "single_word": false,
      "lstrip": false,
      "rstrip": false,
      "normalized": false,
      "special": true
    },
    {
      "id": 8,
      "content": "<|future1|>",
      "single_word": false,
      "lstrip": false,
      "rstrip": false,
      "normalized": false,
      "special": true
    },
    {
      "id": 9,
      "content": "<|future2|>",
      "single_word": false,
      "lstrip": false,
      "rstrip": false,
      "normalized": false,
      "special": true
    },
    {
      "id": 10,
      "content": "<|future3|>",
      "single_word": false,
      "lstrip": false,
      "rstrip": false,
      "normalized": false,
      "special": true
    },
    {
      "id": 11,
      "content": "<|future4|>",
      "single_word": false,
      "lstrip": false,
      "rstrip": false,
      "normalized": false,
      "special": true
    },
    {
      "id": 12,
      "content": "<|future5|>",
      "single_word": false,
      "lstrip": false,
      "rstrip": false,
      "normalized": false,
      "special": true
    },
    {
      "id": 13,
      "content": "<|future6|>",
      "single_word": false,
      "lstrip": false,
      "rstrip": false,
      "normalized": false,
      "special": true
    },
    {
      "id": 14,
      "content": "<|future7|>",
      "single_word": false,
      "lstrip": false,
      "rstrip": false,
      "normalized": false,
      "special": true
    },
    {
      "id": 15,
      "content": "<|future8|>",
      "single_word": false,
      "lstrip": false,
      "rstrip": false,
      "normalized": false,
      "special": true
    }
  ],
  "normalizer": null,
  "pre_tokenizer": {
    "type": "ByteLevel",
    "add_prefix_space": false,
    "trim_offsets": true,
    "use_regex": true
  },
  "post_processor": {
    "type": "TemplateProcessing",
    "single": [
      {
        "Sequence": {
          "id": "A",
          "type_id": 0
        }
      }
    ],
    "pair": [
      {
        "Sequence": {
          "id": "A",
          "type_id": 0
        }
      },
      {
        "Sequence": {
          "id": "B",
          "type_id": 1
        }
      }
    ],
    "special_tokens": {}
  },
  "decoder": {
    "type": "ByteLevel",
    "add_prefix_space": true,
    "trim_offsets": true,
    "use_regex": true
  },
  "model": {
    "type": "BPE",
    "dropout": null,
    "unk_token": "<|unk|>",
    "continuing_subword_prefix": null,
    "end_of_word_suffix": null,
    "fuse_unk": false,
    "byte_fallback": false,
    "ignore_merges": false,
    "vocab": {
      "<|pad|>": 0,
      "<|unk|>": 1,
      "<|mask|>": 2,
      "<|bos|>": 3,
      "<|eos|>": 4,
      "<|system|>": 5,
      "<|user|>": 6,
      "<|assistant|>": 7,
      "<|future1|>": 8,
      "<|future2|>": 9,
      "<|future3|>": 10,
      "<|future4|>": 11,
      "<|future5|>": 12,
      "<|future6|>": 13,
      "<|future7|>": 14,
      "<|future8|>": 15,
      "!": 16,
      "\"": 17,
      "#": 18,
      "$": 19,
      "%": 20,
      "&": 21,
      "'": 22,
      "(": 23,
      ")": 24,
      "*": 25,
      "+": 26,
      ",": 27,
      "-": 28,
      ".": 29,
      "/": 30,
      "0": 31,
      "1": 32,
      "2": 33,
      "3": 34,
      "4": 35,
      "5": 36,
      "6": 37,
      "7": 38,
      "8": 39,
      "9": 40,
      ":": 41,
      ";": 42,
      "<": 43,
      "=": 44,
      ">": 45,
      "?": 46,
      "@": 47,
      "A": 48,
      "B": 49,
      "C": 50,
      "D": 51,
      "E": 52,
      "F": 53,
      "G": 54,
      "H": 55,
      "I": 56,
      "J": 57,
      "K": 58,
      "L": 59,
      "M": 60,
      "N": 61,
      "O": 62,
      "P": 63,
      "Q": 64,
      "R": 65,
      "S": 66,
      "T": 67,
      "U": 68,
      "V": 69,
      "W": 70,
      "X": 71,
      "Y": 72,
      "Z": 73,
      "[": 74,
      "\\": 75,
      "]": 76,
      "^": 77,
      "_": 78,
      "`": 79,
      "a": 80,
      "b": 81,
      "c": 82,
      "d": 83,
      "e": 84,
      "f": 85,
      "g": 86,
      "h": 87,
      "i": 88,
      "j": 89,
      "k": 90,
      "l": 91,
      "m": 92,
      "n": 93,
      "o": 94,
      "p": 95,
      "q": 96,
      "r": 97,
      "s": 98,
      "t": 99,
      "u": 100,
      "v": 101,
      "w": 102,
      "x": 103,
      "y": 104,
      "z": 105,
      "{": 106,
      "|": 107,
      "}": 108,
      "~": 109,
      "¡": 110,
      "¢": 111,
      "£": 112,
      "¤": 113,
      "¥": 114,
      "¦": 115,
      "§": 116,
      "¨": 117,
      "©": 118,
      "ª": 119,
      "«": 120,
      "¬": 121,
      "®": 122,
      "¯": 123,
      "°": 124,
      "±": 125,
      "²": 126,
      "³": 127,
      "´": 128,
      "µ": 129,
      "¶": 130,
      "·": 131,
      "¸": 132,
      "¹": 133,
      "º": 134,
      "»": 135,
      "¼": 136,
      "½": 137,
      "¾": 138,
      "¿": 139,
      "Â": 140,
      "Ã": 141,
      "Ä": 142,
      "Å": 143,
      "Æ": 144,
      "Ç": 145,
      "È": 146,
      "É": 147,
      "Ê": 148,
      "Ë": 149,
      "Ì": 150,
      "Í": 151,
      "Î": 152,
      "Ï": 153,
      "Ð": 154,
      "Ñ": 155,
      "Ò": 156,
      "Ó": 157,
      "Ô": 158,
      "Õ": 159,
      "Ö": 160,
      "×": 161,
      "Ø": 162,
      "Ù": 163,
      "Ú": 164,
      "Û": 165,
      "Ü": 166,
      "Ý": 167,
      "Þ": 168,
      "ß": 169,
      "à": 170,
      "á": 171,
      "â": 172,
      "ã": 173,
      "ä": 174,
      "å": 175,
      "æ": 176,
      "ç": 177,
      "è": 178,
      "é": 179,
      "ê": 180,
      "ï": 181,
      "ð": 182,
      "ĉ": 183,
      "Ċ": 184,
      "č": 185,
      "Ġ": 186,
      "Ģ": 187,
      "ģ": 188,
      "Ĥ": 189,
      "ĥ": 190,
      "Ħ": 191,
      "ħ": 192,
      "Ĩ": 193,
      "ĩ": 194,
      "Ī": 195,
      "ī": 196,
      "Ĭ": 197,
      "ĭ": 198,
      "Į": 199,
      "į": 200,
      "İ": 201,
      "ı": 202,
      "Ĳ": 203,
      "ĳ": 204,
      "Ĵ": 205,
      "ĵ": 206,
      "Ķ": 207,
      "ķ": 208,
      "ĸ": 209,
      "Ĺ": 210,
      "ĺ": 211,
      "Ļ": 212,
      "ļ": 213,
      "Ľ": 214,
      "ľ": 215,
      "Ŀ": 216,
      "ŀ": 217,
      "Ł": 218,
      "ł": 219,
      "Ń": 220,
      "Ġt": 221,
      "he": 222,
      "Ġa": 223,
      "in": 224,
      "Ġthe": 225,
      "ĠĠ": 226,
      "Ġo": 227,
      "re": 228,
      "Ġw": 229,
      "Ġs": 230,
      "nd": 231,
      "er": 232,
      "at": 233,
      "on": 234,
      "is": 235,
      "Ġof": 236,
      "Ġb": 237,
      "it": 238,
      "en": 239,
      "ed": 240,
      "ou": 241,
      "Ġh": 242,
      "Ġf": 243,
      "Ġc": 244,
      "Ġm": 245,
      "es": 246,
      "or": 247,
      "Ġand": 248,
      "ar": 249,
      "Ġto": 250,
      "an": 251,
      "ing": 252,
      "ĠĠĠĠ": 253,
      "Ġp": 254,
      "Ġin": 255,
      "ll": 256,
      "as": 257,
      "Ġd": 258,
      "Ġth": 259,
      "Ġl": 260,
      "om": 261,
      "ic": 262,
      "Ġn": 263,
      "le": 264,
      "Ġhe": 265,
      "Ġbe": 266,
      "ion": 267,
      "al": 268,
      "ad": 269,
      "ot": 270,
      "st": 271,
      "Ġe": 272,
      "Ġg": 273,
      "ent": 274,
      "ĠI": 275,
      "ve": 276,
      "ut": 277,
      "se": 278,
      "ow": 279,
      "ly": 280,
      "im": 281,
      "ce": 282,
      "Ġwh": 283,
      "Ġre": 284,
      "id": 285,
      "ld": 286,
      "ĠT": 287,
      "ir": 288,
      "gh": 289,
      "Ġthat": 290,
      "ur": 291,
      "Ġon": 292,
      "et": 293,
      "ver": 294,
      "Ġwas": 295,
      "ith": 296,
      "ĠĠĠĠĠĠĠĠ": 297,
      "ay": 298,
      "Ġit": 299,
      "Ġu": 300,
      "ro": 301,
      "ct": 302,
      "Ġfor": 303,
      "Ġy": 304,
      "Ġis": 305,
      "Ġas": 306,
      "ch": 307,
      "ĠS": 308,
      "am": 309,
      "Ġwith": 310,
      "ĠA": 311,
      "ri": 312,
      "and": 313,
      "Ġwe": 314,
      "Ġhis": 315,
      "the": 316,
      "Ġst": 317,
      "ĠC": 318,
      "ter": 319,
      "ĠM": 320,
      "Ġan": 321,
      "th": 322,
      "ght": 323,
      "ain": 324,
      "Ġyou": 325,
      "--": 326,
      "all": 327,
      "Ġat": 328,
      "il": 329,
      "ill": 330,
      "Ġnot": 331,
      "ĠH": 332,
      "ĠThe": 333,
      "ĠB": 334,
      "if": 335,
      "ave": 336,
      "ich": 337,
      "oo": 338,
      "Ġby": 339,
      "Ġhad": 340,
      "ation": 341,
      "ould": 342,
      "Ġse": 343,
      "ess": 344,
      "rom": 345,
      "ke": 346,
      "red": 347,
      "Ġsu": 348,
      "ra": 349,
      "pe": 350,
      "ul": 351,
      "Ġ1": 352,
      "us": 353,
      "ge": 354,
      "Ġde": 355,
      "ore": 356,
      "Ġ\"": 357,
      "Ġwhich": 358,
      "Ġsh": 359,
      "'s": 360,
      "qu": 361,
      "ĠĠĠ": 362,
      "ĠP": 363,
      "ac": 364,
      "her": 365,
      "Ġor": 366,
      "Ġcon": 367,
      "res": 368,
      "est": 369,
      "ĠW": 370,
      "ab": 371,
      "ol": 372,
      "Ġher": 373,
      "Ġme": 374,
      "Ġfrom": 375,
      "Ġv": 376,
      "ers": 377,
      "Ġhave": 378,
      "ant": 379,
      "Ġso": 380,
      "ome": 381,
      "nt": 382,
      "ard": 383,
      "Ġex": 384,
      "Ġhim": 385,
      "ist": 386,
      "os": 387,
      "ous": 388,
      "um": 389,
      "em": 390,
      "pp": 391,
      "ĠL": 392,
      "Ġall": 393,
      "ĠG": 394,
      "Ġbut": 395,
      "Ġthis": 396,
      "ight": 397,
      "our": 398,
      "ate": 399,
      "Ġne": 400,
      "Ġare": 401,
      "ĠF": 402,
      "Ġr": 403,
      "ust": 404,
      "to": 405,
      "Ġk": 406,
      "ie": 407,
      "Ġwere": 408,
      "ĠD": 409,
      "art": 410,
      "ig": 411,
      "Ġ_": 412,
      ".\"": 413,
      "ĠO": 414,
      "Ġsa": 415,
      "Ġthey": 416,
      "ĠE": 417,
      "ast": 418,
      "el": 419,
      "un": 420,
      "Ġwhe": 421,
      "Ġch": 422,
      "Ġup": 423,
      "Ġwho": 424,
      "iv": 425,
      "ĠR": 426,
      "ong": 427,
      "ĠĠĠĠĠĠĠĠĠĠĠĠĠĠĠĠ": 428,
      "Ġtheir": 429,
      "Ġmy": 430,
      "Ġshe": 431,
      "ive": 432,
      "Ġal": 433,
      "Ġcom": 434,
      "ĠN": 435,
      "pt": 436,
      "ort": 437,
      "Ġman": 438,
      "ity": 439,
      "ame": 440,
      "Ġone": 441,
      "very": 442,
      "ound": 443,
      "ind": 444,
      "Ġpro": 445,
      "od": 446,
      "out": 447,
      "The": 448,
      "Ġdo": 449,
      "ies": 450,
      "Ġthem": 451,
      "ak": 452,
      "ther": 453,
      "ood": 454,
      "ost": 455,
      "Ġab": 456,
      "op": 457,
      "ure": 458,
      "te": 459,
      ",\"": 460,
      "av": 461,
      "Ġno": 462,
      "ord": 463,
      "sel": 464,
      "reat": 465,
      "ect": 466,
      "ry": 467,
      "ĠJ": 468,
      "Ġbeen": 469,
      "ough": 470,
      "Ġle": 471,
      "ag": 472,
      "ap": 473,
      "ment": 474,
      "ff": 475,
      "one": 476,
      "own": 477,
      "Ġpl": 478,
      "ell": 479,
      "Ġ2": 480,
      "ish": 481,
      "Ġthere": 482,
      "ck": 483,
      "ine": 484,
      "ne": 485,
      "Ġwould": 486,
      "ci": 487,
      "ance": 488,
      "Ġar": 489,
      "Ġwill": 490,
      "Ġsaid": 491,
      "au": 492,
      "Ġ(": 493,
      "ond": 494,
      "ass": 495,
      "cc": 496,
      "ose": 497,
      "ide": 498,
      "Ġout": 499,
      "itt": 500,
      "hed": 501,
      "ĠHe": 502,
      "ence": 503,
      "pl": 504,
      "able": 505,
      "are": 506,
      "ace": 507,
      "ud": 508,
      "Ġj": 509,
      "of": 510,
      "per": 511,
      "ice": 512,
      "Ġtr": 513,
      "Ġfe": 514,
      "ake": 515,
      "Ġwhen": 516,
      "ount": 517,
      "Ġqu": 518,
      "ook": 519,
      "ime": 520,
      "Ġmore": 521,
      "Ġun": 522,
      "ack": 523,
      "Ġother": 524,
      "Ġwor": 525,
      "ally": 526,
      "ib": 527,
      "Ġhas": 528,
      "Ġag": 529,
      "Ġsp": 530,
      "ions": 531,
      "Ġad": 532,
      "ans": 533,
      "ary": 534,
      "ade": 535,
      "self": 536,
      "we": 537,
      "ire": 538,
      "Ġany": 539,
      "Ġsome": 540,
      "Ġcan": 541,
      "ars": 542,
      "Ġkn": 543,
      "Ġim": 544,
      "Ġinto": 545,
      "Ġen": 546,
      "Ġtw": 547,
      "ated": 548,
      "ĠTh": 549,
      "ven": 550,
      "Ġgo": 551,
      "ree": 552,
      "Ġus": 553,
      "ove": 554,
      "Ġdis": 555,
      "Ġif": 556,
      "ue": 557,
      "fore": 558,
      "ĠIt": 559,
      "nder": 560,
      "Ġcl": 561,
      "age": 562,
      "ng": 563,
      "Ġam": 564,
      "ite": 565,
      "ress": 566,
      "Ġgr": 567,
      "ep": 568,
      "ike": 569,
      "fter": 570,
      "Ġro": 571,
      "Ġits": 572,
      "Ġthan": 573,
      "ĠĠĠĠĠ": 574,
      "ays": 575,
      "be": 576,
      "urn": 577,
      "Ġbr": 578,
      "other": 579,
      "Ġour": 580,
      "bl": 581,
      "ber": 582,
      "wn": 583,
      "ings": 584,
      "Ġper": 585,
      "cl": 586,
      "'t": 587,
      "Ġgreat": 588,
      "oll": 589,
      "Ġpr": 590,
      "Ġvery": 591,
      "Ġtime": 592,
      "ach": 593,
      "act": 594,
      "Ġpart": 595,
      "ious": 596,
      "Ġcould": 597,
      "ile": 598,
      "Ġ3": 599,
      "Ġwhat": 600,
      "Ġupon": 601,
      "ought": 602,
      "Ġyour": 603,
      "ru": 604,
      "ip": 605,
      "tain": 606,
      "ved": 607,
      "ang": 608,
      "ied": 609,
      "ĠCh": 610,
      "uch": 611,
      "oy": 612,
      "fe": 613,
      "ty": 614,
      "ick": 615,
      "Ġonly": 616,
      "Ġpre": 617,
      "Ġover": 618,
      "ĠIn": 619,
      "..": 620,
      "Ġabout": 621,
      "ia": 622,
      "Ġbl": 623,
      "ittle": 624,
      "Ġ|": 625,
      "for": 626,
      "ons": 627,
      "----": 628,
      "Ġmay": 629,
      "ath": 630,
      "Ġnow": 631,
      "?\"": 632,
      "ĠMr": 633,
      "Ġfl": 634,
      "hing": 635,
      "ren": 636,
      "Ġtwo": 637,
      "ull": 638,
      "irst": 639,
      "ife": 640,
      "ign": 641,
      "ĠV": 642,
      "Ġthen": 643,
      "Ġ'": 644,
      "00": 645,
      "Ġlike": 646,
      "Ġpe": 647,
      "ark": 648,
      "wh": 649,
      "Ġmade": 650,
      "ĠK": 651,
      "ild": 652,
      "Ġshould": 653,
      "so": 654,
      "Ġagain": 655,
      "Ġafter": 656,
      "ink": 657,
      "ward": 658,
      "ian": 659,
      "int": 660,
      "ather": 661,
      "Ġknow": 662,
      "ĠSt": 663,
      "ful": 664,
      "Ġye": 665,
      "man": 666,
      "Ġdid": 667,
      "ĠAnd": 668,
      "Ġpo": 669,
      "Ġres": 670,
      "Ġoff": 671,
      "_,": 672,
      "Ġdes": 673,
      "Ġtoo": 674,
      "ness": 675,
      "Ġthese": 676,
      "ise": 677,
      "iz": 678,
      "air": 679,
      "Ġlittle": 680,
      "Ġsee": 681,
      "Ġrem": 682,
      "ces": 683,
      "Ġhand": 684,
      "Ġthr": 685,
      "de": 686,
      "Ġunder": 687,
      "Ġri": 688,
      "old": 689,
      "Ġsuch": 690,
      "ĠY": 691,
      "ition": 692,
      "ory": 693,
      "ens": 694,
      "ĠBut": 695,
      "orn": 696,
      "iss": 697,
      "oss": 698,
      "end": 699,
      "ater": 700,
      "land": 701,
      "Ġcomm": 702,
      "Ġcomp": 703,
      "Ġbefore": 704,
      "Ġspe": 705,
      "Ġcont": 706,
      "og": 707,
      "sh": 708,
      "Ġfirst": 709,
      "Ġhow": 710,
      "Ġ18": 711,
      "Ġgood": 712,
      "Ġlong": 713,
      "Ġmust": 714,
      "ations": 715,
      "Ġwhere": 716,
      "Ġsc": 717,
      "Ġ4": 718,
      "ft": 719,
      "ict": 720,
      "Ġmost": 721,
      "aw": 722,
      "Ġmuch": 723,
      "ical": 724,
      "hen": 725,
      "ced": 726,
      "ult": 727,
      "mer": 728,
      "ener": 729,
      "Ġbet": 730,
      "Ġcons": 731,
      "Ġmen": 732,
      "Ġevery": 733,
      "Ġbec": 734,
      "Ġsm": 735,
      "Ġacc": 736,
      "ors": 737,
      "not": 738,
      "Ġlook": 739,
      "hes": 740,
      "ĠĠĠĠĠĠ": 741,
      "ily": 742,
      "Ġimp": 743,
      "ase": 744,
      "ER": 745,
      "Ġdown": 746,
      "ction": 747,
      "._": 748,
      "Ġob": 749,
      "Ġown": 750,
      "ouse": 751,
      "ady": 752,
      "Ġra": 753,
      "Ġwell": 754,
      "oth": 755,
      "ph": 756,
      "resent": 757,
      "Ġday": 758,
      "Ġthose": 759,
      "Ġbeing": 760,
      "âĶ": 761,
      "led": 762,
      "!\"": 763,
      "Ġold": 764,
      "Ġeven": 765,
      "way": 766,
      "Ġwork": 767,
      "igh": 768,
      "les": 769,
      "ves": 770,
      "ble": 771,
      "Ġapp": 772,
      "that": 773,
      "rit": 774,
      "Ġap": 775,
      "Ġpass": 776,
      "app": 777,
      "ran": 778,
      "Ġsay": 779,
      "hat": 780,
      "Ġthrough": 781,
      "Ġmany": 782,
      "ject": 783,
      "Ġent": 784,
      "ial": 785,
      ".,": 786,
      "Ġnever": 787,
      "ail": 788,
      "ock": 789,
      "Ġsame": 790,
      "Ġcall": 791,
      "Ġfound": 792,
      "pect": 793,
      "ause": 794,
      "Ġway": 795,
      "med": 796,
      "ix": 797,
      "Ġsl": 798,
      "Ġrep": 799,
      "Ġgl": 800,
      "ates": 801,
      "ower": 802,
      "Ġser": 803,
      "Ġatt": 804,
      "ried": 805,
      "ople": 806,
      "ĠU": 807,
      "Ġhere": 808,
      "over": 809,
      "ex": 810,
      "atter": 811,
      "Ġ5": 812,
      "con": 813,
      "ents": 814,
      "Ġmight": 815,
      "Ġbel": 816,
      "du": 817,
      "Ġshall": 818,
      "Ġcount": 819,
      "Ġcame": 820,
      "Ġsub": 821,
      "ished": 822,
      "Ġseem": 823,
      "Ġlife": 824,
      "Ġdist": 825,
      "ible": 826,
      "Ġback": 827,
      "ared": 828,
      "less": 829,
      "Ġthink": 830,
      "ss": 831,
      "ollow": 832,
      "Ġmake": 833,
      "ked": 834,
      "Ġcome": 835,
      "Ġlet": 836,
      "ple": 837,
      "und": 838,
      "Ġear": 839,
      "Ġhimself": 840,
      "ret": 841,
      "Ġey": 842,
      "oc": 843,
      "ever": 844,
      "up": 845,
      "ms": 846,
      "Ġwithout": 847,
      "ited": 848,
      "cess": 849,
      "Ġjust": 850,
      "Ġlast": 851,
      "Ġop": 852,
      "with": 853,
      "aving": 854,
      "his": 855,
      "ual": 856,
      "Ġend": 857,
      "Ġalso": 858,
      "Ġem": 859,
      "Ġthought": 860,
      "com": 861,
      "ĠĠĠĠĠĠĠ": 862,
      "ince": 863,
      "HE": 864,
      "Ġcar": 865,
      "ertain": 866,
      "ew": 867,
      "omet": 868,
      "Ġfar": 869,
      "row": 870,
      "Ġrel": 871,
      "âĢ": 872,
      "su": 873,
      "ĠShe": 874,
      "ks": 875,
      "Ġke": 876,
      "Ġfri": 877,
      "Ġbeg": 878,
      "aking": 879,
      "rest": 880,
      "Ġchar": 881,
      "Ġplace": 882,
      "ened": 883,
      "uth": 884,
      "ered": 885,
      "ted": 886,
      "Ġret": 887,
      "Ġ*": 888,
      "Ġac": 889,
      "get": 890,
      "Ġsupp": 891,
      "ular": 892,
      "Ġappe": 893,
      "Ġpeople": 894,
      "ON": 895,
      "Ġnew": 896,
      "its": 897,
      "Ġnat": 898,
      "Ġsec": 899,
      "ĠThis": 900,
      "Ġreg": 901,
      "ope": 902,
      "Ġ6": 903,
      "me": 904,
      "Ġhead": 905,
      "Ġinst": 906,
      "ĠThey": 907,
      "Ġinte": 908,
      "'d": 909,
      "Ġstill": 910,
      "Ġword": 911,
      "der": 912,
      "Ġdif": 913,
      "ale": 914,
      "It": 915,
      "Ġte": 916,
      "Ġfollow": 917,
      "Ġright": 918,
      "Ġpers": 919,
      "Ġcour": 920,
      "cept": 921,
      "Ġyears": 922,
      "He": 923,
      "Ġstr": 924,
      "vent": 925,
      "ween": 926,
      "ĠWe": 927,
      "imes": 928,
      "Ġwhile": 929,
      "here": 930,
      "gg": 931,
      "ĠĠĠĠĠĠĠĠĠĠĠĠĠĠĠĠĠĠĠĠĠĠĠĠ": 932,
      "ubl": 933,
      "Ġtake": 934,
      "ier": 935,
      "ĠEng": 936,
      "Ġget": 937,
      "Ġexp": 938,
      "ither": 939,
      "ner": 940,
      "Ġthree": 941,
      "Ġwar": 942,
      "Ġgiv": 943,
      "vers": 944,
      "ton": 945,
      "but": 946,
      "Ġset": 947,
      "ii": 948,
      "Ġrec": 949,
      "Ġturn": 950,
      "cy": 951,
      "Ġwent": 952,
      "Ġaway": 953,
      "ently": 954,
      "was": 955,
      "Ġwom": 956,
      "ob": 957,
      "ning": 958,
      "ined": 959,
      "ures": 960,
      "Ġsur": 961,
      "aid": 962,
      "IN": 963,
      "ool": 964,
      "Ġgener": 965,
      "Ġact": 966,
      "Ġ8": 967,
      "oh": 968,
      "ont": 969,
      "hy": 970,
      "Ġbo": 971,
      "ters": 972,
      "âĶĢ": 973,
      "Ġfriend": 974,
      "Ġpresent": 975,
      "ract": 976,
      "Ġco": 977,
      "most": 978,
      "ĠOf": 979,
      "ins": 980,
      "Ġlar": 981,
      "Ġwr": 982,
      "als": 983,
      "Ġagainst": 984,
      "Ġnor": 985,
      "osed": 986,
      "ts": 987,
      "ser": 988,
      "Ġocc": 989,
      "Ġmar": 990,
      "ĠGod": 991,
      "ody": 992,
      "ived": 993,
      "Ġ;": 994,
      "Ġposs": 995,
      "Ġyet": 996,
      "Ġhouse": 997,
      "Ġput": 998,
      "ĠSe": 999,
      "ten": 1000,
      "by": 1001,
      "ants": 1002,
      "Ġyoung": 1003,
      "ffect": 1004,
      "Ġeach": 1005,
      "AN": 1006,
      "ways": 1007,
      "Ġpur": 1008,
      "Ġleft": 1009,
      "Ġever": 1010,
      "any": 1011,
      "Ġthough": 1012,
      "aken": 1013,
      "Ġind": 1014,
      "att": 1015,
      "ief": 1016,
      "Ġbetween": 1017,
      "alf": 1018,
      "pr": 1019,
      "Ġnear": 1020,
      "Ġanother": 1021,
      "ĠThere": 1022,
      "Ġfew": 1023,
      "aut": 1024,
      "oot": 1025,
      "ired": 1026,
      "fl": 1027,
      "Ġchild": 1028,
      "outh": 1029,
      "Ġ7": 1030,
      "men": 1031,
      "âĶĢâĶĢ": 1032,
      "cri": 1033,
      "ised": 1034,
      "Ġeyes": 1035,
      "),": 1036,
      "amp": 1037,
      "Ġfind": 1038,
      "Ġ[": 1039,
      "ĠOF": 1040,
      "Ġnight": 1041,
      "Ġworld": 1042,
      "In": 1043,
      "And": 1044,
      "rist": 1045,
      "Ġunt": 1046,
      "Ġheart": 1047,
      "ating": 1048,
      "Ġstre": 1049,
      "ments": 1050,
      "apt": 1051,
      "uring": 1052,
      "den": 1053,
      "ting": 1054,
      "ities": 1055,
      "Ġter": 1056,
      "Ġsomet": 1057,
      "Ġinc": 1058,
      "my": 1059,
      "Ġonce": 1060,
      "Ġlight": 1061,
      "II": 1062,
      "ason": 1063,
      "Ġple": 1064,
      "Ġgive": 1065,
      "Ġcountry": 1066,
      "Ġmind": 1067,
      "AR": 1068,
      "Ġev": 1069,
      "Ġsmall": 1070,
      "Ġcalled": 1071,
      "ĠAs": 1072,
      "Ġname": 1073,
      "ene": 1074,
      "Ġadd": 1075,
      "Ġwater": 1076,
      "rent": 1077,
      "eth": 1078,
      "Ġtell": 1079,
      "Ġinter": 1080,
      "rew": 1081,
      "ross": 1082,
      "thing": 1083,
      "Ġkind": 1084,
      "Ġ10": 1085,
      "Ġbu": 1086,
      "selves": 1087,
      "Ġmin": 1088,
      "Ġrest": 1089,
      "Ġlove": 1090,
      "Ġside": 1091,
      "oun": 1092,
      "Ġ17": 1093,
      "ows": 1094,
      "iness": 1095,
      "Ġgu": 1096,
      "Ġmon": 1097,
      "Ġnum": 1098,
      "ged": 1099,
      "Ġdel": 1100,
      "ES": 1101,
      "alk": 1102,
      "az": 1103,
      "Ġwhole": 1104,
      "Ġnothing": 1105,
      "EN": 1106,
      "Ġtook": 1107,
      "Ġland": 1108,
      "aps": 1109,
      "But": 1110,
      "'ll": 1111,
      "ern": 1112,
      "Ġamong": 1113,
      "Ġext": 1114,
      "Ġboth": 1115,
      "Ġ19": 1116,
      "lish": 1117,
      "Ġconf": 1118,
      "new": 1119,
      "Ġsaw": 1120,
      "Ġform": 1121,
      "Ġread": 1122,
      "ched": 1123,
      "aster": 1124,
      "OR": 1125,
      "ĠRe": 1126,
      "Ġreturn": 1127,
      "Ġface": 1128,
      "ls": 1129,
      "ines": 1130,
      "Ġhaving": 1131,
      "ully": 1132,
      "ains": 1133,
      "Ġwant": 1134,
      "Ġpoint": 1135,
      "Ġcertain": 1136,
      "ohn": 1137,
      "wards": 1138,
      "ĠAn": 1139,
      "ug": 1140,
      "Ġ9": 1141,
      "ained": 1142,
      "Ġsent": 1143,
      "Ġass": 1144,
      "Ġalways": 1145,
      "ute": 1146,
      "which": 1147,
      ".'": 1148,
      "ution": 1149,
      "ield": 1150,
      "Ġref": 1151,
      "read": 1152,
      "Ġhapp": 1153,
      "ider": 1154,
      "Ġlarge": 1155,
      "Ġest": 1156,
      "Ġdisc": 1157,
      "Ġthings": 1158,
      "Ġfact": 1159,
      "ably": 1160,
      "Ġcol": 1161,
      "ident": 1162,
      "gr": 1163,
      "ah": 1164,
      "ately": 1165,
      "--------": 1166,
      "tend": 1167,
      "ĠAr": 1168,
      "Ġfam": 1169,
      "mon": 1170,
      "Ġcond": 1171,
      "ub": 1172,
      "Ġart": 1173,
      "day": 1174,
      "ĠFor": 1175,
      "ublic": 1176,
      "ote": 1177,
      "ians": 1178,
      "_.": 1179,
      "ĠTHE": 1180,
      "Ġseen": 1181,
      "Ġsoon": 1182,
      "Ġadv": 1183,
      "Ġsw": 1184,
      "ĠĠĠĠĠĠĠĠĠĠĠĠĠĠĠĠĠĠĠĠĠĠĠĠĠĠĠĠĠĠĠĠ": 1185,
      "Ġpower": 1186,
      "ific": 1187,
      "ison": 1188,
      "ĠHis": 1189,
      "pro": 1190,
      "ĠâĢ": 1191,
      "ank": 1192,
      "Ġcle": 1193,
      "Ġless": 1194,
      "Ġmil": 1195,
      "Ġins": 1196,
      "Ġwhom": 1197,
      "ĠIf": 1198,
      "ceed": 1199,
      "ury": 1200,
      "ĠAl": 1201,
      "iet": 1202,
      "ird": 1203,
      "Ġcr": 1204,
      "urch": 1205,
      "ĠYou": 1206,
      "ĠAt": 1207,
      "Ġhum": 1208,
      "ĠDe": 1209,
      "Ġfeel": 1210,
      "Ġdon": 1211,
      "ives": 1212,
      "Ġtri": 1213,
      "Ġfather": 1214,
      "Ġmom": 1215,
      "Ġhands": 1216,
      "Ġhalf": 1217,
      "Ġint": 1218,
      "augh": 1219,
      "Ġrece": 1220,
      "ling": 1221,
      "ention": 1222,
      "Ġhigh": 1223,
      "ĠMar": 1224,
      "ving": 1225,
      "Ġdays": 1226,
      "iam": 1227,
      "osition": 1228,
      "Ġbecause": 1229,
      "Ġthing": 1230,
      "lect": 1231,
      "Ã©": 1232,
      "Ġ16": 1233,
      "gether": 1234,
      "Ġhowever": 1235,
      "ches": 1236,
      "Ġfour": 1237,
      "vel": 1238,
      "Ġhome": 1239,
      "You": 1240,
      "Ġdone": 1241,
      "gin": 1242,
      "ration": 1243,
      "Ġhour": 1244,
      "ĠTo": 1245,
      "ages": 1246,
      "ĠNo": 1247,
      "Ġbest": 1248,
      "arn": 1249,
      "Ġcur": 1250,
      "aring": 1251,
      "Ġfell": 1252,
      "Ġcare": 1253,
      "xt": 1254,
      "ung": 1255,
      "Ġfore": 1256,
      "ĠInd": 1257,
      "Ġste": 1258,
      "Ġtaken": 1259,
      "Ġdra": 1260,
      "Ġuse": 1261,
      "oub": 1262,
      "Ġcourse": 1263,
      "Ġsy": 1264,
      "Ġans": 1265,
      "ets": 1266,
      "ually": 1267,
      "Ġdep": 1268,
      "Ġtold": 1269,
      "br": 1270,
      "Ġstand": 1271,
      "Ġlaw": 1272,
      "Ġcent": 1273,
      "ery": 1274,
      "Ġsat": 1275,
      "Ġgiven": 1276,
      "unt": 1277,
      "form": 1278,
      "pped": 1279,
      "Ġsuff": 1280,
      "Ġsim": 1281,
      "owed": 1282,
      "Ġes": 1283,
      "ork": 1284,
      "Ġ15": 1285,
      "Ġche": 1286,
      "Ġsk": 1287,
      "ĠNew": 1288,
      "Ġmatter": 1289,
      ".]": 1290,
      "Ġroom": 1291,
      "ĠUn": 1292,
      "ĠJohn": 1293,
      "ense": 1294,
      "ĠCom": 1295,
      "atch": 1296,
      "iew": 1297,
      "Ġdet": 1298,
      "Ġgot": 1299,
      "Ġel": 1300,
      "Ġinterest": 1301,
      "ative": 1302,
      "Ġvis": 1303,
      "now": 1304,
      "elt": 1305,
      "Ġbelie": 1306,
      "ĠLord": 1307,
      "ĠOn": 1308,
      "eng": 1309,
      "Ġbro": 1310,
      "fic": 1311,
      "ude": 1312,
      "oon": 1313,
      "Ġyear": 1314,
      "Ġwind": 1315,
      "Ġhard": 1316,
      "irc": 1317,
      "Ġdire": 1318,
      "ided": 1319,
      "Ġsil": 1320,
      "ps": 1321,
      "Ġbetter": 1322,
      "Ġfr": 1323,
      "ides": 1324,
      "Ġheard": 1325,
      "Ġcontin": 1326,
      "Ġmoment": 1327,
      "ured": 1328,
      "ĠChrist": 1329,
      "bed": 1330,
      "Ġdoes": 1331,
      "akes": 1332,
      "ĠWhen": 1333,
      "Ġalmost": 1334,
      "ĠMrs": 1335,
      "orning": 1336,
      "haps": 1337,
      "Ġdeath": 1338,
      "ased": 1339,
      "meric": 1340,
      "you": 1341,
      "Ġgoing": 1342,
      "Ġperson": 1343,
      "Ġinde": 1344,
      "Ġed": 1345,
      "čĊ": 1346,
      "ĠPr": 1347,
      ").": 1348,
      "undred": 1349,
      "Ġasked": 1350,
      "Ġlooked": 1351,
      "oice": 1352,
      "Ġseemed": 1353,
      "ĠWh": 1354,
      "Ġuntil": 1355,
      "ĠIs": 1356,
      "ances": 1357,
      "ey": 1358,
      "Ġadm": 1359,
      "AT": 1360,
      "Ġorder": 1361,
      "Ġprop": 1362,
      "Ġserv": 1363,
      "Ġdiffe": 1364,
      "Ġdec": 1365,
      "Ġcor": 1366,
      "Ġtre": 1367,
      "Ġfeet": 1368,
      "Ġboy": 1369,
      "Ġ.": 1370,
      "Ġopen": 1371,
      "ism": 1372,
      "sp": 1373,
      "ash": 1374,
      "Ġ=": 1375,
      "Ġinv": 1376,
      "ĠâĢĶ": 1377,
      "Ġwhose": 1378,
      "oved": 1379,
      "Ġpri": 1380,
      "oint": 1381,
      "ient": 1382,
      "Ġopp": 1383,
      "Ġwoman": 1384,
      "estion": 1385,
      "used": 1386,
      "Ġpres": 1387,
      "stand": 1388,
      "ĠSp": 1389,
      "ange": 1390,
      "fect": 1391,
      "Ġgave": 1392,
      "Ġsince": 1393,
      "Ġtown": 1394,
      "Ġgir": 1395,
      "Ġknew": 1396,
      "Ġplac": 1397,
      "Ġbrought": 1398,
      "Ġbre": 1399,
      "Ġothers": 1400,
      "oney": 1401,
      "Ġpol": 1402,
      "ering": 1403,
      "arl": 1404,
      "ĠThat": 1405,
      "AL": 1406,
      "Ġbeaut": 1407,
      "oud": 1408,
      "empt": 1409,
      "Ġ12": 1410,
      "ric": 1411,
      "ĠBe": 1412,
      "Ġkeep": 1413,
      "ames": 1414,
      ",'": 1415,
      "pend": 1416,
      "aim": 1417,
      "Ġmother": 1418,
      "rence": 1419,
      "Ġquite": 1420,
      "Ġenough": 1421,
      "mb": 1422,
      "ached": 1423,
      "cial": 1424,
      "ressed": 1425,
      "Ġused": 1426,
      "ĠQ": 1427,
      "Ġabove": 1428,
      "Ġwords": 1429,
      "son": 1430,
      "Ġbus": 1431,
      "Ġtra": 1432,
      "Ġconst": 1433,
      "Ġhor": 1434,
      "ott": 1435,
      "io": 1436,
      "Ġking": 1437,
      "ape": 1438,
      "uss": 1439,
      "acter": 1440,
      "Ġfull": 1441,
      "uthor": 1442,
      "ax": 1443,
      "Ġcase": 1444,
      "Ġthemselves": 1445,
      "had": 1446,
      "Ġi": 1447,
      "fort": 1448,
      "hil": 1449,
      "Ġ&": 1450,
      "ĠSo": 1451,
      "Ġwhite": 1452,
      "rench": 1453,
      "fully": 1454,
      "irit": 1455,
      "nment": 1456,
      "ards": 1457,
      "Ġneed": 1458,
      "Ġcannot": 1459,
      "Ġfin": 1460,
      "Ġfall": 1461,
      "Ġbeh": 1462,
      "Ġnext": 1463,
      "ĠThen": 1464,
      "ips": 1465,
      "Ġround": 1466,
      "ĠLe": 1467,
      "Ġheav": 1468,
      "Ġdoor": 1469,
      "Ġvar": 1470,
      "Ġnecess": 1471,
      "veral": 1472,
      "right": 1473,
      "ility": 1474,
      "ius": 1475,
      "Ġ-": 1476,
      "Mr": 1477,
      "Ġsubject": 1478,
      "Ġhundred": 1479,
      "Ġmorning": 1480,
      "18": 1481,
      "tern": 1482,
      "TER": 1483,
      "ĠAmeric": 1484,
      "ural": 1485,
      "Ġthus": 1486,
      "use": 1487,
      "ized": 1488,
      "Ġsou": 1489,
      "IS": 1490,
      "Ġaff": 1491,
      "Ġsomething": 1492,
      "Ġhon": 1493,
      "Ġreal": 1494,
      "ĠNor": 1495,
      "Ġoffic": 1496,
      "aint": 1497,
      "Ġhel": 1498,
      "000": 1499,
      "enty": 1500,
      "Ġbook": 1501,
      "ert": 1502,
      "ature": 1503,
      "Ġknown": 1504,
      "oke": 1505,
      "Ġprodu": 1506,
      "Ġmod": 1507,
      "ists": 1508,
      "Ġprom": 1509,
      "ister": 1510,
      "ĠEnglish": 1511,
      "ccess": 1512,
      "range": 1513,
      "entle": 1514,
      "erm": 1515,
      "ec": 1516,
      "aj": 1517,
      "par": 1518,
      "Ġrather": 1519,
      "Ġconsider": 1520,
      "Ġmean": 1521,
      "ken": 1522,
      "Ġill": 1523,
      "We": 1524,
      "Ġmet": 1525,
      "Ġsays": 1526,
      "Ġsix": 1527,
      "Ġdoub": 1528,
      "peri": 1529,
      "inci": 1530,
      "ane": 1531,
      "from": 1532,
      "Ġbody": 1533,
      "ĠSir": 1534,
      "Ġgeneral": 1535,
      "ait": 1536,
      "ready": 1537,
      "Ġduring": 1538,
      "Ġsecond": 1539,
      "Ġtrans": 1540,
      "Ġide": 1541,
      "uc": 1542,
      "ats": 1543,
      "Ġeffect": 1544,
      "une": 1545,
      "Ġsun": 1546,
      "ĠKing": 1547,
      "âĶĤ": 1548,
      "Ġprov": 1549,
      "ying": 1550,
      "ann": 1551,
      "Ġdr": 1552,
      "Ġoften": 1553,
      "asure": 1554,
      "overed": 1555,
      "Ġnumber": 1556,
      "illed": 1557,
      "Ã¦": 1558,
      "itted": 1559,
      "Ġfire": 1560,
      "Ġfa": 1561,
      "Ġshort": 1562,
      "Ġson": 1563,
      "Ġtrue": 1564,
      "Ġdark": 1565,
      "Ġcity": 1566,
      "Ġstrong": 1567,
      "Ġstate": 1568,
      "CH": 1569,
      "....": 1570,
      "Ġseveral": 1571,
      "Ġtogether": 1572,
      ".)": 1573,
      "ĠMiss": 1574,
      "Ġtill": 1575,
      "Ġground": 1576,
      "ĠX": 1577,
      "Ġrun": 1578,
      "Ġpoor": 1579,
      "Ġmeans": 1580,
      "ĠCon": 1581,
      "ĠWhat": 1582,
      "Ġ14": 1583,
      "Ġreason": 1584,
      "Ġcirc": 1585,
      "ousand": 1586,
      "ĠSh": 1587,
      "Ġair": 1588,
      "well": 1589,
      "Ġdiv": 1590,
      "Ġsing": 1591,
      "ĠCl": 1592,
      "Ġbegan": 1593,
      "Ġ11": 1594,
      "Ġturned": 1595,
      "uck": 1596,
      "tr": 1597,
      "ĠÂ": 1598,
      "Ġwithin": 1599,
      "him": 1600,
      "Ġpublic": 1601,
      "Ġrequ": 1602,
      "What": 1603,
      "though": 1604,
      "Ġalong": 1605,
      "che": 1606,
      "iver": 1607,
      "ination": 1608,
      "ety": 1609,
      "val": 1610,
      "Ġproper": 1611,
      "No": 1612,
      "anger": 1613,
      "que": 1614,
      "ley": 1615,
      "Ġswe": 1616,
      "There": 1617,
      "Ġobser": 1618,
      "Ġ13": 1619,
      "Ġsure": 1620,
      "Ġgover": 1621,
      "Ġhold": 1622,
      "ĠBr": 1623,
      "Ġsign": 1624,
      "Ġfelt": 1625,
      "Ġequ": 1626,
      "'m": 1627,
      "Ġcap": 1628,
      "ices": 1629,
      "ĠAll": 1630,
      "Ġlay": 1631,
      "cul": 1632,
      "Ġsch": 1633,
      "iving": 1634,
      "Ġmeet": 1635,
      "idence": 1636,
      "Ġappear": 1637,
      "ek": 1638,
      "Ġlead": 1639,
      "Ġpassed": 1640,
      ".-": 1641,
      "ases": 1642,
      "AP": 1643,
      "Ġele": 1644,
      "Ġtimes": 1645,
      "rop": 1646,
      "Ġplay": 1647,
      "Ġcharacter": 1648,
      "Ġmer": 1649,
      "Ġobject": 1650,
      "Ġsum": 1651,
      "Ġpar": 1652,
      "ued": 1653,
      "ring": 1654,
      "ship": 1655,
      "Ġfur": 1656,
      "Ġcommon": 1657,
      "Ġauthor": 1658,
      "owing": 1659,
      "ission": 1660,
      "ĠEngland": 1661,
      "Ġimport": 1662,
      "Ġclose": 1663,
      "This": 1664,
      "llust": 1665,
      "Ġheld": 1666,
      "rance": 1667,
      "Ġthy": 1668,
      "ster": 1669,
      "She": 1670,
      "Ġchildren": 1671,
      "Ġwife": 1672,
      "ney": 1673,
      "Ġten": 1674,
      "ues": 1675,
      "where": 1676,
      "asion": 1677,
      "they": 1678,
      "Ġvol": 1679,
      "Ġleast": 1680,
      "ĠWill": 1681,
      "ording": 1682,
      "Th": 1683,
      "Ġvoice": 1684,
      "Ġce": 1685,
      "have": 1686,
      "Ġhope": 1687,
      "Ġeither": 1688,
      "Ġview": 1689,
      "Ġnature": 1690,
      "ĠFrench": 1691,
      "Ġmoney": 1692,
      "Ġsle": 1693,
      "Ġaccount": 1694,
      "wer": 1695,
      "Ġexpl": 1696,
      "co": 1697,
      "Ġtherefore": 1698,
      "Ġsea": 1699,
      "Ch": 1700,
      "oor": 1701,
      "Ġstood": 1702,
      "Ġ20": 1703,
      "Ġitself": 1704,
      "Ġpat": 1705,
      "Ġabs": 1706,
      "Ġdoubt": 1707,
      "Ġspeak": 1708,
      "ality": 1709,
      "tained": 1710,
      "ges": 1711,
      "Ġwond": 1712,
      "Ġfre": 1713,
      "Ġgre": 1714,
      "Ġval": 1715,
      "Ġmyself": 1716,
      "Ġinf": 1717,
      "let": 1718,
      "iful": 1719,
      "Ġet": 1720,
      "Ġdifferent": 1721,
      "ron": 1722,
      "olog": 1723,
      "aves": 1724,
      "Ġsuccess": 1725,
      "Ġthou": 1726,
      "Ġdev": 1727,
      "Ġwrit": 1728,
      "==": 1729,
      "ream": 1730,
      "Ġport": 1731,
      "Ġrespect": 1732,
      "ĠBy": 1733,
      "alth": 1734,
      "Ġquestion": 1735,
      "eneral": 1736,
      "Ġearth": 1737,
      "what": 1738,
      "Ġdirect": 1739,
      "arch": 1740,
      "Ġeas": 1741,
      "ics": 1742,
      "ember": 1743,
      "Ġconc": 1744,
      "Ġbar": 1745,
      "Ġpartic": 1746,
      "10": 1747,
      "Ġthousand": 1748,
      "this": 1749,
      "Ġblack": 1750,
      "Ġmount": 1751,
      "alt": 1752,
      "sc": 1753,
      "Ġir": 1754,
      "IT": 1755,
      "gy": 1756,
      "ĠHer": 1757,
      "ef": 1758,
      "Ġaw": 1759,
      "Ġbelieve": 1760,
      "ement": 1761,
      "Ġalready": 1762,
      "Ġdeep": 1763,
      "Ġhelp": 1764,
      "Ġmark": 1765,
      "ole": 1766,
      "fact": 1767,
      ",--": 1768,
      "Ġhist": 1769,
      "enn": 1770,
      "were": 1771,
      "ĠâĶĤ": 1772,
      "Ġgentle": 1773,
      "king": 1774,
      "'ve": 1775,
      "Ġhuman": 1776,
      "Ġstru": 1777,
      "ĠSc": 1778,
      "ger": 1779,
      "Ġrepl": 1780,
      "ising": 1781,
      "Ġfree": 1782,
      "Ġeng": 1783,
      "Ġru": 1784,
      "Ġcoll": 1785,
      "she": 1786,
      "itions": 1787,
      "Ġbur": 1788,
      "Ġpurp": 1789,
      "Ġwood": 1790,
      "Ġtem": 1791,
      "Ġperhaps": 1792,
      "Ġcommand": 1793,
      "Ġgirl": 1794,
      "Ġpossess": 1795,
      "Ġfav": 1796,
      ".--": 1797,
      "Ġdead": 1798,
      "Ġspirit": 1799,
      "like": 1800,
      "Ġprob": 1801,
      "bs": 1802,
      "race": 1803,
      "Ġline": 1804,
      "LE": 1805,
      "ounded": 1806,
      "aptain": 1807,
      "Ġexam": 1808,
      "iar": 1809,
      "cious": 1810,
      "gan": 1811,
      "Ġii": 1812,
      "medi": 1813,
      "Ġmiles": 1814,
      "Ġalone": 1815,
      "ize": 1816,
      "Ġprinci": 1817,
      "Ġindeed": 1818,
      "Illust": 1819,
      "Ġfollowing": 1820,
      "arm": 1821,
      "Ġfive": 1822,
      "ony": 1823,
      "Ġdear": 1824,
      "dden": 1825,
      "iber": 1826,
      "Ġchief": 1827,
      "ĠHow": 1828,
      "Ġmanner": 1829,
      "cript": 1830,
      "Ġarri": 1831,
      "attle": 1832,
      "orm": 1833,
      "Ġcut": 1834,
      "Ġdest": 1835,
      "oura": 1836,
      "their": 1837,
      "Ġprof": 1838,
      "Ġsit": 1839,
      "ĠWith": 1840,
      "ĠPro": 1841,
      "rem": 1842,
      "RE": 1843,
      "no": 1844,
      "ĠĠĠĠĠĠĠĠĠ": 1845,
      "Ġcomple": 1846,
      "Ġca": 1847,
      "Ġdri": 1848,
      "Ġstart": 1849,
      "there": 1850,
      "That": 1851,
      "Ġpap": 1852,
      "Ġori": 1853,
      "ones": 1854,
      "Ġhear": 1855,
      "Ġwomen": 1856,
      "Ġroad": 1857,
      "sequ": 1858,
      "Illustration": 1859,
      "erman": 1860,
      "Ġmis": 1861,
      "airs": 1862,
      "ondon": 1863,
      "cient": 1864,
      "Ġfort": 1865,
      "iously": 1866,
      "Ġreceived": 1867,
      "Ġstud": 1868,
      "Ġbecame": 1869,
      "Ġsold": 1870,
      "ths": 1871,
      "Ġanything": 1872,
      "Ġbecome": 1873,
      "Ġdef": 1874,
      "Ġleave": 1875,
      "ĠCol": 1876,
      "iment": 1877,
      "idd": 1878,
      "arent": 1879,
      "ĠBrit": 1880,
      "Ġdecl": 1881,
      "ression": 1882,
      "ots": 1883,
      "Ġremark": 1884,
      "Ġbed": 1885,
      "Ġred": 1886,
      "IC": 1887,
      "âĶĢâĶĢâĶĢâĶĢ": 1888,
      "owers": 1889,
      "Ġclear": 1890,
      "ilt": 1891,
      "Ġsudden": 1892,
      "rying": 1893,
      "ND": 1894,
      "Ġpast": 1895,
      "aughter": 1896,
      "Ġwall": 1897,
      "Ġfamily": 1898,
      "mand": 1899,
      "Ġexcept": 1900,
      "Ġherself": 1901,
      "cing": 1902,
      "ham": 1903,
      "Ġjud": 1904,
      "reg": 1905,
      "Ġgone": 1906,
      "aught": 1907,
      "Ġlo": 1908,
      "Ġmus": 1909,
      "Ġletter": 1910,
      "Ġbring": 1911,
      "them": 1912,
      "uct": 1913,
      "Ġexpect": 1914,
      "Ġut": 1915,
      "Ġfair": 1916,
      "tered": 1917,
      "arr": 1918,
      "ee": 1919,
      "Ġdiffic": 1920,
      "Ġexc": 1921,
      "iled": 1922,
      "ĠEd": 1923,
      "Ġriver": 1924,
      "19": 1925,
      "vol": 1926,
      "Ġord": 1927,
      "side": 1928,
      "Ġwhether": 1929,
      "ĠAd": 1930,
      "Ġleg": 1931,
      "iter": 1932,
      "Ġpossible": 1933,
      "ified": 1934,
      "Ġregard": 1935,
      "Ġfine": 1936,
      "Ġbrother": 1937,
      "Ġfriends": 1938,
      "ĠGe": 1939,
      "els": 1940,
      "ection": 1941,
      "Ġlive": 1942,
      "Ġsol": 1943,
      "itude": 1944,
      "pper": 1945,
      "Ġpain": 1946,
      "lled": 1947,
      "Ġlost": 1948,
      "ounds": 1949,
      "ops": 1950,
      "Ġorigin": 1951,
      "orts": 1952,
      "Ġdisp": 1953,
      "under": 1954,
      "Ġpract": 1955,
      "ING": 1956,
      "Ġperfect": 1957,
      "Ġmaking": 1958,
      "Ġtruth": 1959,
      "head": 1960,
      "oes": 1961,
      "ledge": 1962,
      "Ġable": 1963,
      "orrow": 1964,
      "flu": 1965,
      "Ġgold": 1966,
      "OU": 1967,
      "abit": 1968,
      "Oh": 1969,
      "Ġtreat": 1970,
      "IL": 1971,
      "ries": 1972,
      "oly": 1973,
      "Ġanim": 1974,
      "inter": 1975,
      "ina": 1976,
      "ision": 1977,
      "anged": 1978,
      "Ġenem": 1979,
      "15": 1980,
      "Ġseems": 1981,
      "Ġaround": 1982,
      "Ġtalk": 1983,
      "pre": 1984,
      "...": 1985,
      "17": 1986,
      "oe": 1987,
      "ours": 1988,
      "Ġfear": 1989,
      "Ġpay": 1990,
      "12": 1991,
      "band": 1992,
      "ploy": 1993,
      "Ġmain": 1994,
      "Ġmere": 1995,
      "Ġbusiness": 1996,
      "atic": 1997,
      "Ġappro": 1998,
      "As": 1999,
      "ational": 2000,
      "Ġlow": 2001,
      "wor": 2002,
      "Ġfig": 2003,
      "lf": 2004,
      "mber": 2005,
      "Ġresult": 2006,
      "Ġve": 2007,
      "ouble": 2008,
      "Ġtwenty": 2009,
      "Ġearly": 2010,
      "ĠOne": 2011,
      "Ġkept": 2012,
      "wo": 2013,
      "Ġblood": 2014,
      "dom": 2015,
      "ĠStates": 2016,
      "mp": 2017,
      "ĠOr": 2018,
      "oman": 2019,
      "cons": 2020,
      "ivers": 2021,
      "Ġbehind": 2022,
      "Ġtowards": 2023,
      "Ġstri": 2024,
      "Ġexist": 2025,
      "ium": 2026,
      "ĠPl": 2027,
      "Ġbes": 2028,
      "inary": 2029,
      "16": 2030,
      ".[": 2031,
      "Ġcause": 2032,
      "iod": 2033,
      "ĠBl": 2034,
      "Yes": 2035,
      "dis": 2036,
      "ĠMy": 2037,
      "EL": 2038,
      "off": 2039,
      "Ġfoot": 2040,
      "Ġchurch": 2041,
      "ĠGr": 2042,
      "Ġwish": 2043,
      "Ġ25": 2044,
      "otion": 2045,
      "nded": 2046,
      "Ġnecessary": 2047,
      "ush": 2048,
      "Ġlab": 2049,
      "inct": 2050,
      "Ġaccom": 2051,
      "ital": 2052,
      "Ġage": 2053,
      "Ġlater": 2054,
      "ead": 2055,
      "Ġshow": 2056,
      "Ġdut": 2057,
      "Ġreplied": 2058,
      "antly": 2059,
      "Ġarm": 2060,
      "wered": 2061,
      "ught": 2062,
      "Ġwhy": 2063,
      "ĠLondon": 2064,
      "irm": 2065,
      "ength": 2066,
      "stem": 2067,
      "ze": 2068,
      "Ġprot": 2069,
      "Ġpie": 2070,
      "irt": 2071,
      "ĠDr": 2072,
      "uff": 2073,
      "then": 2074,
      "Ġschool": 2075,
      "Ġmag": 2076,
      "Ġlady": 2077,
      "Ġbegin": 2078,
      "Ġbuild": 2079,
      "Ġthee": 2080,
      "Ġunderstand": 2081,
      "Ġclass": 2082,
      "St": 2083,
      "rs": 2084,
      "Ġrepresent": 2085,
      "Ġmove": 2086,
      "Ġfront": 2087,
      "str": 2088,
      "Ġlearn": 2089,
      "ys": 2090,
      "To": 2091,
      "Ġformer": 2092,
      "iers": 2093,
      "Ġentire": 2094,
      "cle": 2095,
      "Ġcried": 2096,
      "Ġoccasion": 2097,
      "14": 2098,
      "cially": 2099,
      "Ġrelig": 2100,
      "erv": 2101,
      "angu": 2102,
      "Ġhorse": 2103,
      "go": 2104,
      "'re": 2105,
      "will": 2106,
      "bo": 2107,
      "Ġparticular": 2108,
      "Ġli": 2109,
      "Ġcoming": 2110,
      "li": 2111,
      "They": 2112,
      "Ġforce": 2113,
      "Ġelse": 2114,
      "AS": 2115,
      "ences": 2116,
      "ION": 2117,
      "Ġparty": 2118,
      "Ġann": 2119,
      "Ġcarried": 2120,
      "idge": 2121,
      "Ġver": 2122,
      "body": 2123,
      "ald": 2124,
      "Ġfif": 2125,
      "min": 2126,
      "ior": 2127,
      "Ġspec": 2128,
      "utes": 2129,
      "When": 2130,
      "An": 2131,
      "Ġsoul": 2132,
      "ĠGerman": 2133,
      "If": 2134,
      "Ġincl": 2135,
      "On": 2136,
      "bur": 2137,
      "Ġbene": 2138,
      "Ġpop": 2139,
      "Ġvill": 2140,
      "Ġcast": 2141,
      "Ġarms": 2142,
      "room": 2143,
      "ral": 2144,
      "ĠThese": 2145,
      "ume": 2146,
      "Ġcal": 2147,
      "mbl": 2148,
      "would": 2149,
      "bert": 2150,
      "Ġreally": 2151,
      "itten": 2152,
      "Ġeff": 2153,
      "Ġrock": 2154,
      "Ġsir": 2155,
      "Ġnearly": 2156,
      "Ġ0": 2157,
      "usband": 2158,
      "Ġcross": 2159,
      "Ġworth": 2160,
      "Ġsight": 2161,
      "rel": 2162,
      "Ġcold": 2163,
      "ored": 2164,
      "ĠZ": 2165,
      "Ġfurther": 2166,
      "Ġperiod": 2167,
      "ency": 2168,
      "Ġevening": 2169,
      "Ġexcl": 2170,
      "itting": 2171,
      "ĠPar": 2172,
      "Ġreturned": 2173,
      "Ġ(_": 2174,
      "13": 2175,
      "night": 2176,
      "Ġacqu": 2177,
      "Ġbad": 2178,
      "Ġlist": 2179,
      "Ġlatter": 2180,
      "Ġstory": 2181,
      "Ġfaith": 2182,
      "Ġeye": 2183,
      "ĠII": 2184,
      "fer": 2185,
      "ested": 2186,
      "ustom": 2187,
      "Ġ22": 2188,
      "APTER": 2189,
      "Ġposition": 2190,
      "Ġbeautiful": 2191,
      "Ġpurpose": 2192,
      "At": 2193,
      "ĠYork": 2194,
      "Ġanswered": 2195,
      "Ġsometimes": 2196,
      "raph": 2197,
      "ear": 2198,
      "Well": 2199,
      "ils": 2200,
      "ĠIN": 2201,
      "Ġquick": 2202,
      "Ġlate": 2203,
      "Ġ30": 2204,
      "Ġpeace": 2205,
      "Ġbri": 2206,
      "Ġsense": 2207,
      "Ġwild": 2208,
      "Ġfollowed": 2209,
      "ining": 2210,
      "ples": 2211,
      "ills": 2212,
      "mit": 2213,
      "Ġidea": 2214,
      "orge": 2215,
      "Ġimmedi": 2216,
      "Ġ24": 2217,
      "Ġvisit": 2218,
      "ped": 2219,
      "Ġwait": 2220,
      "Ġsett": 2221,
      "who": 2222,
      "vo": 2223,
      "inion": 2224,
      "urope": 2225,
      "ĠTr": 2226,
      "ĠMay": 2227,
      "ruct": 2228,
      "uly": 2229,
      "ribut": 2230,
      "Ġla": 2231,
      "Ġmed": 2232,
      "nor": 2233,
      "Ġproceed": 2234,
      "Ġemploy": 2235,
      "port": 2236,
      "Ġlooking": 2237,
      "ator": 2238,
      "Ġwonder": 2239,
      "ev": 2240,
      "Wh": 2241,
      "usion": 2242,
      "Then": 2243,
      "Ġpriv": 2244,
      "Ġattempt": 2245,
      "yond": 2246,
      "Ġready": 2247,
      "come": 2248,
      "Ġesc": 2249,
      "Ġlength": 2250,
      "ler": 2251,
      "ference": 2252,
      "Ġbit": 2253,
      "Ġeight": 2254,
      "Ġ23": 2255,
      "ises": 2256,
      "Ġsort": 2257,
      "ivid": 2258,
      "af": 2259,
      "rect": 2260,
      "Ġaccording": 2261,
      "iol": 2262,
      "Ġhur": 2263,
      "Ġ$": 2264,
      "Ġhours": 2265,
      "Ġquar": 2266,
      "Ġpost": 2267,
      "Ġstep": 2268,
      "Ġpict": 2269,
      "ĠNow": 2270,
      "wing": 2271,
      "inc": 2272,
      "ament": 2273,
      "ĠGover": 2274,
      "note": 2275,
      "ĠChar": 2276,
      "Ġx": 2277,
      "ales": 2278,
      "Ġfail": 2279,
      "riage": 2280,
      "Ġarmy": 2281,
      "rodu": 2282,
      "Ġtable": 2283,
      "resh": 2284,
      "Ġparts": 2285,
      "ĠAmerican": 2286,
      "Ġlim": 2287,
      "OM": 2288,
      "Ġincre": 2289,
      "ciety": 2290,
      "aged": 2291,
      "more": 2292,
      "itary": 2293,
      "Ġacross": 2294,
      "OL": 2295,
      "ously": 2296,
      "aul": 2297,
      "ĠNot": 2298,
      "AM": 2299,
      "can": 2300,
      "Ġremain": 2301,
      "light": 2302,
      "ĠAND": 2303,
      "Ġpret": 2304,
      "Ġplaced": 2305,
      "ĠFran": 2306,
      "amed": 2307,
      "Ġfield": 2308,
      "Ġgovernment": 2309,
      "Ġnatural": 2310,
      "inn": 2311,
      "ĠWilliam": 2312,
      "Ġer": 2313,
      "pecially": 2314,
      "Ġtou": 2315,
      "Ġanswer": 2316,
      "ĠFrance": 2317,
      "ected": 2318,
      "Ġhistory": 2319,
      "ED": 2320,
      "Ġaffect": 2321,
      "cont": 2322,
      "umst": 2323,
      "Ġsound": 2324,
      "bers": 2325,
      "Ġlad": 2326,
      "gl": 2327,
      "Ġdanger": 2328,
      "ires": 2329,
      "thern": 2330,
      "ford": 2331,
      "ask": 2332,
      "cell": 2333,
      "ĠAb": 2334,
      "Ġpray": 2335,
      "Ġcourt": 2336,
      "Ġsac": 2337,
      "ogn": 2338,
      "THE": 2339,
      "Ġsqu": 2340,
      "Ġappeared": 2341,
      "Ġreached": 2342,
      "Ġforth": 2343,
      "urs": 2344,
      "alked": 2345,
      "Ġsatis": 2346,
      "ouses": 2347,
      "Ġinflu": 2348,
      "For": 2349,
      "got": 2350,
      "Ġdied": 2351,
      "Ġoccup": 2352,
      "Ġsecret": 2353,
      "face": 2354,
      "ĠSee": 2355,
      "Ġran": 2356,
      "appe": 2357,
      "Ġcontinued": 2358,
      "ĠCar": 2359,
      "velop": 2360,
      "ories": 2361,
      "Ġship": 2362,
      "eter": 2363,
      "Ġprobably": 2364,
      "Ġdro": 2365,
      "Ġhig": 2366,
      "Ġsystem": 2367,
      "sec": 2368,
      "oral": 2369,
      "Ġty": 2370,
      "Ġservice": 2371,
      "ĠMan": 2372,
      "Ġmention": 2373,
      "50": 2374,
      "ivil": 2375,
      "ighb": 2376,
      "Ġlonger": 2377,
      "Ġmur": 2378,
      "Ġcorn": 2379,
      "20": 2380,
      "Ġled": 2381,
      "Ġmist": 2382,
      "kn": 2383,
      "road": 2384,
      "ords": 2385,
      "part": 2386,
      "Ġscar": 2387,
      "Ġ26": 2388,
      "ulation": 2389,
      "wise": 2390,
      "aimed": 2391,
      "ument": 2392,
      "ĠPer": 2393,
      "ging": 2394,
      "Ġhusband": 2395,
      "joy": 2396,
      "Ġstrange": 2397,
      "ixed": 2398,
      "ĠEx": 2399,
      "Ġfac": 2400,
      "add": 2401,
      "Ġask": 2402,
      "Ġimag": 2403,
      "Ġought": 2404,
      "how": 2405,
      "Ġtaking": 2406,
      "Ġwit": 2407,
      "Ġquiet": 2408,
      "ĠCo": 2409,
      "Ġself": 2410,
      "set": 2411,
      "yn": 2412,
      "Ġbeyond": 2413,
      "ĠEurope": 2414,
      "Ġestab": 2415,
      "aff": 2416,
      "--\"": 2417,
      "ĠGeneral": 2418,
      "Ġprep": 2419,
      "Ġ:": 2420,
      "Ġmaster": 2421,
      "irty": 2422,
      "some": 2423,
      "ror": 2424,
      "Ġpersons": 2425,
      "Ġsend": 2426,
      "pan": 2427,
      "ests": 2428,
      "look": 2429,
      "Ġattack": 2430,
      "ille": 2431,
      "rupt": 2432,
      "ĠUnited": 2433,
      "Ġstra": 2434,
      "gu": 2435,
      "pid": 2436,
      "Ġvarious": 2437,
      "Ġprev": 2438,
      ".=": 2439,
      "hys": 2440,
      "vere": 2441,
      "ift": 2442,
      "been": 2443,
      "Ġadded": 2444,
      "when": 2445,
      "Ġtro": 2446,
      "ening": 2447,
      "Ġ27": 2448,
      "Ġdoct": 2449,
      "Ġhar": 2450,
      "iddle": 2451,
      "gar": 2452,
      "house": 2453,
      "ĠAp": 2454,
      "ically": 2455,
      "ĠÃ": 2456,
      "Ġbig": 2457,
      "count": 2458,
      "teen": 2459,
      "Ġprison": 2460,
      "Ġbelong": 2461,
      "Ġ28": 2462,
      "Ġobl": 2463,
      "Ġsleep": 2464,
      "ĠFrom": 2465,
      "Ġchange": 2466,
      "Ġnorth": 2467,
      "Ġtrave": 2468,
      "Ġforward": 2469,
      "Ġconn": 2470,
      "ĠTO": 2471,
      "Ġfight": 2472,
      "Ġcamp": 2473,
      "Ġcomplete": 2474,
      "ĠRo": 2475,
      "oured": 2476,
      "uke": 2477,
      "ĠCH": 2478,
      "ossible": 2479,
      "Ġemb": 2480,
      "na": 2481,
      "Ġdeterm": 2482,
      "Ġgreater": 2483,
      "yl": 2484,
      "Ġcreat": 2485,
      "Ġund": 2486,
      "ext": 2487,
      "isted": 2488,
      "ĠBritish": 2489,
      "Ġsweet": 2490,
      "Ġappl": 2491,
      "ĠChurch": 2492,
      "formed": 2493,
      "ĠHen": 2494,
      "anced": 2495,
      "after": 2496,
      "do": 2497,
      "Ġplain": 2498,
      "Ġhast": 2499,
      "Ġknowledge": 2500,
      "ipp": 2501,
      "Ġattend": 2502,
      "stit": 2503,
      "cent": 2504,
      "ĠAfter": 2505,
      "hood": 2506,
      "Ġliving": 2507,
      "orted": 2508,
      "iff": 2509,
      "TH": 2510,
      "Ġjo": 2511,
      "Ġbreak": 2512,
      "Ġenemy": 2513,
      "ingly": 2514,
      "Ġhot": 2515,
      "ively": 2516,
      "aven": 2517,
      "oses": 2518,
      "Ġstreng": 2519,
      "Ġwon": 2520,
      "Ġwatch": 2521,
      "Ġslow": 2522,
      "iding": 2523,
      "Ġlaid": 2524,
      "Ġmo": 2525,
      "Ġdeg": 2526,
      "ience": 2527,
      "Ġisland": 2528,
      "Ġdescri": 2529,
      "Ġdeal": 2530,
      "eb": 2531,
      "Ġdistance": 2532,
      "ĠFl": 2533,
      "unity": 2534,
      "My": 2535,
      "ha": 2536,
      "ession": 2537,
      "Ġexperi": 2538,
      "Ġda": 2539,
      "Ġden": 2540,
      "Ġnone": 2541,
      "Ġbird": 2542,
      "ilar": 2543,
      "ĠPhil": 2544,
      "ĠState": 2545,
      "Ġfellow": 2546,
      "Ġalthough": 2547,
      "Foot": 2548,
      "ĠĠĠĠĠĠĠĠĠĠĠ": 2549,
      "----------------": 2550,
      "ĠAm": 2551,
      "Ġaction": 2552,
      "Ġwalk": 2553,
      "Ġsugg": 2554,
      "Ġsitu": 2555,
      "Ġsuffic": 2556,
      "Ġplan": 2557,
      "Ġpleas": 2558,
      "aching": 2559,
      "Ġsoft": 2560,
      "Ġgrand": 2561,
      "rict": 2562,
      "Ġcoun": 2563,
      "Ġattention": 2564,
      "Ġpolit": 2565,
      "bes": 2566,
      "Ġlangu": 2567,
      "ĠHar": 2568,
      "osp": 2569,
      "roy": 2570,
      "How": 2571,
      "ĠDo": 2572,
      "Ġimportant": 2573,
      "acy": 2574,
      "Ġgenerally": 2575,
      "Ġstat": 2576,
      "Ġrose": 2577,
      "ĠPe": 2578,
      "Ġsurpr": 2579,
      "Ġrepe": 2580,
      "Ġhair": 2581,
      "Footnote": 2582,
      "des": 2583,
      "Ġstreet": 2584,
      "hand": 2585,
      "âĢķ": 2586,
      "lling": 2587,
      "Ġcompany": 2588,
      "Ġant": 2589,
      "Ġpal": 2590,
      "Ġpen": 2591,
      "Ġdemand": 2592,
      "Ġ29": 2593,
      "ĠBar": 2594,
      "idered": 2595,
      "Ġtop": 2596,
      "Ġwat": 2597,
      "Ġwritten": 2598,
      "cil": 2599,
      "Ġsens": 2600,
      "char": 2601,
      "Ġsouth": 2602,
      "aded": 2603,
      "Ġago": 2604,
      "Ġdream": 2605,
      "Ġconv": 2606,
      "ajor": 2607,
      "Ġcontr": 2608,
      "ancy": 2609,
      "Ġdaughter": 2610,
      "Ġoper": 2611,
      "Ġdesp": 2612,
      "eness": 2613,
      "ethod": 2614,
      "ruction": 2615,
      "ĠLet": 2616,
      "ĠHouse": 2617,
      "Ġsn": 2618,
      "Ġhappy": 2619,
      "Ġrich": 2620,
      "Ġfeeling": 2621,
      "Ġfrequ": 2622,
      "ushed": 2623,
      "ĠCan": 2624,
      "ellow": 2625,
      "Ġglad": 2626,
      "Ġcomes": 2627,
      "Ġspoke": 2628,
      "Ġcontain": 2629,
      "US": 2630,
      "mn": 2631,
      "ĠChristian": 2632,
      "rough": 2633,
      "ourt": 2634,
      "atever": 2635,
      "Ġmouth": 2636,
      "Ġentered": 2637,
      "iling": 2638,
      "Ġbreat": 2639,
      "erc": 2640,
      "Ġslight": 2641,
      "Ã¡": 2642,
      "Ġfast": 2643,
      "ye": 2644,
      "UR": 2645,
      "just": 2646,
      "Ġstay": 2647,
      "Ġph": 2648,
      "cience": 2649,
      "Ġopinion": 2650,
      "rowd": 2651,
      "essel": 2652,
      "alley": 2653,
      "Ġdepart": 2654,
      "athe": 2655,
      "ENT": 2656,
      "Ġcircumst": 2657,
      "Ġconcl": 2658,
      "Ġdifficult": 2659,
      "Ġjoy": 2660,
      "ĠGree": 2661,
      "Ġneighb": 2662,
      "Ġconsequ": 2663,
      "Ġcompl": 2664,
      "Ġaccept": 2665,
      "Ġmem": 2666,
      "Ġ186": 2667,
      "Ġsuddenly": 2668,
      "Ġancient": 2669,
      "Ġgun": 2670,
      "uous": 2671,
      "orses": 2672,
      "Ġresol": 2673,
      "So": 2674,
      "spect": 2675,
      "ĠQu": 2676,
      "Ġplaces": 2677,
      "Ġintell": 2678,
      "Ġneither": 2679,
      "Ġcra": 2680,
      "Ġpaper": 2681,
      "iety": 2682,
      "ividual": 2683,
      "Ġsuppose": 2684,
      "ication": 2685,
      "gress": 2686,
      "Ġmakes": 2687,
      "Ġespecially": 2688,
      "Ġsal": 2689,
      "Ġbear": 2690,
      "ump": 2691,
      "Ġconduct": 2692,
      "ĠLady": 2693,
      "Ġbright": 2694,
      "arp": 2695,
      "comm": 2696,
      "Ġduty": 2697,
      "30": 2698,
      "Ġdelight": 2699,
      "ech": 2700,
      "por": 2701,
      "ĠHere": 2702,
      "ned": 2703,
      "ager": 2704,
      "Ġtoward": 2705,
      "Ġremember": 2706,
      "ma": 2707,
      "ishing": 2708,
      "Ġtrees": 2709,
      "Ġopened": 2710,
      "Ġmonths": 2711,
      "reed": 2712,
      "aterial": 2713,
      "ĠGeorge": 2714,
      "Ġdog": 2715,
      ");": 2716,
      "lected": 2717,
      "pany": 2718,
      "ĠOh": 2719,
      "inner": 2720,
      "uture": 2721,
      "enth": 2722,
      "Ġthird": 2723,
      "ointed": 2724,
      "cceed": 2725,
      "Ġloc": 2726,
      "Ġsaying": 2727,
      "Ġbattle": 2728,
      "pond": 2729,
      "Ġmass": 2730,
      "Ġdidn": 2731,
      "oted": 2732,
      "Ġbelow": 2733,
      "ĠMad": 2734,
      "Ġcondition": 2735,
      "Ġvict": 2736,
      "ĠSouth": 2737,
      "imate": 2738,
      "hel": 2739,
      "Ġcases": 2740,
      "Ġwide": 2741,
      "Ġformed": 2742,
      "ams": 2743,
      "Ġeverything": 2744,
      "Ġpretty": 2745,
      "Ġdoing": 2746,
      "Ġenjoy": 2747,
      "Ġ...": 2748,
      "ĠSome": 2749,
      "Ġgreen": 2750,
      "ĠEl": 2751,
      "Ġheavy": 2752,
      "ĠPres": 2753,
      "upon": 2754,
      "ashing": 2755,
      "ĠWest": 2756,
      "Ġgra": 2757,
      "Ġvessel": 2758,
      "Ġjour": 2759,
      "Ġweek": 2760,
      "ĠCaptain": 2761,
      "Ġorgan": 2762,
      "Ġgrow": 2763,
      "reme": 2764,
      "dered": 2765,
      "spe": 2766,
      "Ġdefe": 2767,
      "Ġsingle": 2768,
      "ray": 2769,
      "eg": 2770,
      "Ġlie": 2771,
      "ades": 2772,
      "osop": 2773,
      "Ġfood": 2774,
      "Ġcertainly": 2775,
      "Ġsepar": 2776,
      "time": 2777,
      "sembl": 2778,
      "oose": 2779,
      "bel": 2780,
      "Ġoccur": 2781,
      "11": 2782,
      "see": 2783,
      "Ġgen": 2784,
      "Ġstone": 2785,
      "uted": 2786,
      "Ġbound": 2787,
      "certain": 2788,
      "anted": 2789,
      "Ġpoet": 2790,
      "osing": 2791,
      "ingu": 2792,
      "aled": 2793,
      "Ġviol": 2794,
      "Ġconce": 2795,
      "25": 2796,
      "Ġoffe": 2797,
      "ĠSte": 2798,
      "ĠNorth": 2799,
      "cely": 2800,
      "Ġoffice": 2801,
      "aries": 2802,
      "Ġthick": 2803,
      "arrow": 2804,
      "ĠGu": 2805,
      "IR": 2806,
      "Now": 2807,
      "ĠItal": 2808,
      "onel": 2809,
      "Ġinh": 2810,
      "Ġinqu": 2811,
      "iles": 2812,
      "ET": 2813,
      "Ġcompan": 2814,
      "formation": 2815,
      "iction": 2816,
      "Ġimmediately": 2817,
      "sm": 2818,
      "reet": 2819,
      "Ġenc": 2820,
      "Î½": 2821,
      "ites": 2822,
      "pass": 2823,
      "ox": 2824,
      "Ġlived": 2825,
      "Why": 2826,
      "eks": 2827,
      "Ġfurn": 2828,
      "Ġhy": 2829,
      "Ġgod": 2830,
      "Ġsuper": 2831,
      "Ġpleasure": 2832,
      "Ġdesire": 2833,
      "ĠCount": 2834,
      "ĠAug": 2835,
      "about": 2836,
      "uded": 2837,
      "itable": 2838,
      "RO": 2839,
      "omin": 2840,
      "Ġboys": 2841,
      "Ġburn": 2842,
      "Ġappearance": 2843,
      "een": 2844,
      "ĠĠĠĠĠĠĠĠĠĠ": 2845,
      "ching": 2846,
      "Ġmine": 2847,
      "ĠHenry": 2848,
      "sy": 2849,
      "Ġtried": 2850,
      "into": 2851,
      "Ġfat": 2852,
      "IG": 2853,
      "known": 2854,
      "Ġinfluence": 2855,
      "III": 2856,
      "ett": 2857,
      "ns": 2858,
      "umb": 2859,
      "Ġstrength": 2860,
      "ishop": 2861,
      "Ġtrust": 2862,
      "hib": 2863,
      "isc": 2864,
      "Ġcivil": 2865,
      "ĠMary": 2866,
      "40": 2867,
      "Ġmemb": 2868,
      "Ġminutes": 2869,
      "ĠQue": 2870,
      "arden": 2871,
      "Ġcentury": 2872,
      "Ġblue": 2873,
      "Ġamount": 2874,
      "Ġdevelop": 2875,
      "Ġcrowd": 2876,
      "AC": 2877,
      "Ġremained": 2878,
      "Ġaf": 2879,
      "erson": 2880,
      "All": 2881,
      "Ġliber": 2882,
      "Ġbott": 2883,
      "Ġfle": 2884,
      "Ġrecogn": 2885,
      "orough": 2886,
      "Ġarrived": 2887,
      "alled": 2888,
      "Ġwanted": 2889,
      "Ġdie": 2890,
      "Ġmid": 2891,
      "aste": 2892,
      "iant": 2893,
      "ux": 2894,
      "hold": 2895,
      "never": 2896,
      "IV": 2897,
      "ourage": 2898,
      "ulty": 2899,
      "great": 2900,
      "Ġdesign": 2901,
      "ĠĠĠĠĠĠĠĠĠĠĠĠĠ": 2902,
      "Ġsto": 2903,
      "ik": 2904,
      "Ġneg": 2905,
      "Ġanx": 2906,
      "ĠThom": 2907,
      "?'": 2908,
      "Ġcomfort": 2909,
      "Ġafterwards": 2910,
      "ming": 2911,
      "cend": 2912,
      "Al": 2913,
      "Ġmill": 2914,
      "Ġbeauty": 2915,
      "ston": 2916,
      "ograph": 2917,
      "Ġcost": 2918,
      "icked": 2919,
      "Ġexact": 2920,
      "Not": 2921,
      "Ġsucceed": 2922,
      "Ġhop": 2923,
      "Ġ!": 2924,
      "cription": 2925,
      "erous": 2926,
      "rid": 2927,
      "ĠCor": 2928,
      "Ġenter": 2929,
      "ĠEm": 2930,
      "could": 2931,
      "Ġofficers": 2932,
      "Ġ--": 2933,
      "CHAPTER": 2934,
      "ĠJames": 2935,
      "Î±": 2936,
      "__": 2937,
      "Ġgentleman": 2938,
      "Ġnote": 2939,
      "Ġcovered": 2940,
      "Ġprevent": 2941,
      "ĠIndian": 2942,
      "Ġpaid": 2943,
      "ores": 2944,
      "Ġrapid": 2945,
      "Ġterri": 2946,
      "Ġtrain": 2947,
      "esty": 2948,
      "aped": 2949,
      "Ġworks": 2950,
      "Of": 2951,
      "mar": 2952,
      "lo": 2953,
      "Ġweak": 2954,
      "bar": 2955,
      "====": 2956,
      "mission": 2957,
      "Ġwrong": 2958,
      "Ġ~": 2959,
      "Ġintrodu": 2960,
      "Ġdress": 2961,
      "Ġpubl": 2962,
      "Ġlines": 2963,
      "Is": 2964,
      "Ġentirely": 2965,
      "uses": 2966,
      "itation": 2967,
      "long": 2968,
      "Ġfresh": 2969,
      "Ġwa": 2970,
      "inal": 2971,
      "Ġbroken": 2972,
      "Ġsimilar": 2973,
      "Ġfuture": 2974,
      "acher": 2975,
      "ĠParis": 2976,
      "has": 2977,
      "icate": 2978,
      "work": 2979,
      "Ġlaugh": 2980,
      "Ġchance": 2981,
      "Ġboat": 2982,
      "Ġphys": 2983,
      "Ġexpress": 2984,
      "Ġvillage": 2985,
      "ae": 2986,
      "ĠCharles": 2987,
      "Ġconsidered": 2988,
      "Ġfun": 2989,
      "Ġang": 2990,
      "Ġletters": 2991,
      "stood": 2992,
      "culiar": 2993,
      "enced": 2994,
      "Ġfamil": 2995,
      "Ġcry": 2996,
      "pal": 2997,
      "Ġbecom": 2998,
      "should": 2999,
      "istance": 3000,
      "Ġtree": 3001,
      "gment": 3002,
      "Ġhorses": 3003,
      "Ġwindow": 3004,
      "Ġindividual": 3005,
      "Ġwarm": 3006,
      "Ġimpro": 3007,
      "Ġsave": 3008,
      "Ġlower": 3009,
      "Ġvalue": 3010,
      "Ġraised": 3011,
      "Ġadvant": 3012,
      "said": 3013,
      "Ġbeginning": 3014,
      "Ġpress": 3015,
      "Ġsafe": 3016,
      "while": 3017,
      "anch": 3018,
      "24": 3019,
      "nal": 3020,
      "place": 3021,
      "Ġspo": 3022,
      "raid": 3023,
      "vation": 3024,
      "AD": 3025,
      "Ġartic": 3026,
      "imp": 3027,
      "than": 3028,
      "Ġpun": 3029,
      "Ġcapt": 3030,
      "together": 3031,
      "Ġhardly": 3032,
      "Ġgri": 3033,
      "ĠAmerica": 3034,
      "Ġyes": 3035,
      "Ġhath": 3036,
      "Ġtrouble": 3037,
      "Ġseven": 3038,
      "Ġwis": 3039,
      "Ġliter": 3040,
      "ĠÂ©": 3041,
      "ables": 3042,
      "Ġhouses": 3043,
      "Ġgrave": 3044,
      "OT": 3045,
      "Ġtry": 3046,
      "Ġcarry": 3047,
      "Ġcomb": 3048,
      "Ġheaven": 3049,
      "olute": 3050,
      "ean": 3051,
      "Ġusual": 3052,
      "Ġdue": 3053,
      "essed": 3054,
      "Ġbuilt": 3055,
      "Ar": 3056,
      "Ġeasy": 3057,
      "Ġyouth": 3058,
      "Ġcru": 3059,
      "noon": 3060,
      "Ġsimple": 3061,
      "car": 3062,
      "Ġsole": 3063,
      "erve": 3064,
      "26": 3065,
      "Ġbooks": 3066,
      "Ġfilled": 3067,
      "ization": 3068,
      "Ġoblig": 3069,
      "ails": 3070,
      "bled": 3071,
      "Ġcommun": 3072,
      "ĠSch": 3073,
      "Ġstanding": 3074,
      "Ġinstead": 3075,
      "Î¿": 3076,
      "Ġfru": 3077,
      "Ġban": 3078,
      "opt": 3079,
      "again": 3080,
      "23": 3081,
      "Ġboard": 3082,
      "Ġlanguage": 3083,
      "Ġextend": 3084,
      "iced": 3085,
      "Ġappears": 3086,
      "Ġmaterial": 3087,
      "Ġcharge": 3088,
      "aug": 3089,
      "Ġeasily": 3090,
      "soci": 3091,
      "With": 3092,
      "ĠWhy": 3093,
      "eds": 3094,
      "Ġmad": 3095,
      "ĠGreat": 3096,
      "bet": 3097,
      "Ġclaim": 3098,
      "Ġmerely": 3099,
      "Ġcit": 3100,
      "itive": 3101,
      "Ġtroops": 3102,
      "Ġpresence": 3103,
      "Ġcustom": 3104,
      "ĠST": 3105,
      "Ġmembers": 3106,
      "Ġforms": 3107,
      "Ġconstit": 3108,
      "Ġaud": 3109,
      "Ġgiving": 3110,
      "wood": 3111,
      "icated": 3112,
      "Ġcover": 3113,
      "Ġvirt": 3114,
      "Ġprocess": 3115,
      "Ġmusic": 3116,
      "clock": 3117,
      "ashion": 3118,
      "Ġwrote": 3119,
      "27": 3120,
      "ĠRuss": 3121,
      "Ġlord": 3122,
      "elve": 3123,
      "Ġdirection": 3124,
      "ST": 3125,
      "Ġgrou": 3126,
      "anc": 3127,
      "ĠĠĠĠĠĠĠĠĠĠĠĠĠĠĠĠĠĠĠĠĠĠĠĠĠĠĠĠĠĠĠĠĠĠĠĠĠĠĠĠ": 3128,
      "field": 3129,
      "Ġclot": 3130,
      "Ġpure": 3131,
      "Ġguard": 3132,
      ",-": 3133,
      "Ġmethod": 3134,
      "Ġeat": 3135,
      "Ġder": 3136,
      "ĠTom": 3137,
      "Ġune": 3138,
      "ny": 3139,
      "Ġcoast": 3140,
      "Ġconvers": 3141,
      "ĠDon": 3142,
      "ĠRoman": 3143,
      "Ġnoble": 3144,
      "Ġgreatest": 3145,
      "Ġimpossible": 3146,
      "Ġexec": 3147,
      "oul": 3148,
      "ibly": 3149,
      "Ġspring": 3150,
      "Ġinn": 3151,
      "28": 3152,
      "ĠJack": 3153,
      "ĠGovernment": 3154,
      "Ġobserved": 3155,
      "Ġsister": 3156,
      "Ġforeign": 3157,
      "vey": 3158,
      "Ġiron": 3159,
      "ÏĦ": 3160,
      "Ġextra": 3161,
      "Ġpiece": 3162,
      "Ġhappened": 3163,
      "reen": 3164,
      "Ġspecial": 3165,
      "Ġfigure": 3166,
      "inite": 3167,
      "oyal": 3168,
      "Ġkilled": 3169,
      "Ġbroad": 3170,
      "Ġhung": 3171,
      "Ġhost": 3172,
      "Ġglass": 3173,
      "Ġrace": 3174,
      "ĠRep": 3175,
      "Ġdrink": 3176,
      "jo": 3177,
      "ai": 3178,
      "umed": 3179,
      "mitted": 3180,
      "Ġborn": 3181,
      "hest": 3182,
      "Ġgall": 3183,
      "Ġgives": 3184,
      "Ġbank": 3185,
      "Ġ40": 3186,
      "Ġmodern": 3187,
      "irth": 3188,
      "ourse": 3189,
      "Ġloss": 3190,
      "ov": 3191,
      "omen": 3192,
      "Ġmot": 3193,
      "iring": 3194,
      "Ġproperty": 3195,
      "Ġthirty": 3196,
      "ĠIII": 3197,
      "ok": 3198,
      "29": 3199,
      "Ġconsiderable": 3200,
      "Ġnotice": 3201,
      "Ġspot": 3202,
      "ĠSpan": 3203,
      "amb": 3204,
      "Ġsupposed": 3205,
      "ĠWell": 3206,
      "Ġwest": 3207,
      "Ġetc": 3208,
      "Be": 3209,
      "ĠSm": 3210,
      "Ġign": 3211,
      "Ġmeant": 3212,
      "Ġlearned": 3213,
      "Ġsomewhat": 3214,
      "Ġmoved": 3215,
      "ague": 3216,
      "ĠĠĠĠĠĠĠĠĠĠĠĠ": 3217,
      "istic": 3218,
      "leg": 3219,
      "aced": 3220,
      "ibr": 3221,
      "Ġallowed": 3222,
      "Ġspecies": 3223,
      "Ġball": 3224,
      "Ġhealth": 3225,
      "inte": 3226,
      "Ġwalls": 3227,
      "Ġhat": 3228,
      "rol": 3229,
      "Ġunto": 3230,
      "uge": 3231,
      "ril": 3232,
      "Ġmiddle": 3233,
      "Ġphil": 3234,
      "Ġscene": 3235,
      "two": 3236,
      "ias": 3237,
      "Ġfirm": 3238,
      "Ġwhis": 3239,
      "Ġpeculiar": 3240,
      "Ġdraw": 3241,
      "Ġsand": 3242,
      "ustri": 3243,
      "ĠLou": 3244,
      "ĠRich": 3245,
      "Ġtest": 3246,
      "ĠWar": 3247,
      "Ġwhatever": 3248,
      "Ġmarried": 3249,
      "Ġlips": 3250,
      "Ġequal": 3251,
      "iqu": 3252,
      "only": 3253,
      "ĠOct": 3254,
      "Ġstruck": 3255,
      "Ġsurface": 3256,
      "Ġdepend": 3257,
      "Ġ35": 3258,
      "Ġfool": 3259,
      "Ġsociety": 3260,
      "before": 3261,
      "Ġlaws": 3262,
      "Ġdi": 3263,
      "Ġstarted": 3264,
      "ĠLa": 3265,
      "Ġid": 3266,
      "riend": 3267,
      "eed": 3268,
      "ĠGl": 3269,
      "Ġeduc": 3270,
      "ID": 3271,
      "Ġauthority": 3272,
      "ĠMon": 3273,
      "osite": 3274,
      "ĠÎ": 3275,
      "Ġcop": 3276,
      "ology": 3277,
      "zen": 3278,
      "lying": 3279,
      "ram": 3280,
      "Ġknows": 3281,
      "Ġsilence": 3282,
      "Ġ+": 3283,
      "unk": 3284,
      "Ġsick": 3285,
      "Ġchap": 3286,
      "Ġnames": 3287,
      "ville": 3288,
      "Ġdrew": 3289,
      "oom": 3290,
      "itor": 3291,
      "ify": 3292,
      "fied": 3293,
      "Ġexpected": 3294,
      "ification": 3295,
      "erved": 3296,
      "Ġmagn": 3297,
      "cond": 3298,
      "ĠTheir": 3299,
      "ĠQueen": 3300,
      "Ġexclaimed": 3301,
      "estern": 3302,
      "Ġexcell": 3303,
      "ishment": 3304,
      "ĠAugust": 3305,
      "Ġshown": 3306,
      "ere": 3307,
      "ĠĠĠĠĠĠĠĠĠĠĠĠĠĠĠ": 3308,
      "Ġprivate": 3309,
      "Ġfra": 3310,
      "Ġevil": 3311,
      "lls": 3312,
      "Ġyourself": 3313,
      "iments": 3314,
      "Ġusually": 3315,
      "Ġhill": 3316,
      "Ġoriginal": 3317,
      "ailed": 3318,
      "Ġproduced": 3319,
      "Ġapparent": 3320,
      "worth": 3321,
      "Ġleaving": 3322,
      "view": 3323,
      "Ġcircumstances": 3324,
      "ĠThomas": 3325,
      "aud": 3326,
      "every": 3327,
      "Ġmountain": 3328,
      "nce": 3329,
      "ception": 3330,
      "arily": 3331,
      "Ġbuilding": 3332,
      "Ġtend": 3333,
      "Ġfing": 3334,
      "Ġdistingu": 3335,
      "zz": 3336,
      "little": 3337,
      "iden": 3338,
      "Ġmeeting": 3339,
      "Ġsmile": 3340,
      "rees": 3341,
      "lex": 3342,
      "Ġsupport": 3343,
      "Ġbill": 3344,
      "!'": 3345,
      "Ġgrace": 3346,
      "Ġsurr": 3347,
      "Ġsummer": 3348,
      "Ġexperience": 3349,
      "aces": 3350,
      "Ġnation": 3351,
      "ergy": 3352,
      "het": 3353,
      "pon": 3354,
      "Ġcaught": 3355,
      "umber": 3356,
      "dra": 3357,
      "asp": 3358,
      "bles": 3359,
      "Ġdim": 3360,
      "respond": 3361,
      "ĠPrince": 3362,
      "Ġ,": 3363,
      "Ġjourney": 3364,
      "Ġmentioned": 3365,
      "pet": 3366,
      "Ġdestroy": 3367,
      "Ġfavour": 3368,
      "olly": 3369,
      "ĠCal": 3370,
      "ĠRome": 3371,
      "His": 3372,
      "Ġsoldiers": 3373,
      "Ġsharp": 3374,
      "ĠBur": 3375,
      "._,": 3376,
      "ibility": 3377,
      "Ġleaves": 3378,
      "lin": 3379,
      "bered": 3380,
      "Ġextreme": 3381,
      "ented": 3382,
      "Ġcou": 3383,
      "ĠSw": 3384,
      "Ġslowly": 3385,
      "Ġmess": 3386,
      "Ġpassage": 3387,
      "play": 3388,
      "ĠJan": 3389,
      "ĠAg": 3390,
      "sk": 3391,
      "lar": 3392,
      "cause": 3393,
      "Ġpra": 3394,
      "ĠThus": 3395,
      "Ġwalked": 3396,
      "Ġcloud": 3397,
      "Ġtit": 3398,
      "ply": 3399,
      "ander": 3400,
      "lished": 3401,
      "Ġwinter": 3402,
      "Ġ188": 3403,
      "Ġdegree": 3404,
      "Ġdrawn": 3405,
      "col": 3406,
      "cher": 3407,
      "sl": 3408,
      "Ġdeb": 3409,
      "AND": 3410,
      "Ġoutside": 3411,
      "Ġopport": 3412,
      "ĠCourt": 3413,
      "present": 3414,
      "Ġur": 3415,
      "Ġ187": 3416,
      "Ġscarcely": 3417,
      "Ġthoughts": 3418,
      "Ġfal": 3419,
      "gypt": 3420,
      "ĠYet": 3421,
      "bing": 3422,
      "Ġpursu": 3423,
      "Ġevidence": 3424,
      "Ġthinking": 3425,
      "Ġstock": 3426,
      "Ġreceive": 3427,
      "Ġreligion": 3428,
      "Ġfifty": 3429,
      "Ġwrite": 3430,
      "Ġdiscovered": 3431,
      "happ": 3432,
      "Ġtrade": 3433,
      "Ġ33": 3434,
      "Ġstraight": 3435,
      "Ġtemper": 3436,
      "Ġadopt": 3437,
      "ĠĠĠĠĠĠĠĠĠĠĠĠĠĠ": 3438,
      "Ġgetting": 3439,
      "Ġrevol": 3440,
      "Ġseeing": 3441,
      "ensive": 3442,
      "EC": 3443,
      "Ġcult": 3444,
      "antic": 3445,
      "rank": 3446,
      "Ġsufficient": 3447,
      "Ġspread": 3448,
      "uments": 3449,
      "Ġmilitary": 3450,
      "vention": 3451,
      "Ġpath": 3452,
      "Ġlives": 3453,
      "Ġ50": 3454,
      "Ġspace": 3455,
      "aval": 3456,
      "estions": 3457,
      "kes": 3458,
      "ĠBo": 3459,
      "ĠIndians": 3460,
      "Ġnarrow": 3461,
      "kind": 3462,
      "AY": 3463,
      "Ġafraid": 3464,
      "Ġobtained": 3465,
      "Ġspr": 3466,
      "ĠIsland": 3467,
      "Ġess": 3468,
      "Ġ189": 3469,
      "Ġsad": 3470,
      "ĠJes": 3471,
      "ĠWhere": 3472,
      "Ġshot": 3473,
      "may": 3474,
      "cr": 3475,
      "Ġ36": 3476,
      "Ġdistinct": 3477,
      "back": 3478,
      "ien": 3479,
      "Ġhonour": 3480,
      "Ġreach": 3481,
      "Ġexpression": 3482,
      "ĠNe": 3483,
      "Ġarg": 3484,
      "-+": 3485,
      "arsh": 3486,
      "Ġpicture": 3487,
      "Ġstudy": 3488,
      "ĠPresident": 3489,
      "tee": 3490,
      "Ġdry": 3491,
      "Ġfloor": 3492,
      "Ġheight": 3493,
      "Ġinj": 3494,
      "your": 3495,
      "Ġutter": 3496,
      "ĠAnt": 3497,
      "ĠCr": 3498,
      "Ġmel": 3499,
      "45": 3500,
      "ĠTur": 3501,
      "Ġchair": 3502,
      "cer": 3503,
      "ĠCong": 3504,
      "rated": 3505,
      "duced": 3506,
      "Ġsteam": 3507,
      "By": 3508,
      "uel": 3509,
      "Ġsty": 3510,
      "ĠJew": 3511,
      "Ġloved": 3512,
      "Ġmut": 3513,
      "Ġpolitical": 3514,
      "arliam": 3515,
      "Ġquickly": 3516,
      "Ġinhabit": 3517,
      "Ġsides": 3518,
      "Ġcat": 3519,
      "ĠĠĠĠĠĠĠĠĠĠĠĠĠĠĠĠĠ": 3520,
      "made": 3521,
      "Ġpull": 3522,
      "Ġforget": 3523,
      "Ġoffered": 3524,
      "Ġmonth": 3525,
      "Ġprint": 3526,
      "Ġeast": 3527,
      "Ġnative": 3528,
      "Ġshad": 3529,
      "=,": 3530,
      "Ġgirls": 3531,
      "lend": 3532,
      "Ġrequired": 3533,
      "Ġexistence": 3534,
      "Ġshowed": 3535,
      "Ġarch": 3536,
      "Ġdecided": 3537,
      "Ġaut": 3538,
      "ĠDav": 3539,
      "Ġsilver": 3540,
      "aughed": 3541,
      "Ġstopped": 3542,
      "One": 3543,
      "peror": 3544,
      "Ġdoll": 3545,
      "Ġnews": 3546,
      "perior": 3547,
      "Ġafternoon": 3548,
      "Ġrail": 3549,
      "Ġtot": 3550,
      "nat": 3551,
      "Ġrise": 3552,
      "Ġfixed": 3553,
      "udd": 3554,
      "Ġpot": 3555,
      "idenote": 3556,
      "ĠMor": 3557,
      "ĠMin": 3558,
      "Ġportion": 3559,
      "sub": 3560,
      "Ġshore": 3561,
      "itch": 3562,
      "Ġdeclared": 3563,
      "olic": 3564,
      "Ġav": 3565,
      "occ": 3566,
      "Ġdread": 3567,
      "Ġdinner": 3568,
      "ĠJune": 3569,
      "Ġfem": 3570,
      "ĠPh": 3571,
      "Ġorders": 3572,
      "Ġforest": 3573,
      "Ġgoes": 3574,
      "Ġexample": 3575,
      "inent": 3576,
      "Ġhall": 3577,
      "Ġheat": 3578,
      "Âł": 3579,
      "gged": 3580,
      "Ġsnow": 3581,
      "through": 3582,
      "Ġreport": 3583,
      "Ġsong": 3584,
      "Ġphilosop": 3585,
      "ounced": 3586,
      "Sidenote": 3587,
      "ashington": 3588,
      "Ġgrew": 3589,
      "Ġconcern": 3590,
      "eav": 3591,
      "fortun": 3592,
      "anging": 3593,
      "Ġrain": 3594,
      "Ġdiscuss": 3595,
      "Ġneck": 3596,
      "Ġbread": 3597,
      "After": 3598,
      "Ġstrugg": 3599,
      "fast": 3600,
      "acc": 3601,
      "Ġsin": 3602,
      "Ġhigher": 3603,
      "Ġrule": 3604,
      "Ġexerc": 3605,
      "Ġhero": 3606,
      "Ġprepared": 3607,
      "Ġdetermined": 3608,
      "ids": 3609,
      "Ġreve": 3610,
      "these": 3611,
      "even": 3612,
      "Ġanimal": 3613,
      "irgin": 3614,
      "Ġtears": 3615,
      "Ġpersonal": 3616,
      "Ġrul": 3617,
      "Ġreligious": 3618,
      "ata": 3619,
      "Ġpassing": 3620,
      "_;": 3621,
      "rey": 3622,
      "Ġ{": 3623,
      "iently": 3624,
      "Ġbod": 3625,
      "ĠIr": 3626,
      "Ġforgot": 3627,
      "arliament": 3628,
      "ĠSam": 3629,
      "Ġchanged": 3630,
      "Ġunless": 3631,
      "Ġregular": 3632,
      "ocr": 3633,
      "umph": 3634,
      "46": 3635,
      "Ġing": 3636,
      "Ġcrown": 3637,
      "Ġtender": 3638,
      "Ġinteresting": 3639,
      "GE": 3640,
      "Ġtwelve": 3641,
      "igned": 3642,
      "Ġwitness": 3643,
      "pping": 3644,
      "ffic": 3645,
      "isters": 3646,
      "ese": 3647,
      ".;": 3648,
      "Ġappre": 3649,
      "ctions": 3650,
      "Ġmarriage": 3651,
      "ems": 3652,
      "uls": 3653,
      "Ġflowers": 3654,
      "Ġdescribed": 3655,
      "Ġdom": 3656,
      "Ġsize": 3657,
      "Do": 3658,
      "ceived": 3659,
      "ocked": 3660,
      "Ġband": 3661,
      "Ġmotion": 3662,
      "Ġcapital": 3663,
      "Ġfit": 3664,
      "Ġgaz": 3665,
      "Ġfavor": 3666,
      "ĠMarch": 3667,
      "Ġsituation": 3668,
      "arer": 3669,
      "stant": 3670,
      "Ġordered": 3671,
      "43": 3672,
      "Ġbox": 3673,
      "Ġpassion": 3674,
      "Ġofficer": 3675,
      "Ġ185": 3676,
      "Ġhabit": 3677,
      "ĠJuly": 3678,
      "Sh": 3679,
      "Ġfol": 3680,
      "Ġabsolute": 3681,
      "bre": 3682,
      "Ġvain": 3683,
      "Ġproved": 3684,
      "Ġmach": 3685,
      "Ġcrit": 3686,
      "Ġcre": 3687,
      "oms": 3688,
      "lly": 3689,
      "amber": 3690,
      "Ġprogress": 3691,
      "Ġbroke": 3692,
      "ternal": 3693,
      "isions": 3694,
      "Ġimm": 3695,
      "Ġlikely": 3696,
      "47": 3697,
      "200": 3698,
      "sur": 3699,
      "Ġgrad": 3700,
      "Ġ200": 3701,
      "ators": 3702,
      "ially": 3703,
      "Ġemployed": 3704,
      "good": 3705,
      "Ġweight": 3706,
      "Ġvalley": 3707,
      "Ġpet": 3708,
      "Ġtone": 3709,
      "Ġelect": 3710,
      "bell": 3711,
      "Ġmort": 3712,
      "Ġcab": 3713,
      "Ġspeech": 3714,
      "order": 3715,
      "Ġbreath": 3716,
      "Ġescape": 3717,
      "Ġlaughed": 3718,
      "pir": 3719,
      "Ġkne": 3720,
      "Ã¨": 3721,
      "ĠJud": 3722,
      "Ġ21": 3723,
      "Ġinstance": 3724,
      "Ġanimals": 3725,
      "emed": 3726,
      "Ġallow": 3727,
      "á½": 3728,
      "Ġterms": 3729,
      "Ġwise": 3730,
      "know": 3731,
      "ocks": 3732,
      "Ġcorner": 3733,
      "Ġbas": 3734,
      "ĠPort": 3735,
      "ĠPaul": 3736,
      "Ġstream": 3737,
      "49": 3738,
      "ege": 3739,
      "ares": 3740,
      "aunt": 3741,
      "Ġadmir": 3742,
      "Ġpossession": 3743,
      "lement": 3744,
      "first": 3745,
      "Ġ37": 3746,
      "ĠMe": 3747,
      "Ġremains": 3748,
      "Ġcaused": 3749,
      "ios": 3750,
      "Ġones": 3751,
      "Ġbelieved": 3752,
      "ĠOur": 3753,
      "Ġquant": 3754,
      "Ġadvantage": 3755,
      "Ġvast": 3756,
      "idently": 3757,
      "ading": 3758,
      "Ġstation": 3759,
      "such": 3760,
      "Ġmountains": 3761,
      "Ġsail": 3762,
      "ĠDuke": 3763,
      "Ġearn": 3764,
      "orious": 3765,
      "Ġpoints": 3766,
      "Ġminute": 3767,
      "From": 3768,
      "eder": 3769,
      "Ġdifficulty": 3770,
      "48": 3771,
      "fit": 3772,
      "anges": 3773,
      "ĠSept": 3774,
      "Ġagree": 3775,
      "ĠFather": 3776,
      "istory": 3777,
      "35": 3778,
      "ĠScot": 3779,
      "rec": 3780,
      "ois": 3781,
      "Ġopposite": 3782,
      "dist": 3783,
      "uary": 3784,
      "Ġgarden": 3785,
      "Ġfrequently": 3786,
      "Ġcred": 3787,
      "ico": 3788,
      "down": 3789,
      "heart": 3790,
      "Ġsky": 3791,
      "ipped": 3792,
      "Eng": 3793,
      "Ġrunning": 3794,
      "ajesty": 3795,
      "ama": 3796,
      "nes": 3797,
      "Ġwaiting": 3798,
      "ĠEvery": 3799,
      "Ġbeneath": 3800,
      "bit": 3801,
      "ĠWor": 3802,
      "22": 3803,
      "ĠSu": 3804,
      "Ġapart": 3805,
      "Ġordinary": 3806,
      "Ġnamed": 3807,
      "Ġnumerous": 3808,
      "RI": 3809,
      "Ġspeaking": 3810,
      "Let": 3811,
      "bu": 3812,
      "rate": 3813,
      "chief": 3814,
      "Ġrate": 3815,
      "rig": 3816,
      "Ġmoral": 3817,
      "Ġdistrict": 3818,
      "ĠXX": 3819,
      "Ġrepeated": 3820,
      "bey": 3821,
      "Ġmiss": 3822,
      "36": 3823,
      "ĠEgypt": 3824,
      "illy": 3825,
      "Ġclosed": 3826,
      "Ġbow": 3827,
      "burg": 3828,
      "Ġjustice": 3829,
      "Ġsitting": 3830,
      "ĠAf": 3831,
      "law": 3832,
      "Ġprove": 3833,
      "much": 3834,
      "Ġconqu": 3835,
      "Ġdise": 3836,
      "standing": 3837,
      "Ġrare": 3838,
      "Mar": 3839,
      "ieve": 3840,
      "ability": 3841,
      "Ġroy": 3842,
      "Ġyellow": 3843,
      "iffe": 3844,
      "Ġep": 3845,
      "retched": 3846,
      "ufact": 3847,
      "ctor": 3848,
      "Ġwealth": 3849,
      "Ġbeat": 3850,
      "Ġment": 3851,
      "Ġbeside": 3852,
      "Ġforty": 3853,
      "Ġeager": 3854,
      "Î¹": 3855,
      "Ġtakes": 3856,
      "ĠMc": 3857,
      "Ġrefer": 3858,
      "Ġextent": 3859,
      "Ġmeasure": 3860,
      "ĠColl": 3861,
      "âĢķâĢķ": 3862,
      "ode": 3863,
      "Ġ38": 3864,
      "iny": 3865,
      "Ġengaged": 3866,
      "Ġcompar": 3867,
      "Ġshout": 3868,
      "Ġsimply": 3869,
      "Ġrid": 3870,
      "ĠDan": 3871,
      "Ġpopular": 3872,
      "Ġcolour": 3873,
      "iance": 3874,
      "Ġobtain": 3875,
      "oles": 3876,
      "four": 3877,
      "Ġsilent": 3878,
      "Ġupper": 3879,
      "Ġimportance": 3880,
      "without": 3881,
      "Ġcand": 3882,
      "ara": 3883,
      "Ġserious": 3884,
      "âĶĢâĶĢâĶĢâĶĢâĶĢâĶĢâĶĢâĶĢ": 3885,
      "Ġlot": 3886,
      "Ġvan": 3887,
      "attered": 3888,
      "Ġpleasant": 3889,
      "Ġplease": 3890,
      "morrow": 3891,
      "ĠĠĠĠĠĠĠĠĠĠĠĠĠĠĠĠĠĠ": 3892,
      "eal": 3893,
      "father": 3894,
      "ĠJust": 3895,
      "Ġinformation": 3896,
      "37": 3897,
      "ĠPeter": 3898,
      "Ġcitiz": 3899,
      "Ġsatisfact": 3900,
      "yr": 3901,
      "Ġspeed": 3902,
      "Ġmoon": 3903,
      "asons": 3904,
      "Ġstates": 3905,
      "Ġfully": 3906,
      "oned": 3907,
      "Ġlif": 3908,
      "icious": 3909,
      "ĠLaw": 3910,
      "isl": 3911,
      "Mrs": 3912,
      "Ġmatters": 3913,
      "Ġsymp": 3914,
      "quis": 3915,
      "Ġwriting": 3916,
      "being": 3917,
      "Ġoffer": 3918,
      "ĠLouis": 3919,
      "utions": 3920,
      "Ġseason": 3921,
      "Ġvent": 3922,
      "pel": 3923,
      "Ġgreatly": 3924,
      "Ġpublished": 3925,
      "Ġfashion": 3926,
      "Ġsocial": 3927,
      "ĠEast": 3928,
      "Ġships": 3929,
      "gen": 3930,
      "might": 3931,
      "Ġintellig": 3932,
      "Ġ190": 3933,
      "Ġsteps": 3934,
      "inces": 3935,
      "Ġdam": 3936,
      "Ġpieces": 3937,
      "five": 3938,
      "Ġpale": 3939,
      "38": 3940,
      "Ġprincipal": 3941,
      "Ġfish": 3942,
      "ĠWho": 3943,
      "Ġrecord": 3944,
      "Ġkill": 3945,
      "Ġimper": 3946,
      "Ġbirds": 3947,
      "urally": 3948,
      "Ġsour": 3949,
      "himself": 3950,
      "essor": 3951,
      "Ġseat": 3952,
      "Ġpresented": 3953,
      "ival": 3954,
      "cip": 3955,
      "cks": 3956,
      "Ġrend": 3957,
      "39": 3958,
      "Ġintended": 3959,
      "erable": 3960,
      "Ġcup": 3961,
      "stone": 3962,
      "asing": 3963,
      "tis": 3964,
      "Ġreply": 3965,
      "icy": 3966,
      "aker": 3967,
      "ĠSy": 3968,
      "Ġperfectly": 3969,
      "Ġladies": 3970,
      "Ã¢": 3971,
      "Ġmaid": 3972,
      "Ġfro": 3973,
      "ica": 3974,
      "ober": 3975,
      "Ġstop": 3976,
      "Ġkiss": 3977,
      "rose": 3978,
      "iting": 3979,
      "Ġplant": 3980,
      "Ġgame": 3981,
      "Ġwid": 3982,
      "ancing": 3983,
      "Ġlying": 3984,
      "ĠChe": 3985,
      "asc": 3986,
      "Ġappointed": 3987,
      "uding": 3988,
      "Ġestablish": 3989,
      "Ġspir": 3990,
      "Ġfinally": 3991,
      "Ex": 3992,
      "Ġmemory": 3993,
      "Ġwished": 3994,
      "Ġremem": 3995,
      "amm": 3996,
      ":--": 3997,
      "Ġconditions": 3998,
      "Ġroyal": 3999,
      "Ġopportunity": 4000,
      "water": 4001,
      "ĠEven": 4002,
      "Ġbrown": 4003,
      "Ġgro": 4004,
      "ĠApril": 4005,
      "Ġfalse": 4006,
      "Ġavo": 4007,
      "Ġsor": 4008,
      "Ġendeav": 4009,
      "ners": 4010,
      "Ġaddition": 4011,
      "Ġsplend": 4012,
      "thought": 4013,
      "Ġcorrect": 4014,
      "ĠOld": 4015,
      "Ġsmo": 4016,
      "Ġtaste": 4017,
      "Ġunderstood": 4018,
      "orne": 4019,
      "ĠĠĠĠĠĠĠĠĠĠĠĠĠĠĠĠĠĠĠ": 4020,
      "Ġestablished": 4021,
      "Ġcurious": 4022,
      "ERS": 4023,
      "Ġinhabitants": 4024,
      "Ġsav": 4025,
      "hip": 4026,
      "asures": 4027,
      "Ġsacri": 4028,
      "atory": 4029,
      "cts": 4030,
      "Ġtouch": 4031,
      "Don": 4032,
      "hens": 4033,
      "Ġ39": 4034,
      "Ġunivers": 4035,
      "ais": 4036,
      "Ġdu": 4037,
      "Ġclean": 4038,
      "ĠBer": 4039,
      "Ġourselves": 4040,
      "Ġworking": 4041,
      "somet": 4042,
      "Ġgrass": 4043,
      "aked": 4044,
      "Îµ": 4045,
      "Ġfacts": 4046,
      "Ġsusp": 4047,
      "Ġaid": 4048,
      "Ġfreed": 4049,
      "Ġfruit": 4050,
      "Ġaffairs": 4051,
      "Ġsuppl": 4052,
      "Ġspent": 4053,
      "Ġcolor": 4054,
      "cis": 4055,
      "ĠRobert": 4056,
      "Ġheads": 4057,
      "Ġexcellent": 4058,
      "Ġthrown": 4059,
      "Ġstage": 4060,
      "Ġparent": 4061,
      "Ġoccupied": 4062,
      "Ġpowers": 4063,
      "Ġkingdom": 4064,
      "Ġweeks": 4065,
      "Ġignor": 4066,
      "ĠMag": 4067,
      "umn": 4068,
      "ĠSuch": 4069,
      "OD": 4070,
      "Ġexper": 4071,
      "Ġtor": 4072,
      "Ġassoci": 4073,
      "Ġremarkable": 4074,
      "dd": 4075,
      "ulf": 4076,
      "Ġconversation": 4077,
      "Ġstar": 4078,
      "Ġcaptain": 4079,
      "Ġlies": 4080,
      "supp": 4081,
      "_)": 4082,
      "Ġproport": 4083,
      "rine": 4084,
      "Ġque": 4085,
      "Ġz": 4086,
      "atures": 4087,
      "Ġterrible": 4088,
      "ĠPal": 4089,
      "Ġquarter": 4090,
      "ĠGreek": 4091,
      "uten": 4092,
      "ĠJer": 4093,
      "Ġthin": 4094,
      "Ġmeaning": 4095,
      "Ġsquare": 4096,
      "OW": 4097,
      "Ġshut": 4098,
      "did": 4099,
      "ulated": 4100,
      "Ġaccompl": 4101,
      "Ġthreat": 4102,
      "ana": 4103,
      "Ind": 4104,
      "Con": 4105,
      "ault": 4106,
      "icks": 4107,
      "Ġstyle": 4108,
      "found": 4109,
      "ago": 4110,
      ",[": 4111,
      "Ġdifference": 4112,
      "UL": 4113,
      "Ġbitter": 4114,
      "Ġmovement": 4115,
      "ĠĊ": 4116,
      "astern": 4117,
      "Ġconscious": 4118,
      "Ġcorrespond": 4119,
      "Ġhills": 4120,
      "Com": 4121,
      "Ġwine": 4122,
      "ĠWashington": 4123,
      "using": 4124,
      "Ġsuperior": 4125,
      "ulous": 4126,
      "aper": 4127,
      "Ġtong": 4128,
      "Ġdistant": 4129,
      "Ġweather": 4130,
      "Ġbottom": 4131,
      "Ġtrying": 4132,
      "ĠCompany": 4133,
      "ĠColonel": 4134,
      "21": 4135,
      "bon": 4136,
      "Ġways": 4137,
      "Ġpurch": 4138,
      "Ġparticularly": 4139,
      "60": 4140,
      "Ġcalm": 4141,
      "pons": 4142,
      "Ġring": 4143,
      "ordinary": 4144,
      "Ġturning": 4145,
      "Ġstreets": 4146,
      "Ġterm": 4147,
      "Ġcounty": 4148,
      "Äģ": 4149,
      "came": 4150,
      "Ġpos": 4151,
      "ora": 4152,
      "urb": 4153,
      "Ġarrange": 4154,
      "rab": 4155,
      "Ġhighest": 4156,
      "Ġhonor": 4157,
      "Ġdwell": 4158,
      "Ġpractice": 4159,
      "atives": 4160,
      "Ġobliged": 4161,
      "Ġremoved": 4162,
      "Ġsearch": 4163,
      "Ġserve": 4164,
      "ĠFort": 4165,
      "asts": 4166,
      "racted": 4167,
      "Ġpleased": 4168,
      "Ġreading": 4169,
      "Ġpp": 4170,
      "Ġdoctor": 4171,
      "iii": 4172,
      "ada": 4173,
      "isk": 4174,
      "Ġdiss": 4175,
      "Ġmarked": 4176,
      "Ġaddress": 4177,
      "Ġadvance": 4178,
      "Ġexped": 4179,
      "atin": 4180,
      "Ġjudge": 4181,
      "pers": 4182,
      "those": 4183,
      "pelled": 4184,
      "Ġillust": 4185,
      "esh": 4186,
      "Ġ70": 4187,
      "ILL": 4188,
      "ATION": 4189,
      "ĠMont": 4190,
      "Ġegg": 4191,
      "don": 4192,
      "\"'": 4193,
      "Ġinches": 4194,
      "must": 4195,
      "cket": 4196,
      "Ġcele": 4197,
      "Ġproud": 4198,
      "Ġnational": 4199,
      "nding": 4200,
      "pered": 4201,
      "ĠVol": 4202,
      "Ġfortune": 4203,
      "comp": 4204,
      "Ġbold": 4205,
      "eper": 4206,
      "ĠEn": 4207,
      "jud": 4208,
      "ĠSen": 4209,
      "ashed": 4210,
      "á¼": 4211,
      "EM": 4212,
      "Ġlooks": 4213,
      "aches": 4214,
      "astic": 4215,
      "ique": 4216,
      "aining": 4217,
      "Ġbesides": 4218,
      "Ġliberty": 4219,
      "ĠĠĠĠĠĠĠĠĠĠĠĠĠĠĠĠĠĠĠĠĠĠĠĠĠ": 4220,
      "Ġsevent": 4221,
      "ĠTe": 4222,
      "Â·": 4223,
      "mod": 4224,
      "Ġexhib": 4225,
      "Ġiii": 4226,
      "Ġproof": 4227,
      "Ġsucceeded": 4228,
      "key": 4229,
      "Ġprec": 4230,
      "idden": 4231,
      "Ġthorough": 4232,
      "Ġevent": 4233,
      "Ġbirth": 4234,
      "ĠCast": 4235,
      "Ġforced": 4236,
      "Ġfollows": 4237,
      "lt": 4238,
      "Ġideas": 4239,
      "ette": 4240,
      "Ġmajor": 4241,
      "iation": 4242,
      "Ġhappiness": 4243,
      "ential": 4244,
      "Ġprim": 4245,
      "Ġcell": 4246,
      "ĠJesus": 4247,
      "ĠStreet": 4248,
      "Ġworthy": 4249,
      "ims": 4250,
      "Ġspite": 4251,
      "Ġfallen": 4252,
      "ĠÂ£": 4253,
      "Ġfright": 4254,
      "Ġsettled": 4255,
      "Ġexceed": 4256,
      "Ġtrou": 4257,
      "Ġproduce": 4258,
      "cies": 4259,
      "isp": 4260,
      "Ġmor": 4261,
      "ainted": 4262,
      "Here": 4263,
      "Ġfier": 4264,
      "ĠSpanish": 4265,
      "Ġprice": 4266,
      "van": 4267,
      "Ġgroup": 4268,
      "44": 4269,
      "Ġgrat": 4270,
      "ĠFrank": 4271,
      "Ġcommit": 4272,
      "Un": 4273,
      "acity": 4274,
      "Ġtrad": 4275,
      "cember": 4276,
      "gel": 4277,
      "Ġdate": 4278,
      "Ġtall": 4279,
      "Ġleading": 4280,
      "OS": 4281,
      "conom": 4282,
      "Ġindepend": 4283,
      "Ġbra": 4284,
      "Ġglory": 4285,
      "ule": 4286,
      "Ġsake": 4287,
      "Ġhistor": 4288,
      "Ġotherwise": 4289,
      "Ġdaily": 4290,
      "Ġdrawing": 4291,
      "Ġsuffer": 4292,
      "odd": 4293,
      "Ġwounded": 4294,
      "Ġinstant": 4295,
      "bury": 4296,
      "ĠSpain": 4297,
      "mas": 4298,
      "bling": 4299,
      "three": 4300,
      "Ġnine": 4301,
      "Ġpopulation": 4302,
      "appeared": 4303,
      "ĠEs": 4304,
      "bro": 4305,
      "uries": 4306,
      "Ġeffort": 4307,
      "Ġcourage": 4308,
      "hor": 4309,
      "Ġyield": 4310,
      "Ġqual": 4311,
      "Ġsorrow": 4312,
      "ilst": 4313,
      "Ġstro": 4314,
      "Ġ45": 4315,
      "ĠAfric": 4316,
      "Ġevents": 4317,
      "Ġthrew": 4318,
      "Ġthroughout": 4319,
      "Ġworse": 4320,
      "Ġprinciple": 4321,
      "usted": 4322,
      "IST": 4323,
      "Ġwel": 4324,
      "Ġbecomes": 4325,
      "give": 4326,
      "Ġstir": 4327,
      "verse": 4328,
      "Ġpack": 4329,
      "ishes": 4330,
      "Ġexactly": 4331,
      "Ġears": 4332,
      "ĠBel": 4333,
      "urd": 4334,
      "aret": 4335,
      "ivity": 4336,
      "Ġsevere": 4337,
      "Ġwaters": 4338,
      "See": 4339,
      "ĠCity": 4340,
      "ĠIm": 4341,
      "Ġsurprise": 4342,
      "Ġsword": 4343,
      "Ġcarefully": 4344,
      "oseph": 4345,
      "Ġlarger": 4346,
      "cor": 4347,
      "Ġopening": 4348,
      "Ġpromise": 4349,
      "Ġpictures": 4350,
      "Ġhonest": 4351,
      "Ġregarded": 4352,
      "ste": 4353,
      "ĠHigh": 4354,
      "Ġwonderful": 4355,
      "Ġ----": 4356,
      "ĠHall": 4357,
      "sit": 4358,
      "acle": 4359,
      "Ġinstruct": 4360,
      "Ġconsist": 4361,
      "Ġ100": 4362,
      "ads": 4363,
      "ĠEdward": 4364,
      "Ġquestions": 4365,
      "Ġequally": 4366,
      "Ġconcer": 4367,
      "Ġfamous": 4368,
      "ĠSmith": 4369,
      "Ġamb": 4370,
      "tw": 4371,
      "Ġfamiliar": 4372,
      "Ġreign": 4373,
      "Ġblind": 4374,
      "Ġshare": 4375,
      "athered": 4376,
      "Ġrelation": 4377,
      "ĠRichard": 4378,
      "Ġwear": 4379,
      "Ġnations": 4380,
      "Ġrob": 4381,
      "Ġdem": 4382,
      "Ġspoken": 4383,
      "met": 4384,
      "33": 4385,
      "Ġafford": 4386,
      "ĠAlex": 4387,
      "Ġmir": 4388,
      "ĠĠĠĠĠĠĠĠĠĠĠĠĠĠĠĠĠĠĠĠ": 4389,
      "Ġrocks": 4390,
      "Ġcentre": 4391,
      "fall": 4392,
      "Ġlands": 4393,
      "Ġperform": 4394,
      "Ġgate": 4395,
      "ovember": 4396,
      "Ġcontrary": 4397,
      "stance": 4398,
      "EE": 4399,
      "Ġfinished": 4400,
      "Ġbare": 4401,
      "ris": 4402,
      "terday": 4403,
      "Ġrising": 4404,
      "ĠWil": 4405,
      "ouring": 4406,
      "Ġaffection": 4407,
      "sue": 4408,
      "Ġfate": 4409,
      "Ġcheer": 4410,
      "exp": 4411,
      "Ġtitle": 4412,
      "serv": 4413,
      "Ġearl": 4414,
      "De": 4415,
      "Ġpounds": 4416,
      "ĠMed": 4417,
      "cean": 4418,
      "panied": 4419,
      "Ġshape": 4420,
      "cles": 4421,
      "Ġconsequence": 4422,
      "unday": 4423,
      "Ġearnest": 4424,
      "Ġsought": 4425,
      "ÏĤ": 4426,
      "ĠĠĠĠĠĠĠĠĠĠĠĠĠĠĠĠĠĠĠĠĠ": 4427,
      "Ġunf": 4428,
      "uable": 4429,
      "Ġpa": 4430,
      "ological": 4431,
      "These": 4432,
      "Ġrefused": 4433,
      "Ġserved": 4434,
      "atur": 4435,
      "Ġthro": 4436,
      "Ġfill": 4437,
      "ension": 4438,
      "Ġrough": 4439,
      "ĠIts": 4440,
      "Ġentertain": 4441,
      "atis": 4442,
      "ĠCongress": 4443,
      "Ġhunt": 4444,
      "Ġsecure": 4445,
      "Ġvig": 4446,
      "Ġprovided": 4447,
      "ĠCath": 4448,
      "ĠFig": 4449,
      "ta": 4450,
      "Ġloud": 4451,
      "Ġbrave": 4452,
      "sw": 4453,
      "rap": 4454,
      "ĠĠĠĠĠĠĠĠĠĠĠĠĠĠĠĠĠĠĠĠĠĠĠĠĠĠĠĠĠ": 4455,
      "Ġpride": 4456,
      "Ġmult": 4457,
      "ĠMer": 4458,
      "Ġbodies": 4459,
      "Ġroof": 4460,
      "Ġprince": 4461,
      "tic": 4462,
      "ca": 4463,
      "ĠMart": 4464,
      "lection": 4465,
      "aine": 4466,
      "ĠĠĠĠĠĠĠĠĠĠĠĠĠĠĠĠĠĠĠĠĠĠĠ": 4467,
      "ĠYes": 4468,
      "Her": 4469,
      "Ġpage": 4470,
      "leep": 4471,
      "Ġfeelings": 4472,
      "Ġsupply": 4473,
      "Ġdollars": 4474,
      "Ġsubjects": 4475,
      "42": 4476,
      "Ġdouble": 4477,
      "ĠRiver": 4478,
      "Ġnumbers": 4479,
      "Ġholding": 4480,
      "Ġbull": 4481,
      "ĠTwo": 4482,
      "remon": 4483,
      "Ġjudgment": 4484,
      "ĠPat": 4485,
      "take": 4486,
      "stitution": 4487,
      "Ġseries": 4488,
      "Ġdarkness": 4489,
      "ĠWhile": 4490,
      "utation": 4491,
      "ĠSan": 4492,
      "Ġgentlemen": 4493,
      "reland": 4494,
      "Ġdiscover": 4495,
      "vis": 4496,
      "looking": 4497,
      "Ġincreased": 4498,
      "inity": 4499,
      "Ġprinciples": 4500,
      "Ġge": 4501,
      "Ġservant": 4502,
      "Ġsoil": 4503,
      "follow": 4504,
      "Ġcook": 4505,
      "ground": 4506,
      "udes": 4507,
      "ĠRed": 4508,
      "Ġpowerful": 4509,
      "Ġbrief": 4510,
      "Ġfarm": 4511,
      "Ġsolemn": 4512,
      "ĠGermany": 4513,
      "Ġerect": 4514,
      "Ġsympath": 4515,
      "Ġedge": 4516,
      "Ġmile": 4517,
      "utenant": 4518,
      "Ah": 4519,
      "Where": 4520,
      "Ġdescription": 4521,
      "Ġpreced": 4522,
      "Ġ81": 4523,
      "Pr": 4524,
      "och": 4525,
      "Â°": 4526,
      "UM": 4527,
      "Ġholy": 4528,
      "ĠGood": 4529,
      "Ġpointed": 4530,
      "ĠIndia": 4531,
      "Ġadvanced": 4532,
      "itz": 4533,
      "Ġanxious": 4534,
      "Ġbless": 4535,
      "ĠVirgin": 4536,
      "Ġseek": 4537,
      "inet": 4538,
      "ula": 4539,
      "called": 4540,
      "olved": 4541,
      "Ġtalking": 4542,
      "ifferent": 4543,
      "41": 4544,
      "Ġdign": 4545,
      "Ġcommer": 4546,
      "mond": 4547,
      "change": 4548,
      "Ġinstr": 4549,
      "70": 4550,
      "Ġiv": 4551,
      "ĠCHAPTER": 4552,
      "ipe": 4553,
      "Ġburst": 4554,
      "Ġbase": 4555,
      "Ġagreed": 4556,
      "Ġfond": 4557,
      "ĠSec": 4558,
      "Ġtype": 4559,
      "Ġfer": 4560,
      "Ġnon": 4561,
      "umes": 4562,
      "Ġq": 4563,
      "commend": 4564,
      "ARD": 4565,
      "Ġsacred": 4566,
      "Ġlabor": 4567,
      "rant": 4568,
      "Ġbab": 4569,
      "aved": 4570,
      "Ġlocal": 4571,
      "Ġtransl": 4572,
      "Ġshows": 4573,
      "Ġtriumph": 4574,
      "child": 4575,
      "course": 4576,
      "Ġbreast": 4577,
      "Ġofficial": 4578,
      "Ġfancy": 4579,
      "enes": 4580,
      "Ġasser": 4581,
      "ĠWhite": 4582,
      "asant": 4583,
      "CE": 4584,
      "izing": 4585,
      "Ïģ": 4586,
      "Ġstands": 4587,
      "orous": 4588,
      "Ġclim": 4589,
      "ĠIrish": 4590,
      "Ġinstit": 4591,
      "necess": 4592,
      "Ġrank": 4593,
      "Ġaston": 4594,
      "rie": 4595,
      "Ġeld": 4596,
      "Ġtax": 4597,
      "Ġdivine": 4598,
      "Ġcruel": 4599,
      "ilities": 4600,
      "last": 4601,
      "80": 4602,
      "Ġcool": 4603,
      "country": 4604,
      "mir": 4605,
      "Ġhosp": 4606,
      "ĠOctober": 4607,
      "Ġcelebr": 4608,
      "people": 4609,
      "requ": 4610,
      "Ġblow": 4611,
      "Ġscience": 4612,
      "Ġnecessity": 4613,
      "Ġdesired": 4614,
      "Ġmanufact": 4615,
      "think": 4616,
      "Ġaltogether": 4617,
      "Ġapplied": 4618,
      "Ġdistinguished": 4619,
      "Ġeducation": 4620,
      "Ġempt": 4621,
      "Ġrad": 4622,
      "IM": 4623,
      "la": 4624,
      "rer": 4625,
      "Ġclothes": 4626,
      "ĠDes": 4627,
      "ari": 4628,
      "Ġoccurred": 4629,
      "Ġissu": 4630,
      "Tr": 4631,
      "-\"": 4632,
      "Ġmanif": 4633,
      "Ġmerch": 4634,
      "Ġwoods": 4635,
      "ĠFeb": 4636,
      "Ġuseful": 4637,
      "ĠĠĠĠĠĠĠĠĠĠĠĠĠĠĠĠĠĠĠĠĠĠĠĠĠĠĠĠ": 4638,
      "Ġwin": 4639,
      "75": 4640,
      "Ġhearts": 4641,
      "Ġpapers": 4642,
      "UT": 4643,
      "Ġvo": 4644,
      "Ġhom": 4645,
      "Ġlose": 4646,
      "Ġstated": 4647,
      "Ġstorm": 4648,
      "ivered": 4649,
      "Or": 4650,
      "ĠIV": 4651,
      "Ġadvent": 4652,
      "flict": 4653,
      "Ġ180": 4654,
      "va": 4655,
      "ĠItaly": 4656,
      "estic": 4657,
      "ĠPart": 4658,
      "ĠĠĠĠĠĠĠĠĠĠĠĠĠĠĠĠĠĠĠĠĠĠĠĠĠĠ": 4659,
      "say": 4660,
      "Ġinvest": 4661,
      "ĠHim": 4662,
      "ĠMex": 4663,
      "ĠMac": 4664,
      "Ġshook": 4665,
      "Ġexpressed": 4666,
      "Ġoil": 4667,
      "theless": 4668,
      "osen": 4669,
      "unch": 4670,
      "Ġsons": 4671,
      "Ġ49": 4672,
      "Ġconnected": 4673,
      "Will": 4674,
      "ushing": 4675,
      "ĠRev": 4676,
      "Ġsorry": 4677,
      "Ġactually": 4678,
      "ĠRom": 4679,
      "Ġforces": 4680,
      "AV": 4681,
      "God": 4682,
      "ky": 4683,
      "Ġprefer": 4684,
      "arest": 4685,
      "agg": 4686,
      "ributed": 4687,
      "shire": 4688,
      "Ġadmin": 4689,
      "Ġlean": 4690,
      "ĠMil": 4691,
      "NE": 4692,
      "bly": 4693,
      "Ġsoldier": 4694,
      "Ġvessels": 4695,
      "Ġmighty": 4696,
      "Ġwouldn": 4697,
      "interest": 4698,
      "life": 4699,
      "Ġconfidence": 4700,
      "pret": 4701,
      "Ġflat": 4702,
      "ĠBlack": 4703,
      "Ġsubs": 4704,
      "Ġcatch": 4705,
      "turn": 4706,
      "ĠMount": 4707,
      "Ġresults": 4708,
      "Ġlat": 4709,
      "cked": 4710,
      "friend": 4711,
      "Ġice": 4712,
      "Ġproportion": 4713,
      "Ġunknown": 4714,
      "Ġcloth": 4715,
      "Ġmission": 4716,
      "Ġbran": 4717,
      "Ġfault": 4718,
      "Ġjoined": 4719,
      "mother": 4720,
      "conscious": 4721,
      "Ġdeser": 4722,
      "Ġthank": 4723,
      "angers": 4724,
      "lands": 4725,
      "line": 4726,
      "Ġworked": 4727,
      "Ġ60": 4728,
      "del": 4729,
      "Ġadmitted": 4730,
      "65": 4731,
      "Ġsalt": 4732,
      "Ġobjects": 4733,
      "Ġsmiled": 4734,
      "utch": 4735,
      "incess": 4736,
      "Ġincrease": 4737,
      "Ġpossessed": 4738,
      "Ġpromised": 4739,
      "Ġcontem": 4740,
      "Ġconcerning": 4741,
      "Ġvolume": 4742,
      "31": 4743,
      "Ġguns": 4744,
      "Ġmember": 4745,
      "ller": 4746,
      "ĠDecember": 4747,
      "Ġlear": 4748,
      "Ġsuffered": 4749,
      "book": 4750,
      "isher": 4751,
      "Ġtu": 4752,
      "ĠĠĠĠĠĠĠĠĠĠĠĠĠĠĠĠĠĠĠĠĠĠ": 4753,
      "aur": 4754,
      "hem": 4755,
      "ĠSal": 4756,
      "ĠTH": 4757,
      "aver": 4758,
      "ĠWal": 4759,
      "Ġskin": 4760,
      "edy": 4761,
      "tering": 4762,
      "adv": 4763,
      "Ġtaught": 4764,
      "Ġtim": 4765,
      "agon": 4766,
      "Ġfaint": 4767,
      "Ġapparently": 4768,
      "Ġ\"_": 4769,
      "Ġrelief": 4770,
      "ses": 4771,
      "Ġbell": 4772,
      "Ġgar": 4773,
      "ption": 4774,
      "cribed": 4775,
      "Ġfailed": 4776,
      "mark": 4777,
      "Ġspirits": 4778,
      "Ġwatched": 4779,
      "war": 4780,
      "ĠBen": 4781,
      "Ġble": 4782,
      "ĠPet": 4783,
      "Ġtea": 4784,
      "Ġ179": 4785,
      "Ġdivided": 4786,
      "Ġpit": 4787,
      "ĠUnion": 4788,
      "Ġglance": 4789,
      "Ġuncle": 4790,
      "Ã¼": 4791,
      "Ġrights": 4792,
      "Ġcarrying": 4793,
      "ĠHam": 4794,
      "ĠCoun": 4795,
      "Ġduties": 4796,
      "aling": 4797,
      "Ġenemies": 4798,
      "Ġparties": 4799,
      "pected": 4800,
      "Ġevidently": 4801,
      "Ġsex": 4802,
      "Le": 4803,
      "Ġbelief": 4804,
      "Ġproceeded": 4805,
      "wr": 4806,
      "fle": 4807,
      "ĠSer": 4808,
      "Ġdust": 4809,
      "Cl": 4810,
      "Ġstranger": 4811,
      "ĠPol": 4812,
      "Ġnaturally": 4813,
      "Ġcurrent": 4814,
      "ĠPers": 4815,
      "ĠReg": 4816,
      "Ġaside": 4817,
      "Ġvers": 4818,
      "Ġdirectly": 4819,
      "Ġbal": 4820,
      "Ġpriest": 4821,
      "Per": 4822,
      "Ġkeeping": 4823,
      "Ġinnoc": 4824,
      "Ġresembl": 4825,
      "ÃŃ": 4826,
      "sch": 4827,
      "Who": 4828,
      "mense": 4829,
      "Ġspect": 4830,
      "Christ": 4831,
      "Ġhighly": 4832,
      "Ġcouldn": 4833,
      "ESS": 4834,
      "hum": 4835,
      "Ġamongst": 4836,
      "Ġpair": 4837,
      "uit": 4838,
      "Ġwriter": 4839,
      "Ġstones": 4840,
      "ĠProf": 4841,
      "Ġflesh": 4842,
      "riv": 4843,
      "ixt": 4844,
      "Ġgrowing": 4845,
      "Ġservants": 4846,
      "Ġexplained": 4847,
      "ibrary": 4848,
      "Ġfreedom": 4849,
      "Ġarrival": 4850,
      "ĠMore": 4851,
      "Ġcompletely": 4852,
      "Ġlod": 4853,
      "ĠJoseph": 4854,
      "Ġ31": 4855,
      "Ġfigures": 4856,
      "Ġintroduced": 4857,
      "Ġmas": 4858,
      "ĠFirst": 4859,
      "iel": 4860,
      "ĠĠĠĠĠĠĠĠĠĠĠĠĠĠĠĠĠĠĠĠĠĠĠĠĠĠĠ": 4861,
      "pes": 4862,
      "Ġhandsome": 4863,
      "ĠLu": 4864,
      "ĠIreland": 4865,
      "Ġpred": 4866,
      "onder": 4867,
      "Ġaband": 4868,
      "IA": 4869,
      "Ġlover": 4870,
      "Ġtongue": 4871,
      "BER": 4872,
      "cknow": 4873,
      "arth": 4874,
      "Ġmarry": 4875,
      "ĠDem": 4876,
      "Ġsuggested": 4877,
      "pire": 4878,
      "Ġnoticed": 4879,
      "Ġcountries": 4880,
      "Ġrapidly": 4881,
      "Ġdisg": 4882,
      "ĠLie": 4883,
      "Ġisn": 4884,
      "Ġtho": 4885,
      "John": 4886,
      "avy": 4887,
      "ĠHon": 4888,
      "opp": 4889,
      "May": 4890,
      "TON": 4891,
      "ardon": 4892,
      "mo": 4893,
      "hether": 4894,
      "Ġvirtue": 4895,
      "Ġlegs": 4896,
      "Ġquantity": 4897,
      "Ġplayed": 4898,
      "Ġyards": 4899,
      "cur": 4900,
      "Ġdropped": 4901,
      "Ġdangerous": 4902,
      "IE": 4903,
      "Ġtal": 4904,
      "Ġproposed": 4905,
      "apan": 4906,
      "Ġadopted": 4907,
      "Ġ80": 4908,
      "Ġdisapp": 4909,
      "Ġhab": 4910,
      "ĠMany": 4911,
      "conf": 4912,
      "ĠAcc": 4913,
      "Ġlake": 4914,
      "fice": 4915,
      "Ġwilling": 4916,
      "Ġrepresented": 4917,
      "Ġarr": 4918,
      "ĠNovember": 4919,
      "inese": 4920,
      "Ġknowing": 4921,
      "oration": 4922,
      "Ġengine": 4923,
      "iest": 4924,
      "Ġmarch": 4925,
      "ĠDick": 4926,
      "Ġcitizens": 4927,
      "Ġshadow": 4928,
      "gs": 4929,
      "ato": 4930,
      "against": 4931,
      "Ġdriven": 4932,
      "Ġtheory": 4933,
      "many": 4934,
      "Ġentrance": 4935,
      "Ġpor": 4936,
      "ĠJe": 4937,
      "Ġmarket": 4938,
      "Ġcomposed": 4939,
      "otton": 4940,
      "Ġaver": 4941,
      "appear": 4942,
      "Ġnice": 4943,
      "ELL": 4944,
      "quar": 4945,
      "iece": 4946,
      "Ġrout": 4947,
      "ĠProv": 4948,
      "Ġlevel": 4949,
      "ĠCam": 4950,
      "Ġbrill": 4951,
      "overy": 4952,
      "ĠArch": 4953,
      "Ġacknow": 4954,
      "Ġminister": 4955,
      "Nor": 4956,
      "ĠDavid": 4957,
      "ĠSunday": 4958,
      "chen": 4959,
      "Ġlog": 4960,
      "Ġpolicy": 4961,
      "away": 4962,
      "Ġminds": 4963,
      "sey": 4964,
      "Ġassu": 4965,
      "ĠDel": 4966,
      "Re": 4967,
      "Ġclearly": 4968,
      "oph": 4969,
      "arly": 4970,
      "Ġtail": 4971,
      "ker": 4972,
      "Ġforgotten": 4973,
      "Ġseized": 4974,
      "ĠEarl": 4975,
      "chan": 4976,
      "lor": 4977,
      "Ġsaf": 4978,
      "Ġfemale": 4979,
      "AB": 4980,
      "mind": 4981,
      "Ġreader": 4982,
      "ropri": 4983,
      "Ġrub": 4984,
      "ĠNap": 4985,
      "Ġteeth": 4986,
      "Ġinside": 4987,
      "ĠHel": 4988,
      "Ġinterrupt": 4989,
      "Ġfifteen": 4990,
      "Ġcultiv": 4991,
      "ceive": 4992,
      "Ġrequire": 4993,
      "Ġactive": 4994,
      "Ġmal": 4995,
      "Ġcow": 4996,
      "Ġconnection": 4997,
      "Ġgolden": 4998,
      "ourable": 4999,
      "ĠMen": 5000,
      "ician": 5001,
      "ĠDiv": 5002,
      "ĠBrown": 5003,
      "host": 5004,
      "Ġfinding": 5005,
      "Ġaccompanied": 5006,
      ";\"": 5007,
      "Ġfingers": 5008,
      "Ġdare": 5009,
      "ousin": 5010,
      "Ġ?": 5011,
      "itement": 5012,
      "Ġrespons": 5013,
      "ĠSeptember": 5014,
      "because": 5015,
      "Ġwhilst": 5016,
      "Ġlack": 5017,
      "Ġtask": 5018,
      "Ġconsideration": 5019,
      "Ġterrit": 5020,
      "hus": 5021,
      "Ġbearing": 5022,
      "Ġcrossed": 5023,
      "Ãª": 5024,
      "ounding": 5025,
      "Ġremarked": 5026,
      "Ġorn": 5027,
      "ĠBook": 5028,
      "Ġwindows": 5029,
      "eping": 5030,
      "Ġarrest": 5031,
      "inst": 5032,
      "........": 5033,
      ".\"[": 5034,
      "ĠĠĠĠĠĠĠĠĠĠĠĠĠĠĠĠĠĠĠĠĠĠĠĠĠĠĠĠĠĠĠ": 5035,
      "Ġkinds": 5036,
      "cast": 5037,
      "Ġgrown": 5038,
      "Ã¶": 5039,
      "Ġintellect": 5040,
      "Ġmyst": 5041,
      "Ġfarther": 5042,
      "between": 5043,
      "Ġdisplay": 5044,
      "ds": 5045,
      "ĠFR": 5046,
      "Ġprepar": 5047,
      "Ġefforts": 5048,
      "Ġdevelopment": 5049,
      "Pro": 5050,
      "Ġgas": 5051,
      "Ġprevious": 5052,
      "Ġbore": 5053,
      "Ġxx": 5054,
      "Ġreven": 5055,
      "iform": 5056,
      "Ġmilk": 5057,
      "Ġdisease": 5058,
      "abeth": 5059,
      "Ġremembered": 5060,
      "ĠLife": 5061,
      "Ġreck": 5062,
      "Ġfly": 5063,
      "Ġcontent": 5064,
      "nothing": 5065,
      "Ġtrial": 5066,
      "Ġtext": 5067,
      "Ġtreated": 5068,
      "Ġcompanion": 5069,
      "Ġproject": 5070,
      "Ġcro": 5071,
      "UN": 5072,
      "Ġthrow": 5073,
      "Ġprotect": 5074,
      "ieved": 5075,
      "oring": 5076,
      "ĠWood": 5077,
      "Se": 5078,
      "ldom": 5079,
      "Ġrender": 5080,
      "Ġtwice": 5081,
      "Ġsaved": 5082,
      "Sir": 5083,
      "Ġdescend": 5084,
      "Ġfaces": 5085,
      "ĠFrancis": 5086,
      "kins": 5087,
      "Ġrelations": 5088,
      "ĠMal": 5089,
      "half": 5090,
      "another": 5091,
      "cended": 5092,
      "ua": 5093,
      "ols": 5094,
      "pring": 5095,
      "Ġ48": 5096,
      "oston": 5097,
      "Ġalive": 5098,
      "Ġguess": 5099,
      "elle": 5100,
      "Ġgradually": 5101,
      "Ġpan": 5102,
      "32": 5103,
      "ĠAnn": 5104,
      "iable": 5105,
      "Ġtruly": 5106,
      "Ġbridge": 5107,
      "otes": 5108,
      "tended": 5109,
      "ĠJanuary": 5110,
      "Ġpalace": 5111,
      "mount": 5112,
      "Ġá¼": 5113,
      "rim": 5114,
      "Ġpity": 5115,
      "Ġdemanded": 5116,
      "sper": 5117,
      "Ġmurm": 5118,
      "miss": 5119,
      "Ġcastle": 5120,
      "equ": 5121,
      "Ġpocket": 5122,
      "Ġshoulder": 5123,
      "Ġinformed": 5124,
      "Ġabsence": 5125,
      "bus": 5126,
      "Ġtotal": 5127,
      "Ġcolon": 5128,
      "Ġsan": 5129,
      "Ġinterests": 5130,
      "pur": 5131,
      "OP": 5132,
      "ĠSl": 5133,
      "Ġdestroyed": 5134,
      "mbly": 5135,
      "ria": 5136,
      "Ġident": 5137,
      "Ġhither": 5138,
      "Ġcauses": 5139,
      "Ġsatisfied": 5140,
      "Ġjoin": 5141,
      "bour": 5142,
      "Ġcreature": 5143,
      "board": 5144,
      "Ġgoods": 5145,
      "Ġmurder": 5146,
      "ĠYour": 5147,
      "Ġcontinue": 5148,
      "Ġvariety": 5149,
      "55": 5150,
      "ĠCent": 5151,
      "Ġcrim": 5152,
      "edd": 5153,
      "Ġtowns": 5154,
      "Ġcontains": 5155,
      "Ġworship": 5156,
      "Ġpersu": 5157,
      "Ġcontrol": 5158,
      "Ġshoot": 5159,
      "âĢĶ": 5160,
      "Ġgathered": 5161,
      "Ġprisoners": 5162,
      "giv": 5163,
      "Ġrendered": 5164,
      "Ġrev": 5165,
      "aints": 5166,
      "power": 5167,
      "agement": 5168,
      "Ġflight": 5169,
      "ĠVen": 5170,
      "uts": 5171,
      "alls": 5172,
      "ĠAv": 5173,
      "izabeth": 5174,
      "uer": 5175,
      "Ġcoat": 5176,
      "still": 5177,
      "Ġplants": 5178,
      "Ġsplendid": 5179,
      "Ġshel": 5180,
      "ĠRoyal": 5181,
      "Ġbranches": 5182,
      "Ġsuit": 5183,
      "Ġdirected": 5184,
      "Ġsurprised": 5185,
      "Ġvaluable": 5186,
      "66": 5187,
      "anks": 5188,
      "Ġimprove": 5189,
      "Ġimpl": 5190,
      "held": 5191,
      "ieur": 5192,
      "sembly": 5193,
      "Ġshoulders": 5194,
      "Ġrecommend": 5195,
      "Ġdrive": 5196,
      "Ġstore": 5197,
      "Ġceremon": 5198,
      "esides": 5199,
      "Am": 5200,
      "Ġconstitution": 5201,
      "Ġassist": 5202,
      "Ġquality": 5203,
      "New": 5204,
      "ĠEmperor": 5205,
      "anim": 5206,
      "Ġenv": 5207,
      "ANT": 5208,
      "Ġretreat": 5209,
      "Ġgods": 5210,
      "Ġsuspect": 5211,
      "Ġobst": 5212,
      "Ġaccepted": 5213,
      "Ġeffects": 5214,
      "Ġquietly": 5215,
      "point": 5216,
      "Ġrom": 5217,
      "Ġhence": 5218,
      "ĠLong": 5219,
      "oir": 5220,
      "Ġchiefly": 5221,
      "ĠNature": 5222,
      "Ġproble": 5223,
      "âķ": 5224,
      "teenth": 5225,
      "ĠSociety": 5226,
      "Ġaware": 5227,
      "Ġflower": 5228,
      "omb": 5229,
      "Ġextraordinary": 5230,
      "Ġyesterday": 5231,
      "Ġknight": 5232,
      "Ġbuy": 5233,
      "Ġneeded": 5234,
      "Ġcollect": 5235,
      "wind": 5236,
      "Ġabund": 5237,
      "Ġactual": 5238,
      "shall": 5239,
      "Ġgather": 5240,
      "Ġcommission": 5241,
      "Ġflo": 5242,
      "Ġconven": 5243,
      "Ġsmoke": 5244,
      "Ġbent": 5245,
      "Ġprayer": 5246,
      "ĠBY": 5247,
      "Ġarticle": 5248,
      "mal": 5249,
      "Ġmidst": 5250,
      "Ġattached": 5251,
      "Ġclosely": 5252,
      "igation": 5253,
      "Ġregret": 5254,
      "rows": 5255,
      "rep": 5256,
      "Ġho": 5257,
      "Ġsurely": 5258,
      "ĠĠĠĠĠĠĠĠĠĠĠĠĠĠĠĠĠĠĠĠĠĠĠĠĠĠĠĠĠĠ": 5259,
      "Ġdiam": 5260,
      "rived": 5261,
      "atively": 5262,
      "Ġhappen": 5263,
      "Ġstatement": 5264,
      "Ġmale": 5265,
      "reek": 5266,
      "ulate": 5267,
      "ĠPhilip": 5268,
      "aith": 5269,
      "rences": 5270,
      "ige": 5271,
      "ĠMaster": 5272,
      "Ġwaited": 5273,
      "Miss": 5274,
      "Ġgenius": 5275,
      "ĠSou": 5276,
      "Pl": 5277,
      "Ġmoving": 5278,
      "ĠHoly": 5279,
      "ĠGovernor": 5280,
      "Ġadminist": 5281,
      "pic": 5282,
      "iture": 5283,
      "Ġsugar": 5284,
      "Ġwand": 5285,
      "Ġcoff": 5286,
      "ĠGrand": 5287,
      "Ġslave": 5288,
      "Ġimmense": 5289,
      "Some": 5290,
      "Qu": 5291,
      "Ġnotes": 5292,
      "ĠMajesty": 5293,
      "same": 5294,
      "Ïĥ": 5295,
      "Ġflour": 5296,
      "ĠRepublic": 5297,
      "ĠBay": 5298,
      "Ġimpression": 5299,
      "General": 5300,
      "--_": 5301,
      "alog": 5302,
      "Ġfortun": 5303,
      "Ġformerly": 5304,
      "Ġaccident": 5305,
      "ĠGen": 5306,
      "Ġcapable": 5307,
      "ĠCons": 5308,
      "seless": 5309,
      "Ġpossibly": 5310,
      "ĠMark": 5311,
      "Ġunfortun": 5312,
      "ĠMadame": 5313,
      "Ġregion": 5314,
      "Ġpartly": 5315,
      "Ġbay": 5316,
      "ilty": 5317,
      "irect": 5318,
      "ĠBill": 5319,
      "Ġhopes": 5320,
      "Ġcredit": 5321,
      "Ġharm": 5322,
      "Ġrange": 5323,
      "rous": 5324,
      "34": 5325,
      "icip": 5326,
      "Ġdull": 5327,
      "ĠHad": 5328,
      "Ġcarriage": 5329,
      "Ġ47": 5330,
      "Ġbrain": 5331,
      "org": 5332,
      "Ġfields": 5333,
      "Ġacquaint": 5334,
      "poss": 5335,
      "ĠJul": 5336,
      "ĠBritain": 5337,
      "Ab": 5338,
      "ĠMass": 5339,
      "Ġluck": 5340,
      "ĠParliament": 5341,
      "antry": 5342,
      "Åĵ": 5343,
      "Ġtired": 5344,
      "Ġsen": 5345,
      "Ġcities": 5346,
      "Ġimmediate": 5347,
      "Ġarticles": 5348,
      "acters": 5349,
      "ĠLy": 5350,
      "Ġfeatures": 5351,
      "po": 5352,
      "Ġsafety": 5353,
      "inate": 5354,
      "ĠMajor": 5355,
      "ointment": 5356,
      "epart": 5357,
      "ĠDE": 5358,
      "ĠFred": 5359,
      "Ġfalling": 5360,
      "ĠFOR": 5361,
      "Ġviews": 5362,
      "mist": 5363,
      "Ġconstant": 5364,
      "Ġhearing": 5365,
      "Ġends": 5366,
      "Ġvisited": 5367,
      "Ġpick": 5368,
      "contin": 5369,
      "Ġstruct": 5370,
      "enance": 5371,
      "Ġburning": 5372,
      "icular": 5373,
      "urity": 5374,
      "udden": 5375,
      "Good": 5376,
      "Ġburied": 5377,
      "vest": 5378,
      "Ġstruggle": 5379,
      "going": 5380,
      "Ġhurt": 5381,
      "68": 5382,
      "ino": 5383,
      "Ġadmit": 5384,
      "ĠHeaven": 5385,
      "Ġstars": 5386,
      "Ġassured": 5387,
      "Ġwants": 5388,
      "erk": 5389,
      "Ġeconom": 5390,
      "ĠSpe": 5391,
      "pres": 5392,
      "Ġstrict": 5393,
      "Ġgain": 5394,
      "67": 5395,
      "Ġinfer": 5396,
      "Ġfleet": 5397,
      "retary": 5398,
      "Ġspiritual": 5399,
      "Ġapproach": 5400,
      "illa": 5401,
      "Ġunable": 5402,
      "Ġprotection": 5403,
      "Ġ90": 5404,
      "Ġshame": 5405,
      "born": 5406,
      "Ġadvice": 5407,
      "Ġfaithful": 5408,
      "happy": 5409,
      "Ġflag": 5410,
      "Ġtempt": 5411,
      "Ġtrembl": 5412,
      "ĠBra": 5413,
      "Ġgained": 5414,
      "urches": 5415,
      "ALL": 5416,
      "ena": 5417,
      "Ġsolid": 5418,
      "CT": 5419,
      "Ġprofession": 5420,
      "sing": 5421,
      "win": 5422,
      "rat": 5423,
      "Ġpolice": 5424,
      "Ġdelay": 5425,
      "Ġpron": 5426,
      "Come": 5427,
      "Ġgloom": 5428,
      "seen": 5429,
      "Ġcattle": 5430,
      "Ġhide": 5431,
      "Ġangry": 5432,
      "Ġbreakfast": 5433,
      "Ġtalked": 5434,
      "omer": 5435,
      "Ġfighting": 5436,
      "Ġbanks": 5437,
      "bid": 5438,
      "Ġsingular": 5439,
      "Ġexercise": 5440,
      "ĠItalian": 5441,
      "ruary": 5442,
      "Ġloose": 5443,
      "ington": 5444,
      "Ġtouched": 5445,
      "Ġcareful": 5446,
      "Ġwholly": 5447,
      "].": 5448,
      "ĠChinese": 5449,
      "Ġchosen": 5450,
      "master": 5451,
      "aly": 5452,
      "Ġstriking": 5453,
      "Ġconcerned": 5454,
      "Ġphysical": 5455,
      "Ġrooms": 5456,
      "Ġamid": 5457,
      "inction": 5458,
      "tt": 5459,
      "Ġresolved": 5460,
      "Ġexplain": 5461,
      "ĠSim": 5462,
      "asy": 5463,
      "Ġcontained": 5464,
      "Ġdivision": 5465,
      "Ġsurrounded": 5466,
      "Ġparents": 5467,
      "ĠBishop": 5468,
      "Ġseparate": 5469,
      "ref": 5470,
      "ĠLand": 5471,
      "ĠOff": 5472,
      "Ġdisci": 5473,
      "rors": 5474,
      "Ġcopy": 5475,
      "ĠAct": 5476,
      "Ġdressed": 5477,
      "enny": 5478,
      "Ġskill": 5479,
      "abor": 5480,
      "etch": 5481,
      "Ġputting": 5482,
      "ĠPo": 5483,
      "Ġmyster": 5484,
      "mons": 5485,
      "Ġslaves": 5486,
      "ĠScotland": 5487,
      "========": 5488,
      "Ġwisdom": 5489,
      "ounce": 5490,
      "nds": 5491,
      "EST": 5492,
      "____": 5493,
      "Ġprompt": 5494,
      "Ġsuffering": 5495,
      "thur": 5496,
      "SE": 5497,
      "Ġevident": 5498,
      "Ġnoise": 5499,
      "69": 5500,
      "Ġcrime": 5501,
      "taken": 5502,
      "Ġclasses": 5503,
      "Ġattended": 5504,
      "Ġbranch": 5505,
      "AIN": 5506,
      "eral": 5507,
      "Ġpill": 5508,
      "acon": 5509,
      "ealous": 5510,
      "Ġcircle": 5511,
      "Ġlovely": 5512,
      "Ġexcited": 5513,
      "Ġenthus": 5514,
      "west": 5515,
      "Ġempty": 5516,
      "Ġprinted": 5517,
      "ÏĢ": 5518,
      "AG": 5519,
      "Ġshowing": 5520,
      "vert": 5521,
      "rill": 5522,
      "ĠGreen": 5523,
      "Ġnatives": 5524,
      "Ġsuccessful": 5525,
      "ĠXV": 5526,
      "Ġhuge": 5527,
      "Ġprivile": 5528,
      "Ġchapter": 5529,
      "Ġexplan": 5530,
      "ĠVer": 5531,
      "Ġfil": 5532,
      "Ġprisoner": 5533,
      "Ġtelling": 5534,
      "oop": 5535,
      "Ġacts": 5536,
      "ĠBet": 5537,
      "rael": 5538,
      "Ġobv": 5539,
      "Ġreasons": 5540,
      "lim": 5541,
      "eding": 5542,
      "inced": 5543,
      "apel": 5544,
      "six": 5545,
      "Ġimagine": 5546,
      "Ġdozen": 5547,
      "',": 5548,
      "._--": 5549,
      "mat": 5550,
      "Ġaffair": 5551,
      "Ġpractical": 5552,
      "make": 5553,
      "Ġvic": 5554,
      "eling": 5555,
      "Ġalt": 5556,
      "Col": 5557,
      "ĠRob": 5558,
      "onsieur": 5559,
      "Ġbusy": 5560,
      "kin": 5561,
      "Ġintention": 5562,
      "Ġswift": 5563,
      "Ġfund": 5564,
      "Ġliqu": 5565,
      "Ġwalking": 5566,
      "Ġprospect": 5567,
      "fam": 5568,
      "ĠCont": 5569,
      "something": 5570,
      "Ġlabour": 5571,
      "ĠJapan": 5572,
      "world": 5573,
      "ĠLove": 5574,
      "Ġearlier": 5575,
      "Ġreference": 5576,
      "ael": 5577,
      "Ġbegun": 5578,
      "Ġpurposes": 5579,
      "Ġcalling": 5580,
      "Ġcontaining": 5581,
      "ĠInc": 5582,
      "rag": 5583,
      "Ġcondem": 5584,
      "Ġworst": 5585,
      "Ġmaintain": 5586,
      "Ġproc": 5587,
      "Ġplate": 5588,
      "Ġhurried": 5589,
      "Ġtreatment": 5590,
      "Ġsovere": 5591,
      "ĠAh": 5592,
      "IF": 5593,
      "Ġservices": 5594,
      "Ġben": 5595,
      "Ġdig": 5596,
      "Ġchanges": 5597,
      "Ġreported": 5598,
      "Ġgranted": 5599,
      "aming": 5600,
      "Ġabsolutely": 5601,
      "ĠRE": 5602,
      "Ġgrowth": 5603,
      "ourn": 5604,
      "Ġtum": 5605,
      "Ġwore": 5606,
      "ront": 5607,
      "ĠHill": 5608,
      "Ġsmooth": 5609,
      "ĠHistory": 5610,
      "Ġcelebrated": 5611,
      "ORD": 5612,
      "uzz": 5613,
      "Ġpatient": 5614,
      "rian": 5615,
      "real": 5616,
      "Ġliterature": 5617,
      "Ġsatisfaction": 5618,
      "irl": 5619,
      "others": 5620,
      "iversity": 5621,
      "ĠAc": 5622,
      "Ġinterested": 5623,
      "ĠInt": 5624,
      "duce": 5625,
      "Ġvictory": 5626,
      "Ġfinal": 5627,
      "Def": 5628,
      "Ġyours": 5629,
      "Ġmajority": 5630,
      "onds": 5631,
      "ustomed": 5632,
      "olid": 5633,
      "Ġdevil": 5634,
      "Ġspecim": 5635,
      "Ġ178": 5636,
      "ĠEr": 5637,
      "Ġvoy": 5638,
      "Ġdischar": 5639,
      "boy": 5640,
      "asions": 5641,
      "olf": 5642,
      "Ġteacher": 5643,
      "uns": 5644,
      "Ġchoice": 5645,
      "Ġthrone": 5646,
      "59": 5647,
      "Ġ[_": 5648,
      "ĠWas": 5649,
      "Ġbutter": 5650,
      "ĠArt": 5651,
      "Ġnose": 5652,
      "Ġconstantly": 5653,
      "icted": 5654,
      "OND": 5655,
      "Ġrode": 5656,
      "lers": 5657,
      "aks": 5658,
      "return": 5659,
      "det": 5660,
      "Ġavoid": 5661,
      "force": 5662,
      "Ġceased": 5663,
      "rog": 5664,
      "years": 5665,
      "Ġdoors": 5666,
      "gest": 5667,
      "common": 5668,
      "ĠPark": 5669,
      "ĠVI": 5670,
      "adel": 5671,
      "Ġsheep": 5672,
      "ĠGo": 5673,
      "Ġseldom": 5674,
      "Ġassembl": 5675,
      "Ġnegro": 5676,
      "Ġdevoted": 5677,
      "tle": 5678,
      "Ġslightly": 5679,
      "Ġseated": 5680,
      "Ġnearer": 5681,
      "Ġsource": 5682,
      "Br": 5683,
      "Ġdying": 5684,
      "Ġfought": 5685,
      "oqu": 5686,
      "asted": 5687,
      "Ġinstinct": 5688,
      "ĠSea": 5689,
      "Ġlisten": 5690,
      "Ġescaped": 5691,
      "Ġexception": 5692,
      "Ġassistance": 5693,
      "Ġsuspic": 5694,
      "ĠTem": 5695,
      "Ġextended": 5696,
      "ĠThose": 5697,
      "En": 5698,
      "Ġtells": 5699,
      "ĠEuropean": 5700,
      "ĠAN": 5701,
      "Ġtur": 5702,
      "lessly": 5703,
      "Ġextremely": 5704,
      "Ġenergy": 5705,
      "Ġfourth": 5706,
      "Ġexcitement": 5707,
      "Ġqueen": 5708,
      "Ġwings": 5709,
      "gain": 5710,
      "Ġeggs": 5711,
      "Ġrequest": 5712,
      "ĠJim": 5713,
      "Ġtemple": 5714,
      "Ġwicked": 5715,
      "Ġmercy": 5716,
      "action": 5717,
      "Ad": 5718,
      "Ġsmaller": 5719,
      "Ġarranged": 5720,
      "Ġcouple": 5721,
      "Ġfairly": 5722,
      "á¿": 5723,
      "unning": 5724,
      "bridge": 5725,
      "Ġmachine": 5726,
      "Ġrecent": 5727,
      "Ġdeeply": 5728,
      "Ġsympathy": 5729,
      "Ġmeat": 5730,
      "ĠPerhaps": 5731,
      "themselves": 5732,
      "ustry": 5733,
      "Ġdoctrine": 5734,
      "took": 5735,
      "Ġwasn": 5736,
      "Ġdefend": 5737,
      "Ġneighbour": 5738,
      "itect": 5739,
      "Ġaim": 5740,
      "itchen": 5741,
      "ĠCouncil": 5742,
      "ĠPR": 5743,
      "Ġchamber": 5744,
      "Ġrear": 5745,
      "ĠLatin": 5746,
      "Ġwatching": 5747,
      "OH": 5748,
      "_:": 5749,
      "ART": 5750,
      "ĠBro": 5751,
      "Ġmagnific": 5752,
      "âķĲ": 5753,
      "Ġsell": 5754,
      "Ġcommittee": 5755,
      "disc": 5756,
      "apers": 5757,
      "Ġraise": 5758,
      "Ġgrief": 5759,
      "Ġconvey": 5760,
      "Ġsection": 5761,
      "Ġgray": 5762,
      "Ġain": 5763,
      "case": 5764,
      "Ġfever": 5765,
      "Ġthoroughly": 5766,
      "Ġhoped": 5767,
      "Ġdrove": 5768,
      "Ġruin": 5769,
      "arse": 5770,
      "ĠRussian": 5771,
      "Ġobserv": 5772,
      "Ġbuildings": 5773,
      "Ġma": 5774,
      "Ġpraise": 5775,
      "pol": 5776,
      "trans": 5777,
      "Ġstick": 5778,
      "Ġnorthern": 5779,
      "acles": 5780,
      "Ġcommitted": 5781,
      "Ġwhispered": 5782,
      "ĠRussia": 5783,
      "Ġreward": 5784,
      "ums": 5785,
      "Ġdesert": 5786,
      "iah": 5787,
      "also": 5788,
      "Ġwelcome": 5789,
      "90": 5790,
      "withstanding": 5791,
      "Ġcrew": 5792,
      "._]": 5793,
      "cientific": 5794,
      "owder": 5795,
      "Ġterror": 5796,
      "ĠDid": 5797,
      "Ġaddressed": 5798,
      "Ġboats": 5799,
      "arts": 5800,
      "Ġride": 5801,
      "icity": 5802,
      "Ġinquir": 5803,
      "atus": 5804,
      "inions": 5805,
      "ĠBoston": 5806,
      "77": 5807,
      "ĠHor": 5808,
      "Ġstories": 5809,
      "Ġtrem": 5810,
      "Ġreduced": 5811,
      "mouth": 5812,
      "inking": 5813,
      "Ġox": 5814,
      "ĠPope": 5815,
      "Ġveget": 5816,
      "ĠDu": 5817,
      "Ġgrey": 5818,
      "Ġdemon": 5819,
      "woman": 5820,
      "Sc": 5821,
      "atre": 5822,
      "ĠProt": 5823,
      "Your": 5824,
      "far": 5825,
      "mosp": 5826,
      "ĠScott": 5827,
      "ĠAng": 5828,
      "ĠOl": 5829,
      "Ġfamilies": 5830,
      "inth": 5831,
      "Ġmat": 5832,
      "non": 5833,
      "Ġworn": 5834,
      "Ġgle": 5835,
      "circ": 5836,
      "Ġarose": 5837,
      "ĠVal": 5838,
      "Ġconclusion": 5839,
      "large": 5840,
      "ĠLake": 5841,
      "too": 5842,
      "OUR": 5843,
      "Ġmeasures": 5844,
      "Ġstrike": 5845,
      "eless": 5846,
      "Ġbringing": 5847,
      "yer": 5848,
      "Ġkeen": 5849,
      "ĠCle": 5850,
      "Ġobey": 5851,
      ",)": 5852,
      "owned": 5853,
      "acqu": 5854,
      "58": 5855,
      "Ġnewsp": 5856,
      "ĠCorn": 5857,
      "ulse": 5858,
      "went": 5859,
      "Ġweap": 5860,
      "fin": 5861,
      "arrison": 5862,
      "Ġlikewise": 5863,
      "natural": 5864,
      "Ġages": 5865,
      "oused": 5866,
      "Ġislands": 5867,
      "Ġdesper": 5868,
      "Ġstern": 5869,
      "Americ": 5870,
      "IX": 5871,
      "Ġimagination": 5872,
      "Ġfold": 5873,
      "ĠAss": 5874,
      "foot": 5875,
      "necessary": 5876,
      "Ġtribes": 5877,
      "Ġappreci": 5878,
      "vi": 5879,
      "Ġremind": 5880,
      "ĠDor": 5881,
      "Ġpresently": 5882,
      "Ġdelicate": 5883,
      "Ġcalcul": 5884,
      "ĠHu": 5885,
      "andy": 5886,
      "esc": 5887,
      "Ġbecoming": 5888,
      "Ġhang": 5889,
      "Ġdeck": 5890,
      "Ġsale": 5891,
      "Ġexpedition": 5892,
      "Ġpil": 5893,
      "Ġcompelled": 5894,
      "Ġdepos": 5895,
      "ĠEll": 5896,
      "Ġhesit": 5897,
      "sell": 5898,
      "reason": 5899,
      "lie": 5900,
      "Ġmistake": 5901,
      "Ġexha": 5902,
      "sent": 5903,
      "Ġfounded": 5904,
      "Ä«": 5905,
      "ĠEmp": 5906,
      "ĠTri": 5907,
      "Ġsixty": 5908,
      "ĠFer": 5909,
      "Ġattract": 5910,
      "Ġfrequent": 5911,
      "ĠDuring": 5912,
      "Ġgay": 5913,
      "ĠNational": 5914,
      "oft": 5915,
      "Ġsufficiently": 5916,
      "Ġthence": 5917,
      "ĠElizabeth": 5918,
      "things": 5919,
      "itated": 5920,
      "Ġdespair": 5921,
      "Ġvisible": 5922,
      "consider": 5923,
      "aus": 5924,
      "Ġdelivered": 5925,
      "mus": 5926,
      "Ã±": 5927,
      "ĠApp": 5928,
      "Ġcritic": 5929,
      "Ġlegisl": 5930,
      "ĠAfrica": 5931,
      "Ġmessage": 5932,
      "Ġmillion": 5933,
      "porary": 5934,
      "Ġven": 5935,
      "Ġclouds": 5936,
      "Ġlamp": 5937,
      "pent": 5938,
      "uce": 5939,
      "Ġshop": 5940,
      "ailing": 5941,
      "ĠArab": 5942,
      "Ġdetails": 5943,
      "armed": 5944,
      "put": 5945,
      "enger": 5946,
      "Ġteach": 5947,
      "Ġguide": 5948,
      "Ġcommanded": 5949,
      "Ġdrop": 5950,
      "Ġere": 5951,
      "Ġsituated": 5952,
      "eenth": 5953,
      "Ġprobable": 5954,
      "inging": 5955,
      "agn": 5956,
      "cho": 5957,
      "ĠTer": 5958,
      "aign": 5959,
      "Ġlifted": 5960,
      "Ġdefence": 5961,
      "za": 5962,
      "Ġbought": 5963,
      "Ġwet": 5964,
      "Ġpatri": 5965,
      "Ġissued": 5966,
      "Ġsubsequ": 5967,
      "Ġended": 5968,
      "Ġmental": 5969,
      "Ge": 5970,
      "XX": 5971,
      "Ġthousands": 5972,
      "Ġsooner": 5973,
      "Ġhate": 5974,
      "Åį": 5975,
      "--------------------------------": 5976,
      "Ġlux": 5977,
      "ĠSav": 5978,
      "Ġwhence": 5979,
      "ĠMur": 5980,
      "Ġinvent": 5981,
      "ĠMich": 5982,
      "ĠHowever": 5983,
      "Ġproperly": 5984,
      "Ġreferred": 5985,
      "Ġâ": 5986,
      "Ġgovernor": 5987,
      "ĠThough": 5988,
      "ĠSon": 5989,
      "Ġregiment": 5990,
      "ĠSpirit": 5991,
      "Ġpressed": 5992,
      "Ġmoments": 5993,
      "RY": 5994,
      "ifying": 5995,
      "umin": 5996,
      "Ġze": 5997,
      "Ġahead": 5998,
      "acious": 5999,
      "bor": 6000,
      "Ġcalls": 6001,
      "Ġsouls": 6002,
      "Ġargument": 6003,
      "Ġcompanions": 6004,
      "da": 6005,
      "Ġbrilliant": 6006,
      "Ġarmed": 6007,
      "Ġpreserved": 6008,
      "ĠMat": 6009,
      "Ġpoison": 6010,
      "Ġha": 6011,
      "Ġkindly": 6012,
      "Ġpermitted": 6013,
      "OC": 6014,
      "Ġstead": 6015,
      "Ġgrant": 6016,
      "sa": 6017,
      "Defn": 6018,
      "Ġdignity": 6019,
      "ĠNever": 6020,
      "Ġneeds": 6021,
      "Ġframe": 6022,
      "imony": 6023,
      "cut": 6024,
      "ĠCome": 6025,
      "ĠCatholic": 6026,
      "Ġwound": 6027,
      "Ġliked": 6028,
      "Ġsigh": 6029,
      "------": 6030,
      "Ġfriendly": 6031,
      "Ġmode": 6032,
      "57": 6033,
      "Ġkings": 6034,
      "Ġbag": 6035,
      "Ġguilty": 6036,
      "rait": 6037,
      "Î»": 6038,
      "wed": 6039,
      "ĠJews": 6040,
      "hard": 6041,
      "Ġdiscovery": 6042,
      "Ġparish": 6043,
      "Ġconsent": 6044,
      "always": 6045,
      "Ġfurnished": 6046,
      "idents": 6047,
      "Ġindul": 6048,
      "orial": 6049,
      "Lord": 6050,
      "hon": 6051,
      "regular": 6052,
      "Ġax": 6053,
      "ications": 6054,
      "Ġlistened": 6055,
      "Ġviolent": 6056,
      "raw": 6057,
      "Ġwestern": 6058,
      "ĠOnly": 6059,
      "fulness": 6060,
      "pat": 6061,
      "Ġpoetry": 6062,
      "Ġfo": 6063,
      "ements": 6064,
      "Ġoperation": 6065,
      "Ġfled": 6066,
      "iosity": 6067,
      "resses": 6068,
      "henomen": 6069,
      "Ġuniversal": 6070,
      "itled": 6071,
      "ĠThou": 6072,
      "Bl": 6073,
      "young": 6074,
      "ĠRes": 6075,
      "olution": 6076,
      "Ġconsult": 6077,
      "Ġalarm": 6078,
      "Ġcontempt": 6079,
      "ĠLittle": 6080,
      "Ġpulled": 6081,
      "Ġfan": 6082,
      "ĠVirginia": 6083,
      "ĠFebruary": 6084,
      "Ġfellows": 6085,
      "uation": 6086,
      "gent": 6087,
      "ĠAmong": 6088,
      "ATE": 6089,
      "abb": 6090,
      "eous": 6091,
      "burgh": 6092,
      "ĠCap": 6093,
      "Ġbatt": 6094,
      "Ġrepro": 6095,
      "Ġbelonging": 6096,
      "Ġplenty": 6097,
      "Ġestate": 6098,
      "Ġmechan": 6099,
      "Ġcord": 6100,
      "Our": 6101,
      "white": 6102,
      "ĠAustri": 6103,
      "Ġincluding": 6104,
      "Ġprosper": 6105,
      "!--": 6106,
      "illery": 6107,
      "Ġles": 6108,
      "Ġnarr": 6109,
      "Ġpages": 6110,
      "ĠCat": 6111,
      "Ġindign": 6112,
      "ĠMess": 6113,
      "Ġvision": 6114,
      "Ġsigns": 6115,
      "Ġperformed": 6116,
      "Â´": 6117,
      "Ġperpet": 6118,
      "Ġwriters": 6119,
      "ibus": 6120,
      "Ġsentence": 6121,
      "Ġissue": 6122,
      "âķĲâķĲ": 6123,
      "ĠOx": 6124,
      "dro": 6125,
      "Ġobserve": 6126,
      "coming": 6127,
      "Ġschools": 6128,
      "Ġcharacters": 6129,
      "Ġdestruction": 6130,
      "Ġcreated": 6131,
      "Ġvote": 6132,
      "Ġlearning": 6133,
      "Ġnovel": 6134,
      "Ġease": 6135,
      "liest": 6136,
      "Ġexcess": 6137,
      "arded": 6138,
      "Ġprocl": 6139,
      "Ġnerv": 6140,
      "Ġthinks": 6141,
      "osom": 6142,
      "Ġunderstanding": 6143,
      "----\"": 6144,
      "Ġrecoll": 6145,
      "Ġtale": 6146,
      "stead": 6147,
      "Ġolder": 6148,
      "Ġdoc": 6149,
      "Ġdogs": 6150,
      "urely": 6151,
      "Ġfriendship": 6152,
      "ugg": 6153,
      "IGH": 6154,
      "ĠDay": 6155,
      "Ġenorm": 6156,
      "success": 6157,
      "rav": 6158,
      "Ġplaying": 6159,
      "ita": 6160,
      "AK": 6161,
      "Ġnur": 6162,
      "Ġsche": 6163,
      "wers": 6164,
      "era": 6165,
      "Ġil": 6166,
      "Ġfatal": 6167,
      "Ã´": 6168,
      "having": 6169,
      "Ġdawn": 6170,
      "Ġconfess": 6171,
      "ĠSil": 6172,
      "avalry": 6173,
      "Ġocean": 6174,
      "Ġlit": 6175,
      "Ġsouthern": 6176,
      "Ġbenefit": 6177,
      "Ġdance": 6178,
      "alem": 6179,
      "Ġ/": 6180,
      "Ġrecon": 6181,
      "engers": 6182,
      "sal": 6183,
      "=:": 6184,
      "Ġjealous": 6185,
      "pot": 6186,
      "gener": 6187,
      "enses": 6188,
      "umption": 6189,
      "usual": 6190,
      "iana": 6191,
      "ĠNE": 6192,
      "English": 6193,
      "rain": 6194,
      "Ġau": 6195,
      "ĠBefore": 6196,
      "Ġclergy": 6197,
      "64": 6198,
      "Ġlately": 6199,
      "Can": 6200,
      "Ġded": 6201,
      "rible": 6202,
      "ĠProfessor": 6203,
      "abled": 6204,
      "Ġpainted": 6205,
      "Ġstrongly": 6206,
      "Ġschol": 6207,
      "low": 6208,
      "_]": 6209,
      "Ġcaut": 6210,
      "Ġrejo": 6211,
      "Ġcoal": 6212,
      "cel": 6213,
      "Ġdish": 6214,
      "mes": 6215,
      "dif": 6216,
      "writ": 6217,
      "ĠTre": 6218,
      "urance": 6219,
      "ĠChina": 6220,
      "Ġsacrifice": 6221,
      "dem": 6222,
      "Ġreflect": 6223,
      "ele": 6224,
      "Ġhabits": 6225,
      "Ġemer": 6226,
      "Ġinch": 6227,
      "olk": 6228,
      "Ġcompet": 6229,
      "ĠCamp": 6230,
      "osal": 6231,
      "import": 6232,
      "Ġsupper": 6233,
      "Ġsus": 6234,
      "name": 6235,
      "ĠMus": 6236,
      "Ġsettle": 6237,
      "iated": 6238,
      "Ġglorious": 6239,
      "emy": 6240,
      "general": 6241,
      "''": 6242,
      "iary": 6243,
      "Ġ32": 6244,
      "Ġmonarch": 6245,
      "63": 6246,
      "Ġmanifest": 6247,
      "ITH": 6248,
      "Ġcontract": 6249,
      "aft": 6250,
      "Ġintelligence": 6251,
      "OV": 6252,
      "Ġmanners": 6253,
      "Ġperman": 6254,
      "Ġimpress": 6255,
      "ĠBell": 6256,
      "Ġaffected": 6257,
      "Ġexecution": 6258,
      "ĠUnder": 6259,
      "ini": 6260,
      "uddenly": 6261,
      "question": 6262,
      "Ġcard": 6263,
      "Ġresolution": 6264,
      "Ġaspect": 6265,
      "Ġknees": 6266,
      "Ġcouncil": 6267,
      "Ġinstrument": 6268,
      "Ġdesir": 6269,
      "volution": 6270,
      "ĠLike": 6271,
      "ĠAL": 6272,
      "Ġacid": 6273,
      "Ġowing": 6274,
      "prise": 6275,
      "fig": 6276,
      "however": 6277,
      "ĠFar": 6278,
      "Ġhorn": 6279,
      "aze": 6280,
      "Ġhole": 6281,
      "ĠKe": 6282,
      "Ġprecious": 6283,
      "Ġacquainted": 6284,
      "gate": 6285,
      "OO": 6286,
      "ĠSomet": 6287,
      "Ġwishes": 6288,
      "ĠSur": 6289,
      "rier": 6290,
      "Ġelement": 6291,
      "ante": 6292,
      "ĠOther": 6293,
      "Ġodd": 6294,
      "post": 6295,
      "ĠGold": 6296,
      "ĠArthur": 6297,
      "Ġconsists": 6298,
      "Ġbehold": 6299,
      "Ġreality": 6300,
      "ĠON": 6301,
      "care": 6302,
      "Ġuniform": 6303,
      ":-": 6304,
      "Ġeverywhere": 6305,
      "Ġhal": 6306,
      "Ġmedic": 6307,
      "iate": 6308,
      "Ġprovince": 6309,
      "rand": 6310,
      "Ġabroad": 6311,
      "ĠCarol": 6312,
      "Ġshell": 6313,
      "Ġsecured": 6314,
      "ĠCON": 6315,
      "cest": 6316,
      "ĠSecretary": 6317,
      "While": 6318,
      "ardens": 6319,
      "ospel": 6320,
      "ĠCastle": 6321,
      "Ġopposition": 6322,
      "looked": 6323,
      "ache": 6324,
      "Ġsentiment": 6325,
      "Ġoccasionally": 6326,
      "Ġreturning": 6327,
      "wick": 6328,
      "cap": 6329,
      "Ġresidence": 6330,
      "ĠWorld": 6331,
      "ĠBob": 6332,
      "Ġsust": 6333,
      "Ġsmiling": 6334,
      "Ġremaining": 6335,
      "Ġharmon": 6336,
      "Ġexposed": 6337,
      "Ġmixed": 6338,
      "bably": 6339,
      "usive": 6340,
      "ĠAthen": 6341,
      "Ġrow": 6342,
      "Ġgently": 6343,
      "\"--": 6344,
      "Ġimpat": 6345,
      "ĠSar": 6346,
      "Ġplans": 6347,
      "annel": 6348,
      "ĠDutch": 6349,
      "Ġaccur": 6350,
      "comple": 6351,
      "tense": 6352,
      "Ġessential": 6353,
      "Ġelection": 6354,
      "position": 6355,
      "Ġbree": 6356,
      "uv": 6357,
      "Ġwaste": 6358,
      "inder": 6359,
      "mosphere": 6360,
      "Ġcenturies": 6361,
      "Ġphr": 6362,
      "ĠStill": 6363,
      "ighed": 6364,
      "Ġinfinite": 6365,
      "Ġbones": 6366,
      "Ġinstantly": 6367,
      "Ġlaughing": 6368,
      "dr": 6369,
      "Ġpup": 6370,
      "lets": 6371,
      "icable": 6372,
      "Ġunex": 6373,
      "gments": 6374,
      "person": 6375,
      "Ġhaven": 6376,
      "Ġkey": 6377,
      "Ġdeveloped": 6378,
      "Ġmoder": 6379,
      "erves": 6380,
      "love": 6381,
      "Ġexplanation": 6382,
      "Ġsubstance": 6383,
      "Ġawful": 6384,
      "Ġauthorities": 6385,
      "ona": 6386,
      "Ġmankind": 6387,
      "ado": 6388,
      "ĠIS": 6389,
      "eps": 6390,
      "Just": 6391,
      "ĠAre": 6392,
      "Ġhidden": 6393,
      "ocratic": 6394,
      "Ġdifficulties": 6395,
      "Ġast": 6396,
      "mittee": 6397,
      "Ġclo": 6398,
      "cs": 6399,
      "ĠIsrael": 6400,
      "Ġstuff": 6401,
      "ero": 6402,
      "Ġsurre": 6403,
      "ĠGra": 6404,
      "Ġreadily": 6405,
      "ĠHarry": 6406,
      "Ġobsc": 6407,
      "ĠCape": 6408,
      "ura": 6409,
      "Ġaccord": 6410,
      "ka": 6411,
      "61": 6412,
      "ĠĠĠĠĠĠĠĠĠĠĠĠĠĠĠĠĠĠĠĠĠĠĠĠĠĠĠĠĠĠĠĠĠ": 6413,
      "Ġdisappeared": 6414,
      "Ġpropri": 6415,
      "ĠAust": 6416,
      "overnment": 6417,
      "ĠEv": 6418,
      "Ġblank": 6419,
      "Ġappropri": 6420,
      "ĠYe": 6421,
      "Ġcompre": 6422,
      "Ġterritory": 6423,
      "Ġcousin": 6424,
      "Ġtele": 6425,
      "Ġquarters": 6426,
      "Ġtomb": 6427,
      "door": 6428,
      "ipping": 6429,
      "Ġwing": 6430,
      "iour": 6431,
      "Ġamuse": 6432,
      "ĠRh": 6433,
      "Ġerected": 6434,
      "var": 6435,
      "avery": 6436,
      "Ġhotel": 6437,
      "Ġoath": 6438,
      "Ġtribe": 6439,
      "Ġbrothers": 6440,
      "Ġrenew": 6441,
      "Ġretired": 6442,
      "Ġpressure": 6443,
      "Ġsetting": 6444,
      "oa": 6445,
      "Ġconfusion": 6446,
      "rations": 6447,
      "Ġqualities": 6448,
      "Ġconstruct": 6449,
      "Ġdil": 6450,
      "Ġunited": 6451,
      "ĠCommission": 6452,
      "Ġrules": 6453,
      "Ġdece": 6454,
      "62": 6455,
      "sim": 6456,
      "Thus": 6457,
      "-----+": 6458,
      "Ġutmost": 6459,
      "small": 6460,
      "stairs": 6461,
      "ĠRel": 6462,
      "Ġlest": 6463,
      "Ġassumed": 6464,
      "Ġstructure": 6465,
      "Ġsurv": 6466,
      "character": 6467,
      "Ġdefinite": 6468,
      "Ġpunishment": 6469,
      "Ġdoesn": 6470,
      "TS": 6471,
      "vals": 6472,
      "oleon": 6473,
      "IES": 6474,
      "Ġcontro": 6475,
      "Ġsimpl": 6476,
      "aws": 6477,
      "Ġsounds": 6478,
      "Ġpardon": 6479,
      "Ġrecently": 6480,
      "Ġcountenance": 6481,
      "ĠTw": 6482,
      "garet": 6483,
      "yes": 6484,
      "hers": 6485,
      "Ġnet": 6486,
      "IAN": 6487,
      "Ġconscience": 6488,
      "Ġanch": 6489,
      "Ġsed": 6490,
      "ĠEach": 6491,
      "Ġremarks": 6492,
      "Ġinclined": 6493,
      "Ġsavage": 6494,
      "among": 6495,
      "Ġrent": 6496,
      "Ġphilosophy": 6497,
      "Ġcollection": 6498,
      "Ġasking": 6499,
      "ros": 6500,
      "urbed": 6501,
      "oubted": 6502,
      "Ġcotton": 6503,
      "99": 6504,
      "ĠCur": 6505,
      "Ġsinging": 6506,
      "inted": 6507,
      "Did": 6508,
      "Ġfinger": 6509,
      "Ġnodd": 6510,
      "Ġindustry": 6511,
      "Ġdomestic": 6512,
      "ships": 6513,
      "Ġsym": 6514,
      "tri": 6515,
      "ĠBesides": 6516,
      "ography": 6517,
      "78": 6518,
      "Ġappeal": 6519,
      "Ġchurches": 6520,
      "Ġattitude": 6521,
      "Ġvel": 6522,
      "Ġweary": 6523,
      "Ġ55": 6524,
      "Ġhit": 6525,
      "ĠMill": 6526,
      "icle": 6527,
      "Ġapproached": 6528,
      "Ġrevolution": 6529,
      "iast": 6530,
      "each": 6531,
      "Ġthanks": 6532,
      "Ġderived": 6533,
      "ĠBab": 6534,
      "allel": 6535,
      "ĠEp": 6536,
      "ulations": 6537,
      "ĠMa": 6538,
      "ĠHy": 6539,
      "Ġspl": 6540,
      "zy": 6541,
      "Ġflood": 6542,
      "Ġclaims": 6543,
      "Ġempire": 6544,
      "agger": 6545,
      "full": 6546,
      "comfort": 6547,
      "beaut": 6548,
      "respect": 6549,
      "Ġmistress": 6550,
      "Ġcounter": 6551,
      "riff": 6552,
      "ican": 6553,
      "Ġwithdra": 6554,
      "Ġextensive": 6555,
      "Ġacquaintance": 6556,
      "Ġlib": 6557,
      "ules": 6558,
      "Ġshade": 6559,
      "ĠPop": 6560,
      "itate": 6561,
      "Ġamaz": 6562,
      "Ġwaves": 6563,
      "Ġflying": 6564,
      "ĠWater": 6565,
      "expl": 6566,
      "Ġyounger": 6567,
      "iot": 6568,
      "ĠSto": 6569,
      "Ġcharged": 6570,
      "sil": 6571,
      "heard": 6572,
      "Ġtent": 6573,
      "Ġstret": 6574,
      "Ġdreadful": 6575,
      "Ġbaby": 6576,
      "ĠCa": 6577,
      "Ġfoolish": 6578,
      "tem": 6579,
      "Ġtreaty": 6580,
      "Ġruns": 6581,
      "Ġinterior": 6582,
      "Ġthroat": 6583,
      "OHN": 6584,
      "ĠLP": 6585,
      "Ġcompared": 6586,
      "Ġgreet": 6587,
      "Ġhoriz": 6588,
      "Ġmovements": 6589,
      "Ġrecognized": 6590,
      "apped": 6591,
      "Ġleader": 6592,
      "Ġunion": 6593,
      "Ġarea": 6594,
      "Ġanger": 6595,
      "closed": 6596,
      "ĠAR": 6597,
      "Ġemotion": 6598,
      "Ġattempted": 6599,
      "Ġcentral": 6600,
      "],": 6601,
      "_).": 6602,
      "Ġadj": 6603,
      "year": 6604,
      "Sp": 6605,
      "Ġcott": 6606,
      "Ġliterary": 6607,
      "Ġzeal": 6608,
      "Ġrum": 6609,
      "Ġclub": 6610,
      "Ġkindness": 6611,
      "Ġseparated": 6612,
      "Ġnoted": 6613,
      "Ġaverage": 6614,
      "ĠSchool": 6615,
      "ĠAlexander": 6616,
      "Ġacted": 6617,
      "Ġcommenced": 6618,
      "ĠPre": 6619,
      "ras": 6620,
      "Ġannounced": 6621,
      "Ġexpense": 6622,
      "Ġasleep": 6623,
      "inger": 6624,
      "ccles": 6625,
      "Ġinnocent": 6626,
      "itan": 6627,
      "Ġ58": 6628,
      "Ġdeparture": 6629,
      "Ġartist": 6630,
      "ĠCollege": 6631,
      "ĠDen": 6632,
      "Ġimpr": 6633,
      "Ġkitchen": 6634,
      "oper": 6635,
      "Ġaccomplished": 6636,
      "ĠAT": 6637,
      "ĠSEE": 6638,
      "Ġfee": 6639,
      "given": 6640,
      "Ġnobody": 6641,
      "Ġeternal": 6642,
      "stre": 6643,
      "ola": 6644,
      "ĠDec": 6645,
      "eyes": 6646,
      "yard": 6647,
      "lla": 6648,
      "Ġinner": 6649,
      "ĠNat": 6650,
      "ĠVIII": 6651,
      "Ġsilk": 6652,
      "Ġalike": 6653,
      "verted": 6654,
      "Ġcam": 6655,
      "Ġvolunt": 6656,
      "ĠJo": 6657,
      "Ġhumble": 6658,
      "Ġwheel": 6659,
      "ĠIndeed": 6660,
      "irmed": 6661,
      "Ġgift": 6662,
      "SON": 6663,
      "sem": 6664,
      "ĠMartin": 6665,
      "Ġdisposed": 6666,
      "Ed": 6667,
      "Ġcounsel": 6668,
      "eight": 6669,
      "aturday": 6670,
      "Ġcollected": 6671,
      "Ġrushed": 6672,
      "Ġsupported": 6673,
      "Ġdegrees": 6674,
      "Ġvoices": 6675,
      "orable": 6676,
      "Ġcabin": 6677,
      "Äĵ": 6678,
      "ĠBoth": 6679,
      "Ġhollow": 6680,
      "Ġ(?": 6681,
      "oln": 6682,
      "prom": 6683,
      "Ġenjoyed": 6684,
      "Ġexamination": 6685,
      "ĠCharl": 6686,
      "Ġaccustomed": 6687,
      "Ġric": 6688,
      "Ġfix": 6689,
      "ĠFore": 6690,
      "Tis": 6691,
      "Ġinse": 6692,
      "berg": 6693,
      "Ġutterly": 6694,
      "cal": 6695,
      "Ġsuggest": 6696,
      "Ġswell": 6697,
      "Ġignorant": 6698,
      "orter": 6699,
      "Ġsovereign": 6700,
      "othe": 6701,
      "ĠTrans": 6702,
      "Ġrele": 6703,
      "INE": 6704,
      "ĠSqu": 6705,
      "ĠDoctor": 6706,
      "ĠCOM": 6707,
      "strong": 6708,
      "perhaps": 6709,
      "since": 6710,
      "Ġentitled": 6711,
      "elf": 6712,
      "Ġtrace": 6713,
      "IP": 6714,
      "Ġwooden": 6715,
      "Ġintense": 6716,
      "Ġconfined": 6717,
      "raction": 6718,
      "Ġvoyage": 6719,
      "Ġouter": 6720,
      "Ġfulf": 6721,
      "ĠBible": 6722,
      "addle": 6723,
      "ancholy": 6724,
      "Ġbelonged": 6725,
      "Ġobservation": 6726,
      "div": 6727,
      "Ġeleg": 6728,
      "Ġoperations": 6729,
      "ulgar": 6730,
      "ĠFour": 6731,
      "once": 6732,
      "reck": 6733,
      "town": 6734,
      "wild": 6735,
      "Ġsteep": 6736,
      "yet": 6737,
      "Ġincident": 6738,
      "SS": 6739,
      "offic": 6740,
      "Ġcompleted": 6741,
      "Ġrelated": 6742,
      "oria": 6743,
      "Ġleaf": 6744,
      "Ġchoose": 6745,
      "ipt": 6746,
      "Ġtradition": 6747,
      "Ġfame": 6748,
      "oked": 6749,
      "arian": 6750,
      "matter": 6751,
      "jected": 6752,
      "Ġfalls": 6753,
      "ensions": 6754,
      "rd": 6755,
      "pri": 6756,
      "Ġmounted": 6757,
      "osure": 6758,
      "Ġbul": 6759,
      "Ġrude": 6760,
      "Ġindependent": 6761,
      "Ġmethods": 6762,
      "Ġconvinced": 6763,
      "Ġvac": 6764,
      "mis": 6765,
      "Ġtight": 6766,
      "76": 6767,
      "ĠDist": 6768,
      "Ġmarks": 6769,
      "Ġdiff": 6770,
      "ban": 6771,
      "ĠFair": 6772,
      "Ġelements": 6773,
      "Ġpicked": 6774,
      "ateful": 6775,
      "mun": 6776,
      "Ġinstances": 6777,
      "Ġpriests": 6778,
      "ĠAnother": 6779,
      "ioned": 6780,
      "Ġblessed": 6781,
      "Ġconcluded": 6782,
      "Ġunfortunate": 6783,
      "ĠHave": 6784,
      "Ġbark": 6785,
      "pless": 6786,
      "ador": 6787,
      "ĠConf": 6788,
      "ĠDun": 6789,
      "Ġmeal": 6790,
      "Ġspend": 6791,
      "ands": 6792,
      "Ġornament": 6793,
      "Ġoccasions": 6794,
      "Ġcommunity": 6795,
      "ĠHol": 6796,
      "Ġchest": 6797,
      "Ġsteel": 6798,
      "Ġthunder": 6799,
      "ribution": 6800,
      "Fig": 6801,
      "Ġdebt": 6802,
      "Every": 6803,
      "Are": 6804,
      "Ġscattered": 6805,
      "Ã¤": 6806,
      "aph": 6807,
      "ĠBu": 6808,
      "icit": 6809,
      "Ġpour": 6810,
      "Ġleaders": 6811,
      "Ġusing": 6812,
      "Ġcomparison": 6813,
      "Ġris": 6814,
      "ĠTor": 6815,
      "Ġopinions": 6816,
      "passed": 6817,
      "ĠCounty": 6818,
      "_\"": 6819,
      "98": 6820,
      "icago": 6821,
      "Dr": 6822,
      "ĠMo": 6823,
      "liness": 6824,
      "ĠWestern": 6825,
      "tow": 6826,
      "rick": 6827,
      "Ġach": 6828,
      "Ġanxiety": 6829,
      "ĠDer": 6830,
      "Ġbetray": 6831,
      "Ġascertain": 6832,
      "ĠGerm": 6833,
      "Ġphenomen": 6834,
      "worthy": 6835,
      "Ġdistinction": 6836,
      "phia": 6837,
      "acific": 6838,
      "Ġavail": 6839,
      "Ġscheme": 6840,
      "Ġabst": 6841,
      "Ġeste": 6842,
      "pended": 6843,
      "aux": 6844,
      "Ġdeliver": 6845,
      "Ġtower": 6846,
      "Ġbath": 6847,
      "Ġsignific": 6848,
      "rage": 6849,
      "Ġacknowled": 6850,
      "ĠPost": 6851,
      "tains": 6852,
      "Ġedition": 6853,
      "Ġspark": 6854,
      "Ġprecise": 6855,
      "ĠMexico": 6856,
      "Ġaunt": 6857,
      "Ġadmiration": 6858,
      "Ġabsurd": 6859,
      "phe": 6860,
      "ĠThree": 6861,
      "Ġfired": 6862,
      "ĠMother": 6863,
      "Ġtransport": 6864,
      "uine": 6865,
      "Ġsupplied": 6866,
      "ĠColumb": 6867,
      "amped": 6868,
      "ĠAunt": 6869,
      "Ġdepth": 6870,
      "Ġrisk": 6871,
      "Ġdoubtless": 6872,
      "find": 6873,
      "racy": 6874,
      "oid": 6875,
      "MAN": 6876,
      "organ": 6877,
      "represent": 6878,
      "Ġthrust": 6879,
      "ĠIl": 6880,
      "ients": 6881,
      "otted": 6882,
      "quarters": 6883,
      "Ġjew": 6884,
      "ĠÏĦ": 6885,
      "ĠBoy": 6886,
      "Ġacquired": 6887,
      "effect": 6888,
      "ĠThy": 6889,
      "Ġeverybody": 6890,
      "Ġdoth": 6891,
      "ĠServ": 6892,
      "Ġdecision": 6893,
      "icians": 6894,
      "ĠIL": 6895,
      "Ġnest": 6896,
      "Ġelected": 6897,
      "Ġestim": 6898,
      "almost": 6899,
      "days": 6900,
      "prov": 6901,
      "isting": 6902,
      "Ġinquired": 6903,
      "Ġult": 6904,
      "Ġcuriosity": 6905,
      "oubt": 6906,
      "Ġstandard": 6907,
      "ĠTown": 6908,
      "Ġhitherto": 6909,
      "rive": 6910,
      "ĠPen": 6911,
      "acob": 6912,
      "ĠNov": 6913,
      "Ġintim": 6914,
      "ĠĠĠĠĠĠĠĠĠĠĠĠĠĠĠĠĠĠĠĠĠĠĠĠĠĠĠĠĠĠĠĠĠĠ": 6915,
      "ga": 6916,
      "ORY": 6917,
      "Ġard": 6918,
      "Ġborne": 6919,
      "miral": 6920,
      "Ġlibrary": 6921,
      "Ġprovisions": 6922,
      "Ġwarri": 6923,
      "sn": 6924,
      "inations": 6925,
      "Ġren": 6926,
      "Ġimage": 6927,
      "incoln": 6928,
      "aughters": 6929,
      "Ġobed": 6930,
      "Ġforming": 6931,
      "Ġlone": 6932,
      "Ġdimin": 6933,
      "Ġlights": 6934,
      "asses": 6935,
      "fire": 6936,
      "Ġmiserable": 6937,
      "ĠVan": 6938,
      "Ġattacked": 6939,
      "Ġbreaking": 6940,
      "Ġrivers": 6941,
      "Ġjoint": 6942,
      "Ġcoffee": 6943,
      "onn": 6944,
      "unction": 6945,
      "ez": 6946,
      "Ġbishop": 6947,
      "Ġscientific": 6948,
      "inch": 6949,
      "Ġenormous": 6950,
      "Ġtravel": 6951,
      "Ġscenes": 6952,
      "ĠTy": 6953,
      "Ġbatter": 6954,
      "Ġabsor": 6955,
      "Ġsolution": 6956,
      "Ġstairs": 6957,
      "Ġinterrupted": 6958,
      "geon": 6959,
      "Ġpaused": 6960,
      ",,": 6961,
      "Ġeastern": 6962,
      "Ġideal": 6963,
      "Â½": 6964,
      "bow": 6965,
      "ĠGer": 6966,
      "Ġswept": 6967,
      "Ġreputation": 6968,
      "Ġarrangement": 6969,
      "ĠEsq": 6970,
      "ĠWall": 6971,
      "build": 6972,
      "Ġvi": 6973,
      "Ġpushed": 6974,
      "Ġroads": 6975,
      "abs": 6976,
      "Ġlimited": 6977,
      "Ġpasses": 6978,
      "ĠGal": 6979,
      "rical": 6980,
      "Ġcareer": 6981,
      "Ġscale": 6982,
      "making": 6983,
      "mom": 6984,
      "taking": 6985,
      "Ġbosom": 6986,
      "Ġadapt": 6987,
      "har": 6988,
      "ĠSol": 6989,
      "Ġapplication": 6990,
      "cia": 6991,
      "iency": 6992,
      "Ġfeather": 6993,
      "mean": 6994,
      "ida": 6995,
      "Ġmagnificent": 6996,
      "Ġviolence": 6997,
      "Ġprofound": 6998,
      "Î¼": 6999,
      "OG": 7000,
      "Ġmystery": 7001,
      "tra": 7002,
      "Ġtrack": 7003,
      "Ġfest": 7004,
      "Ġclever": 7005,
      "Ġfare": 7006,
      "Ġrefuse": 7007,
      "Ġsees": 7008,
      "greg": 7009,
      "achment": 7010,
      "Ġcontempl": 7011,
      "Ġarchitect": 7012,
      "Ġproblem": 7013,
      "Ġshouted": 7014,
      "pen": 7015,
      "Ġmild": 7016,
      "iasm": 7017,
      "ĠNothing": 7018,
      "Ġseed": 7019,
      "Ġurged": 7020,
      "ĠVict": 7021,
      "Ġdistress": 7022,
      "LES": 7023,
      "ĠTurk": 7024,
      "Ġcas": 7025,
      "Ġsprang": 7026,
      "Ġinvited": 7027,
      "Ġdiscussion": 7028,
      "ĠRose": 7029,
      "âĤ": 7030,
      "ĠOffice": 7031,
      "Ġpier": 7032,
      "break": 7033,
      "Ġknife": 7034,
      "both": 7035,
      "whole": 7036,
      "Ġcharm": 7037,
      "coll": 7038,
      "ARY": 7039,
      "left": 7040,
      "Ġpipe": 7041,
      "Ġhousehold": 7042,
      "Ġconstruction": 7043,
      "amation": 7044,
      "omach": 7045,
      "Ġcircumstance": 7046,
      "Ġ..": 7047,
      "Ġactivity": 7048,
      "ĠGall": 7049,
      "urther": 7050,
      "Ġpresident": 7051,
      "Ġcharming": 7052,
      "QU": 7053,
      "Ġmatch": 7054,
      "ym": 7055,
      "rates": 7056,
      "ĠUncle": 7057,
      "ĠSenate": 7058,
      "orus": 7059,
      "Ġthread": 7060,
      "ricult": 7061,
      "Ġunhappy": 7062,
      "Ġchain": 7063,
      "Ġfreely": 7064,
      "Ġgenerous": 7065,
      "Ġpreviously": 7066,
      "iverse": 7067,
      "Ġjob": 7068,
      "Ġwretched": 7069,
      "Ġ34": 7070,
      "ties": 7071,
      "Ġburned": 7072,
      "Ġhorror": 7073,
      "Ġmillions": 7074,
      "Ġlegal": 7075,
      "osa": 7076,
      "Ġfierce": 7077,
      "56": 7078,
      "79": 7079,
      "ĠRem": 7080,
      "uated": 7081,
      "Go": 7082,
      "ĠChief": 7083,
      "Ġexperiment": 7084,
      "Ġagreeable": 7085,
      "Ġstiff": 7086,
      "oser": 7087,
      "upid": 7088,
      "gram": 7089,
      "pired": 7090,
      "Ġgrounds": 7091,
      "houses": 7092,
      "Ġcorrupt": 7093,
      "Ġproduction": 7094,
      "ĠSouthern": 7095,
      "Ġstepped": 7096,
      "Ġsymb": 7097,
      "Ne": 7098,
      "Ġaccounts": 7099,
      "ĠAgain": 7100,
      "ĠMem": 7101,
      "ĠArmy": 7102,
      "Ġbarbar": 7103,
      "tes": 7104,
      "lem": 7105,
      "Ġrailroad": 7106,
      "iron": 7107,
      "Ġwhenever": 7108,
      "Ġforb": 7109,
      ".),": 7110,
      "ĠJohnson": 7111,
      "itors": 7112,
      "Ġelder": 7113,
      "Ġnervous": 7114,
      "Ġcreatures": 7115,
      "Ġconvention": 7116,
      "children": 7117,
      "apter": 7118,
      "ĠChristians": 7119,
      "ocking": 7120,
      "Ġdreams": 7121,
      "Ġflow": 7122,
      "Ġeleven": 7123,
      "ĠUniversity": 7124,
      "Ġham": 7125,
      "fy": 7126,
      "ĠMel": 7127,
      "Ġcampaign": 7128,
      "UB": 7129,
      "Ġhelped": 7130,
      "Ġfeared": 7131,
      "hind": 7132,
      "Ġtide": 7133,
      "\"_": 7134,
      "ĠMah": 7135,
      "END": 7136,
      "Ġfinds": 7137,
      "Ġinform": 7138,
      "Ġbears": 7139,
      "Ġapproaching": 7140,
      "Ġgovern": 7141,
      "high": 7142,
      "Ġdeliber": 7143,
      "FF": 7144,
      "Ġcomfortable": 7145,
      "ints": 7146,
      "Ġgif": 7147,
      "incl": 7148,
      "Ġ#": 7149,
      "PH": 7150,
      "ĠVII": 7151,
      "Ġcents": 7152,
      "Ġbegins": 7153,
      "Ġod": 7154,
      "ixture": 7155,
      "England": 7156,
      "Ġspeaks": 7157,
      "Ġyard": 7158,
      "Ġatmosphere": 7159,
      "Ġapt": 7160,
      "eman": 7161,
      "bb": 7162,
      "suffic": 7163,
      "Ġestablishment": 7164,
      "ISH": 7165,
      "close": 7166,
      "Ġroute": 7167,
      "atched": 7168,
      "Ġfoundation": 7169,
      "Ġrestored": 7170,
      "ĠLeg": 7171,
      "Ġancest": 7172,
      "Ġassert": 7173,
      "Ġconsciousness": 7174,
      "acco": 7175,
      "Ġuseless": 7176,
      "Ġpresents": 7177,
      "Ġexcuse": 7178,
      "Ġneat": 7179,
      "ĠUpon": 7180,
      "Ġpist": 7181,
      "Ġming": 7182,
      "Ġopposed": 7183,
      "LAND": 7184,
      "Ġbride": 7185,
      "ĠOhio": 7186,
      "Ġexamined": 7187,
      "ĠDev": 7188,
      "Ġprejud": 7189,
      "Ġmarched": 7190,
      "Ġtoler": 7191,
      "Ġlanded": 7192,
      "Ġrage": 7193,
      "burn": 7194,
      "ĠDeath": 7195,
      "\";": 7196,
      "ho": 7197,
      "Ġerror": 7198,
      "Ġelsewhere": 7199,
      "Ġwinds": 7200,
      "aue": 7201,
      "erick": 7202,
      "bra": 7203,
      "ilton": 7204,
      "inks": 7205,
      "adelphia": 7206,
      "Ġmanaged": 7207,
      "ĠAtl": 7208,
      "ĠWhich": 7209,
      "round": 7210,
      "Ġinferior": 7211,
      "ulars": 7212,
      "compl": 7213,
      "ĠPass": 7214,
      "uk": 7215,
      "Ġweakness": 7216,
      "Ġalter": 7217,
      "ouch": 7218,
      "Ġpoem": 7219,
      "Jan": 7220,
      "Ġroll": 7221,
      "ofty": 7222,
      "Ġaccordingly": 7223,
      "Ġcommonly": 7224,
      "Ġflame": 7225,
      "Ġmaintained": 7226,
      "Ġlargely": 7227,
      "ĠSus": 7228,
      "Ġdisposition": 7229,
      "Ġrig": 7230,
      "ositions": 7231,
      "Never": 7232,
      "Ġturns": 7233,
      "Ġshr": 7234,
      "orig": 7235,
      "brought": 7236,
      "better": 7237,
      "Ġmysterious": 7238,
      "Ġruins": 7239,
      "sign": 7240,
      "usions": 7241,
      "erity": 7242,
      "RA": 7243,
      "tell": 7244,
      "Ġextrem": 7245,
      "ĠDar": 7246,
      "Ġloyal": 7247,
      "Ġ59": 7248,
      "piration": 7249,
      "Ġcommerce": 7250,
      "ĠFe": 7251,
      "ĠSun": 7252,
      "ĠLieutenant": 7253,
      "ĠSaint": 7254,
      "umped": 7255,
      "Ġremove": 7256,
      "Ġhumanity": 7257,
      "Ġlect": 7258,
      "forth": 7259,
      "Ġplainly": 7260,
      "usalem": 7261,
      "ĠPeople": 7262,
      "Ġpreceding": 7263,
      "Ġslept": 7264,
      "useum": 7265,
      "Ġinterpret": 7266,
      "Ġignorance": 7267,
      "ĠSP": 7268,
      "Ġpenet": 7269,
      "Ġcrowded": 7270,
      "ental": 7271,
      "Ġantiqu": 7272,
      "ĠMost": 7273,
      "Ġconflict": 7274,
      "Phil": 7275,
      "ĠJoe": 7276,
      "74": 7277,
      "Ġactions": 7278,
      "Ġthereof": 7279,
      "sed": 7280,
      "ĠHence": 7281,
      "Ġaltern": 7282,
      "orders": 7283,
      "ĠRog": 7284,
      "pher": 7285,
      "wall": 7286,
      "phen": 7287,
      "ĠTime": 7288,
      "ĠChristmas": 7289,
      "Ġcharacteristic": 7290,
      "Ġtestimony": 7291,
      "Ġconsequently": 7292,
      "iner": 7293,
      "Ġfailure": 7294,
      "ĠSecond": 7295,
      "Ġdecor": 7296,
      "ati": 7297,
      "Ġexisted": 7298,
      "lay": 7299,
      "ĠOri": 7300,
      "ĠHaving": 7301,
      "72": 7302,
      "73": 7303,
      "Ġbeast": 7304,
      "Ġremo": 7305,
      "ĠHoll": 7306,
      "Ġcheck": 7307,
      "Ġcommunication": 7308,
      "Ġvague": 7309,
      "epartment": 7310,
      "until": 7311,
      "Ġtables": 7312,
      "Ġuncertain": 7313,
      "Ġsignal": 7314,
      "Ġgets": 7315,
      "Ġeffic": 7316,
      "aments": 7317,
      "(_": 7318,
      "ĠJones": 7319,
      "Ġcig": 7320,
      "Ġglo": 7321,
      "hundred": 7322,
      "table": 7323,
      "ĠCO": 7324,
      "Ġridic": 7325,
      "seemed": 7326,
      "500": 7327,
      "bal": 7328,
      "Ġpause": 7329,
      "Ġfrank": 7330,
      "Ġsuspicion": 7331,
      "Perhaps": 7332,
      "taining": 7333,
      "Ġscorn": 7334,
      "Ġagent": 7335,
      "pose": 7336,
      "nex": 7337,
      "ĠPortug": 7338,
      "ĠHist": 7339,
      "criptions": 7340,
      "ĠPenn": 7341,
      "Ġpursued": 7342,
      "Ġapply": 7343,
      "Ġcher": 7344,
      "rection": 7345,
      "ulp": 7346,
      "Ġrolled": 7347,
      "igs": 7348,
      "Ġowner": 7349,
      "boat": 7350,
      "Ġabandoned": 7351,
      "Ġcontact": 7352,
      "black": 7353,
      "Ġcollege": 7354,
      "88": 7355,
      "Ġprem": 7356,
      "Ġinvol": 7357,
      "LY": 7358,
      "Ġ%": 7359,
      "ĠSk": 7360,
      "ĠSpani": 7361,
      "Ġinterview": 7362,
      "Ġwave": 7363,
      "ĠNapoleon": 7364,
      "ĠAccording": 7365,
      "lle": 7366,
      "Ġsettlement": 7367,
      "iege": 7368,
      "71": 7369,
      "ORK": 7370,
      "aping": 7371,
      "Ġ42": 7372,
      "Ġshining": 7373,
      "elly": 7374,
      "Ġtreasure": 7375,
      "terior": 7376,
      "chester": 7377,
      "changed": 7378,
      "Ġdomin": 7379,
      "Ã³": 7380,
      "Ġspecul": 7381,
      "aration": 7382,
      "istence": 7383,
      "Oct": 7384,
      "Ġwidow": 7385,
      "Ġtermin": 7386,
      "._)": 7387,
      "Ġtort": 7388,
      "Ġentering": 7389,
      "satis": 7390,
      "forms": 7391,
      "Ġanybody": 7392,
      "Ġresour": 7393,
      "Ġintent": 7394,
      "Ġspare": 7395,
      "onday": 7396,
      "Ġinsult": 7397,
      "ala": 7398,
      "ba": 7399,
      "Mad": 7400,
      "wa": 7401,
      "udent": 7402,
      "ifications": 7403,
      "ĠKent": 7404,
      "Ġmart": 7405,
      "Ġtied": 7406,
      "thren": 7407,
      "rust": 7408,
      "Ġdelighted": 7409,
      "swe": 7410,
      "anta": 7411,
      "Ġintellectual": 7412,
      "iforn": 7413,
      "ĠJudge": 7414,
      "Ġmerit": 7415,
      "ĠYoung": 7416,
      "Ġnodded": 7417,
      "whose": 7418,
      "ĠConstant": 7419,
      "izes": 7420,
      "Ġfert": 7421,
      "ieu": 7422,
      "Ġsteady": 7423,
      "Ġrival": 7424,
      "ferred": 7425,
      "Ġcavalry": 7426,
      "enough": 7427,
      "Ġgaze": 7428,
      "Very": 7429,
      "irk": 7430,
      "Ġnoon": 7431,
      "Ãł": 7432,
      "dest": 7433,
      "umm": 7434,
      "alys": 7435,
      "Ġfrightened": 7436,
      "Ġ75": 7437,
      "ih": 7438,
      "Ġdirections": 7439,
      "ĠSub": 7440,
      "ĠAbout": 7441,
      "Ġmood": 7442,
      "Ġheir": 7443,
      "Ġverse": 7444,
      "Ġmetal": 7445,
      "Ġlargest": 7446,
      "Ġrepublic": 7447,
      "utive": 7448,
      "Ġsoftly": 7449,
      "Ġwire": 7450,
      "Ġdelightful": 7451,
      "ĠRomans": 7452,
      "Ġresc": 7453,
      "hedral": 7454,
      "ighth": 7455,
      "mediately": 7456,
      "irds": 7457,
      "Ġtar": 7458,
      "Ġgroups": 7459,
      "ĠSince": 7460,
      "Ġstor": 7461,
      "ĠFin": 7462,
      "uan": 7463,
      "princi": 7464,
      "Ġresistance": 7465,
      "Ġconducted": 7466,
      "Ġrecovered": 7467,
      "Ġacres": 7468,
      "Ġadventure": 7469,
      "onia": 7470,
      "Ġpermit": 7471,
      "illing": 7472,
      "Ġcart": 7473,
      "Ġguests": 7474,
      "Ġdepartment": 7475,
      "Ġrope": 7476,
      "Ġrelative": 7477,
      "Ġblock": 7478,
      "ĠLook": 7479,
      "Ġhell": 7480,
      "AST": 7481,
      "different": 7482,
      "Ġtroubles": 7483,
      "olation": 7484,
      "Ġphot": 7485,
      "press": 7486,
      "Ġgates": 7487,
      "Ġ65": 7488,
      "Ġwondered": 7489,
      "Ġmaterials": 7490,
      "London": 7491,
      "Ġcandid": 7492,
      "Ã©e": 7493,
      "pton": 7494,
      "Par": 7495,
      "ĠAnne": 7496,
      "Ġassembled": 7497,
      "Ġplat": 7498,
      "uther": 7499,
      "Ġmisery": 7500,
      "Ġingen": 7501,
      "Ġmud": 7502,
      "Have": 7503,
      "Ġbasis": 7504,
      "URE": 7505,
      "subject": 7506,
      "_),": 7507,
      "Ġindividuals": 7508,
      "Ġoh": 7509,
      "ĠCarl": 7510,
      "ĠÂ§": 7511,
      "ĠJean": 7512,
      "Ġelev": 7513,
      "omed": 7514,
      "Ġelectric": 7515,
      "ĠIll": 7516,
      "Ġshru": 7517,
      "Ġacting": 7518,
      "Ġprecip": 7519,
      "Ġcapacity": 7520,
      "rich": 7521,
      "anting": 7522,
      "ucky": 7523,
      "Ġexperienced": 7524,
      "Ġreports": 7525,
      "ĠCrown": 7526,
      "Ġcliff": 7527,
      "sus": 7528,
      "Ġcheeks": 7529,
      "TO": 7530,
      "ĠMargaret": 7531,
      "Ġlaughter": 7532,
      "Aug": 7533,
      "Ġwrites": 7534,
      "Ġtrip": 7535,
      "suff": 7536,
      "Ġrust": 7537,
      "Ġghost": 7538,
      "ĠOR": 7539,
      "estab": 7540,
      "Ġanticip": 7541,
      "Ġbrow": 7542,
      "Ġrebell": 7543,
      "ĠEmpire": 7544,
      "Ġsummon": 7545,
      "Ġrush": 7546,
      "exam": 7547,
      "stra": 7548,
      "fortune": 7549,
      "arms": 7550,
      "ĠIslands": 7551,
      "Ġoriginally": 7552,
      "Ġhanded": 7553,
      "allow": 7554,
      "Ġmelancholy": 7555,
      "Ġlighted": 7556,
      "Ġexisting": 7557,
      "ĠTim": 7558,
      "agues": 7559,
      "Ġcontinu": 7560,
      "Ġfirmly": 7561,
      "Man": 7562,
      "ĠOxford": 7563,
      "Ġemph": 7564,
      "Ġbrings": 7565,
      "turned": 7566,
      "Ġmarble": 7567,
      "Ġsomewhere": 7568,
      "Ġcomment": 7569,
      "twenty": 7570,
      "ĠDis": 7571,
      "gend": 7572,
      "ĠOb": 7573,
      "ummer": 7574,
      "Ġfavourite": 7575,
      "uty": 7576,
      "Ãº": 7577,
      "icles": 7578,
      "ĠCanada": 7579,
      "anned": 7580,
      "chn": 7581,
      "Ġdeny": 7582,
      "quet": 7583,
      "Ġsmell": 7584,
      "Ġcorp": 7585,
      "istle": 7586,
      "OUN": 7587,
      "Ġhanging": 7588,
      "perfect": 7589,
      "proper": 7590,
      "bishop": 7591,
      "asket": 7592,
      "pract": 7593,
      "Ġaccompany": 7594,
      "Ġlust": 7595,
      "preme": 7596,
      "home": 7597,
      "Ġdetail": 7598,
      "Ġaudience": 7599,
      "ĠEst": 7600,
      "oubtedly": 7601,
      "Ġ44": 7602,
      "Ġreceiving": 7603,
      "Ġexternal": 7604,
      "Ġamend": 7605,
      "King": 7606,
      "Ġshelter": 7607,
      "morning": 7608,
      "open": 7609,
      "Ġtemp": 7610,
      "ĠSH": 7611,
      "Ġpatron": 7612,
      "Ġrailway": 7613,
      "Ġblame": 7614,
      "dig": 7615,
      "French": 7616,
      "Ġperceived": 7617,
      "Ġunconscious": 7618,
      "ĠChicago": 7619,
      "Ġgent": 7620,
      "wart": 7621,
      "Ġaven": 7622,
      "ĠCommittee": 7623,
      "ĠSax": 7624,
      "Ġprofit": 7625,
      "Ġsupreme": 7626,
      "ws": 7627,
      "raft": 7628,
      "tery": 7629,
      "Ġselected": 7630,
      "uthors": 7631,
      "Ġsincere": 7632,
      "Ġju": 7633,
      "istry": 7634,
      "ĠAny": 7635,
      "Ġton": 7636,
      "tha": 7637,
      "Ġmanufacture": 7638,
      "Ġdisturb": 7639,
      "ĠGre": 7640,
      "therefore": 7641,
      "Ġhunting": 7642,
      "ĠFlore": 7643,
      "isation": 7644,
      "urg": 7645,
      "ĠBE": 7646,
      "account": 7647,
      "Ġcheek": 7648,
      "Ġincluded": 7649,
      "Ġbeings": 7650,
      "Ġhospital": 7651,
      "Ġadministration": 7652,
      "ĠSaturday": 7653,
      "Ġbrig": 7654,
      "ĠSat": 7655,
      "Ġneighbourhood": 7656,
      "Ġcaptured": 7657,
      "ĠKh": 7658,
      "ĠJane": 7659,
      "Ġbottle": 7660,
      "?--": 7661,
      "Ġlofty": 7662,
      "Ġthine": 7663,
      "ulating": 7664,
      "Ġteaching": 7665,
      "Look": 7666,
      "ĠHaw": 7667,
      "Ġlic": 7668,
      "alks": 7669,
      "ĠLincoln": 7670,
      "Ġpurchase": 7671,
      "osh": 7672,
      "Ġfeast": 7673,
      "gone": 7674,
      "Ġcompass": 7675,
      "Ġslavery": 7676,
      "quisite": 7677,
      "ĠWalter": 7678,
      "city": 7679,
      "Ġincreasing": 7680,
      "moment": 7681,
      "Ġexert": 7682,
      "second": 7683,
      "Ġsorts": 7684,
      "Ġdrift": 7685,
      "ĠPrincess": 7686,
      "Ġpainful": 7687,
      "Ġholds": 7688,
      "Ġpound": 7689,
      "ĠPri": 7690,
      "Ġstretched": 7691,
      "Ġnav": 7692,
      "ĠHead": 7693,
      "Ġshortly": 7694,
      "prot": 7695,
      "Ġpaint": 7696,
      "Ġforehead": 7697,
      "Ġtrembling": 7698,
      "ournal": 7699,
      "Ġrat": 7700,
      "Ġgrim": 7701,
      "Ġobvious": 7702,
      "Char": 7703,
      "Ġeagerly": 7704,
      "obser": 7705,
      "unn": 7706,
      "mem": 7707,
      "Ġrecover": 7708,
      "Ġsuccession": 7709,
      "Fl": 7710,
      "quite": 7711,
      "umns": 7712,
      "_.\"": 7713,
      "Ġencoura": 7714,
      "Two": 7715,
      "UD": 7716,
      "list": 7717,
      "Ġnevertheless": 7718,
      "rels": 7719,
      "Ġclay": 7720,
      "Ġhun": 7721,
      "intell": 7722,
      "Ġsacrific": 7723,
      "Ġsuitable": 7724,
      "Ġsigned": 7725,
      "Ġ41": 7726,
      "sar": 7727,
      "past": 7728,
      "##": 7729,
      "Ġcomplex": 7730,
      "Ġearliest": 7731,
      "'.": 7732,
      "ĠCross": 7733,
      "encies": 7734,
      "Ġrarely": 7735,
      "author": 7736,
      "asped": 7737,
      "ĠProtest": 7738,
      "Ġtoday": 7739,
      "Ġtendency": 7740,
      "Ġseriously": 7741,
      "Ġdescended": 7742,
      "Ġroot": 7743,
      "Ġnearest": 7744,
      "ĠAdd": 7745,
      "idel": 7746,
      "shine": 7747,
      "ĠGar": 7748,
      "Ġaltar": 7749,
      "school": 7750,
      "Ġtorn": 7751,
      "Ġdeparted": 7752,
      "ribute": 7753,
      "Ġprayers": 7754,
      "Ġpractically": 7755,
      "const": 7756,
      "53": 7757,
      "Ġbeloved": 7758,
      "done": 7759,
      "Ġwhisper": 7760,
      "**": 7761,
      "affect": 7762,
      "ĠRock": 7763,
      "Ġriding": 7764,
      "Ïħ": 7765,
      "Ġstronger": 7766,
      "Ġ150": 7767,
      "Ġloving": 7768,
      "top": 7769,
      "Such": 7770,
      "Ġpermanent": 7771,
      "Ġarts": 7772,
      "Ġprovide": 7773,
      "Ġdesperate": 7774,
      "Yet": 7775,
      "agree": 7776,
      "Ġprevented": 7777,
      "Ġ43": 7778,
      "Ġuttered": 7779,
      "wich": 7780,
      "Ġnecessarily": 7781,
      "UST": 7782,
      "olate": 7783,
      "Another": 7784,
      "54": 7785,
      "pleasant": 7786,
      "icken": 7787,
      "reement": 7788,
      "saw": 7789,
      "ui": 7790,
      "pline": 7791,
      "Ġreaders": 7792,
      "ĠChristianity": 7793,
      "alo": 7794,
      "ĠCy": 7795,
      "Ġdram": 7796,
      "Ġrefuge": 7797,
      "whom": 7798,
      "appro": 7799,
      "Ġcommercial": 7800,
      "best": 7801,
      "igion": 7802,
      "Ġability": 7803,
      "ĠAM": 7804,
      "AGE": 7805,
      "Ġangel": 7806,
      "Ġcutting": 7807,
      "Ġwra": 7808,
      "Ġagricult": 7809,
      "ĠGreeks": 7810,
      "sight": 7811,
      "Ġemperor": 7812,
      "Ġquoted": 7813,
      "Ġglanced": 7814,
      "Ġcolumn": 7815,
      "thus": 7816,
      "Ġtrail": 7817,
      "pop": 7818,
      "Ġnaked": 7819,
      "Ġsul": 7820,
      "Ġdeclare": 7821,
      "ĠFriend": 7822,
      "Ġpowder": 7823,
      "Ġconnect": 7824,
      "otic": 7825,
      "Ġunusual": 7826,
      "Ġtie": 7827,
      "Ġunexpected": 7828,
      "Ġchapel": 7829,
      "ipl": 7830,
      "Ġascend": 7831,
      "diffic": 7832,
      "ĠMinister": 7833,
      "ĠTra": 7834,
      "Ġexceedingly": 7835,
      "stitute": 7836,
      "ĠMarsh": 7837,
      "Ġash": 7838,
      ".'\"": 7839,
      "olis": 7840,
      "Ġlimits": 7841,
      "Ġhistorical": 7842,
      "Ġsenses": 7843,
      "uy": 7844,
      "arrass": 7845,
      "Ġmistaken": 7846,
      "Ġwarning": 7847,
      "Ġwives": 7848,
      "Ġsecurity": 7849,
      "mans": 7850,
      "Ġcure": 7851,
      "ĠChild": 7852,
      "Ġmidnight": 7853,
      "hall": 7854,
      "Ġannoy": 7855,
      "Ġcontrast": 7856,
      "dec": 7857,
      "Ġregions": 7858,
      "ylvan": 7859,
      "sett": 7860,
      "Ġpoured": 7861,
      "street": 7862,
      "anything": 7863,
      "Ġcomr": 7864,
      "ĠJacob": 7865,
      "Ġeloqu": 7866,
      "fs": 7867,
      "qual": 7868,
      "ĠFIG": 7869,
      "illes": 7870,
      "Ġflew": 7871,
      "Ġaffl": 7872,
      "Ġfitted": 7873,
      "Ġmasters": 7874,
      "hands": 7875,
      "Ġsteamer": 7876,
      "axim": 7877,
      "class": 7878,
      "Ġmerchant": 7879,
      "Ġvillages": 7880,
      "Ã§": 7881,
      "Ġinher": 7882,
      "thy": 7883,
      "sea": 7884,
      "Ġscarce": 7885,
      "ĠPacific": 7886,
      "Ġcries": 7887,
      "Ġtear": 7888,
      "ĠConstitution": 7889,
      "Ġwedd": 7890,
      "tre": 7891,
      "Ġrecords": 7892,
      "Brit": 7893,
      "former": 7894,
      "Ġrot": 7895,
      "Ġfears": 7896,
      "Ġgeneration": 7897,
      "ĠOnce": 7898,
      "alling": 7899,
      "Ġped": 7900,
      "52": 7901,
      "gentle": 7902,
      "Ġcraft": 7903,
      "Ġbelongs": 7904,
      "Ġorganization": 7905,
      "otions": 7906,
      "Ġconj": 7907,
      "Ġkissed": 7908,
      "Ġ@": 7909,
      "Ġdared": 7910,
      "Ġreaching": 7911,
      "ĠAsia": 7912,
      "amma": 7913,
      "Ġgenuine": 7914,
      "ĠGermans": 7915,
      "Ġstrain": 7916,
      "everal": 7917,
      "Ġhurry": 7918,
      "Ġcens": 7919,
      "Ġpatience": 7920,
      "Ġ(?),": 7921,
      "ishops": 7922,
      "Ġ46": 7923,
      "Ġsending": 7924,
      "Ġenabled": 7925,
      "inding": 7926,
      "Ġcopper": 7927,
      "VI": 7928,
      "ĠWH": 7929,
      "Ġseventy": 7930,
      "Ġleads": 7931,
      "Ġrequires": 7932,
      "Ġconception": 7933,
      "ĠÃ¾": 7934,
      "Ġmasses": 7935,
      "El": 7936,
      "ĠSamuel": 7937,
      "ingham": 7938,
      "Ġminor": 7939,
      "intend": 7940,
      "Ġtemperature": 7941,
      "Ġceremony": 7942,
      "ĠTR": 7943,
      "Îº": 7944,
      "Ġparallel": 7945,
      "upp": 7946,
      "aiting": 7947,
      "Ġstim": 7948,
      "Ġreasonable": 7949,
      "Ġstudied": 7950,
      "IGHT": 7951,
      "rather": 7952,
      "anda": 7953,
      "Ġlonely": 7954,
      "Ġdaughters": 7955,
      "whether": 7956,
      "Ġmeas": 7957,
      "ĠLee": 7958,
      "Ġnotion": 7959,
      "stru": 7960,
      "Ġenthusiasm": 7961,
      "sych": 7962,
      "Ġthereby": 7963,
      "Ġstout": 7964,
      "ĠJOHN": 7965,
      "hearted": 7966,
      "istics": 7967,
      "ocracy": 7968,
      "Ġinsisted": 7969,
      "Ġviii": 7970,
      "ĠGreece": 7971,
      "Ġanyone": 7972,
      "ĠAmericans": 7973,
      "ĠScript": 7974,
      "Ġpretend": 7975,
      "vy": 7976,
      "occup": 7977,
      "ĠPruss": 7978,
      "Ġmortal": 7979,
      "Ġ160": 7980,
      "ĠOut": 7981,
      "Ġgazed": 7982,
      "eer": 7983,
      "Ġcoach": 7984,
      "inson": 7985,
      "utter": 7986,
      "itudes": 7987,
      "ĠEarth": 7988,
      "Ġgrain": 7989,
      "Ġsport": 7990,
      "Ġregarding": 7991,
      "hur": 7992,
      "Ġaged": 7993,
      "Ġloves": 7994,
      "Ġadvantages": 7995,
      "Ġtick": 7996,
      "Ġhaste": 7997,
      "gels": 7998,
      "secution": 7999,
      "Ġmerry": 8000,
      "Ġtrick": 8001,
      "Ġprotest": 8002,
      "Ġdescribe": 8003,
      "ĠUN": 8004,
      "Ġeditor": 8005,
      "tree": 8006,
      "told": 8007,
      "Ġcolony": 8008,
      "ĠBank": 8009,
      "death": 8010,
      "Ġcolours": 8011,
      "Ġmurmured": 8012,
      "eded": 8013,
      "Ġsailed": 8014,
      "awn": 8015,
      "Ġstared": 8016,
      "lyn": 8017,
      "uscript": 8018,
      "tor": 8019,
      "Ġeating": 8020,
      "Ġrav": 8021,
      "ifornia": 8022,
      "_--": 8023,
      "Ġmedical": 8024,
      "Ġdevotion": 8025,
      "Ġsafely": 8026,
      "inqu": 8027,
      "piece": 8028,
      "Ġproduct": 8029,
      "bler": 8030,
      "Ġinstructions": 8031,
      "Ġgest": 8032,
      "Ġremote": 8033,
      "Ġcommander": 8034,
      "Ġmob": 8035,
      "89": 8036,
      "ila": 8037,
      "Ġconviction": 8038,
      "Ġstomach": 8039,
      "Ġlistening": 8040,
      "Ġthreatened": 8041,
      "Ġdancing": 8042,
      "udence": 8043,
      "Ġtraining": 8044,
      "command": 8045,
      "Ġgrasp": 8046,
      "Ġstaff": 8047,
      "Ġfarmer": 8048,
      "ĠMonsieur": 8049,
      "Ġthir": 8050,
      "leton": 8051,
      "ederal": 8052,
      "Ġpatter": 8053,
      "thousand": 8054,
      "bacco": 8055,
      "iations": 8056,
      "ĠWould": 8057,
      "!-": 8058,
      "eries": 8059,
      "Ġinev": 8060,
      "akers": 8061,
      "igence": 8062,
      "Ġours": 8063,
      "ĠÃł": 8064,
      "inery": 8065,
      "Ġsleeping": 8066,
      "uris": 8067,
      "din": 8068,
      "Ġsem": 8069,
      "Ġcomposition": 8070,
      "dev": 8071,
      "Ġeighteen": 8072,
      "Ġabsent": 8073,
      "Ġneighbor": 8074,
      "Ġhers": 8075,
      "Ġnotwithstanding": 8076,
      "ĠMet": 8077,
      "ICE": 8078,
      "Ġshoes": 8079,
      "Ġretire": 8080,
      "Ġcontents": 8081,
      "Ġreb": 8082,
      "Ġintr": 8083,
      "Ġseas": 8084,
      "Ġtroubled": 8085,
      "Ġgratitude": 8086,
      "Ġexchange": 8087,
      "ĠPan": 8088,
      "Ġinquiry": 8089,
      "During": 8090,
      "Ġcourts": 8091,
      "Ġirrit": 8092,
      "ogue": 8093,
      "ifully": 8094,
      "abel": 8095,
      "Ġshed": 8096,
      "Ġfeed": 8097,
      "Ġbid": 8098,
      "oos": 8099,
      "edge": 8100,
      "Ġcheap": 8101,
      "Pe": 8102,
      "Ġimagined": 8103,
      "particular": 8104,
      "asury": 8105,
      "ĠPoint": 8106,
      "ENTS": 8107,
      "Ġshock": 8108,
      "vin": 8109,
      "uf": 8110,
      "Ġvary": 8111,
      "Ġpermission": 8112,
      "Ġscream": 8113,
      "Ġsensible": 8114,
      "Ġsuggestion": 8115,
      "Ġpains": 8116,
      "epend": 8117,
      "Ġburden": 8118,
      "ĠTherefore": 8119,
      "âģ": 8120,
      "omy": 8121,
      "Ġcontinually": 8122,
      "aria": 8123,
      "Ġindicated": 8124,
      "inned": 8125,
      "51": 8126,
      "Ġdeed": 8127,
      "Ġmedicine": 8128,
      "ĠSometimes": 8129,
      "ball": 8130,
      "Ġ170": 8131,
      "Ġsore": 8132,
      "Ġ52": 8133,
      "Ġannual": 8134,
      "Ġborrow": 8135,
      "Ġqui": 8136,
      "ĠÃĨ": 8137,
      "Ġhundreds": 8138,
      "ĠGrace": 8139,
      "Ġformation": 8140,
      "Ġmagist": 8141,
      "ustrious": 8142,
      "Ġsupplies": 8143,
      "Ġbadly": 8144,
      "Ġcir": 8145,
      "ATH": 8146,
      "Ġoffices": 8147,
      "akespe": 8148,
      "Ġga": 8149,
      "Ġow": 8150,
      "Ġpreserve": 8151,
      "Ġunc": 8152,
      "Ġdar": 8153,
      "Ġconcealed": 8154,
      "Ġlimit": 8155,
      "Ġpuzz": 8156,
      "Ġnights": 8157,
      "Ġ51": 8158,
      "Ġsins": 8159,
      "Ġenable": 8160,
      "ECT": 8161,
      "Ġshield": 8162,
      "ĠPL": 8163,
      "Ġfurnish": 8164,
      "ĠLew": 8165,
      "ĠCapt": 8166,
      "Ġemployment": 8167,
      "oting": 8168,
      "experi": 8169,
      "vet": 8170,
      "inen": 8171,
      "urred": 8172,
      "Ġfinest": 8173,
      "UC": 8174,
      "Ġartillery": 8175,
      "Ġinduced": 8176,
      "exc": 8177,
      "rum": 8178,
      "dep": 8179,
      "Ġdriving": 8180,
      "Ġirregular": 8181,
      "appearance": 8182,
      "spirit": 8183,
      "opes": 8184,
      "arted": 8185,
      "Ġimmort": 8186,
      "Ġranks": 8187,
      "ĠWhe": 8188,
      "Ġ53": 8189,
      "urious": 8190,
      "olas": 8191,
      "tym": 8192,
      "Ġflung": 8193,
      "Ġresist": 8194,
      "Ġhomes": 8195,
      "Ġtract": 8196,
      "geant": 8197,
      "llers": 8198,
      "Ġtribut": 8199,
      "def": 8200,
      "conven": 8201,
      "Ġtin": 8202,
      "fav": 8203,
      "Ġ68": 8204,
      "ĠJerusalem": 8205,
      "Ġidle": 8206,
      "ĠBaron": 8207,
      "why": 8208,
      "Ġarrive": 8209,
      "Ġvictim": 8210,
      "Ġadditional": 8211,
      "ĠBR": 8212,
      "Ġprinces": 8213,
      "ĠTemple": 8214,
      "Ġasham": 8215,
      "words": 8216,
      "Ġarise": 8217,
      "Ġ00": 8218,
      "anny": 8219,
      "ervation": 8220,
      "Ste": 8221,
      "aneous": 8222,
      "Ġprimitive": 8223,
      "ĠLight": 8224,
      "American": 8225,
      "apes": 8226,
      "Ġbrid": 8227,
      "Ġstrangers": 8228,
      "Ġcombined": 8229,
      "ĠMichael": 8230,
      "ĠRail": 8231,
      "public": 8232,
      "Ġprominent": 8233,
      "cclesiast": 8234,
      "Ġrealized": 8235,
      "Ġconsisted": 8236,
      "Ġcorps": 8237,
      "commun": 8238,
      "live": 8239,
      "Ġofthe": 8240,
      "Ġcustoms": 8241,
      "Ġslain": 8242,
      "keeper": 8243,
      "Ġclerk": 8244,
      "azz": 8245,
      "Ġventure": 8246,
      "Ġhastily": 8247,
      "ĠCL": 8248,
      "Ġflu": 8249,
      "fare": 8250,
      "Ġtiny": 8251,
      "Ġboil": 8252,
      "ĠAdmiral": 8253,
      "enna": 8254,
      "human": 8255,
      "ĠPhiladelphia": 8256,
      "feet": 8257,
      "Ġber": 8258,
      "ITY": 8259,
      "num": 8260,
      "Ġambition": 8261,
      "gon": 8262,
      "Ġbowed": 8263,
      "Ġprices": 8264,
      "arson": 8265,
      "ĠHugh": 8266,
      "ĠMP": 8267,
      "Ġclimate": 8268,
      "Ġmap": 8269,
      "Ġduke": 8270,
      "ĠIllust": 8271,
      "fell": 8272,
      "asse": 8273,
      "except": 8274,
      "Ġartific": 8275,
      "ĠEN": 8276,
      "Ġrecorded": 8277,
      "Ġneglect": 8278,
      "ĠCro": 8279,
      "ector": 8280,
      "aging": 8281,
      "ĠPur": 8282,
      "Ġpassages": 8283,
      "WH": 8284,
      "Ġproceedings": 8285,
      "hension": 8286,
      "ĠMAR": 8287,
      "Ġnurse": 8288,
      "grat": 8289,
      "iger": 8290,
      "whe": 8291,
      "Ġdismiss": 8292,
      "Ġpurple": 8293,
      "Ġdenied": 8294,
      "does": 8295,
      "mere": 8296,
      "pert": 8297,
      "Ġprovinces": 8298,
      "ylvania": 8299,
      "Ġinvolved": 8300,
      "ella": 8301,
      "Ġmostly": 8302,
      "Ġarrested": 8303,
      "Ġconceal": 8304,
      "Ġdefect": 8305,
      "Ġexamine": 8306,
      "ĠAndrew": 8307,
      "Ġpursuit": 8308,
      "rup": 8309,
      "zed": 8310,
      "acks": 8311,
      "Ġheavily": 8312,
      "Ġcottage": 8313,
      "Ġpossibility": 8314,
      "Ġpover": 8315,
      "ayed": 8316,
      "ĠSand": 8317,
      "Ġcommence": 8318,
      "Ġashamed": 8319,
      "Ġstreams": 8320,
      "ĠMonday": 8321,
      "Ġdeserted": 8322,
      "ĠCentral": 8323,
      "Ġarmies": 8324,
      "lessness": 8325,
      "inf": 8326,
      "ĠHard": 8327,
      "Ġconsequences": 8328,
      "EAR": 8329,
      "wit": 8330,
      "ĠBon": 8331,
      "Ġobjection": 8332,
      "Ġslightest": 8333,
      "Ġphrase": 8334,
      "Before": 8335,
      "Ġwanting": 8336,
      "rad": 8337,
      "Ġmerc": 8338,
      "Ġbone": 8339,
      "amps": 8340,
      "Ġdistinctly": 8341,
      "money": 8342,
      "Ġburnt": 8343,
      "bun": 8344,
      "ĠAustral": 8345,
      "Ġrevealed": 8346,
      "Ġfathers": 8347,
      "Ġleather": 8348,
      "Ġbeds": 8349,
      "Ġsheet": 8350,
      "Ġexhausted": 8351,
      "Ġseeking": 8352,
      "advant": 8353,
      "rene": 8354,
      "Ġencourage": 8355,
      "Ġpoverty": 8356,
      "pture": 8357,
      "during": 8358,
      "Ġstraw": 8359,
      "Ġattain": 8360,
      "ictures": 8361,
      "prof": 8362,
      "Ġdemands": 8363,
      "Ġaccess": 8364,
      "ammed": 8365,
      "Ġadmire": 8366,
      "Ġdrunk": 8367,
      "Ġabrupt": 8368,
      "Ġexamples": 8369,
      "istent": 8370,
      "ieties": 8371,
      "Ġbased": 8372,
      "Ġwhereas": 8373,
      "Ġlimbs": 8374,
      "conn": 8375,
      "Ġcryst": 8376,
      "ester": 8377,
      "ĠAlthough": 8378,
      "ippi": 8379,
      "Ġrested": 8380,
      "Ġresumed": 8381,
      "Ġchose": 8382,
      "Ġfeature": 8383,
      "ping": 8384,
      "Ġforgive": 8385,
      "leness": 8386,
      "pled": 8387,
      "Ġbeaten": 8388,
      "Ġassume": 8389,
      "ĠThrough": 8390,
      "ĠGil": 8391,
      "Ġhaunt": 8392,
      "nature": 8393,
      "Ġhelpless": 8394,
      "Ġhadn": 8395,
      "William": 8396,
      "Ġfruits": 8397,
      "Ġbalance": 8398,
      "Ġcree": 8399,
      "omatic": 8400,
      "arks": 8401,
      "Ġslender": 8402,
      "amin": 8403,
      "Ġinit": 8404,
      "eanwhile": 8405,
      "ĠCommand": 8406,
      "Ġsang": 8407,
      "ĠBre": 8408,
      "ĠLiber": 8409,
      "OOD": 8410,
      "sac": 8411,
      "sold": 8412,
      "Ġimprison": 8413,
      "Ġparliament": 8414,
      "rers": 8415,
      "Ġhaz": 8416,
      "Ġfurniture": 8417,
      "Ġexecuted": 8418,
      "Ġclaimed": 8419,
      "eur": 8420,
      "Ġprofess": 8421,
      "sex": 8422,
      "ressing": 8423,
      "Ġslipped": 8424,
      "Ġinternal": 8425,
      "Ġministers": 8426,
      "fif": 8427,
      "Ġattempts": 8428,
      "aned": 8429,
      "andal": 8430,
      "imately": 8431,
      "plex": 8432,
      "ials": 8433,
      "Ġgardens": 8434,
      "inence": 8435,
      "Ġbi": 8436,
      "Ġ56": 8437,
      "Ġsurvey": 8438,
      "dark": 8439,
      "nut": 8440,
      "Ġstores": 8441,
      "Ġcenter": 8442,
      "Ġdrinking": 8443,
      "Ġfires": 8444,
      "Ġdistricts": 8445,
      "soon": 8446,
      "alph": 8447,
      "ĠHay": 8448,
      "OOK": 8449,
      "lord": 8450,
      "bear": 8451,
      "Ġcolumns": 8452,
      "semble": 8453,
      "Ġprepare": 8454,
      "Ġconvenient": 8455,
      "Ġsisters": 8456,
      "Ġdur": 8457,
      "ni": 8458,
      "Ġrespond": 8459,
      "Ġunlike": 8460,
      "Ġrepeat": 8461,
      "Ġintroduction": 8462,
      "ĠNEW": 8463,
      "Ġ69": 8464,
      "legraph": 8465,
      "Ġsi": 8466,
      "box": 8467,
      "Ġconquer": 8468,
      "Ġsd": 8469,
      "Ġapost": 8470,
      "Ġvice": 8471,
      "rained": 8472,
      "Ġcompanies": 8473,
      "100": 8474,
      "PER": 8475,
      "Ġthrowing": 8476,
      "Ġmedium": 8477,
      "Ġviz": 8478,
      "anes": 8479,
      "Ġlanding": 8480,
      "ĠAmb": 8481,
      "Ġadorn": 8482,
      "ĠWat": 8483,
      "within": 8484,
      "Ġconcent": 8485,
      "Ġsongs": 8486,
      "headed": 8487,
      "Ġchron": 8488,
      "keep": 8489,
      "Ġshadows": 8490,
      "Ġprophe": 8491,
      "Ġshalt": 8492,
      "uming": 8493,
      "Ġforever": 8494,
      "Ġcovering": 8495,
      "inus": 8496,
      "olph": 8497,
      "Ġimpulse": 8498,
      "Ġraising": 8499,
      "Har": 8500,
      "Ġobservations": 8501,
      "giving": 8502,
      "ĠConn": 8503,
      "inburgh": 8504,
      "ĠPle": 8505,
      "few": 8506,
      "Ġrays": 8507,
      "Ġscri": 8508,
      "azine": 8509,
      "ĠCard": 8510,
      "iche": 8511,
      "Ġperceive": 8512,
      "ounter": 8513,
      "Ġpayment": 8514,
      "Ġecho": 8515,
      "ĠLuc": 8516,
      "agle": 8517,
      "Ġrespects": 8518,
      "Ġplays": 8519,
      "riages": 8520,
      "Ġsite": 8521,
      "Ġcivilization": 8522,
      "Ġshake": 8523,
      "Ġexists": 8524,
      "Ġcrying": 8525,
      "Ġoccupation": 8526,
      "Car": 8527,
      "sometimes": 8528,
      "ĠMos": 8529,
      "Ġmultitude": 8530,
      "Ġdwelling": 8531,
      "ĠNich": 8532,
      "eff": 8533,
      "object": 8534,
      "Ġcondemned": 8535,
      "Gl": 8536,
      "Ġvon": 8537,
      "Ġdefeat": 8538,
      "horse": 8539,
      "Ġconsisting": 8540,
      "Ġswim": 8541,
      "ti": 8542,
      "mil": 8543,
      "ĠHolland": 8544,
      "ĠBas": 8545,
      "Ġinser": 8546,
      "Ġembra": 8547,
      "igg": 8548,
      "several": 8549,
      "Ġdetect": 8550,
      "Ġtheatre": 8551,
      "court": 8552,
      "Ġanchor": 8553,
      "justice": 8554,
      "ĠSC": 8555,
      "Ġcrossing": 8556,
      "Ġsuspected": 8557,
      "whel": 8558,
      "Ġgarrison": 8559,
      "cross": 8560,
      "ĠNeg": 8561,
      "sters": 8562,
      "Ġdeeds": 8563,
      "Ġmixture": 8564,
      "oping": 8565,
      "sels": 8566,
      "Ġseats": 8567,
      "Ġplun": 8568,
      "Ġbegged": 8569,
      "trees": 8570,
      "fles": 8571,
      "Ġfearful": 8572,
      "Ġ54": 8573,
      "Ġfolk": 8574,
      "Sec": 8575,
      "ĠDou": 8576,
      "Ġmagic": 8577,
      "Ġspecimens": 8578,
      "above": 8579,
      "Ġsixteen": 8580,
      "Ġextract": 8581,
      "blood": 8582,
      "complete": 8583,
      "Ġpronounced": 8584,
      "Î¯": 8585,
      "Ġhungry": 8586,
      "Ġ}": 8587,
      "Ġcontrad": 8588,
      "ĠXXX": 8589,
      "Ġhorrible": 8590,
      "ulus": 8591,
      "uity": 8592,
      "Ġrelieved": 8593,
      "dri": 8594,
      "especially": 8595,
      "ĠDepartment": 8596,
      "Ġdict": 8597,
      "Ġassembly": 8598,
      "amen": 8599,
      "ĠPier": 8600,
      "Ġperformance": 8601,
      "ĠNight": 8602,
      "uz": 8603,
      "tts": 8604,
      "possible": 8605,
      "cannot": 8606,
      "OF": 8607,
      "Ġautumn": 8608,
      "Ġinterfe": 8609,
      "Hen": 8610,
      "forward": 8611,
      "kerchief": 8612,
      "ĠHind": 8613,
      "ACK": 8614,
      "Ġstayed": 8615,
      "fashion": 8616,
      "Ġcolored": 8617,
      "Ġbrethren": 8618,
      "word": 8619,
      "vity": 8620,
      "ĠAssoci": 8621,
      "Ġkm": 8622,
      "Ġinjury": 8623,
      "Ġrises": 8624,
      "Ġsympt": 8625,
      "Ġinfl": 8626,
      "uting": 8627,
      "women": 8628,
      "ĠPage": 8629,
      "ĠCab": 8630,
      "number": 8631,
      "Nothing": 8632,
      "Ġpreparation": 8633,
      "Ġcy": 8634,
      "Ġrifle": 8635,
      "hered": 8636,
      "gedy": 8637,
      "Ġfount": 8638,
      "Ġsummit": 8639,
      "Ġgrateful": 8640,
      "Ġresting": 8641,
      "green": 8642,
      "Ġoccurs": 8643,
      "business": 8644,
      "Ġroots": 8645,
      "Ġdecide": 8646,
      "Ġperil": 8647,
      "Ġintelligent": 8648,
      "adies": 8649,
      "Ġvolumes": 8650,
      "Ġcreation": 8651,
      "ĠBern": 8652,
      "Ġwrought": 8653,
      "Ġmoreover": 8654,
      "Ġinvestig": 8655,
      "ĠJapanese": 8656,
      "Ġcease": 8657,
      "Ġwrath": 8658,
      "iano": 8659,
      "Ġindependence": 8660,
      "GH": 8661,
      "akespeare": 8662,
      "Ġinstitutions": 8663,
      "ĠPot": 8664,
      "81": 8665,
      "ĠLar": 8666,
      "ĠBa": 8667,
      "Ġchim": 8668,
      "Ġstupid": 8669,
      "Ap": 8670,
      "Ġselect": 8671,
      "Ġsanct": 8672,
      "Ġmould": 8673,
      "%,": 8674,
      "Ġfourteen": 8675,
      "Captain": 8676,
      "Ġsank": 8677,
      "Ġprophet": 8678,
      "Ġpassions": 8679,
      "ĠSpaniards": 8680,
      "iac": 8681,
      "ader": 8682,
      "Ġfatig": 8683,
      "loc": 8684,
      "spring": 8685,
      "Ġassure": 8686,
      "onies": 8687,
      "Ġraces": 8688,
      "according": 8689,
      "Ġbond": 8690,
      "Ġpositive": 8691,
      "ĠWind": 8692,
      "Ġsiege": 8693,
      "Ġinjured": 8694,
      "habit": 8695,
      "Dec": 8696,
      "Ġleis": 8697,
      "ĠWales": 8698,
      "Ġafterward": 8699,
      "Ġprize": 8700,
      "Ġdisplayed": 8701,
      "Ġreckon": 8702,
      "ĠBed": 8703,
      "aired": 8704,
      "ĠJackson": 8705,
      "Ġvaried": 8706,
      "95": 8707,
      "Ġaloud": 8708,
      "Ġtobacco": 8709,
      "Ġvest": 8710,
      "picuous": 8711,
      "erness": 8712,
      "ĠAdam": 8713,
      "Ġwash": 8714,
      "Ġvine": 8715,
      "ulties": 8716,
      "brew": 8717,
      "Ġinstruction": 8718,
      "ensity": 8719,
      "Ġgrows": 8720,
      "Ġcleared": 8721,
      "Ġstudents": 8722,
      "ĠAuthor": 8723,
      "Ġcheerful": 8724,
      "hill": 8725,
      "Ġmail": 8726,
      "uman": 8727,
      "grim": 8728,
      "Ġmotive": 8729,
      "Ġpolitics": 8730,
      "Ġfed": 8731,
      "Ġmoist": 8732,
      "Ġdivers": 8733,
      "olt": 8734,
      "ĠNJ": 8735,
      "ertainly": 8736,
      "Ġfury": 8737,
      "Ġsatisfactory": 8738,
      "ICK": 8739,
      "Ġconsidering": 8740,
      "Ġsomehow": 8741,
      "Ġgallant": 8742,
      "ĠNorthern": 8743,
      "hist": 8744,
      "Ġlou": 8745,
      "Ġdoubtful": 8746,
      "alion": 8747,
      "ĠJustice": 8748,
      "ĠTurn": 8749,
      "Ġprovision": 8750,
      "atherine": 8751,
      "96": 8752,
      "grow": 8753,
      "Ġguest": 8754,
      "igne": 8755,
      "fa": 8756,
      "early": 8757,
      "Ġbloom": 8758,
      "ĠProp": 8759,
      "llen": 8760,
      "otte": 8761,
      "Ġmead": 8762,
      "gave": 8763,
      "Ġbeach": 8764,
      "Ġpropriet": 8765,
      "posed": 8766,
      "aton": 8767,
      "Ġovercome": 8768,
      "ĠTex": 8769,
      "ĠMoses": 8770,
      "Ġshores": 8771,
      "Ġintervals": 8772,
      "La": 8773,
      "Ġplains": 8774,
      "Ġcave": 8775,
      "Ġvirtues": 8776,
      "Ġwars": 8777,
      "ava": 8778,
      "German": 8779,
      "geance": 8780,
      "Ġwheat": 8781,
      "borough": 8782,
      "Ġbapt": 8783,
      "Ġphysician": 8784,
      "ACE": 8785,
      "alysis": 8786,
      "Ġfinish": 8787,
      "ĠTake": 8788,
      "Ġchiefs": 8789,
      "Ġgracious": 8790,
      "mical": 8791,
      "arned": 8792,
      "Ġenterprise": 8793,
      "ĠMS": 8794,
      "pie": 8795,
      "either": 8796,
      "Ġreflection": 8797,
      "often": 8798,
      "Ġhoney": 8799,
      "Ġthri": 8800,
      "ĠStr": 8801,
      "Ġ1865": 8802,
      "Ġtouching": 8803,
      "Ġresponsible": 8804,
      "ĠCarolina": 8805,
      "rot": 8806,
      "east": 8807,
      "Ġliberal": 8808,
      "herself": 8809,
      "orum": 8810,
      "Ġborder": 8811,
      "believe": 8812,
      "Ġstudent": 8813,
      "itality": 8814,
      "97": 8815,
      "Ġ57": 8816,
      "Ġpaying": 8817,
      "OY": 8818,
      "Ġgifts": 8819,
      "Ġgoodness": 8820,
      "ĠCalifornia": 8821,
      "Ġperfection": 8822,
      "ĠTest": 8823,
      "important": 8824,
      "Ġhappens": 8825,
      "Ġlament": 8826,
      "perial": 8827,
      "gans": 8828,
      "Ġbeasts": 8829,
      "vell": 8830,
      "angle": 8831,
      "wife": 8832,
      "Ġpine": 8833,
      "grand": 8834,
      "Ġdistinguish": 8835,
      "ĠPRO": 8836,
      "Ġdeeper": 8837,
      "Ã¨re": 8838,
      "Ġafforded": 8839,
      "itself": 8840,
      "Ġly": 8841,
      "quer": 8842,
      "dy": 8843,
      "Ġfolly": 8844,
      "ben": 8845,
      "glass": 8846,
      "cas": 8847,
      "Î·": 8848,
      "Ġoutward": 8849,
      "Ġnewspaper": 8850,
      "Ġmuttered": 8851,
      "Ġprosperity": 8852,
      "Ġdisturbed": 8853,
      "Ġsurrender": 8854,
      "national": 8855,
      "ĠDom": 8856,
      "ĠWin": 8857,
      "ĠEle": 8858,
      "ĠGeorg": 8859,
      "Ġsecretary": 8860,
      "attering": 8861,
      "Ġdesigned": 8862,
      "seven": 8863,
      "Ġprey": 8864,
      "rants": 8865,
      "ĠMiddle": 8866,
      "ĠEve": 8867,
      "ĠTell": 8868,
      "Ġrevel": 8869,
      "ĠSE": 8870,
      "Ġauthors": 8871,
      "Ġreform": 8872,
      "following": 8873,
      "osity": 8874,
      "aying": 8875,
      "Ġlap": 8876,
      "Christian": 8877,
      "Ġdiameter": 8878,
      "Ġassault": 8879,
      "allowed": 8880,
      "Ġfifth": 8881,
      "Ġsubsequent": 8882,
      "Ġmajesty": 8883,
      "ĠSher": 8884,
      "Ġ120": 8885,
      "Ġcomparatively": 8886,
      "Ġtons": 8887,
      "Ġtran": 8888,
      "ĠEastern": 8889,
      "chess": 8890,
      "Ġlively": 8891,
      "aders": 8892,
      "sylvania": 8893,
      "Ġclothing": 8894,
      "BERT": 8895,
      "Ġabandon": 8896,
      "ĠField": 8897,
      "achuse": 8898,
      "icating": 8899,
      "Feb": 8900,
      "ĠInf": 8901,
      "ĠJeff": 8902,
      "Ġredu": 8903,
      "Ġtimber": 8904,
      "employ": 8905,
      "Ġconstructed": 8906,
      "Bar": 8907,
      "short": 8908,
      "Ġtoss": 8909,
      "Ġpassengers": 8910,
      "ruit": 8911,
      "till": 8912,
      "Ġdesires": 8913,
      "already": 8914,
      "inv": 8915,
      "Ġproceeding": 8916,
      "Ġtones": 8917,
      "riday": 8918,
      "Ġpreparing": 8919,
      "Ġconfirmed": 8920,
      "isms": 8921,
      "Ġsurrounding": 8922,
      "Ġsounded": 8923,
      "elled": 8924,
      "Ġindifferent": 8925,
      "Ġlawyer": 8926,
      "ij": 8927,
      "Ġreception": 8928,
      "ĠBull": 8929,
      "Ġcriminal": 8930,
      "ĠHelen": 8931,
      "ĠSix": 8932,
      "ĠBoard": 8933,
      "Ġblessing": 8934,
      "Ġqueer": 8935,
      "Ġbreeze": 8936,
      "Ġoak": 8937,
      "Ġnamely": 8938,
      "meet": 8939,
      "hend": 8940,
      "olen": 8941,
      "Ġdisgrace": 8942,
      "Ġprivilege": 8943,
      "Ġwaist": 8944,
      "Ġpreferred": 8945,
      "Ġ\"'": 8946,
      "Ġvivid": 8947,
      "issippi": 8948,
      "Ġhind": 8949,
      "ĠMoh": 8950,
      "Ġsomebody": 8951,
      "Ġinstitution": 8952,
      "Ġexquisite": 8953,
      "ether": 8954,
      "ĠIsa": 8955,
      "ĠPlace": 8956,
      "ĠPa": 8957,
      "KE": 8958,
      "Ġlion": 8959,
      "Ġappar": 8960,
      "Ġrespecting": 8961,
      "Ġimprovement": 8962,
      "-----+-----+": 8963,
      "Ġfollowers": 8964,
      "Ġimproved": 8965,
      "ĠBeing": 8966,
      "phil": 8967,
      "willing": 8968,
      "orse": 8969,
      "Ġretained": 8970,
      "Ġwherever": 8971,
      "Ġeighty": 8972,
      "ensation": 8973,
      "Ġapartment": 8974,
      "ifies": 8975,
      "Ġug": 8976,
      "umer": 8977,
      "92": 8978,
      "Ġfran": 8979,
      "Ġgang": 8980,
      "Ġsway": 8981,
      "stri": 8982,
      "acing": 8983,
      "Their": 8984,
      "ĠAlso": 8985,
      "Ġaccommod": 8986,
      "Ġattained": 8987,
      "Ġstarting": 8988,
      "Ġcapture": 8989,
      "Ġvener": 8990,
      "coat": 8991,
      "produ": 8992,
      "ees": 8993,
      "occasion": 8994,
      "Ġwritings": 8995,
      "otal": 8996,
      "Ġshells": 8997,
      "run": 8998,
      "Ġfolks": 8999,
      "Ġoffering": 9000,
      "ĠLE": 9001,
      "ĠSwed": 9002,
      "Ġhatred": 9003,
      "ĠStephen": 9004,
      "Take": 9005,
      "enc": 9006,
      "Ġgran": 9007,
      "Ġremedy": 9008,
      "ĠRus": 9009,
      "Ġbrick": 9010,
      "Ġsentiments": 9011,
      "steps": 9012,
      "Ġpace": 9013,
      "Ġvicinity": 9014,
      "treat": 9015,
      "Ġbeheld": 9016,
      "Ġnegot": 9017,
      "Ġcoo": 9018,
      "Ã©s": 9019,
      "Ġwashed": 9020,
      "continued": 9021,
      "Ġhaue": 9022,
      "Ġbrass": 9023,
      "indeed": 9024,
      "Ġsunshine": 9025,
      "gging": 9026,
      "imm": 9027,
      "Ġshone": 9028,
      "placed": 9029,
      "Ġintimate": 9030,
      "Ġhid": 9031,
      "vas": 9032,
      "Ġpoets": 9033,
      "Ġwherein": 9034,
      "mill": 9035,
      "Ġfastened": 9036,
      "TE": 9037,
      "achusetts": 9038,
      "Even": 9039,
      "Ġlesson": 9040,
      "Ġplot": 9041,
      "Ġsunk": 9042,
      "itty": 9043,
      "Ġrecall": 9044,
      "Ġsup": 9045,
      "Ġcrack": 9046,
      "state": 9047,
      "cession": 9048,
      "Ġtion": 9049,
      "Ġmoderate": 9050,
      "Ġtravelling": 9051,
      "Ant": 9052,
      "Ġpurchased": 9053,
      "Ġlock": 9054,
      "Ġnaval": 9055,
      "Ġabol": 9056,
      "ifference": 9057,
      "Ġbehalf": 9058,
      "Ġcoarse": 9059,
      "Ġvulgar": 9060,
      "Ġheavens": 9061,
      "Ġundoubtedly": 9062,
      "Ġresources": 9063,
      "phone": 9064,
      "eers": 9065,
      "Ġcultivated": 9066,
      "ĠTurkish": 9067,
      "ĠWilson": 9068,
      "ASS": 9069,
      "ano": 9070,
      "drew": 9071,
      "scar": 9072,
      "Ġmaiden": 9073,
      "ĠAlb": 9074,
      "ographical": 9075,
      "Ġquarrel": 9076,
      "ĠLeon": 9077,
      "Ġcontest": 9078,
      "Ġsteadily": 9079,
      "dess": 9080,
      "85": 9081,
      "Ġendure": 9082,
      "super": 9083,
      "Ġscul": 9084,
      ";--": 9085,
      "IAM": 9086,
      "Ġconceived": 9087,
      "Ġregards": 9088,
      "hour": 9089,
      "icing": 9090,
      "Ġplates": 9091,
      "Ġclock": 9092,
      "Ġward": 9093,
      "Ġhem": 9094,
      "Ġcells": 9095,
      "forced": 9096,
      "Pres": 9097,
      "Ġeffected": 9098,
      "creat": 9099,
      "Ġdepends": 9100,
      "comes": 9101,
      "Ġanywhere": 9102,
      "Ġstair": 9103,
      "Ġlaying": 9104,
      "Ġ300": 9105,
      "Ġmutual": 9106,
      "Ġwages": 9107,
      "THER": 9108,
      "ĠIX": 9109,
      "Ġstring": 9110,
      "ĠFlorence": 9111,
      "Ġobedience": 9112,
      "Ġnarrative": 9113,
      "Ġengage": 9114,
      "allen": 9115,
      "amental": 9116,
      "Ġretain": 9117,
      "Ġmerchants": 9118,
      "udge": 9119,
      "thr": 9120,
      "Ġdiscipline": 9121,
      "ĠFle": 9122,
      "says": 9123,
      "ashes": 9124,
      "Ġaccused": 9125,
      "omp": 9126,
      "etic": 9127,
      "Ġculture": 9128,
      "Ġeaten": 9129,
      "Ġastonished": 9130,
      "direct": 9131,
      "âĶ¼": 9132,
      "Ġpainting": 9133,
      "ckets": 9134,
      "ĠWy": 9135,
      "ĠPap": 9136,
      "ĠHal": 9137,
      "Me": 9138,
      "raham": 9139,
      "ogs": 9140,
      "ĠRevolution": 9141,
      "Ġrhy": 9142,
      "oard": 9143,
      "iveness": 9144,
      "First": 9145,
      "lines": 9146,
      "agan": 9147,
      "Ġmodel": 9148,
      "understand": 9149,
      "apping": 9150,
      "Ġlightly": 9151,
      "Ġalle": 9152,
      "Ġcolonies": 9153,
      "Ġshaft": 9154,
      "nation": 9155,
      "ĠĠĠĠĠĠĠĠĠĠĠĠĠĠĠĠĠĠĠĠĠĠĠĠĠĠĠĠĠĠĠĠĠĠĠ": 9156,
      "Ġassociated": 9157,
      "lder": 9158,
      "bot": 9159,
      "grad": 9160,
      "ĠRos": 9161,
      "Ġfeeble": 9162,
      "Ġconfer": 9163,
      "Ġsubstant": 9164,
      "comb": 9165,
      "Ġfuneral": 9166,
      "fellow": 9167,
      "ĠKings": 9168,
      "hot": 9169,
      "Ġoft": 9170,
      "Ġconfident": 9171,
      "Ġafore": 9172,
      "Ġastonishment": 9173,
      "Ġassigned": 9174,
      "angled": 9175,
      "Ġabundant": 9176,
      "oore": 9177,
      "Ġembarrass": 9178,
      "Ġslip": 9179,
      "Ġbade": 9180,
      "Ġfortunate": 9181,
      "Ġharmony": 9182,
      "arte": 9183,
      "VER": 9184,
      "Ġknee": 9185,
      "Ġtranslation": 9186,
      "ANS": 9187,
      "Ġtour": 9188,
      "AU": 9189,
      "Ġrevenge": 9190,
      "urrection": 9191,
      "Ġweapons": 9192,
      "Ġlift": 9193,
      "Ġportions": 9194,
      "along": 9195,
      "Ġarrangements": 9196,
      "Ġmusical": 9197,
      "Ġformal": 9198,
      "decl": 9199,
      "91": 9200,
      "ĠGrant": 9201,
      "Ġprohib": 9202,
      "ĠAtlantic": 9203,
      "aylor": 9204,
      "regard": 9205,
      "UE": 9206,
      "broken": 9207,
      "Ġjump": 9208,
      "ighter": 9209,
      "ĠEX": 9210,
      "Ġscore": 9211,
      "Ġwondering": 9212,
      "Ġpleasing": 9213,
      "Ġate": 9214,
      "ĠAsh": 9215,
      "Ġdemonstr": 9216,
      "Ġling": 9217,
      "oric": 9218,
      "uously": 9219,
      "near": 9220,
      "Ġruined": 9221,
      "Ġstudies": 9222,
      "Ġcanal": 9223,
      "Ġsolitary": 9224,
      "ĠMuseum": 9225,
      "bene": 9226,
      "endous": 9227,
      "Ġmate": 9228,
      "Ġsubmit": 9229,
      "Ġneglected": 9230,
      "herent": 9231,
      "othy": 9232,
[...]
