{
  "version": "1.0",
  "truncation": null,
  "padding": null,
  "added_tokens": [
    {
      "id": 0,
      "content": "<|pad|>",
      "single_word": false,
      "lstrip": false,
      "rstrip": false,
      "normalized": false,
      "special": true
    },
    {
      "id": 1,
      "content": "<|unk|>",
      "single_word": false,
      "lstrip": false,
      "rstrip": false,
      "normalized": false,
      "special": true
    },
    {
      "id": 2,
      "content": "<|mask|>",
      "single_word": false,
      "lstrip": false,
      "rstrip": false,
      "normalized": false,
      "special": true
    },
    {
      "id": 3,
      "content": "<|bos|>",
      "single_word": false,
      "lstrip": false,
      "rstrip": false,
      "normalized": false,
      "special": true
    },
    {
      "id": 4,
      "content": "<|eos|>",
      "single_word": false,
      "lstrip": false,
      "rstrip": false,
      "normalized": false,
      "special": true
    },
    {
      "id": 5,
      "content": "<|system|>",
      "single_word": false,
      "lstrip": false,
      "rstrip": false,
      "normalized": false,
      "special": true
    },
    {
      "id": 6,
      "content": "<|user|>",
      "single_word": false,
      "lstrip": false,
      "rstrip": false,
      "normalized": false,
      "special": true
    },
    {
      "id": 7,
      "content": "<|assistant|>",
      "single_word": false,
      "lstrip": false,
      "rstrip": false,
      "normalized": false,
      "special": true
    }
  ],
  "normalizer": null,
  "pre_tokenizer": {
    "type": "ByteLevel",
    "add_prefix_space": false,
    "trim_offsets": true,
    "use_regex": true
  },
  "post_processor": {
    "type": "TemplateProcessing",
    "single": [
      {
        "Sequence": {
          "id": "A",
          "type_id": 0
        }
      }
    ],
    "pair": [
      {
        "Sequence": {
          "id": "A",
          "type_id": 0
        }
      },
      {
        "Sequence": {
          "id": "B",
          "type_id": 1
        }
      }
    ],
    "special_tokens": {}
  },
  "decoder": {
    "type": "ByteLevel",
    "add_prefix_space": true,
    "trim_offsets": true,
    "use_regex": true
  },
  "model": {
    "type": "BPE",
    "dropout": null,
    "unk_token": "<|unk|>",
    "continuing_subword_prefix": null,
    "end_of_word_suffix": null,
    "fuse_unk": false,
    "byte_fallback": false,
    "ignore_merges": false,
    "vocab": {
      "<|pad|>": 0,
      "<|unk|>": 1,
      "<|mask|>": 2,
      "<|bos|>": 3,
      "<|eos|>": 4,
      "<|system|>": 5,
      "<|user|>": 6,
      "<|assistant|>": 7,
      "!": 8,
      "\"": 9,
      "#": 10,
      "$": 11,
      "%": 12,
      "&": 13,
      "'": 14,
      "(": 15,
      ")": 16,
      "*": 17,
      "+": 18,
      ",": 19,
      "-": 20,
      ".": 21,
      "/": 22,
      "0": 23,
      "1": 24,
      "2": 25,
      "3": 26,
      "4": 27,
      "5": 28,
      "6": 29,
      "7": 30,
      "8": 31,
      "9": 32,
      ":": 33,
      ";": 34,
      "<": 35,
      "=": 36,
      ">": 37,
      "?": 38,
      "@": 39,
      "A": 40,
      "B": 41,
      "C": 42,
      "D": 43,
      "E": 44,
      "F": 45,
      "G": 46,
      "H": 47,
      "I": 48,
      "J": 49,
      "K": 50,
      "L": 51,
      "M": 52,
      "N": 53,
      "O": 54,
      "P": 55,
      "Q": 56,
      "R": 57,
      "S": 58,
      "T": 59,
      "U": 60,
      "V": 61,
      "W": 62,
      "X": 63,
      "Y": 64,
      "Z": 65,
      "[": 66,
      "\\": 67,
      "]": 68,
      "^": 69,
      "_": 70,
      "`": 71,
      "a": 72,
      "b": 73,
      "c": 74,
      "d": 75,
      "e": 76,
      "f": 77,
      "g": 78,
      "h": 79,
      "i": 80,
      "j": 81,
      "k": 82,
      "l": 83,
      "m": 84,
      "n": 85,
      "o": 86,
      "p": 87,
      "q": 88,
      "r": 89,
      "s": 90,
      "t": 91,
      "u": 92,
      "v": 93,
      "w": 94,
      "x": 95,
      "y": 96,
      "z": 97,
      "{": 98,
      "|": 99,
      "}": 100,
      "~": 101,
      "¡": 102,
      "¢": 103,
      "£": 104,
      "¤": 105,
      "¥": 106,
      "¦": 107,
      "§": 108,
      "¨": 109,
      "©": 110,
      "ª": 111,
      "«": 112,
      "¬": 113,
      "®": 114,
      "¯": 115,
      "°": 116,
      "±": 117,
      "²": 118,
      "³": 119,
      "´": 120,
      "µ": 121,
      "¶": 122,
      "·": 123,
      "¸": 124,
      "¹": 125,
      "º": 126,
      "»": 127,
      "¼": 128,
      "½": 129,
      "¾": 130,
      "¿": 131,
      "Â": 132,
      "Ã": 133,
      "Ä": 134,
      "Å": 135,
      "Æ": 136,
      "Ç": 137,
      "È": 138,
      "É": 139,
      "Ê": 140,
      "Ë": 141,
      "Ì": 142,
      "Í": 143,
      "Î": 144,
      "Ï": 145,
      "Ð": 146,
      "Ñ": 147,
      "Ò": 148,
      "Ó": 149,
      "Ô": 150,
      "Õ": 151,
      "Ö": 152,
      "×": 153,
      "Ø": 154,
      "Ù": 155,
      "Ú": 156,
      "Û": 157,
      "Ü": 158,
      "Ý": 159,
      "Þ": 160,
      "ß": 161,
      "à": 162,
      "á": 163,
      "â": 164,
      "ã": 165,
      "ä": 166,
      "å": 167,
      "æ": 168,
      "ç": 169,
      "è": 170,
      "é": 171,
      "ê": 172,
      "ì": 173,
      "ï": 174,
      "ð": 175,
      "ĉ": 176,
      "Ċ": 177,
      "č": 178,
      "Ġ": 179,
      "Ģ": 180,
      "ģ": 181,
      "Ĥ": 182,
      "ĥ": 183,
      "Ħ": 184,
      "ħ": 185,
      "Ĩ": 186,
      "ĩ": 187,
      "Ī": 188,
      "ī": 189,
      "Ĭ": 190,
      "ĭ": 191,
      "Į": 192,
      "į": 193,
      "İ": 194,
      "ı": 195,
      "Ĳ": 196,
      "ĳ": 197,
      "Ĵ": 198,
      "ĵ": 199,
      "Ķ": 200,
      "ķ": 201,
      "ĸ": 202,
      "Ĺ": 203,
      "ĺ": 204,
      "Ļ": 205,
      "ļ": 206,
      "Ľ": 207,
      "ľ": 208,
      "Ŀ": 209,
      "ŀ": 210,
      "Ł": 211,
      "ł": 212,
      "Ń": 213,
      "Ġt": 214,
      "he": 215,
      "Ġa": 216,
      "in": 217,
      "Ġthe": 218,
      "Ġo": 219,
      "re": 220,
      "ĠĠ": 221,
      "Ġw": 222,
      "Ġs": 223,
      "nd": 224,
      "er": 225,
      "at": 226,
      "on": 227,
      "is": 228,
      "Ġof": 229,
      "it": 230,
      "ĠĊ": 231,
      "Ġb": 232,
      "en": 233,
      "ou": 234,
      "ed": 235,
      "Ġf": 236,
      "Ġh": 237,
      "Ġc": 238,
      "es": 239,
      "Ġm": 240,
      "or": 241,
      "Ġand": 242,
      "ar": 243,
      "Ġto": 244,
      "an": 245,
      "Ġp": 246,
      "ing": 247,
      "Ġin": 248,
      "ll": 249,
      "as": 250,
      "Ġd": 251,
      "Ġth": 252,
      "ĠĠĠĠ": 253,
      "Ġl": 254,
      "om": 255,
      "ic": 256,
      "Ġn": 257,
      "le": 258,
      "ion": 259,
      "Ġhe": 260,
      "Ġbe": 261,
      "al": 262,
      "st": 263,
      "ot": 264,
      "Ġe": 265,
      "ent": 266,
      "ad": 267,
      "Ġg": 268,
      "ve": 269,
      "ĠI": 270,
      "ut": 271,
      "ow": 272,
      "se": 273,
      "ly": 274,
      "ce": 275,
      "im": 276,
      "Ġre": 277,
      "Ġwh": 278,
      "id": 279,
      "ld": 280,
      "ĠT": 281,
      "ir": 282,
      "gh": 283,
      "ur": 284,
      "Ġthat": 285,
      "et": 286,
      "ver": 287,
      "Ġon": 288,
      "ith": 289,
      "Ġit": 290,
      "ay": 291,
      "ct": 292,
      "Ġu": 293,
      "ro": 294,
      "Ġwas": 295,
      "Ġis": 296,
      "Ġfor": 297,
      "ch": 298,
      "Ġy": 299,
      "ĠS": 300,
      "Ġas": 301,
      "am": 302,
      "ĠA": 303,
      "Ġwith": 304,
      "and": 305,
      "ri": 306,
      "the": 307,
      "Ġwe": 308,
      "Ġhis": 309,
      "ĠĠĠĠĠĠĠĠ": 310,
      "ĠC": 311,
      "Ġst": 312,
      "th": 313,
      "ter": 314,
      "ĠM": 315,
      "Ġan": 316,
      "ght": 317,
      "ain": 318,
      "all": 319,
      "il": 320,
      "ill": 321,
      "Ġyou": 322,
      "if": 323,
      "ĠH": 324,
      "Ġnot": 325,
      "Ġat": 326,
      "ich": 327,
      "ave": 328,
      "ĠB": 329,
      "od": 330,
      "ĠThe": 331,
      "Ġby": 332,
      "ation": 333,
      "ess": 334,
      "ul": 335,
      "rom": 336,
      "ra": 337,
      "Ġsu": 338,
      "pe": 339,
      "Ġse": 340,
      "ore": 341,
      "ould": 342,
      "ke": 343,
      "Ġ1": 344,
      "ge": 345,
      "ol": 346,
      "Ġde": 347,
      "us": 348,
      "--": 349,
      "ĠP": 350,
      "red": 351,
      "Ġor": 352,
      "Ġhad": 353,
      "Ġsh": 354,
      "Ġcon": 355,
      "Ġwhich": 356,
      "qu": 357,
      "her": 358,
      "res": 359,
      "est": 360,
      "'s": 361,
      "Ġ\"": 362,
      "ac": 363,
      "ĠW": 364,
      "ab": 365,
      "Ġme": 366,
      "Ġfrom": 367,
      "Ġv": 368,
      "ers": 369,
      "ant": 370,
      "ist": 371,
      "Ġhave": 372,
      "Ġher": 373,
      "nt": 374,
      "Ġex": 375,
      "Ġso": 376,
      "um": 377,
      "ome": 378,
      "ĠG": 379,
      "os": 380,
      "em": 381,
      "ous": 382,
      "ĠL": 383,
      "ard": 384,
      "Ġall": 385,
      "Ġthis": 386,
      "âĢ": 387,
      "Ġare": 388,
      "li": 389,
      "ate": 390,
      "pp": 391,
      "Ġhim": 392,
      "ĠĠĠ": 393,
      "to": 394,
      "Ġbut": 395,
      "ĠF": 396,
      "our": 397,
      "Ġne": 398,
      "art": 399,
      "ust": 400,
      "Ġr": 401,
      "ĠE": 402,
      "ĠD": 403,
      "Ġk": 404,
      "Ġthey": 405,
      "Ġch": 406,
      "Ġwere": 407,
      "ast": 408,
      "iv": 409,
      "Ġwhe": 410,
      "Ġwho": 411,
      "un": 412,
      "ight": 413,
      "el": 414,
      "Ġtheir": 415,
      "ong": 416,
      "Ġup": 417,
      "ĠR": 418,
      "The": 419,
      "ity": 420,
      "Ġmy": 421,
      "ig": 422,
      "Ġcom": 423,
      "ĠO": 424,
      "Ġsa": 425,
      "pt": 426,
      "ive": 427,
      "Ġman": 428,
      ".\"": 429,
      "Ġpro": 430,
      "ĠN": 431,
      "ind": 432,
      "ort": 433,
      "ame": 434,
      "ound": 435,
      "very": 436,
      "Ġone": 437,
      "ie": 438,
      "ies": 439,
      "Ġal": 440,
      "ure": 441,
      "Ġdo": 442,
      "Ġthem": 443,
      "out": 444,
      "Ġshe": 445,
      "op": 446,
      "ak": 447,
      "Ġ_": 448,
      "ord": 449,
      "Ġgo": 450,
      "ther": 451,
      "ect": 452,
      "av": 453,
      "ost": 454,
      "te": 455,
      "ĠJ": 456,
      "reat": 457,
      "of": 458,
      "ok": 459,
      "Ġno": 460,
      "Ġab": 461,
      "ment": 462,
      "ry": 463,
      "ough": 464,
      "sel": 465,
      "Ġle": 466,
      "ĠĠĠĠĠĠĠĠĠĠĠĠĠĠĠĠ": 467,
      "ag": 468,
      "ci": 469,
      "ap": 470,
      "one": 471,
      "Ġ2": 472,
      "ine": 473,
      "Ġbeen": 474,
      "own": 475,
      "ose": 476,
      "Ġfe": 477,
      "Ġpl": 478,
      "ĠâĢ": 479,
      "Ġwill": 480,
      "ish": 481,
      "Ġthere": 482,
      "Ġlo": 483,
      ",\"": 484,
      "ne": 485,
      "ance": 486,
      "ence": 487,
      "ff": 488,
      "Ġar": 489,
      "ud": 490,
      "we": 491,
      "cc": 492,
      "ass": 493,
      "Ġ(": 494,
      "ond": 495,
      "ide": 496,
      "Ġ;": 497,
      "ck": 498,
      "Ġwould": 499,
      "are": 500,
      "Ġj": 501,
      "itt": 502,
      "able": 503,
      "ĠHe": 504,
      "au": 505,
      "Ġtr": 506,
      "hed": 507,
      "ace": 508,
      "per": 509,
      "Ġout": 510,
      "ice": 511,
      "ions": 512,
      "Ġun": 513,
      "ake": 514,
      "ount": 515,
      "Ġwor": 516,
      "Ġsaid": 517,
      "Ġwhen": 518,
      "ime": 519,
      "Ġmore": 520,
      "Ġsp": 521,
      "Ġhas": 522,
      "Ġother": 523,
      "Ġqu": 524,
      "ĠâĢĶ": 525,
      "ary": 526,
      "Ġad": 527,
      "ib": 528,
      "ally": 529,
      "ans": 530,
      "lo": 531,
      "be": 532,
      "ars": 533,
      "Ġcan": 534,
      "Ġim": 535,
      "ire": 536,
      "Ġag": 537,
      "ade": 538,
      "ĠTh": 539,
      "Ġus": 540,
      "Ġits": 541,
      "Ġour": 542,
      "ack": 543,
      "ree": 544,
      "ue": 545,
      "Ġany": 546,
      "Ġen": 547,
      "ated": 548,
      "Ġkn": 549,
      "Ġdis": 550,
      "self": 551,
      "Ġsome": 552,
      "Ġgr": 553,
      "nder": 554,
      "age": 555,
      "ven": 556,
      "Ġinto": 557,
      "Ġtw": 558,
      "ress": 559,
      "Ġif": 560,
      "ep": 561,
      "fore": 562,
      "ng": 563,
      "ĠIt": 564,
      "Ġam": 565,
      "ite": 566,
      "ings": 567,
      "Ġli": 568,
      "Ġthan": 569,
      "Ġper": 570,
      "ays": 571,
      "ach": 572,
      "fter": 573,
      "ber": 574,
      "pl": 575,
      "Ġcl": 576,
      "fe": 577,
      "Ġpr": 578,
      "other": 579,
      "Ġro": 580,
      "urn": 581,
      "Ġbr": 582,
      "wn": 583,
      "act": 584,
      "Ġgreat": 585,
      "oll": 586,
      "Ġ3": 587,
      "ĠCh": 588,
      "ious": 589,
      "Ġtime": 590,
      "ile": 591,
      "Ġpart": 592,
      "Ġupon": 593,
      "Ġyour": 594,
      "Ġmay": 595,
      "ru": 596,
      "Ġvery": 597,
      "Ġwhat": 598,
      "ought": 599,
      "tain": 600,
      "Ġ'": 601,
      "Ġye": 602,
      "ath": 603,
      "Ġpre": 604,
      "cl": 605,
      "ved": 606,
      "ife": 607,
      "uch": 608,
      "ang": 609,
      "ood": 610,
      "bl": 611,
      "Ġcould": 612,
      "ty": 613,
      "for": 614,
      "ĠV": 615,
      "Ġte": 616,
      "Ġonly": 617,
      "irst": 618,
      "wh": 619,
      "ons": 620,
      "ful": 621,
      "ick": 622,
      "Ġbo": 623,
      "ĠIn": 624,
      "ĠSt": 625,
      "ild": 626,
      "ren": 627,
      "Ġpe": 628,
      "ign": 629,
      "ia": 630,
      "'t": 631,
      "..": 632,
      "ark": 633,
      "Ġnow": 634,
      "Ġover": 635,
      "ittle": 636,
      "Ġthen": 637,
      "ise": 638,
      "ness": 639,
      "ĠĠĠĠĠ": 640,
      "ull": 641,
      "so": 642,
      "Ġshould": 643,
      "ip": 644,
      "int": 645,
      "00": 646,
      "ory": 647,
      "hing": 648,
      "Ġpo": 649,
      "ĠMr": 650,
      "ather": 651,
      "Ġmade": 652,
      "ian": 653,
      "Ġthese": 654,
      "Ġtwo": 655,
      "Ġlike": 656,
      "Ġabout": 657,
      "Ġknow": 658,
      "ink": 659,
      "ces": 660,
      "ward": 661,
      "ĠK": 662,
      "Ġres": 663,
      "ove": 664,
      "man": 665,
      "Ġdes": 666,
      "Ġafter": 667,
      "ĠAnd": 668,
      "Ġsuch": 669,
      "Ġri": 670,
      "ĠY": 671,
      "de": 672,
      "ition": 673,
      "Ġagain": 674,
      "iz": 675,
      "ens": 676,
      "Ġthr": 677,
      "ER": 678,
      "ft": 679,
      "Ġunder": 680,
      "Ġdid": 681,
      "Ġob": 682,
      "Ġ18": 683,
      "air": 684,
      "Ġrem": 685,
      "Ġoff": 686,
      "Ġsee": 687,
      "old": 688,
      "iss": 689,
      "ations": 690,
      "Ġhand": 691,
      "mer": 692,
      "Ġlittle": 693,
      "orn": 694,
      "aw": 695,
      "Ġfirst": 696,
      "hen": 697,
      "land": 698,
      "ĠBut": 699,
      "ical": 700,
      "Ġcomp": 701,
      "ater": 702,
      "oss": 703,
      "Ġ4": 704,
      "Ġcont": 705,
      "sh": 706,
      "ult": 707,
      "Ġmust": 708,
      "ener": 709,
      "Ġbl": 710,
      "Ġspe": 711,
      "Ġgood": 712,
      "Ġhow": 713,
      "Ġ|": 714,
      "Ġbefore": 715,
      "Ġcomm": 716,
      "----": 717,
      "ied": 718,
      "ict": 719,
      "Ġimp": 720,
      "Ġmost": 721,
      "Ġlong": 722,
      "Ġwhere": 723,
      "Ġevery": 724,
      "?\"": 725,
      "end": 726,
      "Ġfl": 727,
      "ced": 728,
      "ction": 729,
      "ors": 730,
      "Ġmen": 731,
      "Ġsc": 732,
      "Ġcons": 733,
      "hes": 734,
      "Ġacc": 735,
      "not": 736,
      "Ġmuch": 737,
      "Ġbec": 738,
      "hat": 739,
      "ase": 740,
      "og": 741,
      "Ġrep": 742,
      "HE": 743,
      "Ġbet": 744,
      "ily": 745,
      "Ġthose": 746,
      "Ġown": 747,
      "Ġra": 748,
      "Ġwell": 749,
      "ves": 750,
      "Ġsm": 751,
      "ph": 752,
      "resent": 753,
      "_,": 754,
      "led": 755,
      "oth": 756,
      "Ġshall": 757,
      "Ġday": 758,
      "ject": 759,
      "les": 760,
      "rit": 761,
      "Ġwork": 762,
      "Ġlook": 763,
      "Ġdown": 764,
      "Ġapp": 765,
      "ble": 766,
      "igh": 767,
      "that": 768,
      "And": 769,
      "Ġbeing": 770,
      "Ġold": 771,
      "ady": 772,
      "ouse": 773,
      "ower": 774,
      "Ġlife": 775,
      "ates": 776,
      "ial": 777,
      "way": 778,
      "ON": 779,
      "Ġeven": 780,
      "Ġap": 781,
      "Ġmany": 782,
      "ĠU": 783,
      "app": 784,
      "Ġthrough": 785,
      "Ġpass": 786,
      "Ġ.": 787,
      "Ġcall": 788,
      "Ġsame": 789,
      "ause": 790,
      "ran": 791,
      "Ġ5": 792,
      "Ġsub": 793,
      "du": 794,
      "Ġent": 795,
      "Ġnever": 796,
      "Ġear": 797,
      "ail": 798,
      "Ġsay": 799,
      ".,": 800,
      "ix": 801,
      "ents": 802,
      "Ġfound": 803,
      "pect": 804,
      "erv": 805,
      "ople": 806,
      "Ġco": 807,
      "med": 808,
      "'d": 809,
      "lie": 810,
      "Ġcount": 811,
      "less": 812,
      "con": 813,
      "Ġhere": 814,
      "ished": 815,
      "ple": 816,
      "Ġway": 817,
      "ible": 818,
      "Ġatt": 819,
      "atter": 820,
      "ĠGod": 821,
      "Ġdist": 822,
      "Ġmight": 823,
      "oy": 824,
      "uth": 825,
      "ĠĠĠĠĠĠ": 826,
      "ell": 827,
      "with": 828,
      "Ġmake": 829,
      "up": 830,
      "ex": 831,
      "ollow": 832,
      "Ġgl": 833,
      "ual": 834,
      "Ġlet": 835,
      "his": 836,
      "._": 837,
      "ms": 838,
      "cess": 839,
      "und": 840,
      "Ġseem": 841,
      "ried": 842,
      "ew": 843,
      "ited": 844,
      "!\"": 845,
      "Ġcome": 846,
      "ret": 847,
      "Ġcame": 848,
      "Ġthink": 849,
      "Ġem": 850,
      "com": 851,
      "Ġchar": 852,
      "Ġey": 853,
      "gin": 854,
      "Ġwithout": 855,
      "ever": 856,
      "ii": 857,
      "âĶ": 858,
      "Ġend": 859,
      "ared": 860,
      "Ġnat": 861,
      "its": 862,
      "Ġ*": 863,
      "Ġfar": 864,
      "IN": 865,
      "Ġtoo": 866,
      "Ġjust": 867,
      "riend": 868,
      "Ġback": 869,
      "Ġac": 870,
      "Ġop": 871,
      "Ġthought": 872,
      "Ġalso": 873,
      "Ġhimself": 874,
      "Ġword": 875,
      "vers": 876,
      "row": 877,
      "su": 878,
      "me": 879,
      "ince": 880,
      "aving": 881,
      "Ġyears": 882,
      "Ġ6": 883,
      "Ġdif": 884,
      "ular": 885,
      "Ġpeople": 886,
      "ertain": 887,
      "ted": 888,
      "Ġlast": 889,
      "Ġ!": 890,
      "Ġplace": 891,
      "get": 892,
      "ĠThis": 893,
      "Ġ:": 894,
      "here": 895,
      "rest": 896,
      "omet": 897,
      "Ġinte": 898,
      "Ġinst": 899,
      "Ġke": 900,
      "aking": 901,
      "Ġreg": 902,
      "ks": 903,
      "rist": 904,
      "Ġright": 905,
      "He": 906,
      "Ġsupp": 907,
      "Ġcar": 908,
      "Ġsec": 909,
      "cept": 910,
      "Ġappe": 911,
      "It": 912,
      "Ġnew": 913,
      "gg": 914,
      "ss": 915,
      "Ġret": 916,
      "ened": 917,
      "AN": 918,
      "der": 919,
      "Ġexp": 920,
      "imes": 921,
      "Ġfollow": 922,
      "ered": 923,
      "Ġstill": 924,
      "ubl": 925,
      "Ġstr": 926,
      "cy": 927,
      "ale": 928,
      "Ġpers": 929,
      "hy": 930,
      "In": 931,
      "ĠThey": 932,
      "ES": 933,
      "Ġgiv": 934,
      "ope": 935,
      "was": 936,
      "oh": 937,
      "ĠEng": 938,
      "Ġwar": 939,
      "vent": 940,
      "Ġact": 941,
      "ither": 942,
      "Ġwhile": 943,
      "ked": 944,
      "Ġheart": 945,
      "ĠWe": 946,
      "ĠShe": 947,
      "ures": 948,
      "Ġset": 949,
      "Ġhead": 950,
      "ract": 951,
      "ween": 952,
      "over": 953,
      "ton": 954,
      "ning": 955,
      "Ġcour": 956,
      "ts": 957,
      "Ġgener": 958,
      "ner": 959,
      "but": 960,
      "by": 961,
      "aid": 962,
      "Ġtake": 963,
      "EN": 964,
      "Ġrec": 965,
      "Ġeach": 966,
      "Ġthree": 967,
      "Ġsl": 968,
      "Ġnor": 969,
      "Ġyet": 970,
      "ently": 971,
      "ody": 972,
      "Ġfriend": 973,
      "ined": 974,
      "ten": 975,
      "Ġpur": 976,
      "ters": 977,
      "Ġworld": 978,
      "OR": 979,
      "Ġwr": 980,
      "Ġever": 981,
      "ool": 982,
      "Ġpresent": 983,
      "Ġsur": 984,
      "ec": 985,
      "Ġlove": 986,
      "als": 987,
      "Ġchild": 988,
      "Ġaway": 989,
      "ants": 990,
      "ĠTHE": 991,
      "AR": 992,
      "ont": 993,
      "Ġturn": 994,
      "most": 995,
      "ffect": 996,
      "Ġind": 997,
      "Ġ7": 998,
      "light": 999,
      "ments": 1000,
      "Ġlar": 1001,
      "Ġposs": 1002,
      "osed": 1003,
      "aut": 1004,
      "Ġocc": 1005,
      "cri": 1006,
      "fl": 1007,
      "Ġget": 1008,
      "Ġ17": 1009,
      "Ġunt": 1010,
      "ways": 1011,
      "II": 1012,
      "pr": 1013,
      "ĠĠĠĠĠĠĠ": 1014,
      "att": 1015,
      "ived": 1016,
      "ĠOF": 1017,
      "Ġwom": 1018,
      "any": 1019,
      "Ġfind": 1020,
      "Ġ?": 1021,
      "outh": 1022,
      "Ġmar": 1023,
      "Ġmind": 1024,
      "ps": 1025,
      "Ġwent": 1026,
      "Ġyoung": 1027,
      "Ġ8": 1028,
      "Ġagainst": 1029,
      "ier": 1030,
      "ob": 1031,
      "eth": 1032,
      "Ġput": 1033,
      "ired": 1034,
      "men": 1035,
      "ities": 1036,
      "But": 1037,
      "apt": 1038,
      "oc": 1039,
      "Ġinc": 1040,
      "alf": 1041,
      "aken": 1042,
      "Ġev": 1043,
      "Ġnear": 1044,
      "Ġlight": 1045,
      "gan": 1046,
      "Ġthough": 1047,
      "Ġfew": 1048,
      "Ġleft": 1049,
      "ason": 1050,
      "Ġanother": 1051,
      "ating": 1052,
      "Ġbetween": 1053,
      "Ġhouse": 1054,
      "Ġgive": 1055,
      "ene": 1056,
      "ĠRe": 1057,
      "ged": 1058,
      "ins": 1059,
      "Ġple": 1060,
      "Ġcountry": 1061,
      "Ġter": 1062,
      "Ġname": 1063,
      "oun": 1064,
      "ĠThere": 1065,
      "Ġass": 1066,
      "which": 1067,
      "uring": 1068,
      "rent": 1069,
      "Ġ-": 1070,
      "my": 1071,
      "ised": 1072,
      "Ġ[": 1073,
      "Ġcalled": 1074,
      "ution": 1075,
      "Ġeyes": 1076,
      "Ġland": 1077,
      "ting": 1078,
      "Ġkind": 1079,
      "ows": 1080,
      "Ġread": 1081,
      "Ġstre": 1082,
      "Ġnight": 1083,
      "),": 1084,
      "ohn": 1085,
      "Ġrest": 1086,
      "den": 1087,
      "Ġform": 1088,
      "selves": 1089,
      "Ġonce": 1090,
      "Ġadd": 1091,
      "ield": 1092,
      "oot": 1093,
      "ĠAs": 1094,
      "Ġpower": 1095,
      "Ġnum": 1096,
      "Ġsomet": 1097,
      "iness": 1098,
      "urch": 1099,
      "Ġwater": 1100,
      "ĠĠĠĠĠĠĠĠĠĠĠĠĠĠĠĠĠĠĠĠĠĠĠĠ": 1101,
      "Ġmin": 1102,
      "ĠChrist": 1103,
      "ern": 1104,
      "lish": 1105,
      "Ġinter": 1106,
      "Ġgu": 1107,
      "read": 1108,
      "Ġwhole": 1109,
      "Ġbu": 1110,
      "Ġtell": 1111,
      "Ġconf": 1112,
      "Ġsmall": 1113,
      "ross": 1114,
      "mon": 1115,
      "ains": 1116,
      "rew": 1117,
      "ĠHis": 1118,
      "tend": 1119,
      "Ġhum": 1120,
      "ety": 1121,
      "Ġmon": 1122,
      "AT": 1123,
      "Ġamong": 1124,
      "Ġboth": 1125,
      "Ġside": 1126,
      "ublic": 1127,
      "ute": 1128,
      "Ġext": 1129,
      "ully": 1130,
      "gr": 1131,
      "ls": 1132,
      "amp": 1133,
      "Ġthings": 1134,
      "aps": 1135,
      "az": 1136,
      "Ġpoint": 1137,
      "ĠAn": 1138,
      "Ġref": 1139,
      "ĠIf": 1140,
      "âĶĢ": 1141,
      "Ġlaw": 1142,
      "pro": 1143,
      "aster": 1144,
      "Ġcond": 1145,
      "Ġfact": 1146,
      "alk": 1147,
      "Ġnothing": 1148,
      "ĠSe": 1149,
      "thing": 1150,
      "ines": 1151,
      "Ġart": 1152,
      "Ġhapp": 1153,
      "Ġdisc": 1154,
      "ub": 1155,
      "ider": 1156,
      "Ġalways": 1157,
      "xt": 1158,
      "Ġbelie": 1159,
      "Ġcol": 1160,
      "Ġi": 1161,
      "ific": 1162,
      "Ġfam": 1163,
      "Ġest": 1164,
      "ians": 1165,
      "ident": 1166,
      "new": 1167,
      "Ġsent": 1168,
      "ug": 1169,
      "ĠAr": 1170,
      "Ġins": 1171,
      "lect": 1172,
      "Ġcr": 1173,
      "Ġless": 1174,
      "ĠTo": 1175,
      "ained": 1176,
      "ĠFor": 1177,
      "Ġlarge": 1178,
      "Ġcertain": 1179,
      "Ġface": 1180,
      "ird": 1181,
      "Ġreturn": 1182,
      "Ġfeel": 1183,
      "Ġhaving": 1184,
      "ives": 1185,
      "Ġtook": 1186,
      "ock": 1187,
      "ched": 1188,
      "Ġser": 1189,
      "right": 1190,
      "IS": 1191,
      "Ġadv": 1192,
      "Ġ9": 1193,
      "Ġsy": 1194,
      "Ġsaw": 1195,
      "wards": 1196,
      "ote": 1197,
      "Ġtri": 1198,
      "Ġwhom": 1199,
      "Ġfather": 1200,
      "Ġuse": 1201,
      "ĠLord": 1202,
      "Ġsoon": 1203,
      "ah": 1204,
      "AL": 1205,
      "Ġwant": 1206,
      "Ġhigh": 1207,
      "âĢĶ": 1208,
      "osition": 1209,
      "ately": 1210,
      "fic": 1211,
      "Ġcare": 1212,
      "ceed": 1213,
      "ably": 1214,
      "Ġcle": 1215,
      ".'": 1216,
      "arn": 1217,
      "ĠUn": 1218,
      "Ġint": 1219,
      "irit": 1220,
      "ages": 1221,
      "ĠDe": 1222,
      "ĠYou": 1223,
      "Ġmil": 1224,
      "Ġ19": 1225,
      "ĠInd": 1226,
      "Ġfore": 1227,
      "ury": 1228,
      "âĶĢâĶĢ": 1229,
      "'ll": 1230,
      "Ġ16": 1231,
      "ling": 1232,
      "ude": 1233,
      "Ġbest": 1234,
      "Ġseen": 1235,
      "Ġhome": 1236,
      "ĠNew": 1237,
      "br": 1238,
      "ison": 1239,
      "18": 1240,
      "ention": 1241,
      "iew": 1242,
      "ys": 1243,
      "Ġdays": 1244,
      "ative": 1245,
      "now": 1246,
      "Ġrece": 1247,
      "ĠJohn": 1248,
      "Ġyear": 1249,
      "Ġbecause": 1250,
      "augh": 1251,
      "Ġthing": 1252,
      "Ġfour": 1253,
      "gether": 1254,
      "Ġdone": 1255,
      "Ġstand": 1256,
      "Ġgiven": 1257,
      "riv": 1258,
      "ĠCom": 1259,
      "Ġhands": 1260,
      "ense": 1261,
      "ĠAt": 1262,
      "form": 1263,
      "akes": 1264,
      "Ġsk": 1265,
      "ork": 1266,
      "Ġdra": 1267,
      "Ġhalf": 1268,
      "CH": 1269,
      "Ġhour": 1270,
      "ank": 1271,
      "ĠNo": 1272,
      "ery": 1273,
      "Ġthy": 1274,
      "oub": 1275,
      "Ġcent": 1276,
      "ĠAl": 1277,
      "lig": 1278,
      "vel": 1279,
      "Ġsim": 1280,
      "ĠMar": 1281,
      "irc": 1282,
      "meric": 1283,
      "Ġcur": 1284,
      "Ġdeath": 1285,
      "Ġche": 1286,
      "ism": 1287,
      "unt": 1288,
      "ief": 1289,
      "Ġ15": 1290,
      "Ġsuff": 1291,
      "aring": 1292,
      "Ġdep": 1293,
      "ĠWh": 1294,
      "Ġsou": 1295,
      "Ġ10": 1296,
      "ches": 1297,
      "Ġprop": 1298,
      "Ġhowever": 1299,
      "ually": 1300,
      "TER": 1301,
      "Ġdoes": 1302,
      "ets": 1303,
      "fect": 1304,
      "Ġfell": 1305,
      "ances": 1306,
      "Ġserv": 1307,
      "Ġed": 1308,
      ".)": 1309,
      "Ġmom": 1310,
      "eter": 1311,
      "Ġdire": 1312,
      "ided": 1313,
      "Ġcourse": 1314,
      "Ġinterest": 1315,
      "oint": 1316,
      "ung": 1317,
      "Ġsw": 1318,
      "Ġtaken": 1319,
      "Ġwhose": 1320,
      "ĠÂ": 1321,
      "oice": 1322,
      "Ġmo": 1323,
      "Ġinde": 1324,
      "Ġdon": 1325,
      "Ġste": 1326,
      "Ġmatter": 1327,
      "owed": 1328,
      "ides": 1329,
      "Ġvis": 1330,
      "Ġcor": 1331,
      "ient": 1332,
      "acter": 1333,
      "Ġfa": 1334,
      "Ġbro": 1335,
      "ĠWhen": 1336,
      "Ġdiffe": 1337,
      "pend": 1338,
      "Ġperson": 1339,
      "Ġes": 1340,
      "Ġrel": 1341,
      "ĠSp": 1342,
      "Ġpleas": 1343,
      "inci": 1344,
      "Ġadm": 1345,
      "Ġconst": 1346,
      "Ġans": 1347,
      "Ġbetter": 1348,
      "ook": 1349,
      "oud": 1350,
      "Ġhard": 1351,
      "day": 1352,
      "âĢĻ": 1353,
      "ĠPr": 1354,
      "Ġtre": 1355,
      "ames": 1356,
      "Ġfr": 1357,
      "Ġswe": 1358,
      "Ġcontin": 1359,
      "ert": 1360,
      "Ġheav": 1361,
      "eng": 1362,
      "uthor": 1363,
      "undred": 1364,
      "Ġinv": 1365,
      "Ġsil": 1366,
      "Ġsat": 1367,
      "Ġwords": 1368,
      "Ġbeaut": 1369,
      "Ġmem": 1370,
      "elt": 1371,
      "Ġpres": 1372,
      "ange": 1373,
      "Ġbre": 1374,
      "Ġuntil": 1375,
      "atch": 1376,
      "Ġopp": 1377,
      "bed": 1378,
      "Ġothers": 1379,
      "You": 1380,
      "Ġtold": 1381,
      "Ġwind": 1382,
      "rence": 1383,
      "hil": 1384,
      "Ġorder": 1385,
      "sp": 1386,
      "ration": 1387,
      "ĠBe": 1388,
      "ĠSo": 1389,
      "you": 1390,
      "haps": 1391,
      "empt": 1392,
      "Ġthus": 1393,
      "ĠThat": 1394,
      "Ġsubject": 1395,
      "ĠOn": 1396,
      "aim": 1397,
      "Ġheard": 1398,
      ".]": 1399,
      "chool": 1400,
      "ured": 1401,
      "ature": 1402,
      "estion": 1403,
      "ĠWhat": 1404,
      "lied": 1405,
      "ural": 1406,
      "stand": 1407,
      "Ġfeet": 1408,
      "no": 1409,
      "Ġhon": 1410,
      "from": 1411,
      "Ġcannot": 1412,
      "ĠIs": 1413,
      "Ġalmost": 1414,
      "Ġ12": 1415,
      "--------": 1416,
      "Ġdec": 1417,
      "pped": 1418,
      "son": 1419,
      "tern": 1420,
      "Ġroom": 1421,
      "Th": 1422,
      "io": 1423,
      "Ġ&": 1424,
      "ĠCon": 1425,
      "Ġfull": 1426,
      "ering": 1427,
      "Ġabove": 1428,
      ").": 1429,
      "ric": 1430,
      "Ġmother": 1431,
      "Ġplac": 1432,
      "Ġused": 1433,
      "To": 1434,
      "Ġking": 1435,
      "Ġnecess": 1436,
      "Ġopen": 1437,
      "ĠQ": 1438,
      "ĠMrs": 1439,
      "Ġtrue": 1440,
      "use": 1441,
      "ax": 1442,
      "We": 1443,
      "Ġsince": 1444,
      "AP": 1445,
      "Ġpol": 1446,
      "ĠĠĠĠĠĠĠĠĠĠĠĠĠĠĠĠĠĠĠĠĠĠĠĠĠĠĠĠĠĠĠĠ": 1447,
      "Ġkeep": 1448,
      "Ġneed": 1449,
      "Ġfall": 1450,
      "Ġmoment": 1451,
      "ash": 1452,
      "orning": 1453,
      "ized": 1454,
      "Ġvar": 1455,
      "Ġgave": 1456,
      "iam": 1457,
      "ility": 1458,
      "Ġbook": 1459,
      "ĠAmeric": 1460,
      "Ġtown": 1461,
      "vern": 1462,
      "ĠLe": 1463,
      "par": 1464,
      "Ġgot": 1465,
      "uc": 1466,
      "Ġprodu": 1467,
      "IT": 1468,
      "Ã©": 1469,
      "ressed": 1470,
      "ĠX": 1471,
      "Ġbrought": 1472,
      "Ġdiv": 1473,
      "Ġel": 1474,
      "had": 1475,
      "Ġseemed": 1476,
      "Ġobs": 1477,
      "_.": 1478,
      "Ġmod": 1479,
      "fully": 1480,
      "used": 1481,
      "ott": 1482,
      "oney": 1483,
      "peri": 1484,
      "Ch": 1485,
      "Ġsun": 1486,
      "fort": 1487,
      "Ġtra": 1488,
      "10": 1489,
      "Mr": 1490,
      "Ġpar": 1491,
      "Ġgoing": 1492,
      "ĠNor": 1493,
      "Ġprom": 1494,
      "Ġcase": 1495,
      "Ġill": 1496,
      "Ġthou": 1497,
      "Ġhor": 1498,
      "Ġaff": 1499,
      "ccess": 1500,
      "Ġthemselves": 1501,
      "Ġwoman": 1502,
      "Ġbus": 1503,
      "Ġknew": 1504,
      "ached": 1505,
      "cial": 1506,
      "Ġfin": 1507,
      "ape": 1508,
      "Ġbel": 1509,
      "Ġenough": 1510,
      "Ġearth": 1511,
      "Ġlooked": 1512,
      "Ġhundred": 1513,
      "entle": 1514,
      "Ġknown": 1515,
      "Ġblo": 1516,
      "well": 1517,
      "Ġasked": 1518,
      "Ġoften": 1519,
      "Ġtrans": 1520,
      "ality": 1521,
      "aj": 1522,
      "Ġprov": 1523,
      "âĢĿ": 1524,
      "Ġbody": 1525,
      "aint": 1526,
      "ying": 1527,
      "ards": 1528,
      "Ġgir": 1529,
      "enty": 1530,
      "rench": 1531,
      "veral": 1532,
      "ship": 1533,
      "tr": 1534,
      "ists": 1535,
      "Ġwhite": 1536,
      "Ġgeneral": 1537,
      "une": 1538,
      "Ġbeh": 1539,
      "Ġmean": 1540,
      "IC": 1541,
      "alth": 1542,
      "Ġquite": 1543,
      "RE": 1544,
      "ius": 1545,
      "Ġrequ": 1546,
      "Ġdark": 1547,
      "ND": 1548,
      "oke": 1549,
      "ĠEnglish": 1550,
      "Ġnature": 1551,
      "Ġpublic": 1552,
      "ister": 1553,
      "000": 1554,
      "Ġcirc": 1555,
      "Ġnext": 1556,
      "Ġconsider": 1557,
      "range": 1558,
      "Ġproper": 1559,
      "Ġide": 1560,
      "Ġround": 1561,
      "ĠThen": 1562,
      "Ġequ": 1563,
      "Ġstate": 1564,
      "ION": 1565,
      "Ġhel": 1566,
      "itted": 1567,
      "Ġsing": 1568,
      "uss": 1569,
      "Ġdoub": 1570,
      "Ġstrong": 1571,
      "Ġsix": 1572,
      ",'": 1573,
      "Ġsecond": 1574,
      "Ġmeans": 1575,
      "Ġreason": 1576,
      "Ġ^": 1577,
      "Ġnumber": 1578,
      "Ġspirit": 1579,
      "ane": 1580,
      "LE": 1581,
      "Ġmeet": 1582,
      "ices": 1583,
      "Ġdr": 1584,
      "Ġmet": 1585,
      "Ġcharacter": 1586,
      "ving": 1587,
      "Ġair": 1588,
      "Ġeffect": 1589,
      "Ġmer": 1590,
      "ission": 1591,
      "ĠSir": 1592,
      "ĠPro": 1593,
      "ring": 1594,
      "Ġtill": 1595,
      "ination": 1596,
      "cul": 1597,
      "bers": 1598,
      "Ġwithin": 1599,
      "This": 1600,
      "have": 1601,
      "Ġ14": 1602,
      "THE": 1603,
      "Ġobject": 1604,
      "That": 1605,
      "Ġele": 1606,
      "ousand": 1607,
      "Ġson": 1608,
      "ĠSh": 1609,
      "Ġauthor": 1610,
      "Ġduring": 1611,
      "What": 1612,
      "Ġ13": 1613,
      "Ġwa": 1614,
      "Ġground": 1615,
      "Ġrather": 1616,
      "idence": 1617,
      "him": 1618,
      "Ġsomething": 1619,
      "No": 1620,
      "Ġhist": 1621,
      "There": 1622,
      "illed": 1623,
      "ready": 1624,
      "....": 1625,
      "Ġinf": 1626,
      "Ġtogether": 1627,
      "Ġsays": 1628,
      "Ġdoor": 1629,
      "Ġpoor": 1630,
      "Ġcommon": 1631,
      "ĠKing": 1632,
      "Ġlead": 1633,
      "Ġmorning": 1634,
      "Ġchildren": 1635,
      "ann": 1636,
      "ey": 1637,
      "Ġgovern": 1638,
      "Ġ=": 1639,
      "čĊ": 1640,
      "Ġview": 1641,
      "like": 1642,
      "Ġhold": 1643,
      "Ġshort": 1644,
      "12": 1645,
      "Ġhuman": 1646,
      "Ġtimes": 1647,
      "ased": 1648,
      "aves": 1649,
      "Ġfire": 1650,
      "ats": 1651,
      "Ġet": 1652,
      "Ġimport": 1653,
      "Ġseveral": 1654,
      "ĠCl": 1655,
      "overed": 1656,
      "they": 1657,
      "Ġcity": 1658,
      "Ġpat": 1659,
      "que": 1660,
      "co": 1661,
      "Ġrun": 1662,
      "bs": 1663,
      "Ġval": 1664,
      "Ġhope": 1665,
      "Ġgra": 1666,
      "rie": 1667,
      "owing": 1668,
      "anger": 1669,
      "iving": 1670,
      "Ġprinci": 1671,
      "Ġsum": 1672,
      "ĠEngland": 1673,
      "Ġwrit": 1674,
      "eneral": 1675,
      "this": 1676,
      "ording": 1677,
      "Ġsign": 1678,
      "Ġlay": 1679,
      "Ġcap": 1680,
      "ĠAll": 1681,
      "uck": 1682,
      "Ġfree": 1683,
      "ĠWill": 1684,
      "Ġfre": 1685,
      "ases": 1686,
      "17": 1687,
      "che": 1688,
      "Ġappear": 1689,
      "ream": 1690,
      "Ġreal": 1691,
      "ĠBr": 1692,
      "Ġstud": 1693,
      "Ġtherefore": 1694,
      "ament": 1695,
      "Ġsure": 1696,
      "ics": 1697,
      "tained": 1698,
      "Ġce": 1699,
      "OU": 1700,
      "Ġspeak": 1701,
      "Ġplay": 1702,
      "Ġdev": 1703,
      "iet": 1704,
      "olog": 1705,
      "were": 1706,
      "Wh": 1707,
      "ges": 1708,
      "Ġrespect": 1709,
      "Ġalong": 1710,
      "ĠMiss": 1711,
      "15": 1712,
      "Ġvol": 1713,
      "ued": 1714,
      "Ġoffic": 1715,
      "Ġdeep": 1716,
      "Ġitself": 1717,
      "Ġfur": 1718,
      "As": 1719,
      "Ġeither": 1720,
      "ues": 1721,
      "Ġsuccess": 1722,
      "iful": 1723,
      "where": 1724,
      "ster": 1725,
      "Ġbegan": 1726,
      "Ġdifferent": 1727,
      "asion": 1728,
      "ĠHow": 1729,
      "Ġvoice": 1730,
      "Ġsea": 1731,
      "Ġtruth": 1732,
      "16": 1733,
      "Ġprof": 1734,
      "ING": 1735,
      "arch": 1736,
      "their": 1737,
      "Ġfelt": 1738,
      "ron": 1739,
      "Ġtem": 1740,
      "Ġpurp": 1741,
      "ley": 1742,
      "Ġpassed": 1743,
      "Ġten": 1744,
      "Ġline": 1745,
      "She": 1746,
      "Ġsle": 1747,
      "Ġclose": 1748,
      "wer": 1749,
      "Ġthee": 1750,
      "owers": 1751,
      "Ġaccount": 1752,
      "Ġwond": 1753,
      "Ġir": 1754,
      "itions": 1755,
      "gy": 1756,
      "Ġpartic": 1757,
      "cious": 1758,
      "Ġabs": 1759,
      "alt": 1760,
      "Ġleast": 1761,
      "rop": 1762,
      "cript": 1763,
      "ek": 1764,
      "Ġturned": 1765,
      "let": 1766,
      "Ġdirect": 1767,
      "ize": 1768,
      "ember": 1769,
      "though": 1770,
      "rance": 1771,
      "enn": 1772,
      "Ġport": 1773,
      "14": 1774,
      "fact": 1775,
      "Ġdoubt": 1776,
      "Ġru": 1777,
      "Ġwife": 1778,
      "ĠBy": 1779,
      "Ġheld": 1780,
      "Ġexam": 1781,
      "oly": 1782,
      "Ġgre": 1783,
      "Ġthousand": 1784,
      "Ġemp": 1785,
      "Ġbelieve": 1786,
      "Ġcommand": 1787,
      "ony": 1788,
      "rigin": 1789,
      "Ġconc": 1790,
      "Ġgentle": 1791,
      "Ġdear": 1792,
      "Ġquestion": 1793,
      "ĠFrench": 1794,
      "dom": 1795,
      "Ġalone": 1796,
      "iar": 1797,
      "ledge": 1798,
      "Ġeas": 1799,
      "Ġjud": 1800,
      "Ġpossess": 1801,
      "Ġmark": 1802,
      "Ġ20": 1803,
      "ĠCol": 1804,
      "what": 1805,
      "19": 1806,
      "ĠHer": 1807,
      "Ġfav": 1808,
      "Ġmount": 1809,
      "attle": 1810,
      "ĠStates": 1811,
      "them": 1812,
      "do": 1813,
      "Ġaw": 1814,
      "Ġca": 1815,
      "Ġfollowing": 1816,
      "cient": 1817,
      "ĠSc": 1818,
      "Ġsoul": 1819,
      "Ġdest": 1820,
      "ĠPar": 1821,
      "Ġdead": 1822,
      "Ġcoll": 1823,
      "overn": 1824,
      "Ġfair": 1825,
      "flu": 1826,
      "ole": 1827,
      "Ġsound": 1828,
      "Ġschool": 1829,
      "Ġhear": 1830,
      "iter": 1831,
      "When": 1832,
      "Ġdef": 1833,
      "ruct": 1834,
      "ger": 1835,
      "pre": 1836,
      "Ġmoney": 1837,
      "IL": 1838,
      "Ġpast": 1839,
      "St": 1840,
      "Ġstood": 1841,
      "ising": 1842,
      "13": 1843,
      "EL": 1844,
      "Ġbar": 1845,
      "iment": 1846,
      "orm": 1847,
      "Ġhelp": 1848,
      "Ġmyself": 1849,
      "Ġbecome": 1850,
      "ement": 1851,
      "Ġbegin": 1852,
      "there": 1853,
      "Ġmanner": 1854,
      "Ġwood": 1855,
      "ĠAND": 1856,
      "Ġmis": 1857,
      "arent": 1858,
      "ilt": 1859,
      "sequ": 1860,
      "Ġii": 1861,
      "oura": 1862,
      "Ġexpl": 1863,
      "Ġlive": 1864,
      "Ġindeed": 1865,
      "âĶĤ": 1866,
      "aught": 1867,
      "lled": 1868,
      "Ġbur": 1869,
      "min": 1870,
      "Ġperhaps": 1871,
      "ĠAd": 1872,
      "Ġfaith": 1873,
      "Ġpract": 1874,
      "Ġfive": 1875,
      "Ġalready": 1876,
      "reg": 1877,
      "'m": 1878,
      "yed": 1879,
      "Ġclear": 1880,
      "Ã¦": 1881,
      "Ġblack": 1882,
      "itude": 1883,
      "lf": 1884,
      "Ġdut": 1885,
      "mand": 1886,
      "Ġlab": 1887,
      "Ġcut": 1888,
      "ones": 1889,
      "Ġve": 1890,
      "ection": 1891,
      "Ġrelig": 1892,
      "ST": 1893,
      "ĠGer": 1894,
      "Ġchief": 1895,
      "Ġperfect": 1896,
      "ression": 1897,
      "vol": 1898,
      "Ġbring": 1899,
      "Ġorigin": 1900,
      "medi": 1901,
      "ified": 1902,
      "arm": 1903,
      "ĠWith": 1904,
      "Ġfort": 1905,
      "Ġcomple": 1906,
      "erved": 1907,
      "For": 1908,
      "els": 1909,
      "uct": 1910,
      "Ġut": 1911,
      "Ġflo": 1912,
      "Ġbecame": 1913,
      "ots": 1914,
      "ney": 1915,
      "ths": 1916,
      "ries": 1917,
      "Ġexcept": 1918,
      "Ġfamily": 1919,
      "Ġfriends": 1920,
      "Ġmiles": 1921,
      "Ġprob": 1922,
      "Ġsol": 1923,
      "cing": 1924,
      "Ġmus": 1925,
      "Ġlib": 1926,
      "ĠBrit": 1927,
      "port": 1928,
      "aptain": 1929,
      "Ġmid": 1930,
      "Ġleg": 1931,
      "Ġregard": 1932,
      "stem": 1933,
      "sem": 1934,
      "Ġdecl": 1935,
      "Ġleave": 1936,
      "she": 1937,
      "Ġeng": 1938,
      "ivers": 1939,
      "Ġship": 1940,
      "ear": 1941,
      "iver": 1942,
      "lic": 1943,
      "angu": 1944,
      "RO": 1945,
      "Ġsit": 1946,
      "Ġage": 1947,
      "wor": 1948,
      "Ġred": 1949,
      "Ġboy": 1950,
      "Ġremark": 1951,
      "APTER": 1952,
      "Ġfear": 1953,
      "under": 1954,
      "Ġearly": 1955,
      "ples": 1956,
      "orrow": 1957,
      "âĢľ": 1958,
      "rem": 1959,
      "ham": 1960,
      "Ġexist": 1961,
      "Ġgold": 1962,
      "Ġpain": 1963,
      "ĠGe": 1964,
      "aughter": 1965,
      "Ġord": 1966,
      "Ġcause": 1967,
      "ĠChar": 1968,
      "Ġpap": 1969,
      "Ġbrother": 1970,
      "ken": 1971,
      "abit": 1972,
      "wo": 1973,
      "irt": 1974,
      "ĠEd": 1975,
      "Ġresult": 1976,
      "ision": 1977,
      "Ġreceived": 1978,
      "ED": 1979,
      "Ġchurch": 1980,
      "Ġriver": 1981,
      "Ġtreat": 1982,
      "Ġwhether": 1983,
      "Ġaround": 1984,
      "Ġsold": 1985,
      "ored": 1986,
      "ences": 1987,
      "inter": 1988,
      "ze": 1989,
      "Ġlost": 1990,
      "oe": 1991,
      "Ġgirl": 1992,
      "iled": 1993,
      "ops": 1994,
      "ĠGr": 1995,
      "Ġgone": 1996,
      "Ġstart": 1997,
      "nded": 1998,
      "Ġletter": 1999,
      "llust": 2000,
      "tered": 2001,
      "iously": 2002,
      "Ġclass": 2003,
      "Ġx": 2004,
      "arr": 2005,
      "Ġdiffic": 2006,
      "pper": 2007,
      "Ġ25": 2008,
      "iod": 2009,
      "ĠMy": 2010,
      "airs": 2011,
      "Ġbed": 2012,
      "Ġexc": 2013,
      "ational": 2014,
      "ĠPl": 2015,
      "ĠDr": 2016,
      "Ġnecessary": 2017,
      "Ġanim": 2018,
      "af": 2019,
      "Ġpossible": 2020,
      "20": 2021,
      "Ġlearn": 2022,
      "Ġmain": 2023,
      "Ġexpect": 2024,
      "Ġseems": 2025,
      "go": 2026,
      "They": 2027,
      "dden": 2028,
      "iting": 2029,
      "Ġfine": 2030,
      "Ġmere": 2031,
      "An": 2032,
      "Ġwomen": 2033,
      "On": 2034,
      "'ve": 2035,
      "will": 2036,
      "val": 2037,
      "rying": 2038,
      "AM": 2039,
      "ounded": 2040,
      "Ġver": 2041,
      "mp": 2042,
      "ĠOr": 2043,
      "Ġwall": 2044,
      "inct": 2045,
      "Ġroad": 2046,
      "ils": 2047,
      "ENT": 2048,
      "Ġtwenty": 2049,
      "Ġlow": 2050,
      "Ġmaking": 2051,
      "Ġdisp": 2052,
      "ina": 2053,
      "Ġenem": 2054,
      "Ġappro": 2055,
      "âĸ": 2056,
      "side": 2057,
      "irm": 2058,
      "OL": 2059,
      "otion": 2060,
      "ead": 2061,
      "ondon": 2062,
      "If": 2063,
      "Ġbene": 2064,
      "ours": 2065,
      "mit": 2066,
      "Ġpray": 2067,
      "Ġable": 2068,
      "fer": 2069,
      "then": 2070,
      "oman": 2071,
      "ciety": 2072,
      "Ġanything": 2073,
      "itten": 2074,
      "ught": 2075,
      "ume": 2076,
      "Ġblood": 2077,
      "anged": 2078,
      "Ġsudden": 2079,
      "Ġaccom": 2080,
      "head": 2081,
      "king": 2082,
      "cons": 2083,
      "Ġshow": 2084,
      "ium": 2085,
      "cks": 2086,
      "...": 2087,
      "ĠOne": 2088,
      "Ġpeace": 2089,
      "dle": 2090,
      "Ġbusiness": 2091,
      "ength": 2092,
      "==": 2093,
      "str": 2094,
      "ouble": 2095,
      "Ġdet": 2096,
      "Ġkept": 2097,
      "inary": 2098,
      "âĸł": 2099,
      "Ġrepresent": 2100,
      "Ġhistory": 2101,
      "oral": 2102,
      "Ġstri": 2103,
      "ush": 2104,
      "bo": 2105,
      "Ġeye": 2106,
      "Ġdri": 2107,
      "band": 2108,
      "sc": 2109,
      "Ġherself": 2110,
      "would": 2111,
      "cially": 2112,
      "ency": 2113,
      "Ġsett": 2114,
      "Ġforce": 2115,
      "Ġfoot": 2116,
      "Ġwhy": 2117,
      "Ġmag": 2118,
      "Oh": 2119,
      "Ġwish": 2120,
      "ital": 2121,
      "who": 2122,
      "Ġpay": 2123,
      "Ġcal": 2124,
      "dis": 2125,
      "Ġentire": 2126,
      "Ġbuild": 2127,
      "Ġarm": 2128,
      "Ġworth": 2129,
      "Ġbes": 2130,
      "Ġeff": 2131,
      "Ġfig": 2132,
      "Ġfif": 2133,
      "Ġacqu": 2134,
      "ĠTr": 2135,
      ",--": 2136,
      "Ġmove": 2137,
      "Ġparticular": 2138,
      "ĠState": 2139,
      "ĠThese": 2140,
      "ĠâĶĤ": 2141,
      "antly": 2142,
      "Ġla": 2143,
      "Ġsense": 2144,
      "Ġperiod": 2145,
      "11": 2146,
      "Ġtalk": 2147,
      "ĠCar": 2148,
      "Ġcold": 2149,
      "Ġpurpose": 2150,
      "itution": 2151,
      "Ġprot": 2152,
      "ises": 2153,
      "rect": 2154,
      "Ġoccasion": 2155,
      "more": 2156,
      "cle": 2157,
      "Ġwild": 2158,
      "asure": 2159,
      "TH": 2160,
      "At": 2161,
      "Ġsweet": 2162,
      "uff": 2163,
      "Ġunderstand": 2164,
      "idge": 2165,
      "ior": 2166,
      "Ġpie": 2167,
      "Ġpop": 2168,
      "uly": 2169,
      "cies": 2170,
      "Ġincl": 2171,
      "yond": 2172,
      "orts": 2173,
      "Ġer": 2174,
      "Illust": 2175,
      "ounds": 2176,
      "come": 2177,
      "ĠChurch": 2178,
      "Then": 2179,
      "Ġtowards": 2180,
      "Ġformer": 2181,
      "Ġbehind": 2182,
      "bur": 2183,
      "bert": 2184,
      "atic": 2185,
      "ĠYork": 2186,
      "Ġinflu": 2187,
      "With": 2188,
      "Ġarms": 2189,
      "oes": 2190,
      "utes": 2191,
      "Ġ23": 2192,
      ".--": 2193,
      "Ġfield": 2194,
      "Ġsac": 2195,
      "Ġsometimes": 2196,
      "Ġcast": 2197,
      "Ġsight": 2198,
      "ills": 2199,
      "Ġbeautiful": 2200,
      "ĠOf": 2201,
      "ires": 2202,
      "Ġlater": 2203,
      "ĠĠĠĠĠĠĠĠĠ": 2204,
      "ivid": 2205,
      "ribut": 2206,
      "ĠEx": 2207,
      "inc": 2208,
      "ords": 2209,
      "Ġstru": 2210,
      "Ġelse": 2211,
      "orge": 2212,
      "Ġaccording": 2213,
      "Ġcoming": 2214,
      "Ġann": 2215,
      "Ġsystem": 2216,
      "Illustration": 2217,
      "ested": 2218,
      "Ġcross": 2219,
      "Ġpriv": 2220,
      "ler": 2221,
      "inion": 2222,
      "Ġnatural": 2223,
      "Ġav": 2224,
      "Ġnearly": 2225,
      "Ġhorse": 2226,
      "Ġparts": 2227,
      "oses": 2228,
      "ference": 2229,
      "Ġ24": 2230,
      "Ġfront": 2231,
      "Ġhig": 2232,
      "can": 2233,
      "Ġsir": 2234,
      "Ġfail": 2235,
      "Ġlady": 2236,
      "Ġposition": 2237,
      "Ġlim": 2238,
      "ĠCo": 2239,
      "ories": 2240,
      "ral": 2241,
      "night": 2242,
      "Ġ0": 2243,
      "Ġforth": 2244,
      "aul": 2245,
      "ift": 2246,
      "Ġparty": 2247,
      "50": 2248,
      "ĠMay": 2249,
      "rodu": 2250,
      "Ġemplo": 2251,
      "âĶĢâĶĢâĶĢâĶĢ": 2252,
      "iers": 2253,
      "Ġincre": 2254,
      "ĠAmerican": 2255,
      "ĠWilliam": 2256,
      "wered": 2257,
      "Ġlist": 2258,
      "body": 2259,
      "ĠChristian": 2260,
      "Ġaffect": 2261,
      "erve": 2262,
      "Ġdraw": 2263,
      "Ġidea": 2264,
      "Ġcarried": 2265,
      "ĠLondon": 2266,
      "Ġmed": 2267,
      "vere": 2268,
      "usion": 2269,
      "rs": 2270,
      "itting": 2271,
      "ivil": 2272,
      "AS": 2273,
      "Ġself": 2274,
      "Ġwonder": 2275,
      "Ġquick": 2276,
      "Ġlength": 2277,
      "Ġlatter": 2278,
      "Ġgovernment": 2279,
      "ustom": 2280,
      "ĠNow": 2281,
      "thern": 2282,
      "ev": 2283,
      "raph": 2284,
      "Ġfurther": 2285,
      "urope": 2286,
      "sec": 2287,
      "ĠIN": 2288,
      "CHAPTER": 2289,
      "Ġknowledge": 2290,
      "OM": 2291,
      "erc": 2292,
      "room": 2293,
      "Ġvill": 2294,
      "Yes": 2295,
      "Ġ22": 2296,
      "Ġexcl": 2297,
      "Ġimmedi": 2298,
      "Ġattempt": 2299,
      "umst": 2300,
      "ator": 2301,
      "joy": 2302,
      "sy": 2303,
      "usband": 2304,
      "part": 2305,
      "Ġ30": 2306,
      "ĠMan": 2307,
      "ĠNot": 2308,
      "pecially": 2309,
      "Ġreplied": 2310,
      "ĠZ": 2311,
      "Ġeight": 2312,
      "urs": 2313,
      "been": 2314,
      "ining": 2315,
      "Ġdied": 2316,
      "iol": 2317,
      "gu": 2318,
      "Of": 2319,
      "Ġestab": 2320,
      "AC": 2321,
      "Ġstory": 2322,
      "Ġreally": 2323,
      "Ġjoy": 2324,
      "ument": 2325,
      "ected": 2326,
      "ĠAb": 2327,
      "cience": 2328,
      "ĠUnited": 2329,
      "Ġready": 2330,
      "ĠGovern": 2331,
      ".-": 2332,
      "Ġlate": 2333,
      "bled": 2334,
      "cell": 2335,
      "ĠBl": 2336,
      "Ġ,": 2337,
      "Ġbad": 2338,
      "Ġfac": 2339,
      "velop": 2340,
      "hys": 2341,
      "ĠAm": 2342,
      "when": 2343,
      "Ġremain": 2344,
      "Ġhar": 2345,
      "So": 2346,
      "Ġproceed": 2347,
      "Ġlangu": 2348,
      "Ġtou": 2349,
      "ee": 2350,
      "My": 2351,
      "ald": 2352,
      "Ġstep": 2353,
      "ĠGeneral": 2354,
      "Ġdeter": 2355,
      "aven": 2356,
      "inn": 2357,
      "amed": 2358,
      "face": 2359,
      "Ġwit": 2360,
      "Ġdeg": 2361,
      "Ġfollowed": 2362,
      "Ġcried": 2363,
      "Ġhours": 2364,
      "uous": 2365,
      "resh": 2366,
      "Ġpri": 2367,
      "kn": 2368,
      "ford": 2369,
      "ulation": 2370,
      "Ġanswer": 2371,
      "ask": 2372,
      "Ġtable": 2373,
      "Ġevening": 2374,
      "ĠLet": 2375,
      "Ġarmy": 2376,
      "Ġreturned": 2377,
      "ĠAp": 2378,
      "Ġservice": 2379,
      "aged": 2380,
      "ĠGerman": 2381,
      "cont": 2382,
      "Ġdoct": 2383,
      "some": 2384,
      "Ġplaced": 2385,
      "Ġprep": 2386,
      "mn": 2387,
      "hood": 2388,
      "Ġ$": 2389,
      "âĢ¢": 2390,
      "^^": 2391,
      "Ġsatis": 2392,
      "got": 2393,
      "itary": 2394,
      "ogn": 2395,
      "Ġden": 2396,
      "count": 2397,
      "Ġ27": 2398,
      "'re": 2399,
      "Ġstreng": 2400,
      "rank": 2401,
      "lock": 2402,
      "30": 2403,
      "Ġpict": 2404,
      "wise": 2405,
      "ET": 2406,
      "Ġdanger": 2407,
      "How": 2408,
      "Ġpost": 2409,
      "Ġty": 2410,
      "Ġled": 2411,
      "road": 2412,
      "ump": 2413,
      "Ġchange": 2414,
      "Ġconn": 2415,
      "ĠPer": 2416,
      "IV": 2417,
      "tic": 2418,
      "lling": 2419,
      "Ġsleep": 2420,
      "set": 2421,
      "Ġpret": 2422,
      "after": 2423,
      "Ġvarious": 2424,
      "Ġbeyond": 2425,
      ".[": 2426,
      "ĠFrance": 2427,
      "Ġquar": 2428,
      "Ġbit": 2429,
      "Ġhur": 2430,
      "riage": 2431,
      "Ġought": 2432,
      "Ġbright": 2433,
      "Ġanswered": 2434,
      "ighb": 2435,
      "Ġoccup": 2436,
      "Ġpersons": 2437,
      "Ġliving": 2438,
      "ience": 2439,
      "aste": 2440,
      "ethod": 2441,
      "ĠII": 2442,
      "Ġlooking": 2443,
      "tended": 2444,
      "ror": 2445,
      "Ġda": 2446,
      "rough": 2447,
      "Ġheaven": 2448,
      "Ġgrand": 2449,
      "Ġask": 2450,
      "Ġmention": 2451,
      "ixed": 2452,
      "Ġexperi": 2453,
      "Ġ26": 2454,
      "ĠCH": 2455,
      "Ġsqu": 2456,
      "aching": 2457,
      "Ġplain": 2458,
      "Ġesc": 2459,
      "Ġgreater": 2460,
      "teen": 2461,
      "ye": 2462,
      "Ġcreat": 2463,
      "ests": 2464,
      "Ġlonger": 2465,
      "pid": 2466,
      "Ġprev": 2467,
      "Ġsecret": 2468,
      "Ġmist": 2469,
      "ĠFrom": 2470,
      "ĠPhil": 2471,
      "ille": 2472,
      "Ġdro": 2473,
      "Ġscar": 2474,
      "Ġcorn": 2475,
      "ruction": 2476,
      "rived": 2477,
      "Ġintell": 2478,
      "ĠDo": 2479,
      "aff": 2480,
      "rupt": 2481,
      "acher": 2482,
      "Ġsort": 2483,
      "Ġacross": 2484,
      "Ġimag": 2485,
      "formed": 2486,
      "ĠRo": 2487,
      "Ġpolit": 2488,
      "Well": 2489,
      "irty": 2490,
      "Ġplan": 2491,
      "Ġsal": 2492,
      "appe": 2493,
      "Ġcontinued": 2494,
      "ession": 2495,
      "Ġwritten": 2496,
      "25": 2497,
      "ĠSee": 2498,
      "Ġcourt": 2499,
      "bes": 2500,
      "Ġlad": 2501,
      "ĠHen": 2502,
      "Ġduty": 2503,
      "ĠEurope": 2504,
      "ening": 2505,
      "Ġbelong": 2506,
      "Ġdream": 2507,
      "Ġ28": 2508,
      "ouses": 2509,
      "Ġlaid": 2510,
      "pan": 2511,
      "Ġund": 2512,
      "Ġaction": 2513,
      "how": 2514,
      "ĠOh": 2515,
      "Ġstrange": 2516,
      "Ġsoft": 2517,
      "Ġcoun": 2518,
      "Ġemb": 2519,
      "Ġmaster": 2520,
      "house": 2521,
      "UR": 2522,
      "Ġpen": 2523,
      "Ġhappy": 2524,
      "Ġimportant": 2525,
      "char": 2526,
      "rict": 2527,
      "Ġstra": 2528,
      "Ġvisit": 2529,
      "Ġmur": 2530,
      "Ġran": 2531,
      "Ġreached": 2532,
      "Ġclaim": 2533,
      "Ġnone": 2534,
      "Ġnorth": 2535,
      "Ġ186": 2536,
      "Ġappeared": 2537,
      "Ġcommun": 2538,
      "gress": 2539,
      "uture": 2540,
      "acy": 2541,
      "Ġcomes": 2542,
      "Ġsend": 2543,
      "ĠPres": 2544,
      "Ġbreat": 2545,
      "po": 2546,
      "cent": 2547,
      "ĠÎ": 2548,
      "iding": 2549,
      "24": 2550,
      "Ġprobably": 2551,
      "ams": 2552,
      "off": 2553,
      "Ġ29": 2554,
      "look": 2555,
      "ively": 2556,
      "ashing": 2557,
      "Ġattention": 2558,
      "Ġtaking": 2559,
      "Ġbreak": 2560,
      "Ġtrave": 2561,
      "uke": 2562,
      "Ġrich": 2563,
      "eness": 2564,
      "Ġsuffic": 2565,
      "ancy": 2566,
      "cribed": 2567,
      "Ġcomplete": 2568,
      "race": 2569,
      "IR": 2570,
      "Ġgrow": 2571,
      "gar": 2572,
      "ingly": 2573,
      "live": 2574,
      "Ġbird": 2575,
      "Ġwat": 2576,
      "Ġsens": 2577,
      "Ġhusband": 2578,
      "isted": 2579,
      "Ġgen": 2580,
      "Ġhot": 2581,
      "Ġadded": 2582,
      "ĠHar": 2583,
      "alked": 2584,
      "ĠCan": 2585,
      "Ġglad": 2586,
      "ĠPe": 2587,
      "Ġgenerally": 2588,
      "Ġfellow": 2589,
      "cil": 2590,
      "Ġtro": 2591,
      "Ġbear": 2592,
      "Ġquiet": 2593,
      "upon": 2594,
      "des": 2595,
      "ossible": 2596,
      "Ġ(_": 2597,
      "Ġwatch": 2598,
      "Ġenemy": 2599,
      "Ġslow": 2600,
      "ales": 2601,
      "ĠAfter": 2602,
      "Â¬": 2603,
      "Ġmakes": 2604,
      "Ġforward": 2605,
      "atever": 2606,
      "eb": 2607,
      "ividual": 2608,
      "Ġfrequ": 2609,
      "ilar": 2610,
      "Ġconv": 2611,
      "Ġwon": 2612,
      "Ġrepe": 2613,
      "aterial": 2614,
      "yn": 2615,
      "oted": 2616,
      "hand": 2617,
      "Ġdistance": 2618,
      "Ġwalk": 2619,
      "Ġcontr": 2620,
      "gl": 2621,
      "idered": 2622,
      "Ġstat": 2623,
      "lected": 2624,
      "iety": 2625,
      "osop": 2626,
      "anced": 2627,
      "Ġorgan": 2628,
      "osp": 2629,
      "Ġfight": 2630,
      "Ġph": 2631,
      "Ġjo": 2632,
      "Ġtop": 2633,
      "ĠBritish": 2634,
      "just": 2635,
      "imate": 2636,
      "ĠGree": 2637,
      "ĠâĢľ": 2638,
      "na": 2639,
      "athe": 2640,
      "ically": 2641,
      "All": 2642,
      "Ġattack": 2643,
      "iff": 2644,
      "rief": 2645,
      "ging": 2646,
      "ajor": 2647,
      "ointed": 2648,
      "Ġcircumst": 2649,
      "ech": 2650,
      "Ġsin": 2651,
      "time": 2652,
      "Ġrose": 2653,
      "CT": 2654,
      "Ġdeterm": 2655,
      "aded": 2656,
      "Ġsugg": 2657,
      "Ġ11": 2658,
      "ĠQu": 2659,
      "Ġlie": 2660,
      "Ġoper": 2661,
      "ĠHere": 2662,
      "IG": 2663,
      "Ġexh": 2664,
      "iction": 2665,
      "Ġcontain": 2666,
      "Ġbattle": 2667,
      "rel": 2668,
      "Ġpoet": 2669,
      "Ġliber": 2670,
      "iling": 2671,
      "Ġisland": 2672,
      "Ġenjoy": 2673,
      "Ġdepart": 2674,
      "Ġalthough": 2675,
      "Ġwide": 2676,
      "Ġdelight": 2677,
      "Ġconduct": 2678,
      "ĠSouth": 2679,
      "ma": 2680,
      "Ġcondition": 2681,
      "Ġneither": 2682,
      "pond": 2683,
      "Ġprison": 2684,
      "tion": 2685,
      "Be": 2686,
      "note": 2687,
      "Ġdeal": 2688,
      "Ġconsequ": 2689,
      "Ġbless": 2690,
      "Ġago": 2691,
      "Ġancient": 2692,
      "reed": 2693,
      "Ġconcl": 2694,
      "26": 2695,
      "Ġespecially": 2696,
      "ously": 2697,
      "oured": 2698,
      "Ġinfluence": 2699,
      "ĠNorth": 2700,
      "ĠJes": 2701,
      "AD": 2702,
      "Ġbound": 2703,
      "Ġopinion": 2704,
      "Ġformed": 2705,
      "ĠBar": 2706,
      "Ġdie": 2707,
      "hold": 2708,
      "Ġtrust": 2709,
      "spe": 2710,
      "Ġhair": 2711,
      "Ġcompany": 2712,
      "Ġfast": 2713,
      "Ġaccept": 2714,
      "III": 2715,
      "Ġfeeling": 2716,
      "Ġbig": 2717,
      "great": 2718,
      "Ġplaces": 2719,
      "uted": 2720,
      "Ġpal": 2721,
      "Ġsouth": 2722,
      "ĠFl": 2723,
      "por": 2724,
      "osing": 2725,
      "Ġmouth": 2726,
      "Ġsitu": 2727,
      "Ġsad": 2728,
      "Ġoffice": 2729,
      "Ġsupport": 2730,
      "28": 2731,
      "Ġtrees": 2732,
      "Ġunto": 2733,
      "40": 2734,
      "Ġdemand": 2735,
      "Ġdaughter": 2736,
      "ishing": 2737,
      "Ġneighb": 2738,
      "iles": 2739,
      "ply": 2740,
      "Ġstrength": 2741,
      "comm": 2742,
      "Ġcases": 2743,
      "Ġthird": 2744,
      "ingu": 2745,
      "Ġsepar": 2746,
      "anted": 2747,
      "ades": 2748,
      ".âĢĿ": 2749,
      "ray": 2750,
      "aries": 2751,
      "Ġdifficult": 2752,
      "Now": 2753,
      "Ġcivil": 2754,
      "Ġfurn": 2755,
      "Ġvict": 2756,
      "Ġaf": 2757,
      "Ġhy": 2758,
      "umb": 2759,
      "cal": 2760,
      "spect": 2761,
      "ĠâĢ¢": 2762,
      "23": 2763,
      "enth": 2764,
      "ourn": 2765,
      "Ġsuper": 2766,
      "His": 2767,
      "ourt": 2768,
      "Ġresol": 2769,
      "into": 2770,
      "mber": 2771,
      "Ġdesire": 2772,
      "pass": 2773,
      "Ġcamp": 2774,
      "ites": 2775,
      "Ġgreen": 2776,
      "aled": 2777,
      "Ġremember": 2778,
      "Ġdesign": 2779,
      "Ġsingle": 2780,
      "reet": 2781,
      "itable": 2782,
      "erson": 2783,
      "ĠCor": 2784,
      "cend": 2785,
      "Ġsurpr": 2786,
      "Ġbeauty": 2787,
      "Ġdesp": 2788,
      "ĠGeorge": 2789,
      "Ġneg": 2790,
      "rig": 2791,
      "Al": 2792,
      "ĠST": 2793,
      "ĠWest": 2794,
      "ai": 2795,
      "Ġbelow": 2796,
      "ĠHouse": 2797,
      "Ġmine": 2798,
      "Ġentered": 2799,
      "Ġfood": 2800,
      "Ġfuture": 2801,
      "ĠSome": 2802,
      "Ġenter": 2803,
      "Ġwis": 2804,
      "eg": 2805,
      "uded": 2806,
      "Ġtoward": 2807,
      "Ġfru": 2808,
      "Ġpleasure": 2809,
      "Ġstay": 2810,
      "has": 2811,
      "Î½": 2812,
      "cceed": 2813,
      "reme": 2814,
      "known": 2815,
      "Ġlanguage": 2816,
      "ĠMary": 2817,
      "Ġves": 2818,
      "ipp": 2819,
      "Ġhath": 2820,
      "Ġmonths": 2821,
      "certain": 2822,
      "Ġslight": 2823,
      "Ġpure": 2824,
      "ĠCount": 2825,
      "Ġsuppose": 2826,
      "Ġconce": 2827,
      "Ġlived": 2828,
      "Ġhast": 2829,
      "Ġinh": 2830,
      "uses": 2831,
      "Ġcra": 2832,
      "De": 2833,
      "ushed": 2834,
      "omin": 2835,
      "asp": 2836,
      "27": 2837,
      "ov": 2838,
      "pany": 2839,
      "Ġdevelop": 2840,
      "ĠMad": 2841,
      "Ġenc": 2842,
      "Ġworks": 2843,
      "Ġyouth": 2844,
      "eds": 2845,
      "Ġvirt": 2846,
      "Ġpaper": 2847,
      "rowd": 2848,
      "gment": 2849,
      "see": 2850,
      "Ġspoke": 2851,
      "ager": 2852,
      "Ġburn": 2853,
      "Ġlaws": 2854,
      "ĠHenry": 2855,
      "than": 2856,
      "Ġgod": 2857,
      "Ġmass": 2858,
      "omes": 2859,
      "ourage": 2860,
      "Ġdefe": 2861,
      "een": 2862,
      "yal": 2863,
      "alled": 2864,
      "Ġdoing": 2865,
      "formation": 2866,
      "Ġviol": 2867,
      "should": 2868,
      "Ġsn": 2869,
      "Ġsto": 2870,
      "Ġfle": 2871,
      "Ġfat": 2872,
      "Ġimpro": 2873,
      "US": 2874,
      "lies": 2875,
      "ux": 2876,
      "Ġdog": 2877,
      "ĠÃ": 2878,
      "Ġphys": 2879,
      "onel": 2880,
      "orses": 2881,
      "ĠLady": 2882,
      "ĠJames": 2883,
      "Ġwarm": 2884,
      "omas": 2885,
      "about": 2886,
      "Ġeduc": 2887,
      ".=": 2888,
      "never": 2889,
      "bly": 2890,
      "--\"": 2891,
      "culiar": 2892,
      "ĠSte": 2893,
      "Ġgrace": 2894,
      "ĠWhy": 2895,
      "Ġwrong": 2896,
      "From": 2897,
      "OT": 2898,
      "orough": 2899,
      "Ġthick": 2900,
      "Ġstone": 2901,
      "Is": 2902,
      "ĠIndian": 2903,
      "Ġweak": 2904,
      "Ġexpress": 2905,
      "bling": 2906,
      "place": 2907,
      "ching": 2908,
      "Ġcomfort": 2909,
      "Ġborn": 2910,
      "Ġsaying": 2911,
      "ĠAmerica": 2912,
      "cely": 2913,
      "Ġ...": 2914,
      "ugust": 2915,
      "ae": 2916,
      "Ġoccur": 2917,
      "Ġhop": 2918,
      "Ġcertainly": 2919,
      "ĠCaptain": 2920,
      "ulty": 2921,
      "ograph": 2922,
      "arrow": 2923,
      "Ġpretty": 2924,
      "Ġetc": 2925,
      "Ġopened": 2926,
      "Ġinqu": 2927,
      "ization": 2928,
      "Ġpra": 2929,
      "iant": 2930,
      "Ġgun": 2931,
      "long": 2932,
      "Ġmill": 2933,
      "mission": 2934,
      "Ġvalue": 2935,
      "Ġlines": 2936,
      "Ġamount": 2937,
      "Ġvessel": 2938,
      "By": 2939,
      "ortun": 2940,
      "hel": 2941,
      "Ġsubst": 2942,
      "irth": 2943,
      "Ġfamil": 2944,
      "Ġindividual": 2945,
      "Ġshore": 2946,
      "aimed": 2947,
      "Ġblue": 2948,
      "Not": 2949,
      "itive": 2950,
      "Ġreport": 2951,
      "arden": 2952,
      "mb": 2953,
      "Ġliter": 2954,
      "Ġcentury": 2955,
      "work": 2956,
      "dered": 2957,
      "Ġboys": 2958,
      "Ġheavy": 2959,
      "mar": 2960,
      "Ġdel": 2961,
      "29": 2962,
      "GE": 2963,
      "Ġimmediately": 2964,
      "Ġoffe": 2965,
      "Ar": 2966,
      "isc": 2967,
      "Ġforms": 2968,
      "Ġsuddenly": 2969,
      "ti": 2970,
      "hest": 2971,
      "ishop": 2972,
      "ables": 2973,
      "pal": 2974,
      "Ġbooks": 2975,
      "sm": 2976,
      "Ġsole": 2977,
      "Ġcompan": 2978,
      "Ġrecogn": 2979,
      "Ġgrave": 2980,
      "Ġintrodu": 2981,
      "Ġtree": 2982,
      "ĠCong": 2983,
      "field": 2984,
      "Ġcry": 2985,
      "Ġcit": 2986,
      "opt": 2987,
      "yl": 2988,
      "Ġnation": 2989,
      "Ġcompl": 2990,
      "inal": 2991,
      "icked": 2992,
      "Ġmaterial": 2993,
      "soci": 2994,
      "cription": 2995,
      "Ġcomb": 2996,
      "could": 2997,
      "ĠGu": 2998,
      "Ġrapid": 2999,
      "Ġeverything": 3000,
      "AND": 3001,
      "Ġcost": 3002,
      "Ġsimple": 3003,
      "stood": 3004,
      "Ġpubl": 3005,
      "oved": 3006,
      "Ġequal": 3007,
      "Ġsave": 3008,
      "Ġmethod": 3009,
      "erous": 3010,
      "Ġnoble": 3011,
      "Ġadvant": 3012,
      "car": 3013,
      "Ġang": 3014,
      "ĠCharles": 3015,
      "Ġsucceed": 3016,
      "Ġrace": 3017,
      "itation": 3018,
      "Ġfun": 3019,
      "Foot": 3020,
      "lls": 3021,
      "ĠTO": 3022,
      "Why": 3023,
      "Ġpress": 3024,
      "ston": 3025,
      "Ġconsidered": 3026,
      "inite": 3027,
      "Ġexact": 3028,
      "ĠGreat": 3029,
      "umn": 3030,
      "Ġletters": 3031,
      "Î±": 3032,
      "Ġmembers": 3033,
      "Ġphil": 3034,
      "Ġdue": 3035,
      "Ġappearance": 3036,
      "Ġprevent": 3037,
      "----------------": 3038,
      "Ġder": 3039,
      "ĠĠĠĠĠĠĠĠĠĠĠ": 3040,
      "while": 3041,
      "enced": 3042,
      "esty": 3043,
      "Ġafterwards": 3044,
      "IST": 3045,
      "ming": 3046,
      "Ġentirely": 3047,
      "Ġgives": 3048,
      "eks": 3049,
      "oid": 3050,
      "Ġbott": 3051,
      "Ġartic": 3052,
      "Î¿": 3053,
      "ĠQue": 3054,
      "Ġreligion": 3055,
      "oul": 3056,
      "Ġbeginning": 3057,
      "oon": 3058,
      "Ġspring": 3059,
      "Ġstreet": 3060,
      "Ġ{": 3061,
      "ify": 3062,
      "mitted": 3063,
      "Ġgentleman": 3064,
      "Ġdestro": 3065,
      "said": 3066,
      "ox": 3067,
      "33": 3068,
      "bet": 3069,
      "Ġpun": 3070,
      "Ġbran": 3071,
      "hip": 3072,
      "Ġtried": 3073,
      "ike": 3074,
      "ourse": 3075,
      "ology": 3076,
      "bar": 3077,
      "ĠJesus": 3078,
      "ÏĦ": 3079,
      "Ġ187": 3080,
      "bles": 3081,
      "Footnote": 3082,
      "âĢķ": 3083,
      "Ġanx": 3084,
      "inner": 3085,
      "Ġrock": 3086,
      "ĠMe": 3087,
      "again": 3088,
      "Ġraised": 3089,
      "Ġsimilar": 3090,
      "Ġremained": 3091,
      "22": 3092,
      "Ġfresh": 3093,
      "Ġbuilt": 3094,
      "Ġfilled": 3095,
      "ĠItal": 3096,
      "Ġofficers": 3097,
      "istance": 3098,
      "Ġgall": 3099,
      "Ġhealth": 3100,
      "Ġweek": 3101,
      "Ġtrain": 3102,
      "Ġminutes": 3103,
      "Ġbroken": 3104,
      "olute": 3105,
      "Ġappears": 3106,
      "Ġdress": 3107,
      "may": 3108,
      "Ġevil": 3109,
      "EM": 3110,
      "Ġsociety": 3111,
      "ternal": 3112,
      "Ġdi": 3113,
      "kind": 3114,
      "lar": 3115,
      "Ġban": 3116,
      "Ġdidn": 3117,
      "rill": 3118,
      "ID": 3119,
      "Ġgreatest": 3120,
      "rid": 3121,
      "Ġseven": 3122,
      "Ġcrowd": 3123,
      "rif": 3124,
      "Ġprocess": 3125,
      "ĠRep": 3126,
      "Ġstudy": 3127,
      "Ġpaid": 3128,
      "Ġnote": 3129,
      "Ġlearned": 3130,
      "irgin": 3131,
      "Ġign": 3132,
      "ĠEar": 3133,
      "Ġpresence": 3134,
      "Ġid": 3135,
      "Ġlaugh": 3136,
      "Ġauthority": 3137,
      "44": 3138,
      "Ġtest": 3139,
      "Ġgiving": 3140,
      "ĠWell": 3141,
      "ĠWar": 3142,
      "llow": 3143,
      ");": 3144,
      "ATION": 3145,
      "Ġpeculiar": 3146,
      "Ġeasily": 3147,
      "Ġsafe": 3148,
      "Ġeasy": 3149,
      "Ġinstead": 3150,
      "Ġiron": 3151,
      "Ġexerc": 3152,
      "Ġcult": 3153,
      "Ġcovered": 3154,
      "Ã¡": 3155,
      "Ġtry": 3156,
      "elve": 3157,
      "ĠÂ©": 3158,
      "pet": 3159,
      "ĠFather": 3160,
      "Ġinn": 3161,
      "two": 3162,
      "36": 3163,
      "Ġcarry": 3164,
      "Ġmad": 3165,
      "gged": 3166,
      "reen": 3167,
      "Ġcapt": 3168,
      "Ġboard": 3169,
      "Ġlower": 3170,
      "olly": 3171,
      "Ġmusic": 3172,
      "Ġnames": 3173,
      "ĠEm": 3174,
      "Ġdepend": 3175,
      "ril": 3176,
      "aped": 3177,
      "Ġdrink": 3178,
      "ĠSec": 3179,
      "icated": 3180,
      "ashington": 3181,
      "only": 3182,
      "pon": 3183,
      "rible": 3184,
      "Ġcloud": 3185,
      "jo": 3186,
      "ett": 3187,
      "ege": 3188,
      "Sh": 3189,
      "iring": 3190,
      "Ġfra": 3191,
      "Ġcharge": 3192,
      "ification": 3193,
      "Ġguard": 3194,
      "ails": 3195,
      "omen": 3196,
      "Ġglo": 3197,
      "Ġmoral": 3198,
      "Ġdegree": 3199,
      "lished": 3200,
      "Ġwanted": 3201,
      "Ġbroad": 3202,
      "Ġ188": 3203,
      "ĠSm": 3204,
      "Ġdirection": 3205,
      "iced": 3206,
      "rees": 3207,
      "Ġsong": 3208,
      "Ġmerely": 3209,
      "Ġ35": 3210,
      "together": 3211,
      "SE": 3212,
      "Ġexperience": 3213,
      "Ġsummer": 3214,
      "Ġwrote": 3215,
      "Ġeat": 3216,
      "Ġthoughts": 3217,
      "Ġmot": 3218,
      "Ġconvers": 3219,
      "Ġvillage": 3220,
      ",âĢĿ": 3221,
      "Ġoriginal": 3222,
      "iments": 3223,
      "ĠParis": 3224,
      "ĠRoman": 3225,
      "Ġcru": 3226,
      "alley": 3227,
      "Ġune": 3228,
      "Ġmodern": 3229,
      "Ġwest": 3230,
      "Ġhost": 3231,
      "umber": 3232,
      "lin": 3233,
      "Ġhardly": 3234,
      "ĠMon": 3235,
      "Ġthirty": 3236,
      "Ġexec": 3237,
      "Ġarrived": 3238,
      "Ġwhatever": 3239,
      "Ġobserv": 3240,
      "raid": 3241,
      "Ġmeeting": 3242,
      "Ġdistingu": 3243,
      "35": 3244,
      "Ġchance": 3245,
      "wood": 3246,
      "every": 3247,
      "38": 3248,
      "OO": 3249,
      "Ġclot": 3250,
      "ĠJe": 3251,
      "la": 3252,
      "Ġsick": 3253,
      "Ġforeign": 3254,
      "Ġreligious": 3255,
      "Ġfal": 3256,
      "Ġcop": 3257,
      "inte": 3258,
      "ĠIndians": 3259,
      "Ġattend": 3260,
      "Ġpath": 3261,
      "Ġstanding": 3262,
      "Ġess": 3263,
      "ani": 3264,
      "Ġfirm": 3265,
      "Ġlips": 3266,
      "Ġtrouble": 3267,
      "Ġfavor": 3268,
      "umed": 3269,
      "Ġearn": 3270,
      "cer": 3271,
      "Ġhorses": 3272,
      "Ġspecial": 3273,
      "Ġrelie": 3274,
      "ception": 3275,
      "ĠBo": 3276,
      "ashion": 3277,
      "Ġsister": 3278,
      "Ġboat": 3279,
      "orious": 3280,
      "Ġdim": 3281,
      "nce": 3282,
      "ĠThus": 3283,
      "ĠLa": 3284,
      "Ġpiece": 3285,
      "Ġhung": 3286,
      "Ġcustom": 3287,
      "Ex": 3288,
      "uel": 3289,
      "eral": 3290,
      "Ġmagn": 3291,
      "before": 3292,
      "Ġleaves": 3293,
      "ĠJack": 3294,
      "Ġreceive": 3295,
      "ĠAv": 3296,
      "AY": 3297,
      "Ġcircumstances": 3298,
      "Ġvain": 3299,
      "made": 3300,
      "Ġloss": 3301,
      "Ġcoast": 3302,
      "Ġlives": 3303,
      "XX": 3304,
      "eed": 3305,
      "Ġproperty": 3306,
      "ville": 3307,
      "raw": 3308,
      "ĠGovernment": 3309,
      "Ġlord": 3310,
      "ram": 3311,
      "Ġexcell": 3312,
      "Ġloved": 3313,
      "ĠTheir": 3314,
      "Ġball": 3315,
      "Ġobserved": 3316,
      "Ġheat": 3317,
      "Ġadopt": 3318,
      "istic": 3319,
      "Ġreve": 3320,
      "Ġfool": 3321,
      "Ġwindow": 3322,
      "Ġknows": 3323,
      "pel": 3324,
      "worth": 3325,
      "ĠPresident": 3326,
      "Ġchap": 3327,
      "Ġimm": 3328,
      "Ġtender": 3329,
      "inent": 3330,
      "46": 3331,
      "Ġhonor": 3332,
      "ny": 3333,
      "Ġsupposed": 3334,
      "Ġscene": 3335,
      "Ġglass": 3336,
      "ĠLou": 3337,
      "Ġsurface": 3338,
      "Ġrise": 3339,
      "Ġtemper": 3340,
      "aug": 3341,
      "Ġextra": 3342,
      "ĠWhere": 3343,
      "Ġimpossible": 3344,
      "Ġusual": 3345,
      "Ġhouses": 3346,
      "ibly": 3347,
      "tee": 3348,
      "ander": 3349,
      "ergy": 3350,
      "rep": 3351,
      "istory": 3352,
      "ĠCal": 3353,
      "estions": 3354,
      "lex": 3355,
      "Ġrule": 3356,
      "45": 3357,
      "estern": 3358,
      "Ġrul": 3359,
      "Ġnotice": 3360,
      "One": 3361,
      "Ġcontro": 3362,
      "ĠDon": 3363,
      "view": 3364,
      "oms": 3365,
      "Ġspot": 3366,
      "Ġillust": 3367,
      "arily": 3368,
      "add": 3369,
      "ems": 3370,
      "ĠConst": 3371,
      "Ġpolitical": 3372,
      "Ġcrown": 3373,
      "ĠPh": 3374,
      "Ġexistence": 3375,
      "48": 3376,
      "leg": 3377,
      "Ġwinter": 3378,
      "ĠThomas": 3379,
      "Ġprivate": 3380,
      "Â°": 3381,
      "ĠAugust": 3382,
      "aces": 3383,
      "__": 3384,
      "Where": 3385,
      "these": 3386,
      "aced": 3387,
      "ibility": 3388,
      "through": 3389,
      "ĠSam": 3390,
      "Ġtroops": 3391,
      "Ġjour": 3392,
      "oup": 3393,
      "Ġfigure": 3394,
      "37": 3395,
      "Ġtit": 3396,
      "Ġpursu": 3397,
      "Ġtears": 3398,
      "ishment": 3399,
      "olic": 3400,
      "Ġrequired": 3401,
      "ailed": 3402,
      "Ġshown": 3403,
      "ĠIII": 3404,
      "Ġproduced": 3405,
      "Ġallowed": 3406,
      "osite": 3407,
      "imp": 3408,
      "Ġmeant": 3409,
      "Ġarg": 3410,
      "Ġdistinct": 3411,
      "unk": 3412,
      "Ġmountain": 3413,
      "?'": 3414,
      "Ġmarried": 3415,
      "ented": 3416,
      "ĠĠĠĠĠĠĠĠĠĠ": 3417,
      "Ġtrem": 3418,
      "Ġshad": 3419,
      "Ġ40": 3420,
      "Ġhat": 3421,
      "Ġphilosop": 3422,
      "ext": 3423,
      "Ġobli": 3424,
      "Ġspread": 3425,
      "Ġmiddle": 3426,
      "Ġglory": 3427,
      "ĠRich": 3428,
      "60": 3429,
      "ague": 3430,
      "Ġusually": 3431,
      "RI": 3432,
      "Ġportion": 3433,
      "uments": 3434,
      "Ġdrawn": 3435,
      "Ġhill": 3436,
      "Ġ--": 3437,
      "Ġsomewhat": 3438,
      "Ġmoved": 3439,
      "Ġ21": 3440,
      "Ġsand": 3441,
      "cr": 3442,
      "Ġwalls": 3443,
      "Ġsufficient": 3444,
      "your": 3445,
      "arp": 3446,
      "ĠYet": 3447,
      "uge": 3448,
      "Ġconsiderable": 3449,
      "ĠRome": 3450,
      "ik": 3451,
      "Ġur": 3452,
      "Ġflowers": 3453,
      "Ġsmile": 3454,
      "itor": 3455,
      "Ġwrite": 3456,
      "Ġwise": 3457,
      "Â«": 3458,
      "Ġreach": 3459,
      "Let": 3460,
      "vention": 3461,
      "lying": 3462,
      "Ġwhis": 3463,
      "Ġhigher": 3464,
      "Ġtend": 3465,
      "respond": 3466,
      "Â»": 3467,
      "Ġfifty": 3468,
      "play": 3469,
      "ĠSw": 3470,
      "bered": 3471,
      "ere": 3472,
      "rated": 3473,
      "ERS": 3474,
      "Ġbuilding": 3475,
      "gypt": 3476,
      "Ġ185": 3477,
      "Ġmel": 3478,
      "Ġutter": 3479,
      "ĠDav": 3480,
      "utions": 3481,
      "Ġdeb": 3482,
      "Ġspr": 3483,
      "Ġ189": 3484,
      "little": 3485,
      "LI": 3486,
      "Ġsilence": 3487,
      "Ġevidence": 3488,
      "zen": 3489,
      "Ġfing": 3490,
      "duced": 3491,
      "umph": 3492,
      "Ġsurr": 3493,
      "39": 3494,
      "ESS": 3495,
      "Ġmentioned": 3496,
      "Ġnative": 3497,
      "bec": 3498,
      "ĠColl": 3499,
      "Ġcover": 3500,
      "Ġexample": 3501,
      "sub": 3502,
      "ĠĠĠĠĠĠĠĠĠĠĠĠĠ": 3503,
      "ctions": 3504,
      "Ġhero": 3505,
      "ĠTom": 3506,
      "Ġdread": 3507,
      "Ġbeg": 3508,
      "Ġprogress": 3509,
      "ĠJew": 3510,
      "perior": 3511,
      "bing": 3512,
      "antic": 3513,
      "ensive": 3514,
      "Ġspecies": 3515,
      "Ġforget": 3516,
      "eav": 3517,
      "Ġcre": 3518,
      "Ġhappened": 3519,
      "Ġfit": 3520,
      "Ġmort": 3521,
      "know": 3522,
      "Ġspace": 3523,
      "ĠIsland": 3524,
      "Ġobtained": 3525,
      "such": 3526,
      "21": 3527,
      "Ġdry": 3528,
      "47": 3529,
      "col": 3530,
      "Ġpersonal": 3531,
      "ĠPo": 3532,
      "Ġrevol": 3533,
      "noon": 3534,
      "emed": 3535,
      "nat": 3536,
      "Ġheight": 3537,
      "Ġyourself": 3538,
      "Ġpassage": 3539,
      "Ġpot": 3540,
      "ias": 3541,
      "Ġkilled": 3542,
      "Ġforest": 3543,
      "rine": 3544,
      "Ġyes": 3545,
      "ĠFran": 3546,
      "Ġbank": 3547,
      "ĠWor": 3548,
      "ris": 3549,
      "ĠNe": 3550,
      "bell": 3551,
      "Ġleaving": 3552,
      "happ": 3553,
      "Ġwealth": 3554,
      "Ġbread": 3555,
      "Ġ50": 3556,
      "====": 3557,
      "ĠJune": 3558,
      "ĠAnt": 3559,
      "ding": 3560,
      "Ġdise": 3561,
      "Ġtrade": 3562,
      "Ġapparent": 3563,
      "ĠPaul": 3564,
      "cher": 3565,
      "ĠGl": 3566,
      "OW": 3567,
      "Ġdoll": 3568,
      "Ġgoes": 3569,
      "lement": 3570,
      "ĠWho": 3571,
      "heart": 3572,
      "isions": 3573,
      "gain": 3574,
      "abitants": 3575,
      "Ġexpression": 3576,
      "isters": 3577,
      "amb": 3578,
      ",-": 3579,
      "Ġgrad": 3580,
      "Ġaut": 3581,
      "Ġdrew": 3582,
      "lend": 3583,
      "Ġbod": 3584,
      "gen": 3585,
      "ceived": 3586,
      "Ġextreme": 3587,
      "Ġscarcely": 3588,
      "Ġ37": 3589,
      "igned": 3590,
      "rate": 3591,
      "ĠCongress": 3592,
      "ĠQueen": 3593,
      "first": 3594,
      "Ġdeli": 3595,
      "Ġappre": 3596,
      "Ġmeasure": 3597,
      "Ġopportun": 3598,
      "pir": 3599,
      "zz": 3600,
      "God": 3601,
      "ffic": 3602,
      "Ġpet": 3603,
      "good": 3604,
      "Ġweight": 3605,
      "Ġvast": 3606,
      "ids": 3607,
      "ĠJan": 3608,
      "even": 3609,
      "ĠEn": 3610,
      "Ġinj": 3611,
      "Mrs": 3612,
      "Ġsnow": 3613,
      "much": 3614,
      "Ġstruck": 3615,
      "anges": 3616,
      "Ġdom": 3617,
      "ĠSu": 3618,
      "Ġprint": 3619,
      "After": 3620,
      "49": 3621,
      "Ġprove": 3622,
      "ĠCourt": 3623,
      "Un": 3624,
      "itch": 3625,
      "Ġunless": 3626,
      "clock": 3627,
      "Ġeast": 3628,
      "ĠOur": 3629,
      "Ġstraight": 3630,
      "Ġbreath": 3631,
      "Ġfacts": 3632,
      "ĠLaw": 3633,
      "ĠRuss": 3634,
      "Or": 3635,
      "Ġexpected": 3636,
      "ĠBur": 3637,
      "Ġrecord": 3638,
      "Ġstrugg": 3639,
      "Ġdivine": 3640,
      "Ġsty": 3641,
      "ication": 3642,
      "isl": 3643,
      "Ġcitiz": 3644,
      "Ġsize": 3645,
      "ores": 3646,
      "Ġdiscovered": 3647,
      "Ġpowers": 3648,
      "Ġrain": 3649,
      "might": 3650,
      "Ġslowly": 3651,
      "pping": 3652,
      "Ġpoints": 3653,
      "Ġsky": 3654,
      "Ġanimal": 3655,
      "ĠPrince": 3656,
      "back": 3657,
      "Ġcrit": 3658,
      "Ġprepared": 3659,
      "Ġfem": 3660,
      "Ġsoldiers": 3661,
      "arer": 3662,
      "Ġsides": 3663,
      "Eng": 3664,
      "Ġstarted": 3665,
      "Ġmonth": 3666,
      "Ġhall": 3667,
      "Ġnarrow": 3668,
      "Ġjustice": 3669,
      "oo": 3670,
      "Ġgrew": 3671,
      "Ġregular": 3672,
      "Ġfixed": 3673,
      "fit": 3674,
      "omy": 3675,
      "Ġmilitary": 3676,
      "Ġfruit": 3677,
      "Ġthinking": 3678,
      "Ġfol": 3679,
      "Ġpicture": 3680,
      "Î¹": 3681,
      "Ġstar": 3682,
      "ading": 3683,
      "Ġhabit": 3684,
      "Ġkne": 3685,
      "occ": 3686,
      "uls": 3687,
      "ĠWashington": 3688,
      "Ġparent": 3689,
      "ĠJud": 3690,
      "ode": 3691,
      "Ġoutside": 3692,
      "Ġmut": 3693,
      "CE": 3694,
      "acc": 3695,
      "cked": 3696,
      "Ġcou": 3697,
      "Ġmess": 3698,
      "Ġconqu": 3699,
      "ĠJuly": 3700,
      "Ġpassing": 3701,
      "Ġcaught": 3702,
      "van": 3703,
      "Ġtwelve": 3704,
      "Ġcat": 3705,
      "Ġspec": 3706,
      "Ġmotion": 3707,
      "cts": 3708,
      "Ġconcern": 3709,
      "Ġmemory": 3710,
      "Ġquant": 3711,
      "ĠMarch": 3712,
      "aunt": 3713,
      "Ġhearts": 3714,
      "inst": 3715,
      "Ġforgot": 3716,
      "asons": 3717,
      "Ġemployed": 3718,
      "Ġband": 3719,
      "anging": 3720,
      "Ġones": 3721,
      "Ġgaz": 3722,
      "Ġstream": 3723,
      "law": 3724,
      "Ġpassion": 3725,
      "ĠMor": 3726,
      "Ġtakes": 3727,
      "ned": 3728,
      "34": 3729,
      "sk": 3730,
      "Ġseeing": 3731,
      "Ġsour": 3732,
      "Ġsilver": 3733,
      "Ġprinciples": 3734,
      "Ġabsolute": 3735,
      "ares": 3736,
      "Ġdetermined": 3737,
      "Ġstock": 3738,
      "ially": 3739,
      "Ġwitness": 3740,
      "ounced": 3741,
      "aval": 3742,
      "Ġchanged": 3743,
      "Ġspeech": 3744,
      "iently": 3745,
      "Ġwait": 3746,
      "Ġintellig": 3747,
      "Ġplant": 3748,
      "tis": 3749,
      "Ġfloor": 3750,
      "Do": 3751,
      "Ġholy": 3752,
      "Ġafraid": 3753,
      "Ġbeneath": 3754,
      "Ġfully": 3755,
      "Ġbow": 3756,
      "bre": 3757,
      "Ġlabor": 3758,
      "Ġfrequently": 3759,
      "Her": 3760,
      "Ġelect": 3761,
      "ental": 3762,
      "order": 3763,
      "Ġsorrow": 3764,
      "ĠHim": 3765,
      "ators": 3766,
      "Com": 3767,
      "Con": 3768,
      "Ġfro": 3769,
      "Ġfavour": 3770,
      "anc": 3771,
      "Ġaid": 3772,
      "ĠĠĠĠĠĠĠĠĠĠĠĠĠĠĠĠĠĠĠĠĠĠĠĠĠĠĠĠĠĠĠĠĠĠĠĠĠĠĠĠ": 3773,
      "Ġdiscuss": 3774,
      "Ġrefer": 3775,
      "sur": 3776,
      "Ġliberty": 3777,
      "Ġhonour": 3778,
      "Ġrare": 3779,
      "ha": 3780,
      "Ġkingdom": 3781,
      "oken": 3782,
      "uary": 3783,
      "being": 3784,
      "bu": 3785,
      "Ġarch": 3786,
      "Ġtot": 3787,
      "32": 3788,
      "Ġagree": 3789,
      "Ġquickly": 3790,
      "Ġproved": 3791,
      "Ġchair": 3792,
      "Ġ36": 3793,
      "Ġexclaimed": 3794,
      "Ġallow": 3795,
      "Ġinteresting": 3796,
      "Ġrid": 3797,
      "Ġamb": 3798,
      "Ġunivers": 3799,
      "Ġmountains": 3800,
      "four": 3801,
      "fast": 3802,
      "Ġcorrect": 3803,
      "Ġrail": 3804,
      "ĠOct": 3805,
      "ĠOld": 3806,
      "ulf": 3807,
      "Ġbill": 3808,
      "Ġsymp": 3809,
      "Ġimportance": 3810,
      "Ġterms": 3811,
      "ĠMin": 3812,
      "Ġ+": 3813,
      "Ġwalked": 3814,
      "Ġgirls": 3815,
      "five": 3816,
      "lly": 3817,
      "UL": 3818,
      "Ġextent": 3819,
      "without": 3820,
      "Ġinstance": 3821,
      "rec": 3822,
      "Ġsocial": 3823,
      "Ġimper": 3824,
      "Who": 3825,
      "Ġfalse": 3826,
      "father": 3827,
      "Ġpossession": 3828,
      "Ġgetting": 3829,
      "fortun": 3830,
      "down": 3831,
      "ĠScot": 3832,
      "ufact": 3833,
      "ability": 3834,
      "Ġoffered": 3835,
      "Mar": 3836,
      "asures": 3837,
      "orne": 3838,
      "dist": 3839,
      "aker": 3840,
      "Re": 3841,
      "Ġfreed": 3842,
      "Ġdeclared": 3843,
      "Ġadvantage": 3844,
      "Ġgro": 3845,
      "ĠEvery": 3846,
      "Ġsatisf": 3847,
      "vo": 3848,
      "ĠJer": 3849,
      "Ġmoon": 3850,
      "Ġ39": 3851,
      "Ġstates": 3852,
      "Ġnations": 3853,
      "Ġadmir": 3854,
      "bid": 3855,
      "standing": 3856,
      "Ġterm": 3857,
      "Ġinches": 3858,
      "Ġorders": 3859,
      "anish": 3860,
      "found": 3861,
      "Ġpull": 3862,
      "Ġdwell": 3863,
      "Ġmaid": 3864,
      "Ġcred": 3865,
      "Ġjourney": 3866,
      "Ġdescribed": 3867,
      "Ġsilent": 3868,
      "Ġseason": 3869,
      "Ġappointed": 3870,
      "Ġforty": 3871,
      "Ġsail": 3872,
      "Ġpos": 3873,
      "Ġmach": 3874,
      "Ġestablished": 3875,
      "Ġanimals": 3876,
      "Ġdelic": 3877,
      "Ġtong": 3878,
      "Ġcup": 3879,
      "yr": 3880,
      "ĠEgypt": 3881,
      "Ġobtain": 3882,
      "Ġsteam": 3883,
      "UT": 3884,
      "Ġwid": 3885,
      "ĠCr": 3886,
      "Ġhighest": 3887,
      "cip": 3888,
      "Ġcapital": 3889,
      "Ġbreast": 3890,
      "Ġtaste": 3891,
      "essor": 3892,
      "iny": 3893,
      "those": 3894,
      "Ġbas": 3895,
      "Ġpractice": 3896,
      "Ġpleasant": 3897,
      "ĠĠĠĠĠĠĠĠĠĠĠĠ": 3898,
      "Ġspir": 3899,
      "ata": 3900,
      "ĠPeter": 3901,
      "Ġofficer": 3902,
      "Ġwriting": 3903,
      "Ġordinary": 3904,
      "Ġsimply": 3905,
      "ama": 3906,
      "Ġcho": 3907,
      "erted": 3908,
      "Ġdecided": 3909,
      "John": 3910,
      "Ġgarden": 3911,
      "Ġspeaking": 3912,
      "lor": 3913,
      "Ġcompar": 3914,
      "chief": 3915,
      "Ġproport": 3916,
      "Ġassem": 3917,
      "Ġpopular": 3918,
      "ait": 3919,
      "atory": 3920,
      "thought": 3921,
      "Ġignor": 3922,
      "Will": 3923,
      "kes": 3924,
      "ĠSen": 3925,
      "Ġendeav": 3926,
      "Ġdistrict": 3927,
      "iffe": 3928,
      "vation": 3929,
      "burg": 3930,
      "Ġremains": 3931,
      "31": 3932,
      "Ġyield": 3933,
      "Ġbirth": 3934,
      "Ġnumerous": 3935,
      "must": 3936,
      "Ġlies": 3937,
      "Ġdinner": 3938,
      "Ġassoci": 3939,
      "liament": 3940,
      "Ġmarriage": 3941,
      "Îµ": 3942,
      "ĠAf": 3943,
      "Ġourselves": 3944,
      "Ġsoil": 3945,
      "Ġrend": 3946,
      "Ġprinciple": 3947,
      "Ġsituation": 3948,
      "ĠSuch": 3949,
      "Ġshowed": 3950,
      "Ġnamed": 3951,
      "Ġbelieved": 3952,
      "!'": 3953,
      "Ġaccompl": 3954,
      "Ġmeaning": 3955,
      "ĠSy": 3956,
      "ential": 3957,
      "Ġopposite": 3958,
      "Ġtone": 3959,
      "atin": 3960,
      "Nor": 3961,
      "ival": 3962,
      "ĠIr": 3963,
      "Ġpublished": 3964,
      "Ġengaged": 3965,
      "peror": 3966,
      "Ġz": 3967,
      "Ġestablish": 3968,
      "cean": 3969,
      "Ġcolor": 3970,
      "lebr": 3971,
      "Ġiv": 3972,
      "Ġnews": 3973,
      "Ġremem": 3974,
      "Ġlikely": 3975,
      "Ġdiss": 3976,
      "exp": 3977,
      "jud": 3978,
      "Ġshot": 3979,
      "ĠMc": 3980,
      "ĠSept": 3981,
      "ustri": 3982,
      "Ġbeat": 3983,
      "rey": 3984,
      "retched": 3985,
      "Ġow": 3986,
      "Ġapart": 3987,
      "Ġearli": 3988,
      "Ġcand": 3989,
      "AV": 3990,
      "Ġ38": 3991,
      "vey": 3992,
      "Ġways": 3993,
      "Ġqual": 3994,
      "arsh": 3995,
      "42": 3996,
      "Ġseat": 3997,
      "Ġgreatly": 3998,
      "Ġprincipal": 3999,
      "These": 4000,
      "ĠRev": 4001,
      "ĠYes": 4002,
      "ajesty": 4003,
      "oseph": 4004,
      "ĠLouis": 4005,
      "Ġescape": 4006,
      ".;": 4007,
      "Ind": 4008,
      "ĠEast": 4009,
      "uding": 4010,
      "Ġfo": 4011,
      "Ġproud": 4012,
      "Ġintended": 4013,
      "Ġlif": 4014,
      "asing": 4015,
      "aughed": 4016,
      "ĠVirgin": 4017,
      "Ġtouch": 4018,
      "Ġplease": 4019,
      "amber": 4020,
      "Christ": 4021,
      "Ġbroke": 4022,
      "Ġstopped": 4023,
      "Ġdifficulty": 4024,
      "Ġreading": 4025,
      "Ġbox": 4026,
      "water": 4027,
      "ĠChe": 4028,
      "Ġsav": 4029,
      "Ġhistor": 4030,
      "hens": 4031,
      "ĠPort": 4032,
      "Ġminute": 4033,
      "ĠSE": 4034,
      "Ġscience": 4035,
      "ĠGreek": 4036,
      "Ġbirds": 4037,
      "Ġhappiness": 4038,
      "bon": 4039,
      "Ġvent": 4040,
      "Ġkiss": 4041,
      "atives": 4042,
      "Ġconscious": 4043,
      "Ġserve": 4044,
      "ctor": 4045,
      "urally": 4046,
      "Ġpale": 4047,
      "Ġeducation": 4048,
      "iii": 4049,
      "ĠApril": 4050,
      "Ġrepeated": 4051,
      "Ġwaters": 4052,
      "Ġcorner": 4053,
      "Ġordered": 4054,
      "Ġstation": 4055,
      "UM": 4056,
      "Ġho": 4057,
      "Ġsacred": 4058,
      "ara": 4059,
      "ĠTur": 4060,
      "Ġfill": 4061,
      "Ġcaused": 4062,
      "Ġlands": 4063,
      "Ġmatters": 4064,
      "idently": 4065,
      "ĠĠĠĠĠĠĠĠĠĠĠĠĠĠĠ": 4066,
      "Ġsatisfact": 4067,
      "Ġing": 4068,
      "quis": 4069,
      "Ġaddition": 4070,
      "Ġpresented": 4071,
      "ĠStreet": 4072,
      "erable": 4073,
      "Ġcalm": 4074,
      "Ġcab": 4075,
      "Here": 4076,
      "Ġconditions": 4077,
      "ese": 4078,
      "iden": 4079,
      "icy": 4080,
      "Ġeager": 4081,
      "Ġinformation": 4082,
      "Ġbold": 4083,
      "dy": 4084,
      "Ġhills": 4085,
      "Ġproof": 4086,
      "Ġ<": 4087,
      "Ġmiss": 4088,
      "ners": 4089,
      "aches": 4090,
      "ico": 4091,
      "Ġbecomes": 4092,
      "ios": 4093,
      "attered": 4094,
      "Ġgrat": 4095,
      "oned": 4096,
      "Ġdifference": 4097,
      "75": 4098,
      "Ġsli": 4099,
      "Ġyellow": 4100,
      "Ġbeside": 4101,
      "Ġunderstood": 4102,
      "Ġpieces": 4103,
      "Ġoffer": 4104,
      "Ġneck": 4105,
      "Ġjudgment": 4106,
      "many": 4107,
      "Ġupper": 4108,
      "Ġgrass": 4109,
      "Ġseek": 4110,
      "Ġworthy": 4111,
      "Ġwaiting": 4112,
      "comp": 4113,
      "Ġrunning": 4114,
      "Ġemploy": 4115,
      "._,": 4116,
      "Ġinhabitants": 4117,
      "Ġbrave": 4118,
      "Ġfish": 4119,
      "ĠEs": 4120,
      "acity": 4121,
      "Ġunf": 4122,
      "Ġthorough": 4123,
      "Ġange": 4124,
      "Ġsquare": 4125,
      "Ġmor": 4126,
      "Ġfollows": 4127,
      "Ġpride": 4128,
      "atures": 4129,
      "stone": 4130,
      "rose": 4131,
      "Ġmarked": 4132,
      "himself": 4133,
      "Ġjudge": 4134,
      "Ġperfectly": 4135,
      "Ġfinally": 4136,
      "cis": 4137,
      "oles": 4138,
      "Ġspent": 4139,
      "Ġcounty": 4140,
      "uten": 4141,
      "Ġmult": 4142,
      "Ġsteps": 4143,
      "Ġsuperior": 4144,
      "Ġexper": 4145,
      "ĠMass": 4146,
      "Ġiii": 4147,
      "supp": 4148,
      "inces": 4149,
      "Ġdistant": 4150,
      "essed": 4151,
      "Ġproduce": 4152,
      "Ġwine": 4153,
      "Ġsch": 4154,
      "esh": 4155,
      "enes": 4156,
      "Ġtaught": 4157,
      "Ġindepend": 4158,
      "Ġideas": 4159,
      "Ġ45": 4160,
      "Ġearnest": 4161,
      "ĠTe": 4162,
      "low": 4163,
      "Ġsplend": 4164,
      "Ġ/": 4165,
      "mod": 4166,
      "Ġspeed": 4167,
      "Ġreign": 4168,
      "astern": 4169,
      "icks": 4170,
      "Ġexcellent": 4171,
      "Ġexhib": 4172,
      "Ġserious": 4173,
      "Ġdaily": 4174,
      "Ġbitter": 4175,
      "ĠĠĠĠĠĠĠĠĠĠĠĠĠĠ": 4176,
      "Ġstage": 4177,
      "pers": 4178,
      "Ġpage": 4179,
      "Ġclean": 4180,
      "verse": 4181,
      "Ġsuffer": 4182,
      "Ġopportunity": 4183,
      "Ġprim": 4184,
      "ĠJust": 4185,
      "AB": 4186,
      "ĠDuke": 4187,
      "ĠEli": 4188,
      "did": 4189,
      "Ġroyal": 4190,
      "oston": 4191,
      "Ġfashion": 4192,
      "Ġgame": 4193,
      "ĠIV": 4194,
      "Ġthro": 4195,
      "Ġod": 4196,
      "Ġbrown": 4197,
      "nes": 4198,
      "Ġlot": 4199,
      "ĠEven": 4200,
      "Ġfier": 4201,
      "200": 4202,
      "ims": 4203,
      "Ġcheer": 4204,
      "pons": 4205,
      "Ġclosed": 4206,
      "Ġuseful": 4207,
      "icate": 4208,
      "Ġ180": 4209,
      "Ġremoved": 4210,
      "ĠIts": 4211,
      "pelled": 4212,
      "cles": 4213,
      "give": 4214,
      "Ġge": 4215,
      "Ġnational": 4216,
      ".âĢĶ": 4217,
      "ĠBer": 4218,
      "ulous": 4219,
      "Ġstop": 4220,
      "Ġtor": 4221,
      "ĠIm": 4222,
      "Ġsitting": 4223,
      "illy": 4224,
      "Ġvan": 4225,
      "Ġafternoon": 4226,
      "ĠRE": 4227,
      "ocr": 4228,
      "Ġsettled": 4229,
      "aked": 4230,
      "ulated": 4231,
      "ainted": 4232,
      "Ġreply": 4233,
      "Ġaud": 4234,
      "racted": 4235,
      "80": 4236,
      "70": 4237,
      "het": 4238,
      "ober": 4239,
      "Ġshout": 4240,
      "Ġlaughed": 4241,
      "Ġlooks": 4242,
      "ĠVol": 4243,
      "osen": 4244,
      "Ġâĸł": 4245,
      "Ġexped": 4246,
      "last": 4247,
      "Ġje": 4248,
      "Ġ\\": 4249,
      "Ġheads": 4250,
      "-+": 4251,
      "ule": 4252,
      "UN": 4253,
      "Ġremarkable": 4254,
      "Ġadvance": 4255,
      "mo": 4256,
      "ino": 4257,
      "Ġships": 4258,
      "Ġinstruct": 4259,
      "ĠCity": 4260,
      "Ġegg": 4261,
      "Ġrate": 4262,
      "Ġaffairs": 4263,
      "Ġwel": 4264,
      "three": 4265,
      "Ġmanif": 4266,
      "Ġevents": 4267,
      "EW": 4268,
      "Ġring": 4269,
      "ĠRobert": 4270,
      "Ġstyle": 4271,
      "nding": 4272,
      "Ġparticularly": 4273,
      "olved": 4274,
      "Ġkill": 4275,
      "Ġsevent": 4276,
      "ĠMag": 4277,
      "Ġ200": 4278,
      "lection": 4279,
      "ĠColonel": 4280,
      "Ġevent": 4281,
      "Ġhonest": 4282,
      "Ġfortune": 4283,
      "Ġsought": 4284,
      "rary": 4285,
      "ĠTH": 4286,
      "Ġaddress": 4287,
      "ette": 4288,
      "Ġsolemn": 4289,
      "uries": 4290,
      "Ġcorrespond": 4291,
      "Ġduties": 4292,
      "oming": 4293,
      "Ġthrown": 4294,
      "Ġlying": 4295,
      "ĠDiv": 4296,
      "ien": 4297,
      "serv": 4298,
      "ĠĠĠĠĠĠĠĠĠĠĠĠĠĠĠĠĠ": 4299,
      "Ġthreat": 4300,
      "Ġprayer": 4301,
      "Ġthin": 4302,
      "ĠRiver": 4303,
      "ĠUnion": 4304,
      "uable": 4305,
      "Ġrights": 4306,
      "Ġexceed": 4307,
      "Ġdam": 4308,
      "ancing": 4309,
      "Ġfond": 4310,
      "Ġbottom": 4311,
      "aper": 4312,
      "ishes": 4313,
      "See": 4314,
      "Ġoccupied": 4315,
      "=,": 4316,
      "Ġpurch": 4317,
      "Ġque": 4318,
      "cur": 4319,
      "Ġfamiliar": 4320,
      "Ġmighty": 4321,
      "met": 4322,
      "Ġvig": 4323,
      "udes": 4324,
      "inity": 4325,
      "Ġfate": 4326,
      "idenote": 4327,
      "tw": 4328,
      "ault": 4329,
      "iation": 4330,
      "Ġladies": 4331,
      "bel": 4332,
      "ĠPal": 4333,
      "Ġsubjects": 4334,
      "ĠÂ£": 4335,
      "ais": 4336,
      "Ġpromise": 4337,
      "somet": 4338,
      "Ġblind": 4339,
      "Ġarrange": 4340,
      "Ġpreced": 4341,
      "ĠPat": 4342,
      "Ġsor": 4343,
      "Ġteacher": 4344,
      "using": 4345,
      "Ġaffection": 4346,
      "ÏĤ": 4347,
      "Ġworking": 4348,
      "Ġdarkness": 4349,
      "bro": 4350,
      "Âł": 4351,
      "eper": 4352,
      "Ġequally": 4353,
      "ĠLib": 4354,
      "isp": 4355,
      "Ġperform": 4356,
      "Ġsearch": 4357,
      "Ġconsist": 4358,
      "aining": 4359,
      "Ġwished": 4360,
      "ĠFort": 4361,
      "41": 4362,
      "Sidenote": 4363,
      "Ġsons": 4364,
      "called": 4365,
      "amm": 4366,
      "rant": 4367,
      "ĠSociety": 4368,
      "Ġdu": 4369,
      "ĠSmith": 4370,
      "iance": 4371,
      "Ġstands": 4372,
      "ĠLife": 4373,
      "life": 4374,
      "Ġquarter": 4375,
      "Ġweeks": 4376,
      "Ġshut": 4377,
      "Ġconversation": 4378,
      "hor": 4379,
      "Ġprec": 4380,
      "Ġtitle": 4381,
      "morrow": 4382,
      "ads": 4383,
      "Ġstir": 4384,
      "Pr": 4385,
      "ĠGood": 4386,
      "ica": 4387,
      "Ġobliged": 4388,
      "Ġmovement": 4389,
      "Le": 4390,
      "_;": 4391,
      "ARD": 4392,
      "Ġpleased": 4393,
      "Ġotherwise": 4394,
      "vis": 4395,
      "Ġquestions": 4396,
      "Ġleading": 4397,
      "Ġsharp": 4398,
      "Ġtrad": 4399,
      "Ġlarger": 4400,
      "Ġsake": 4401,
      "bury": 4402,
      "ĠFrank": 4403,
      "Ġcurious": 4404,
      "ĠHall": 4405,
      "ĠMo": 4406,
      "cond": 4407,
      "Ġcourage": 4408,
      "Ġsecure": 4409,
      "Ġwear": 4410,
      "Ġep": 4411,
      "Ã¨": 4412,
      "Ġterrible": 4413,
      "Ġtrou": 4414,
      "ĠFirst": 4415,
      "Ġfeelings": 4416,
      "ological": 4417,
      "Ġcool": 4418,
      "Ġeffort": 4419,
      "Ġdate": 4420,
      "ordinary": 4421,
      "umes": 4422,
      "itute": 4423,
      "Ġcaptain": 4424,
      "Ġspoken": 4425,
      "Ġsympath": 4426,
      "people": 4427,
      "43": 4428,
      "Ġmajor": 4429,
      "Ġ179": 4430,
      "ĠMed": 4431,
      "ension": 4432,
      "astic": 4433,
      "athered": 4434,
      "Ġcelebr": 4435,
      "ada": 4436,
      "Ġresults": 4437,
      "ĠSch": 4438,
      "Ġfreedom": 4439,
      "ĠWhile": 4440,
      "Ġmir": 4441,
      "course": 4442,
      "Ad": 4443,
      "Ġcarefully": 4444,
      "Ġrelations": 4445,
      "Ġpopulation": 4446,
      "Tr": 4447,
      "Ġextend": 4448,
      "child": 4449,
      "ago": 4450,
      "Ġprovided": 4451,
      "acle": 4452,
      "Ġarriv": 4453,
      "ĠSpain": 4454,
      "Ġtriumph": 4455,
      "Ġnine": 4456,
      "flict": 4457,
      "rap": 4458,
      "Ġfallen": 4459,
      "Ġvirtue": 4460,
      "izing": 4461,
      "Ġresem": 4462,
      "ĠCON": 4463,
      "Ġlear": 4464,
      "Ġweather": 4465,
      "alous": 4466,
      "fs": 4467,
      "OS": 4468,
      "take": 4469,
      "Ġslave": 4470,
      "erves": 4471,
      "bit": 4472,
      "Ġfarm": 4473,
      "Ġsword": 4474,
      "mony": 4475,
      "Ġnecessity": 4476,
      "Ġafford": 4477,
      "IF": 4478,
      "Ġsusp": 4479,
      "Ġerect": 4480,
      "Ġobjects": 4481,
      "ĠHoly": 4482,
      "ĠCath": 4483,
      "Ġcell": 4484,
      "Ġmember": 4485,
      "Ġris": 4486,
      "fall": 4487,
      "Ġbesides": 4488,
      "Ġregarded": 4489,
      "Ġwonderful": 4490,
      "Ġthroughout": 4491,
      "Ġstro": 4492,
      "Ġbrief": 4493,
      "Ġvolume": 4494,
      "Ġturning": 4495,
      "sue": 4496,
      "mas": 4497,
      "Ġshare": 4498,
      "Ġcolour": 4499,
      "ana": 4500,
      "country": 4501,
      "ĠSpirit": 4502,
      "Ġapplied": 4503,
      "Ġminds": 4504,
      "Ġ31": 4505,
      "Ġgroup": 4506,
      "Ġspiritual": 4507,
      "Ġcentre": 4508,
      "ilities": 4509,
      "cket": 4510,
      "ĠPart": 4511,
      "ĠProv": 4512,
      "Ġnumbers": 4513,
      "Ġdistinguished": 4514,
      "ĠAfric": 4515,
      "Ġdollars": 4516,
      "Don": 4517,
      "ivity": 4518,
      "Ġears": 4519,
      "EST": 4520,
      "66": 4521,
      "Ġpounds": 4522,
      "Ġcontrary": 4523,
      "Ġcommit": 4524,
      "Ġprice": 4525,
      "cor": 4526,
      "urb": 4527,
      "gs": 4528,
      "Ġintellect": 4529,
      "May": 4530,
      "ritory": 4531,
      "wr": 4532,
      "Ġsevere": 4533,
      "usted": 4534,
      "utation": 4535,
      "Ġstreets": 4536,
      "Ġinstr": 4537,
      "Ġbodies": 4538,
      "estic": 4539,
      "Ġble": 4540,
      "Ġbra": 4541,
      "Ġ....": 4542,
      "á½": 4543,
      "Ġrising": 4544,
      "Ġtall": 4545,
      "don": 4546,
      "line": 4547,
      "nor": 4548,
      "ĠMer": 4549,
      "shall": 4550,
      "necess": 4551,
      "Ġtrying": 4552,
      "ste": 4553,
      "ĠAlex": 4554,
      "const": 4555,
      "ĠCompany": 4556,
      "Ġcruel": 4557,
      "Ġsupply": 4558,
      "Ġpp": 4559,
      "ĠEdward": 4560,
      "Ġloud": 4561,
      "Ġbase": 4562,
      "Ġcommer": 4563,
      "Ġtransl": 4564,
      "Pro": 4565,
      "ĠSan": 4566,
      "asts": 4567,
      "Ġproportion": 4568,
      "requ": 4569,
      "ĠMount": 4570,
      "Se": 4571,
      "Ġincreased": 4572,
      "leep": 4573,
      "Ġsucceeded": 4574,
      "Ġcultiv": 4575,
      "book": 4576,
      "Ġgolden": 4577,
      "ĠHeaven": 4578,
      "ĠLove": 4579,
      "ips": 4580,
      "Ġdign": 4581,
      "rab": 4582,
      "Ġfamous": 4583,
      "Ġforced": 4584,
      "ds": 4585,
      "ĠProf": 4586,
      "Ġshows": 4587,
      "Ïģ": 4588,
      "While": 4589,
      "OD": 4590,
      "Ġgar": 4591,
      "Ġworse": 4592,
      "Ġopening": 4593,
      "orous": 4594,
      "Ġrad": 4595,
      "Ġservant": 4596,
      "sw": 4597,
      "Ġconsequence": 4598,
      "Ġnon": 4599,
      "ĠHigh": 4600,
      "aine": 4601,
      "cember": 4602,
      "ĠMex": 4603,
      "**": 4604,
      "IM": 4605,
      "ORY": 4606,
      "Ġshape": 4607,
      "mind": 4608,
      "key": 4609,
      "ĠWil": 4610,
      "rous": 4611,
      "change": 4612,
      "Ġconcer": 4613,
      "New": 4614,
      "Ġdrawing": 4615,
      "icious": 4616,
      "follow": 4617,
      "ĠNature": 4618,
      "Ġdoctor": 4619,
      "unday": 4620,
      "Per": 4621,
      "atis": 4622,
      "utenant": 4623,
      "aith": 4624,
      "ula": 4625,
      "Ġentertain": 4626,
      "Ġhid": 4627,
      "Ġstorm": 4628,
      "Ġwriter": 4629,
      "pring": 4630,
      "Ġvalley": 4631,
      "ĠDes": 4632,
      "55": 4633,
      "cknow": 4634,
      "pered": 4635,
      "Ġdouble": 4636,
      "Ġrank": 4637,
      "Ġfancy": 4638,
      "ora": 4639,
      "Ġpowerful": 4640,
      "Ġtongue": 4641,
      "ĠRed": 4642,
      "Ġworship": 4643,
      "Ġsalt": 4644,
      "Ġfright": 4645,
      "Ġserved": 4646,
      "rive": 4647,
      "Ġapplic": 4648,
      "commend": 4649,
      "ĠJoseph": 4650,
      "bey": 4651,
      "Ġgentlemen": 4652,
      "ĠMil": 4653,
      "ĠFig": 4654,
      "OP": 4655,
      "ĠRichard": 4656,
      "turn": 4657,
      "Ġincrease": 4658,
      "ifferent": 4659,
      "Ġinvest": 4660,
      "Ġrelation": 4661,
      "vi": 4662,
      "Ġconnected": 4663,
      "Ġspirits": 4664,
      "Ġmission": 4665,
      "Ġmilk": 4666,
      "Ġbare": 4667,
      "Ġcolon": 4668,
      "Ġadmin": 4669,
      "ground": 4670,
      "friend": 4671,
      "Ġdivided": 4672,
      "Ġwisdom": 4673,
      "\"'": 4674,
      "ĠRoy": 4675,
      "ilst": 4676,
      "76": 4677,
      "Ġpa": 4678,
      "ceive": 4679,
      "uit": 4680,
      "ĠHon": 4681,
      "Ġdiscover": 4682,
      "oked": 4683,
      "Ġdust": 4684,
      "Ġreader": 4685,
      "Ġrough": 4686,
      "ĠVer": 4687,
      "present": 4688,
      "Ġbab": 4689,
      "Ġtax": 4690,
      "ashed": 4691,
      "Ġforces": 4692,
      "Ġspite": 4693,
      "ĠRom": 4694,
      "âĢķâĢķ": 4695,
      "ĠSpanish": 4696,
      "Ġfault": 4697,
      "Ġexactly": 4698,
      "Ġwoods": 4699,
      "Ġdem": 4700,
      "Ġacknow": 4701,
      "Ġwounded": 4702,
      "ĠDE": 4703,
      "Ġmanufact": 4704,
      "aud": 4705,
      "Ġ190": 4706,
      "Ġloc": 4707,
      "nal": 4708,
      "pret": 4709,
      "Ġtu": 4710,
      "lder": 4711,
      "Ġgate": 4712,
      "ĠTwo": 4713,
      "lands": 4714,
      "ĠBook": 4715,
      "Ġfinished": 4716,
      "Ġprince": 4717,
      "Ġrocks": 4718,
      "Ġconstitution": 4719,
      "Ġrequire": 4720,
      "angers": 4721,
      "onder": 4722,
      "sit": 4723,
      "Ġflesh": 4724,
      "Ġunknown": 4725,
      "hem": 4726,
      "Ġconfidence": 4727,
      "IA": 4728,
      "Ġwin": 4729,
      "Ġblow": 4730,
      "hum": 4731,
      "va": 4732,
      "âĶĢâĶĢâĶĢâĶĢâĶĢâĶĢâĶĢâĶĢ": 4733,
      "mark": 4734,
      "Ġdisease": 4735,
      "Ah": 4736,
      "Ġthank": 4737,
      "belie": 4738,
      "ĠĠĠĠĠĠĠĠĠĠĠĠĠĠĠĠĠĠ": 4739,
      "arest": 4740,
      "Ġsoldier": 4741,
      "Ġhunt": 4742,
      "ĠReg": 4743,
      "Some": 4744,
      "Ġexpressed": 4745,
      "same": 4746,
      "Ġseries": 4747,
      "ded": 4748,
      "Ġpi": 4749,
      "utch": 4750,
      "Ġcitizens": 4751,
      "power": 4752,
      "Ġpictures": 4753,
      "Ġlocal": 4754,
      "think": 4755,
      "ĠCast": 4756,
      "Ġdesired": 4757,
      "ĠWhite": 4758,
      "panied": 4759,
      "say": 4760,
      "ta": 4761,
      "Ġcontem": 4762,
      "Ġdescri": 4763,
      "Ġdescription": 4764,
      "56": 4765,
      "ospel": 4766,
      "Ġrob": 4767,
      "aling": 4768,
      "Ġprefer": 4769,
      "Ġinstant": 4770,
      "Am": 4771,
      "eous": 4772,
      "aved": 4773,
      "Ġsurprise": 4774,
      "ĠâĢĿ": 4775,
      "Ġlose": 4776,
      "ĠMont": 4777,
      "mond": 4778,
      "Ġpred": 4779,
      "Ġimprove": 4780,
      "host": 4781,
      "ELL": 4782,
      "tering": 4783,
      "Ab": 4784,
      "mother": 4785,
      "Ã¢": 4786,
      "ART": 4787,
      "ĠDavid": 4788,
      "oring": 4789,
      "Ġexercise": 4790,
      "Ġpron": 4791,
      "Ġholding": 4792,
      "interest": 4793,
      "aret": 4794,
      "Ġhence": 4795,
      "Ġtal": 4796,
      "appeared": 4797,
      "ĠFeb": 4798,
      "ols": 4799,
      "ĠMart": 4800,
      "oper": 4801,
      "Ġadvanced": 4802,
      "ĠBoston": 4803,
      "ANT": 4804,
      "Ġanxious": 4805,
      "CON": 4806,
      "Ġxx": 4807,
      "hether": 4808,
      "giv": 4809,
      "atur": 4810,
      "ushing": 4811,
      "Ġfaithful": 4812,
      "Ġconcerning": 4813,
      "Ġthrew": 4814,
      "Ġrev": 4815,
      "reland": 4816,
      "ĠHam": 4817,
      "Ġpack": 4818,
      "ĠIndia": 4819,
      "asc": 4820,
      "Ġroof": 4821,
      "Ġadmitted": 4822,
      "Ġburst": 4823,
      "VI": 4824,
      "Ġdisci": 4825,
      "ĠFOR": 4826,
      "Ġclim": 4827,
      "Ġhab": 4828,
      "ĠBen": 4829,
      "war": 4830,
      "Ġpossessed": 4831,
      "Ġstars": 4832,
      "Ġwilling": 4833,
      "Ġcauses": 4834,
      "asant": 4835,
      ":--": 4836,
      "sper": 4837,
      "ĠEl": 4838,
      "ributed": 4839,
      "Ġtim": 4840,
      "Ġtruly": 4841,
      "Ġpraise": 4842,
      "Ġedge": 4843,
      "ĠMen": 4844,
      "ĠSav": 4845,
      "eder": 4846,
      ",)": 4847,
      "Ġadopted": 4848,
      "Ġvers": 4849,
      "offe": 4850,
      "Ġenemies": 4851,
      "ĠCoun": 4852,
      "inet": 4853,
      "Ġfame": 4854,
      "Ġlat": 4855,
      "Ġstated": 4856,
      "Ġempt": 4857,
      "ĠSon": 4858,
      "rifice": 4859,
      "Ġdirectly": 4860,
      "Ġgrowing": 4861,
      "shire": 4862,
      "isher": 4863,
      "ĠLie": 4864,
      "Ġbal": 4865,
      "ouring": 4866,
      "ĠBible": 4867,
      "urches": 4868,
      "Ġquantity": 4869,
      "sl": 4870,
      "sey": 4871,
      "Ġsan": 4872,
      "ĠĠĠĠĠĠĠĠĠĠĠĠĠĠĠĠĠĠĠ": 4873,
      "58": 4874,
      "En": 4875,
      "ĠHistory": 4876,
      "equ": 4877,
      "Ġteach": 4878,
      "ari": 4879,
      "ovember": 4880,
      "orted": 4881,
      "Ġadvent": 4882,
      "Ġactive": 4883,
      "ixt": 4884,
      "Ġrender": 4885,
      "against": 4886,
      "ĠGen": 4887,
      "Cl": 4888,
      "Ġshadow": 4889,
      "half": 4890,
      "Ġplants": 4891,
      "Ġjoined": 4892,
      "ENTS": 4893,
      "Ġaston": 4894,
      "ption": 4895,
      "Ġflower": 4896,
      "Ġtheory": 4897,
      "Ġice": 4898,
      "Ġinnoc": 4899,
      "Ġfaint": 4900,
      "Ġ49": 4901,
      "Ġconnection": 4902,
      "General": 4903,
      "Ġfly": 4904,
      "Ġnaturally": 4905,
      "otes": 4906,
      "Ġminister": 4907,
      "Ġaside": 4908,
      "chan": 4909,
      "looking": 4910,
      "Ġviews": 4911,
      "ĠPol": 4912,
      "agon": 4913,
      "_)": 4914,
      "edy": 4915,
      "quar": 4916,
      "oft": 4917,
      "Col": 4918,
      "Ġcatch": 4919,
      "ĠXX": 4920,
      "ĠWal": 4921,
      "oration": 4922,
      "ca": 4923,
      "Pl": 4924,
      "Ġmile": 4925,
      "ĠSer": 4926,
      "Ġtype": 4927,
      "Ġrefused": 4928,
      "Ġtext": 4929,
      "itz": 4930,
      "Ġcurrent": 4931,
      "ses": 4932,
      "Ġacts": 4933,
      "ĠInst": 4934,
      "aints": 4935,
      "Ġaver": 4936,
      "Ġ----": 4937,
      "Ġpatri": 4938,
      "Ġcere": 4939,
      "Ġtlie": 4940,
      "ĠAct": 4941,
      "Ġaltogether": 4942,
      ",[": 4943,
      "Ġhighly": 4944,
      "Ġbell": 4945,
      "Ġsubs": 4946,
      "adv": 4947,
      "ĠYour": 4948,
      "Ġgenius": 4949,
      "Ġdescend": 4950,
      "Ġskin": 4951,
      "Ġdoctrine": 4952,
      "Ġpointed": 4953,
      "Â£": 4954,
      "Ġgrown": 4955,
      "theless": 4956,
      "Ġclearly": 4957,
      "OC": 4958,
      "point": 4959,
      "Our": 4960,
      "77": 4961,
      "imony": 4962,
      "years": 4963,
      "BER": 4964,
      "Ġmerch": 4965,
      "ky": 4966,
      "ĠMany": 4967,
      "conscious": 4968,
      "Ġefforts": 4969,
      "ĠBlack": 4970,
      "ardon": 4971,
      "Ġhopes": 4972,
      "alls": 4973,
      "Ġ100": 4974,
      "ropri": 4975,
      "tle": 4976,
      "ller": 4977,
      "ĠAcc": 4978,
      "Ġmal": 4979,
      "mir": 4980,
      "Ġ178": 4981,
      "Ġdare": 4982,
      "aning": 4983,
      "ĠIrish": 4984,
      "away": 4985,
      "Ġ60": 4986,
      "Ġdevelopment": 4987,
      "Ġbore": 4988,
      "ĠOctober": 4989,
      "Ġmarch": 4990,
      "Äģ": 4991,
      "ĠCam": 4992,
      "iform": 4993,
      "Ġpapers": 4994,
      "vious": 4995,
      "Ġactually": 4996,
      "Ġprepar": 4997,
      "ĠSpe": 4998,
      "Ġcomposed": 4999,
      "Ġrepresented": 5000,
      "Ġslaves": 5001,
      "Ġagreed": 5002,
      "Ġpromised": 5003,
      "world": 5004,
      "ato": 5005,
      "Ġcountries": 5006,
      "Ġgather": 5007,
      "''": 5008,
      "born": 5009,
      "Ġfields": 5010,
      "Ġpractical": 5011,
      "mense": 5012,
      "Ġrespons": 5013,
      "eping": 5014,
      "Qu": 5015,
      "Ġstranger": 5016,
      "Ġhosp": 5017,
      "Ġcro": 5018,
      "Ġinterests": 5019,
      "Ġgain": 5020,
      "Ġclothes": 5021,
      "ĠSal": 5022,
      "Ġbrain": 5023,
      "Ġconven": 5024,
      "Ġvaluable": 5025,
      "Ġfailed": 5026,
      "overy": 5027,
      "ĠPet": 5028,
      "Ġissu": 5029,
      "Ġmercy": 5030,
      "Ġsuffered": 5031,
      "Ġflour": 5032,
      "Ġlake": 5033,
      "Ġschools": 5034,
      "oph": 5035,
      "Ġmas": 5036,
      "Ġintroduced": 5037,
      "Ġtalking": 5038,
      "Ġsouls": 5039,
      "Ġjoin": 5040,
      "pur": 5041,
      "Ġpit": 5042,
      "Ġchosen": 5043,
      "Ġbull": 5044,
      "Ġpriest": 5045,
      "conf": 5046,
      "Ġgrowth": 5047,
      "pected": 5048,
      "Ġtask": 5049,
      "CTION": 5050,
      "Ġuncle": 5051,
      "ĠCont": 5052,
      "Ġconsideration": 5053,
      "anch": 5054,
      "agg": 5055,
      "iah": 5056,
      "Ġglance": 5057,
      "Ġparties": 5058,
      "68": 5059,
      "Ġvessels": 5060,
      "ĠMac": 5061,
      "mal": 5062,
      "Ġvariety": 5063,
      "ĠGermany": 5064,
      "Ġphysical": 5065,
      "Ġflat": 5066,
      "OUR": 5067,
      "Ġsaved": 5068,
      "rors": 5069,
      "Ġparents": 5070,
      "Ġkeeping": 5071,
      "59": 5072,
      "Ġkinds": 5073,
      "ician": 5074,
      "Ġproposed": 5075,
      "Ġcloth": 5076,
      "Ġdisg": 5077,
      "adel": 5078,
      "ooth": 5079,
      "Ġthrone": 5080,
      "Ġfifteen": 5081,
      "unch": 5082,
      "á¼": 5083,
      "Ġservants": 5084,
      "Ġpity": 5085,
      "ped": 5086,
      "ĠBrown": 5087,
      "Ġmyst": 5088,
      "Ġbrill": 5089,
      "Ġoccurred": 5090,
      "Ġtea": 5091,
      "Ġoil": 5092,
      "ĠGrand": 5093,
      "ĠPR": 5094,
      "pes": 5095,
      "ldom": 5096,
      "Ġtempt": 5097,
      "came": 5098,
      "mans": 5099,
      "AIN": 5100,
      "',": 5101,
      "ĠMore": 5102,
      "Ġages": 5103,
      "Â·": 5104,
      "ĠĠĠĠĠĠĠĠĠĠĠĠĠĠĠĠĠĠĠĠĠĠĠĠĠ": 5105,
      "avy": 5106,
      "Ġrapidly": 5107,
      "bus": 5108,
      "Ġcontrol": 5109,
      "ĠThou": 5110,
      "Ġabund": 5111,
      "ĠAN": 5112,
      "iversity": 5113,
      "ĠSchool": 5114,
      "Ġworked": 5115,
      "between": 5116,
      "held": 5117,
      "ĠItaly": 5118,
      "Ġanti": 5119,
      "Ġfarther": 5120,
      "Ġfer": 5121,
      "ĠPers": 5122,
      "Ġwand": 5123,
      "Ġaband": 5124,
      "Ġknowing": 5125,
      "rael": 5126,
      "Ġcontent": 5127,
      "ĠGovernor": 5128,
      "irect": 5129,
      "acters": 5130,
      "Sir": 5131,
      "Ġconstant": 5132,
      "ounding": 5133,
      "yer": 5134,
      "Ġbranches": 5135,
      "anim": 5136,
      "plic": 5137,
      "Ġdisapp": 5138,
      "IX": 5139,
      "appear": 5140,
      "Ġdriven": 5141,
      "Ġskill": 5142,
      "ĠTer": 5143,
      "cho": 5144,
      "Ġprofession": 5145,
      "ĠSeptember": 5146,
      "iece": 5147,
      "Ġcow": 5148,
      "Ġgrief": 5149,
      "Ġsorry": 5150,
      "kins": 5151,
      "Ġbelief": 5152,
      "vest": 5153,
      "ĠMaster": 5154,
      "Ġofficial": 5155,
      "Ġdangerous": 5156,
      "Ġpurposes": 5157,
      "ĠMa": 5158,
      "Ġsex": 5159,
      "ĠDecember": 5160,
      "Ġeffects": 5161,
      "Ġpair": 5162,
      "abeth": 5163,
      "Ġprevious": 5164,
      "Ġarr": 5165,
      "AG": 5166,
      "make": 5167,
      "Ġdisplay": 5168,
      "ĠAc": 5169,
      "another": 5170,
      "Ġforgotten": 5171,
      "Ġthrow": 5172,
      "agement": 5173,
      "OV": 5174,
      "Ġlack": 5175,
      "Ġcities": 5176,
      "Miss": 5177,
      "Ġsaf": 5178,
      "ĠVirginia": 5179,
      "ĠSunday": 5180,
      "Ġregion": 5181,
      "Ġcarrying": 5182,
      "ĠBel": 5183,
      "Ġbearing": 5184,
      "Br": 5185,
      "ĠBritain": 5186,
      "Ġends": 5187,
      "Ġrelief": 5188,
      "otton": 5189,
      "Ġsugar": 5190,
      "ĠAnn": 5191,
      "Ġnice": 5192,
      "Ġfigures": 5193,
      "Ġvo": 5194,
      "ĠLu": 5195,
      "Ġgathered": 5196,
      "reek": 5197,
      "ĠAg": 5198,
      "78": 5199,
      "ĠCent": 5200,
      "Ġclo": 5201,
      "Ġprotect": 5202,
      "Ġamid": 5203,
      "aft": 5204,
      "Ġlevel": 5205,
      "Ġfemale": 5206,
      "Ġrub": 5207,
      "65": 5208,
      ";\"": 5209,
      "ĠAh": 5210,
      "ĠIreland": 5211,
      "Ġstones": 5212,
      "ĠArch": 5213,
      "Ġlod": 5214,
      "Ġquality": 5215,
      "Ġtowns": 5216,
      "Ġtreated": 5217,
      "Ġft": 5218,
      "90": 5219,
      "sured": 5220,
      "seen": 5221,
      "Ġevidently": 5222,
      "Ġwatched": 5223,
      "Ġpolicy": 5224,
      "Ġspect": 5225,
      "Ġfee": 5226,
      "Ġsurely": 5227,
      "ĠON": 5228,
      "Â§": 5229,
      "because": 5230,
      "OG": 5231,
      "lle": 5232,
      "Ïĥ": 5233,
      "ulate": 5234,
      "inions": 5235,
      "yd": 5236,
      "Ġcontinue": 5237,
      "Ġneeded": 5238,
      "HT": 5239,
      "Ġglorious": 5240,
      "hib": 5241,
      "fin": 5242,
      "ĠSou": 5243,
      "Ġcircle": 5244,
      "Ġshook": 5245,
      "Ġsuit": 5246,
      "Ġ>": 5247,
      "inction": 5248,
      "incess": 5249,
      "Ġprivile": 5250,
      "Ġ48": 5251,
      "lers": 5252,
      "epart": 5253,
      "hus": 5254,
      "Ġdiam": 5255,
      "fle": 5256,
      "org": 5257,
      "Ġflight": 5258,
      "rences": 5259,
      "anks": 5260,
      "ean": 5261,
      "Ġteeth": 5262,
      "Ġadmit": 5263,
      "Ġ00": 5264,
      "Ġeternal": 5265,
      "ĠJanuary": 5266,
      "ARY": 5267,
      "took": 5268,
      "Ġarticle": 5269,
      "Ġexplained": 5270,
      "Ġguns": 5271,
      "Ġrout": 5272,
      "Ġmidst": 5273,
      "Ġfund": 5274,
      "Ġcareful": 5275,
      "mount": 5276,
      "Ġassist": 5277,
      "Ġwholly": 5278,
      "Ġsmiled": 5279,
      "etch": 5280,
      "erk": 5281,
      "Ġrendered": 5282,
      "Ġactual": 5283,
      "Ġwants": 5284,
      "Ġsuggested": 5285,
      "nothing": 5286,
      "OH": 5287,
      "Ġtwice": 5288,
      "riving": 5289,
      "Ġgods": 5290,
      "ĠThy": 5291,
      "Ġreck": 5292,
      "ĠGo": 5293,
      "others": 5294,
      "Ġlovely": 5295,
      "iour": 5296,
      "ĠWood": 5297,
      "Ġobst": 5298,
      "emp": 5299,
      "Ġnoticed": 5300,
      "lt": 5301,
      "Ġhandsome": 5302,
      "Ġpup": 5303,
      "Ġmarry": 5304,
      "Ġwicked": 5305,
      "Ġrecommend": 5306,
      "Ġcreature": 5307,
      "pic": 5308,
      "ALL": 5309,
      "zabeth": 5310,
      "Ġinfer": 5311,
      "ruary": 5312,
      "Ġhither": 5313,
      "Ġplayed": 5314,
      "ĠĠĠĠĠĠĠĠĠĠĠĠĠĠĠĠĠĠĠĠ": 5315,
      "ĠBay": 5316,
      "RY": 5317,
      "Ġpersu": 5318,
      "mons": 5319,
      "Ġmurm": 5320,
      "Ġreference": 5321,
      "Ġcontains": 5322,
      "miss": 5323,
      "ĠLand": 5324,
      "Ġfaces": 5325,
      "Ġapparently": 5326,
      "Ġfingers": 5327,
      "cended": 5328,
      "Ġchanges": 5329,
      "Ġdirected": 5330,
      "Ġfinding": 5331,
      "Ġseparate": 5332,
      "Ġcapable": 5333,
      "Ġsatisfied": 5334,
      "rows": 5335,
      "Ġsource": 5336,
      "ORD": 5337,
      "elf": 5338,
      "mist": 5339,
      "teenth": 5340,
      "ĠLatin": 5341,
      "Ġproject": 5342,
      "Ġfan": 5343,
      "acon": 5344,
      "Ġcrim": 5345,
      "blem": 5346,
      "Ġflag": 5347,
      "Ġcolumn": 5348,
      "lim": 5349,
      "ILL": 5350,
      "Ġgradually": 5351,
      "Ġlegs": 5352,
      "AK": 5353,
      "ĠArt": 5354,
      "Ġpatient": 5355,
      "Ġremembered": 5356,
      "iqu": 5357,
      "Ġarrival": 5358,
      "Ġant": 5359,
      "alog": 5360,
      "Ġchiefly": 5361,
      "fam": 5362,
      "Ġreven": 5363,
      "Ġmental": 5364,
      "Ġtrial": 5365,
      "Ġbutter": 5366,
      "Ġproceeded": 5367,
      "Ġabsence": 5368,
      "urd": 5369,
      "ĠInt": 5370,
      "ĠĠĠĠĠĠĠĠĠĠĠĠĠĠĠĠĠĠĠĠĠ": 5371,
      "Ġadminist": 5372,
      "sent": 5373,
      "six": 5374,
      "opp": 5375,
      "ilty": 5376,
      "Americ": 5377,
      "ĠFrancis": 5378,
      "Ġcompletely": 5379,
      "ITH": 5380,
      "icular": 5381,
      "Ġclasses": 5382,
      "livered": 5383,
      "ĠRes": 5384,
      "Ġraise": 5385,
      "board": 5386,
      "ef": 5387,
      "Ġwouldn": 5388,
      "Ġze": 5389,
      "omer": 5390,
      "still": 5391,
      "Ġaim": 5392,
      "Ġacquaint": 5393,
      "Ġsolid": 5394,
      "wind": 5395,
      "nds": 5396,
      "aming": 5397,
      "Ġalt": 5398,
      "Ġshame": 5399,
      "mouth": 5400,
      "taken": 5401,
      "Ġstrict": 5402,
      "Ġorn": 5403,
      "ousin": 5404,
      "Ġliqu": 5405,
      "ĠDick": 5406,
      "going": 5407,
      "cast": 5408,
      "Ġnotes": 5409,
      "Ġretreat": 5410,
      "ref": 5411,
      "arts": 5412,
      "ĠĠĠĠĠĠĠĠĠĠĠĠĠĠĠĠĠĠĠĠĠĠĠĠĠĠĠĠĠ": 5413,
      "Ġdivision": 5414,
      "Ġburning": 5415,
      "pres": 5416,
      "Ġsovere": 5417,
      "seless": 5418,
      "duce": 5419,
      "uts": 5420,
      "Ġalive": 5421,
      "ĠĠĠĠĠĠĠĠĠĠĠĠĠĠĠĠĠĠĠĠĠĠĠ": 5422,
      "Ġpor": 5423,
      "Ġcollect": 5424,
      "ua": 5425,
      "Ġpan": 5426,
      "igation": 5427,
      "Ġliterature": 5428,
      "Ġdying": 5429,
      "eting": 5430,
      "west": 5431,
      "64": 5432,
      "atively": 5433,
      "Ġocean": 5434,
      "Ġstruggle": 5435,
      "Ġdrive": 5436,
      "Ġecon": 5437,
      "Lord": 5438,
      "Ġvoy": 5439,
      "ria": 5440,
      "chen": 5441,
      "Ġshel": 5442,
      "esides": 5443,
      "abb": 5444,
      "Ġamongst": 5445,
      "Ġcoat": 5446,
      "rific": 5447,
      "uer": 5448,
      "Ġdropped": 5449,
      "Ġengine": 5450,
      "ĠGreen": 5451,
      "bridge": 5452,
      "Ġaccepted": 5453,
      "Ġtail": 5454,
      "Ġinside": 5455,
      "atus": 5456,
      "-\"": 5457,
      "poss": 5458,
      "Ge": 5459,
      "Ġcontained": 5460,
      "Ġentrance": 5461,
      "ĠHill": 5462,
      "Ġsuccessful": 5463,
      "mittee": 5464,
      "Ġwhilst": 5465,
      "Ġstruct": 5466,
      "Ġregret": 5467,
      "rog": 5468,
      "eding": 5469,
      "Ġfil": 5470,
      "Ġfinal": 5471,
      "Ġaccompanied": 5472,
      "Ġcommission": 5473,
      "Ġarticles": 5474,
      "Ġcrossed": 5475,
      "Ġinformed": 5476,
      "IES": 5477,
      "ĠCollege": 5478,
      "ustry": 5479,
      "Ġfortun": 5480,
      "ĠMajor": 5481,
      "Ġdestroyed": 5482,
      "Ġbent": 5483,
      "Ġimmediate": 5484,
      "ointment": 5485,
      "rag": 5486,
      "Ġharm": 5487,
      "Ġcredit": 5488,
      "aly": 5489,
      "Ġinterrupt": 5490,
      "Ġmaintain": 5491,
      "alem": 5492,
      "Ġfeatures": 5493,
      "Ġhide": 5494,
      "Ġlegisl": 5495,
      "Ġcompanion": 5496,
      "ĠVI": 5497,
      "Ġwings": 5498,
      "abor": 5499,
      "Ġshoulder": 5500,
      "Ġpow": 5501,
      "itement": 5502,
      "Ġseized": 5503,
      "retary": 5504,
      "Ġdevoted": 5505,
      "sal": 5506,
      "Ġsection": 5507,
      "Ġlearning": 5508,
      "Ġservices": 5509,
      "Ġgle": 5510,
      "69": 5511,
      "Ġmale": 5512,
      "Sc": 5513,
      "Ġstore": 5514,
      "ĠMark": 5515,
      "cure": 5516,
      "Ġwithd": 5517,
      "Ġstatement": 5518,
      "common": 5519,
      "Ġdig": 5520,
      "contin": 5521,
      "ĠPhilip": 5522,
      "Ġgained": 5523,
      "Ġident": 5524,
      "Ġguide": 5525,
      "Ġchapter": 5526,
      "Ġere": 5527,
      "Ġclosely": 5528,
      "antry": 5529,
      "Ġclouds": 5530,
      "Ġ33": 5531,
      "ĠSim": 5532,
      "win": 5533,
      "Come": 5534,
      "ĠBishop": 5535,
      "Ġreasons": 5536,
      "ĠVen": 5537,
      "happy": 5538,
      "Ġsafety": 5539,
      "Ġsingular": 5540,
      "oking": 5541,
      "also": 5542,
      "ĠNovember": 5543,
      "ĠLong": 5544,
      "ĠNap": 5545,
      "Ġbranch": 5546,
      "Ġma": 5547,
      "ourable": 5548,
      "Ġattended": 5549,
      "Ġconstit": 5550,
      "Ġprotection": 5551,
      "Ġremarked": 5552,
      "Thus": 5553,
      "force": 5554,
      "ÏĢ": 5555,
      "ĠÂ«": 5556,
      "Ġimpression": 5557,
      "Ġextended": 5558,
      "ipped": 5559,
      "ĠCons": 5560,
      "apan": 5561,
      "enance": 5562,
      "osom": 5563,
      "Ġvictory": 5564,
      "Ġcopy": 5565,
      "Tis": 5566,
      "large": 5567,
      "Ġevident": 5568,
      "Ġimmense": 5569,
      "Ġcondem": 5570,
      "Ġsuffering": 5571,
      "Ġchoice": 5572,
      "Ġburied": 5573,
      "79": 5574,
      "ĠHad": 5575,
      "ĠMal": 5576,
      "Ġmyster": 5577,
      "Ġgoods": 5578,
      "inth": 5579,
      "volution": 5580,
      "Ġsla": 5581,
      "Ġcouldn": 5582,
      "Ġapproach": 5583,
      "Ġbay": 5584,
      "Ġyards": 5585,
      "vert": 5586,
      "Ġox": 5587,
      "Ġinch": 5588,
      "ĠHel": 5589,
      "Ġcrime": 5590,
      "Ġshoot": 5591,
      "Ġfold": 5592,
      "mat": 5593,
      "bor": 5594,
      "ĠLake": 5595,
      "ĠFred": 5596,
      "Ġmankind": 5597,
      "Ġmoving": 5598,
      "Ġattached": 5599,
      "Ġprinted": 5600,
      "Ġfalling": 5601,
      "ounce": 5602,
      "inate": 5603,
      "far": 5604,
      "Ġha": 5605,
      "Ġvisited": 5606,
      "Ġsigh": 5607,
      "Ġwindows": 5608,
      "ĠĠĠĠĠĠĠĠĠĠĠĠĠĠĠĠĠĠĠĠĠĠĠĠĠĠĠĠ": 5609,
      "Ġswift": 5610,
      "Your": 5611,
      "too": 5612,
      "inging": 5613,
      "cientific": 5614,
      "Ġsen": 5615,
      "Ġtur": 5616,
      "ĠEarl": 5617,
      "pri": 5618,
      "Ġdischar": 5619,
      "chie": 5620,
      "Ġisn": 5621,
      "Ġexplain": 5622,
      "pent": 5623,
      "Ġgay": 5624,
      "Ġconstantly": 5625,
      "Ġtotal": 5626,
      "Ġavoid": 5627,
      "Ġtells": 5628,
      "ĠĠĠĠĠĠĠĠĠĠĠĠĠĠĠĠĠĠĠĠĠĠĠĠĠĠ": 5629,
      "ulse": 5630,
      "Ġfourth": 5631,
      "ĠRoyal": 5632,
      "Ġdull": 5633,
      "eless": 5634,
      "iture": 5635,
      "rer": 5636,
      "Ġgranted": 5637,
      "Ġgrant": 5638,
      "ĠDel": 5639,
      "Ġadvice": 5640,
      "Ġrom": 5641,
      "aks": 5642,
      "ĠJul": 5643,
      "arly": 5644,
      "Ġsympathy": 5645,
      "Ġfounded": 5646,
      "Ġprompt": 5647,
      "Ġbehold": 5648,
      "Ġwelcome": 5649,
      "Ġven": 5650,
      "Ġguess": 5651,
      "ĠDid": 5652,
      "ĠPark": 5653,
      "Ġenergy": 5654,
      "vy": 5655,
      "Ġveget": 5656,
      "Ġpartly": 5657,
      "Ġgray": 5658,
      "Ġruin": 5659,
      "ACE": 5660,
      "Ġblessed": 5661,
      "Ġdemon": 5662,
      "ucky": 5663,
      "master": 5664,
      "Ġpocket": 5665,
      "ĠBY": 5666,
      "Ġsplendid": 5667,
      "things": 5668,
      "action": 5669,
      "Ġsmoke": 5670,
      "kin": 5671,
      "Ġpill": 5672,
      "orial": 5673,
      "natural": 5674,
      "Ġpalace": 5675,
      "Ġuniversal": 5676,
      "Ġbridge": 5677,
      "Ġextraordinary": 5678,
      "ker": 5679,
      "ĠHor": 5680,
      "Ġqueen": 5681,
      "ns": 5682,
      "Ġhearing": 5683,
      "ĠCome": 5684,
      "Ġaware": 5685,
      "ĠProt": 5686,
      "ATE": 5687,
      "ĠDem": 5688,
      "Ġrange": 5689,
      "inced": 5690,
      "Ġpages": 5691,
      "PE": 5692,
      "lood": 5693,
      "62": 5694,
      "acles": 5695,
      "Char": 5696,
      "Ġargument": 5697,
      "za": 5698,
      "Ġloose": 5699,
      "Ġpossibly": 5700,
      "Ġshowing": 5701,
      "Ġbegun": 5702,
      "ĠJac": 5703,
      "Ġtreatment": 5704,
      "Ġmode": 5705,
      "Ġsmooth": 5706,
      "Ġreward": 5707,
      "67": 5708,
      "Ġthoroughly": 5709,
      "Ġpick": 5710,
      "Ġprosper": 5711,
      "ournal": 5712,
      "inese": 5713,
      "ington": 5714,
      "Ġseldom": 5715,
      "ĠPenn": 5716,
      "sim": 5717,
      "Ġshoulders": 5718,
      "boy": 5719,
      "ĠThose": 5720,
      "Ġbusy": 5721,
      "eling": 5722,
      "Ġbanks": 5723,
      "Ġfought": 5724,
      "ĠScotland": 5725,
      "asions": 5726,
      "irs": 5727,
      "Ġstriking": 5728,
      "Ġmurder": 5729,
      "Ġangry": 5730,
      "mosp": 5731,
      "Ġlog": 5732,
      "fulness": 5733,
      "Ġtemple": 5734,
      "Ġcalls": 5735,
      "ĠIsrael": 5736,
      "Ġproperly": 5737,
      "Ġmarket": 5738,
      "asted": 5739,
      "AGE": 5740,
      "Ġcalling": 5741,
      "Ġhappen": 5742,
      "Ġdelay": 5743,
      "Ġdevil": 5744,
      "rim": 5745,
      "Ġexplan": 5746,
      "Ġrules": 5747,
      "Ġtired": 5748,
      "Ġassured": 5749,
      "Ã¼": 5750,
      "Ġsurprised": 5751,
      "Yet": 5752,
      "ĠBell": 5753,
      "PH": 5754,
      "ĠBet": 5755,
      "Ġunfortun": 5756,
      "Ġslavery": 5757,
      "Ġeggs": 5758,
      "Ġknight": 5759,
      "iest": 5760,
      "ateful": 5761,
      "Ġyours": 5762,
      "ĠSea": 5763,
      "itled": 5764,
      "Ġprospect": 5765,
      "TON": 5766,
      "ĠĠĠĠĠĠĠĠĠĠĠĠĠĠĠĠĠĠĠĠĠĠ": 5767,
      "gest": 5768,
      "Ġdeeply": 5769,
      "Ġresolved": 5770,
      "Ġsuspect": 5771,
      "Ġtouched": 5772,
      "Ġdemanded": 5773,
      "reason": 5774,
      "Ġtum": 5775,
      "Ġfever": 5776,
      "Ġ\"_": 5777,
      "ena": 5778,
      "Ġwriters": 5779,
      "iddle": 5780,
      "irl": 5781,
      "Ġsheep": 5782,
      "omb": 5783,
      "ÃŃ": 5784,
      "Ġfamilies": 5785,
      "Ġmeasures": 5786,
      "Ġvic": 5787,
      "Ġmanifest": 5788,
      "Ġacid": 5789,
      "54": 5790,
      "ĠCHAPTER": 5791,
      "Ġschol": 5792,
      "Ġbuy": 5793,
      "Ġmat": 5794,
      "asy": 5795,
      "Ġenthus": 5796,
      "amps": 5797,
      "Ġaccident": 5798,
      "IAN": 5799,
      "hon": 5800,
      "Ġbond": 5801,
      "ĠRepublic": 5802,
      "Can": 5803,
      "Ġinsp": 5804,
      "iry": 5805,
      "Ġempty": 5806,
      "Ġputting": 5807,
      "ieur": 5808,
      "Ġvision": 5809,
      "Ġattract": 5810,
      "ĠEp": 5811,
      "Ġperpet": 5812,
      "ĠConstitution": 5813,
      "Ġquietly": 5814,
      "Sp": 5815,
      "illa": 5816,
      "Ġlisten": 5817,
      "real": 5818,
      "ĠÂ§": 5819,
      "Ġfriendship": 5820,
      "Ġmajority": 5821,
      "necessary": 5822,
      "Ġneeds": 5823,
      "fr": 5824,
      "Ġthence": 5825,
      "Ġnorthern": 5826,
      "phia": 5827,
      "Ġcattle": 5828,
      "ustomed": 5829,
      "Ġprisoners": 5830,
      "ĠCouncil": 5831,
      "Ġimpress": 5832,
      "ĠDay": 5833,
      "Ġfrequent": 5834,
      "udden": 5835,
      "'.": 5836,
      "position": 5837,
      "Good": 5838,
      "Ġappreci": 5839,
      "Ġearlier": 5840,
      "Ġrequest": 5841,
      "Ġflow": 5842,
      "Ġinstit": 5843,
      "Ġsust": 5844,
      "Ġwaited": 5845,
      "ique": 5846,
      "ifying": 5847,
      "Ġprecious": 5848,
      "Ġconcerned": 5849,
      "Ġformerly": 5850,
      "Ġessential": 5851,
      "Ġcarriage": 5852,
      "ĠBro": 5853,
      "ĠParliament": 5854,
      "52": 5855,
      "themselves": 5856,
      "Ġcelebrated": 5857,
      "ĠScott": 5858,
      "Ġcalcul": 5859,
      "ĠApp": 5860,
      "Ġ47": 5861,
      "Ġnearer": 5862,
      "Ġinfinite": 5863,
      "Ġindul": 5864,
      "tt": 5865,
      "Ġunable": 5866,
      "ĠMajesty": 5867,
      "icted": 5868,
      "Ġsurrounded": 5869,
      "Ġnod": 5870,
      "ĠWas": 5871,
      "trans": 5872,
      "UB": 5873,
      "thur": 5874,
      "Ġcastle": 5875,
      "ĠEr": 5876,
      "Ġexcited": 5877,
      "Ġhurt": 5878,
      "Ġbid": 5879,
      "Ġtribes": 5880,
      "Ġdespair": 5881,
      "terday": 5882,
      "unning": 5883,
      "love": 5884,
      "Ġben": 5885,
      "Ġsettle": 5886,
      "ailing": 5887,
      "itious": 5888,
      "ĠBill": 5889,
      "ĠĠĠĠĠĠĠĠĠĠĠĠĠĠĠĠĠĠĠĠĠĠĠĠĠĠĠ": 5890,
      "mes": 5891,
      "Ġcontaining": 5892,
      "ĠJews": 5893,
      "ĠPope": 5894,
      "Ġax": 5895,
      "Ġcompre": 5896,
      "aned": 5897,
      "ĠFe": 5898,
      "Ġimagine": 5899,
      "Ġhumble": 5900,
      "phe": 5901,
      "Ġcreated": 5902,
      "Ġded": 5903,
      "Ġsink": 5904,
      "Ġrear": 5905,
      "Fig": 5906,
      "ĠEmp": 5907,
      "Ġterritory": 5908,
      "enses": 5909,
      "Ġthousands": 5910,
      "pol": 5911,
      "Ġnoise": 5912,
      "withstanding": 5913,
      "ili": 5914,
      "Ġinstinct": 5915,
      "Ġframe": 5916,
      "ĠCO": 5917,
      "name": 5918,
      "63": 5919,
      "57": 5920,
      "Ġabsolutely": 5921,
      "raham": 5922,
      "uf": 5923,
      "ĠRob": 5924,
      "ĠCarol": 5925,
      "ĠDeath": 5926,
      "Ġweary": 5927,
      "Ġintention": 5928,
      "Ġsatisfaction": 5929,
      "Ġrooms": 5930,
      "uce": 5931,
      "non": 5932,
      "ĠEmperor": 5933,
      "Ġthine": 5934,
      "Ġsubsequ": 5935,
      "Ġelement": 5936,
      "circ": 5937,
      "Ġkings": 5938,
      "each": 5939,
      "Ġinterested": 5940,
      "emy": 5941,
      "ĠMadame": 5942,
      "arse": 5943,
      "Ġexception": 5944,
      "return": 5945,
      "Ġwhence": 5946,
      "Ġassistance": 5947,
      "Ġmeat": 5948,
      "Ġinvent": 5949,
      "ati": 5950,
      "Ġsixty": 5951,
      "among": 5952,
      "Ġarose": 5953,
      "Ġdrop": 5954,
      "young": 5955,
      "Ġpoetry": 5956,
      "Ġfurnished": 5957,
      "Ġcritic": 5958,
      "Ġceased": 5959,
      "arrison": 5960,
      "henomen": 5961,
      "mus": 5962,
      "rations": 5963,
      "Ġworst": 5964,
      "Ġunited": 5965,
      "RAN": 5966,
      "ĠFer": 5967,
      "Ġimagination": 5968,
      "Ġarrest": 5969,
      "Ġlabour": 5970,
      "Ġseed": 5971,
      "ĠPerhaps": 5972,
      "Ġstern": 5973,
      "Ġdelivered": 5974,
      "Ġconscience": 5975,
      "Ġwalking": 5976,
      "ĠTem": 5977,
      "idents": 5978,
      "ĠCOM": 5979,
      "bour": 5980,
      "uation": 5981,
      "ĠCa": 5982,
      "Ġkindly": 5983,
      "Ġhang": 5984,
      "Ġbreakfast": 5985,
      "Ġdressed": 5986,
      "Ġdoth": 5987,
      "ĠScript": 5988,
      "Ġarranged": 5989,
      "ĠBra": 5990,
      "Ġcharacters": 5991,
      "olid": 5992,
      "Ġsentence": 5993,
      "Ġkeen": 5994,
      "Ġsacrifice": 5995,
      "Ãª": 5996,
      "Ġdawn": 5997,
      "Ġconclusion": 5998,
      "Ġconsent": 5999,
      "Bl": 6000,
      "ums": 6001,
      "ĠAng": 6002,
      "loved": 6003,
      "Ġsmaller": 6004,
      "Ġwore": 6005,
      "URE": 6006,
      "Ġnose": 6007,
      "Ġelements": 6008,
      "Ġlux": 6009,
      "ISH": 6010,
      "Ġaccur": 6011,
      "case": 6012,
      "Ġtalked": 6013,
      "apers": 6014,
      "Ġexha": 6015,
      "Ġrepro": 6016,
      "disc": 6017,
      "Ġbree": 6018,
      "town": 6019,
      "Ed": 6020,
      "ibus": 6021,
      "Ġtelling": 6022,
      "Ġspecim": 6023,
      "Ġnatives": 6024,
      "Ġfighting": 6025,
      "geon": 6026,
      "olution": 6027,
      "Ġplate": 6028,
      "eps": 6029,
      "prise": 6030,
      "Ġfairly": 6031,
      "Ġpil": 6032,
      "Ġworn": 6033,
      "wa": 6034,
      "Ġdesert": 6035,
      "Ġride": 6036,
      "IE": 6037,
      "Ġfled": 6038,
      "Ġoperation": 6039,
      "Ġdignity": 6040,
      "Ġprocl": 6041,
      "lessly": 6042,
      "Ġdoors": 6043,
      "acious": 6044,
      "Ġdelicate": 6045,
      "61": 6046,
      "Ã¶": 6047,
      "always": 6048,
      "Ġvote": 6049,
      "Ġsubstance": 6050,
      "Ġwed": 6051,
      "put": 6052,
      "Ġmechan": 6053,
      "ĠOff": 6054,
      "Ġreferred": 6055,
      "Ġdefence": 6056,
      "Ġdozen": 6057,
      "ties": 6058,
      "Ġpreserved": 6059,
      "Ġhuge": 6060,
      "went": 6061,
      "Ġnarr": 6062,
      "ĠItalian": 6063,
      "88": 6064,
      "ĠYe": 6065,
      "Ġbecoming": 6066,
      "ĠMat": 6067,
      "Ġbringing": 6068,
      "Ġregiment": 6069,
      "ROM": 6070,
      "Ġwaves": 6071,
      "ĠCatholic": 6072,
      "umin": 6073,
      "ĠPre": 6074,
      "Ġpu": 6075,
      "arded": 6076,
      "Ġreduced": 6077,
      "owned": 6078,
      "Ġlikewise": 6079,
      "usive": 6080,
      "Ġknock": 6081,
      "lla": 6082,
      "Ġdefend": 6083,
      "itect": 6084,
      "Ġrecoll": 6085,
      "ography": 6086,
      "Ġshock": 6087,
      "rait": 6088,
      "Ġease": 6089,
      "ĠConf": 6090,
      "rian": 6091,
      "writ": 6092,
      "Ġsupre": 6093,
      ".\"[": 6094,
      "Ġmagnific": 6095,
      "uns": 6096,
      "ĠWorld": 6097,
      "Ġwestern": 6098,
      "Ġmistake": 6099,
      "rav": 6100,
      "something": 6101,
      "Ġobserve": 6102,
      "Ġhabits": 6103,
      "given": 6104,
      "inder": 6105,
      "Ġles": 6106,
      "ands": 6107,
      "Ġcommitted": 6108,
      "Ġfatal": 6109,
      "Ġfleet": 6110,
      "ĠĠĠĠĠĠĠĠĠĠĠĠĠĠĠĠĠĠĠĠĠĠĠĠĠĠĠĠĠĠĠ": 6111,
      "Ġdiscovery": 6112,
      "Ġpermitted": 6113,
      "SS": 6114,
      "Ġcompelled": 6115,
      "cut": 6116,
      "Ġappropri": 6117,
      "Ġsus": 6118,
      "Ġphilosophy": 6119,
      "olf": 6120,
      "Sec": 6121,
      "ĠVal": 6122,
      "Ġsounds": 6123,
      "Are": 6124,
      "Ġperman": 6125,
      "Ġreflect": 6126,
      "oln": 6127,
      "OUN": 6128,
      "Ġbenefit": 6129,
      "ĠFebruary": 6130,
      "Ġaccord": 6131,
      "Ġsentiment": 6132,
      "ĠDuring": 6133,
      "ecause": 6134,
      "Ġtow": 6135,
      "general": 6136,
      "oused": 6137,
      "Ġhoped": 6138,
      "cest": 6139,
      "ĠCap": 6140,
      "ui": 6141,
      "Ġvisible": 6142,
      "Ġstead": 6143,
      "ĠAre": 6144,
      "dem": 6145,
      "Dr": 6146,
      "Ġobed": 6147,
      "Ġcord": 6148,
      "offee": 6149,
      "Ġbrilliant": 6150,
      "Ġchurches": 6151,
      "agn": 6152,
      "Ġbosom": 6153,
      "Ġsufficiently": 6154,
      "ael": 6155,
      "Ġcommanded": 6156,
      "having": 6157,
      "Ġunion": 6158,
      "gener": 6159,
      "ĠElizabeth": 6160,
      "Ġinstrument": 6161,
      "TO": 6162,
      "Ġdiff": 6163,
      "Ġterror": 6164,
      "Ġguilty": 6165,
      "Ġextremely": 6166,
      "allel": 6167,
      "apel": 6168,
      "INE": 6169,
      "Ġaddressed": 6170,
      "woman": 6171,
      "burgh": 6172,
      "Ġju": 6173,
      "import": 6174,
      "city": 6175,
      "verted": 6176,
      "Ġreadily": 6177,
      "ĠThough": 6178,
      "regular": 6179,
      "ĠLy": 6180,
      "TS": 6181,
      "Ġmanners": 6182,
      "ĠEv": 6183,
      "OHN": 6184,
      "English": 6185,
      "overnment": 6186,
      "Ġconfess": 6187,
      "LES": 6188,
      "Ġperformed": 6189,
      "ĠAss": 6190,
      "ĠTri": 6191,
      "care": 6192,
      "Ġdil": 6193,
      "Ġunderstanding": 6194,
      "cap": 6195,
      "pot": 6196,
      "aign": 6197,
      "urity": 6198,
      "iana": 6199,
      "porary": 6200,
      "Ġdestruction": 6201,
      "ĠProfessor": 6202,
      "Ġuniform": 6203,
      "Ġexpedition": 6204,
      "Ġmachine": 6205,
      "Ġrode": 6206,
      "Ġislands": 6207,
      "ĠNever": 6208,
      "Ġdestroy": 6209,
      "ĠLo": 6210,
      "Ġstories": 6211,
      "abled": 6212,
      "Ġshade": 6213,
      "itated": 6214,
      "ĠAfrica": 6215,
      "Ġpoison": 6216,
      "eenth": 6217,
      "ura": 6218,
      "Ġá¼": 6219,
      "Ġdoc": 6220,
      "Ġgovernor": 6221,
      "Î»": 6222,
      "Ġhurried": 6223,
      "Ġprisoner": 6224,
      "rain": 6225,
      "ĠMich": 6226,
      "question": 6227,
      "ser": 6228,
      "Ġintelligence": 6229,
      "adelphia": 6230,
      "Ġbought": 6231,
      "ĠDor": 6232,
      "Ġcommittee": 6233,
      "Ġqualities": 6234,
      "Ġwet": 6235,
      "atre": 6236,
      "ĠDan": 6237,
      "Ġwing": 6238,
      "Ġ32": 6239,
      "OF": 6240,
      "hard": 6241,
      "hall": 6242,
      "Ġric": 6243,
      "Ġoblig": 6244,
      "ĠSur": 6245,
      "53": 6246,
      "Ġfulf": 6247,
      "foot": 6248,
      "Ġsigns": 6249,
      "ĠKe": 6250,
      "character": 6251,
      "Ġslightly": 6252,
      "ĠSl": 6253,
      "pat": 6254,
      "Ġdesir": 6255,
      "Ġwaste": 6256,
      "Ġseated": 6257,
      "weet": 6258,
      "tts": 6259,
      "Ġbuildings": 6260,
      "Ġstrike": 6261,
      "Ġtale": 6262,
      "success": 6263,
      "div": 6264,
      "consider": 6265,
      "ements": 6266,
      "ĠEsq": 6267,
      "ĠTown": 6268,
      "iverse": 6269,
      "Ġcompanions": 6270,
      "Ġpropri": 6271,
      "ĠMess": 6272,
      "onsieur": 6273,
      "Ġprobable": 6274,
      "ĠOx": 6275,
      "74": 6276,
      "Ġlit": 6277,
      "Ġended": 6278,
      "Ġgift": 6279,
      "Ġchamber": 6280,
      "Ġelection": 6281,
      "var": 6282,
      "Ġrecent": 6283,
      "Ġstick": 6284,
      "ĠLittle": 6285,
      "Ġdepos": 6286,
      "ĠEuropean": 6287,
      "gent": 6288,
      "Ġfriendly": 6289,
      "END": 6290,
      "ho": 6291,
      "IGHT": 6292,
      "coming": 6293,
      "Ġmonarch": 6294,
      "andy": 6295,
      "Ġabroad": 6296,
      "Ġawful": 6297,
      "alle": 6298,
      "rat": 6299,
      "Ġwound": 6300,
      "Ġdeck": 6301,
      "SON": 6302,
      "orable": 6303,
      "Ġexcess": 6304,
      "Ġacquainted": 6305,
      "Ġscenes": 6306,
      "Ġdegrees": 6307,
      "Ġderived": 6308,
      "ita": 6309,
      "Ġforever": 6310,
      "Ġbones": 6311,
      "placed": 6312,
      "Ġsuspic": 6313,
      "Ġexcitement": 6314,
      "Ġcenturies": 6315,
      "aze": 6316,
      "incoln": 6317,
      "Ġsouthern": 6318,
      "ĠMem": 6319,
      "ulph": 6320,
      "Ġwatching": 6321,
      "Ġdish": 6322,
      "usetts": 6323,
      "Ġlifted": 6324,
      "Ġaffair": 6325,
      "Ġsooner": 6326,
      "ĠCounty": 6327,
      "ĠNational": 6328,
      "72": 6329,
      "ĠJapan": 6330,
      "ĠFar": 6331,
      "Ġflood": 6332,
      "ĠEach": 6333,
      "Ġopinions": 6334,
      "mosphere": 6335,
      "umption": 6336,
      "ICAL": 6337,
      "Ġsym": 6338,
      "Ġcard": 6339,
      "ĠColumb": 6340,
      "Ġapplication": 6341,
      "Ġdrove": 6342,
      "ĠSil": 6343,
      "âķ": 6344,
      "Ġclergy": 6345,
      "prom": 6346,
      "Ġescaped": 6347,
      "Ġcontempt": 6348,
      "ĠDutch": 6349,
      "Ġgrasp": 6350,
      "Ġalike": 6351,
      "urance": 6352,
      "Ġindustry": 6353,
      "Ġmoments": 6354,
      "pose": 6355,
      "itchen": 6356,
      "ĠUnder": 6357,
      "Ġadapt": 6358,
      "Ġconsists": 6359,
      "Ġfalls": 6360,
      "ĠDist": 6361,
      "armed": 6362,
      "Ġthinks": 6363,
      "ini": 6364,
      "ĠĠĠĠĠĠĠĠĠĠĠĠĠĠĠĠĠĠĠĠĠĠĠĠĠĠĠĠĠĠ": 6365,
      "ĠChinese": 6366,
      "istor": 6367,
      "however": 6368,
      "Ġspo": 6369,
      "dif": 6370,
      "Ġ59": 6371,
      "Ġlone": 6372,
      "].": 6373,
      "sell": 6374,
      "Ġjealous": 6375,
      "Ġsell": 6376,
      "ĠDu": 6377,
      "Ġolder": 6378,
      "Ġplenty": 6379,
      "Ġfix": 6380,
      "thren": 6381,
      "ĠCamp": 6382,
      "Ġhesit": 6383,
      "mun": 6384,
      "urely": 6385,
      "ĠCat": 6386,
      "resses": 6387,
      "dro": 6388,
      "Ġpressed": 6389,
      "Ġclaims": 6390,
      "Ġcompet": 6391,
      "Ġbatt": 6392,
      "ĠAL": 6393,
      "rier": 6394,
      "--_": 6395,
      "Ġnerv": 6396,
      "udd": 6397,
      "ĠTime": 6398,
      "Ġentitled": 6399,
      "Ġwishes": 6400,
      "Ġdetails": 6401,
      "Ġain": 6402,
      "Ġphr": 6403,
      "itate": 6404,
      "illery": 6405,
      "Ġrenew": 6406,
      "ĠHave": 6407,
      "ĠAM": 6408,
      "Ġconsult": 6409,
      "Ġaffected": 6410,
      "Ġerected": 6411,
      "Ġtrace": 6412,
      "Ġmillion": 6413,
      "istry": 6414,
      "Ġboats": 6415,
      "^'": 6416,
      "white": 6417,
      "tains": 6418,
      "Ġcrew": 6419,
      "person": 6420,
      "Ġliterary": 6421,
      "DU": 6422,
      "ida": 6423,
      "DE": 6424,
      "Ġweap": 6425,
      "year": 6426,
      "Ġprophe": 6427,
      "Ġcouple": 6428,
      "lets": 6429,
      "Ġcouncil": 6430,
      "aniel": 6431,
      "NE": 6432,
      "dr": 6433,
      "Ġissue": 6434,
      "Ġnegro": 6435,
      "Ġ70": 6436,
      "Ġthanks": 6437,
      "Ġopposition": 6438,
      "enger": 6439,
      "âĢĺ": 6440,
      "Ġdesper": 6441,
      "school": 6442,
      "Ġremarks": 6443,
      "offic": 6444,
      "Ġremind": 6445,
      "ĠMur": 6446,
      "Ġviolent": 6447,
      "small": 6448,
      "Ġlover": 6449,
      "Ġdomestic": 6450,
      "ĠCle": 6451,
      "Ġrejo": 6452,
      "Ġpressure": 6453,
      "IP": 6454,
      "respect": 6455,
      "ĠAmong": 6456,
      "ĠSar": 6457,
      "Î¯": 6458,
      "ĠInc": 6459,
      "hers": 6460,
      "ĠBefore": 6461,
      "Ġwinds": 6462,
      "Ġreject": 6463,
      "Ġincluding": 6464,
      "Ġindign": 6465,
      "QU": 6466,
      "AST": 6467,
      "Ġpour": 6468,
      "beaut": 6469,
      "Ġexposed": 6470,
      "Ġleaf": 6471,
      "ĠTre": 6472,
      "ĠChristians": 6473,
      "Ġeverywhere": 6474,
      "Car": 6475,
      "Ġwhispered": 6476,
      "ĠOther": 6477,
      "ules": 6478,
      "TE": 6479,
      "ĠOnly": 6480,
      "raction": 6481,
      "Ġcollege": 6482,
      "apter": 6483,
      "____": 6484,
      "Ġreality": 6485,
      "ĠLeg": 6486,
      "yet": 6487,
      "Ġmessage": 6488,
      "sion": 6489,
      "Ġdance": 6490,
      "Ġbelonging": 6491,
      "ĠWater": 6492,
      "achusetts": 6493,
      "ĠUniversity": 6494,
      "Ġdifficulties": 6495,
      "Ġcaut": 6496,
      "tense": 6497,
      "ĠFriend": 6498,
      "Ġempire": 6499,
      "Ġdeveloped": 6500,
      "ĠMill": 6501,
      "rection": 6502,
      "ometimes": 6503,
      "Their": 6504,
      "ĠStill": 6505,
      "ĠHence": 6506,
      "Ġast": 6507,
      "Par": 6508,
      "Ġelo": 6509,
      "Ġgently": 6510,
      "Ġalarm": 6511,
      "Ġarmed": 6512,
      "Ġbag": 6513,
      "strong": 6514,
      "Just": 6515,
      "cel": 6516,
      "vania": 6517,
      "Ġstrongly": 6518,
      "Ġerror": 6519,
      "Ġrude": 6520,
      "Ġsecured": 6521,
      "Ġhoriz": 6522,
      "ĠJim": 6523,
      "ĠAT": 6524,
      "99": 6525,
      "whole": 6526,
      "Ġnewsp": 6527,
      "Ġsituated": 6528,
      "Ġhorn": 6529,
      "inted": 6530,
      "Ġnovel": 6531,
      "Ġestate": 6532,
      "Ġgrie": 6533,
      "Ġinstances": 6534,
      "prov": 6535,
      "Ġtransport": 6536,
      "Ġelected": 6537,
      "Ġsche": 6538,
      "Ġplans": 6539,
      "greg": 6540,
      "Ġmedic": 6541,
      "OOK": 6542,
      "iosity": 6543,
      "gments": 6544,
      "Such": 6545,
      "Ġcontract": 6546,
      "LY": 6547,
      "tri": 6548,
      "comple": 6549,
      "Ġrivers": 6550,
      "piration": 6551,
      "Ġcher": 6552,
      "Ġconstruct": 6553,
      "Ġaccomplished": 6554,
      "usual": 6555,
      "post": 6556,
      "Ġbrothers": 6557,
      "Ġren": 6558,
      "days": 6559,
      "Ġkindness": 6560,
      "ij": 6561,
      "Ġhate": 6562,
      "ĠAthen": 6563,
      "ĠSecretary": 6564,
      "Ġpardon": 6565,
      "Ġmillions": 6566,
      "Ġcorrupt": 6567,
      "Ġaspect": 6568,
      "Ġpatriot": 6569,
      "aws": 6570,
      "Ġaverage": 6571,
      "eight": 6572,
      "fig": 6573,
      "aph": 6574,
      "Ġmoder": 6575,
      "iable": 6576,
      "ĠHu": 6577,
      "Ġmixed": 6578,
      "ĠArab": 6579,
      "ulations": 6580,
      "Ġhidden": 6581,
      "ĠCur": 6582,
      "lia": 6583,
      "Ġrevolution": 6584,
      "ĠAR": 6585,
      "Ġ80": 6586,
      "ĠBab": 6587,
      "ĠIndeed": 6588,
      "Ġsinging": 6589,
      "enny": 6590,
      "ero": 6591,
      "Ġchoose": 6592,
      "Ġsavage": 6593,
      "Which": 6594,
      "ĠHowever": 6595,
      "========": 6596,
      "Ġintellectual": 6597,
      "inger": 6598,
      "Ġindependent": 6599,
      "Ġvolunt": 6600,
      "73": 6601,
      "Ġedition": 6602,
      "Ġeste": 6603,
      "ĠGold": 6604,
      "Ġignorant": 6605,
      "Ġemer": 6606,
      "Ġexamination": 6607,
      "Ġgas": 6608,
      "Ġmethods": 6609,
      "ĠSol": 6610,
      "Ġrecognized": 6611,
      "VII": 6612,
      "Ġstructure": 6613,
      "Ġlistened": 6614,
      "ulture": 6615,
      "avalry": 6616,
      "ante": 6617,
      "Ġissued": 6618,
      "Ġjump": 6619,
      "Ġroll": 6620,
      "ĠFr": 6621,
      "Ġobservation": 6622,
      "ĠMexico": 6623,
      "sign": 6624,
      "Ġwasn": 6625,
      "ĠLike": 6626,
      "Ġacknowled": 6627,
      "Ġimage": 6628,
      "tem": 6629,
      "Ġgrey": 6630,
      "Ġpresently": 6631,
      "ache": 6632,
      "Ġsed": 6633,
      "Ne": 6634,
      "Ġvoyage": 6635,
      "Ġshop": 6636,
      "esc": 6637,
      "Ġappeal": 6638,
      "ĠMus": 6639,
      "stre": 6640,
      "Ġremaining": 6641,
      "Ġassumed": 6642,
      "Ġimmort": 6643,
      "CC": 6644,
      "Ġfoundation": 6645,
      "Ġutmost": 6646,
      "MAN": 6647,
      "mis": 6648,
      "ĠBE": 6649,
      "Ġgif": 6650,
      "Ġtemp": 6651,
      "Ġgenerous": 6652,
      "Ġmerit": 6653,
      "ccles": 6654,
      "ĠSecond": 6655,
      "Ġcommenced": 6656,
      "ĠRh": 6657,
      "Ġborne": 6658,
      "tions": 6659,
      "Ġcommunity": 6660,
      "looked": 6661,
      "ĠTw": 6662,
      "ĠRem": 6663,
      "Ġdistinction": 6664,
      "Ġunex": 6665,
      "Ġcounsel": 6666,
      "Ġsovereign": 6667,
      "Ġdogs": 6668,
      "worthy": 6669,
      "Åĵ": 6670,
      "ka": 6671,
      "Ġvac": 6672,
      "'-": 6673,
      "Ġfellows": 6674,
      "thy": 6675,
      "syl": 6676,
      "Ġprovince": 6677,
      "aration": 6678,
      "Ġexecution": 6679,
      "Ġneighbour": 6680,
      "Ġsetting": 6681,
      "Ġsurre": 6682,
      "find": 6683,
      "Ġdreadful": 6684,
      "Ġdreams": 6685,
      "ĠRussia": 6686,
      "rand": 6687,
      "Ġsins": 6688,
      "uv": 6689,
      "Ġsees": 6690,
      "._--": 6691,
      "ĠChristianity": 6692,
      "Ġthunder": 6693,
      "matter": 6694,
      "passed": 6695,
      "full": 6696,
      "51": 6697,
      "Ġdeliver": 6698,
      "Ġacquired": 6699,
      "Ġbrow": 6700,
      "Ġtide": 6701,
      "Ġstandard": 6702,
      "ĠOR": 6703,
      "Ġabst": 6704,
      "Ġcareer": 6705,
      "Ġknees": 6706,
      "orter": 6707,
      "Ġascertain": 6708,
      "oubted": 6709,
      "Ġcompared": 6710,
      "Ġmild": 6711,
      "Ġlof": 6712,
      "Ġacquaintance": 6713,
      "ligion": 6714,
      "Ġoath": 6715,
      "Ġpainted": 6716,
      "retch": 6717,
      "Ġplaying": 6718,
      "Ġrow": 6719,
      "once": 6720,
      "Ġpunishment": 6721,
      "Ġloving": 6722,
      "bably": 6723,
      "Ġdece": 6724,
      "ado": 6725,
      "William": 6726,
      "irmed": 6727,
      "ĠCommission": 6728,
      "Ġoccasionally": 6729,
      "Ġspark": 6730,
      "asses": 6731,
      "Ġlately": 6732,
      "Ġreturning": 6733,
      "pen": 6734,
      "Ġsmiling": 6735,
      "ositions": 6736,
      "Ġnoted": 6737,
      "ĠVan": 6738,
      "ĠAlexander": 6739,
      "Ġtestimony": 6740,
      "ĠJo": 6741,
      "Ġtreaty": 6742,
      "Ġhal": 6743,
      "Ġlest": 6744,
      "âĤ": 6745,
      "mem": 6746,
      "Ġamuse": 6747,
      "Ġreported": 6748,
      "89": 6749,
      "Ġsurv": 6750,
      "Ġexplanation": 6751,
      "Ġspeaks": 6752,
      "Ġhumanity": 6753,
      "Thou": 6754,
      "ĠSouthern": 6755,
      "ĠCommittee": 6756,
      "Ger": 6757,
      "ĠFair": 6758,
      "Ġscientific": 6759,
      "Def": 6760,
      "Ġcharm": 6761,
      "Ġphenomen": 6762,
      "Ġenjoyed": 6763,
      "liness": 6764,
      "ardens": 6765,
      "Ġliked": 6766,
      "oubt": 6767,
      "Ġ41": 6768,
      "Every": 6769,
      "Ġ[_": 6770,
      "ĠMother": 6771,
      "Ġlimited": 6772,
      "Ġbapt": 6773,
      "ulp": 6774,
      "Ġflame": 6775,
      "iency": 6776,
      "oleon": 6777,
      "ITY": 6778,
      "ĠFour": 6779,
      "Ġvoices": 6780,
      "ĠBu": 6781,
      "Ġkey": 6782,
      "subject": 6783,
      "Ġinse": 6784,
      "Ġruns": 6785,
      "iast": 6786,
      "Ġcoal": 6787,
      "71": 6788,
      "ĠOhio": 6789,
      "LAND": 6790,
      "Ġextensive": 6791,
      "Ġvi": 6792,
      "olk": 6793,
      "Ġpolice": 6794,
      "Ġsettlement": 6795,
      "Ġconflict": 6796,
      "Ġenorm": 6797,
      "ĠâĢĻ": 6798,
      "Ġexpense": 6799,
      "Ġ43": 6800,
      "AU": 6801,
      "Ġahead": 6802,
      "ĠNat": 6803,
      "England": 6804,
      "ĠServ": 6805,
      "Ġtribe": 6806,
      "Ġfreely": 6807,
      "Did": 6808,
      "ĠRussian": 6809,
      "Ġthereof": 6810,
      "icle": 6811,
      "aus": 6812,
      "wick": 6813,
      "Ġusing": 6814,
      "pher": 6815,
      "heard": 6816,
      "Ġmovements": 6817,
      "both": 6818,
      "aver": 6819,
      "ona": 6820,
      "Ġsupper": 6821,
      "Ġconfusion": 6822,
      "yes": 6823,
      "Ġinnocent": 6824,
      "Ġ..": 6825,
      "Ġoh": 6826,
      "Ġcountenance": 6827,
      "organ": 6828,
      "ighed": 6829,
      "ym": 6830,
      "othe": 6831,
      "ele": 6832,
      "ĠSamuel": 6833,
      "Ġmarks": 6834,
      "pended": 6835,
      "Ġseparated": 6836,
      "Ġfare": 6837,
      "usalem": 6838,
      "dest": 6839,
      "Ġteaching": 6840,
      "Ġeleg": 6841,
      "Ġowing": 6842,
      "Ġprofound": 6843,
      "yard": 6844,
      "Ġmud": 6845,
      "ertion": 6846,
      "Ġoft": 6847,
      "ĠArmy": 6848,
      "Ġbaby": 6849,
      "Ġcentral": 6850,
      "Ġhell": 6851,
      "whose": 6852,
      "Ġfinger": 6853,
      "children": 6854,
      "PR": 6855,
      "Ġdefinite": 6856,
      "Ġcollection": 6857,
      "osal": 6858,
      "Ġbark": 6859,
      "Ġblank": 6860,
      "BY": 6861,
      "Ġhole": 6862,
      "amin": 6863,
      "uated": 6864,
      "annel": 6865,
      "Ġinclined": 6866,
      "Ġconfined": 6867,
      "Ġchain": 6868,
      "Ġbegins": 6869,
      "ĠJohnson": 6870,
      "aughters": 6871,
      "Ġshell": 6872,
      "princi": 6873,
      "effect": 6874,
      "Ġcontempl": 6875,
      "Ġresidence": 6876,
      "ros": 6877,
      "Ġforming": 6878,
      "erity": 6879,
      "_:": 6880,
      "ATH": 6881,
      "ĠSto": 6882,
      "zy": 6883,
      "ĠDis": 6884,
      "Ġimpat": 6885,
      "Ġarea": 6886,
      "Ġapt": 6887,
      "Ġfinds": 6888,
      "Ġ#": 6889,
      "á¿": 6890,
      "Ġverse": 6891,
      "Ġoperations": 6892,
      "ĠEll": 6893,
      "iot": 6894,
      "sil": 6895,
      "Ġfoolish": 6896,
      "Ġwave": 6897,
      "ĠSqu": 6898,
      "Ġcounter": 6899,
      "urbed": 6900,
      "Ġresolution": 6901,
      "Ġhom": 6902,
      "Ġattain": 6903,
      "Ġutterly": 6904,
      "oped": 6905,
      "entions": 6906,
      "Ġjoint": 6907,
      "ĠArthur": 6908,
      "since": 6909,
      "otted": 6910,
      "ensions": 6911,
      "ioned": 6912,
      "door": 6913,
      "Ġdimin": 6914,
      "Ġlaughing": 6915,
      "Ġcotton": 6916,
      "arian": 6917,
      "Ġleader": 6918,
      "ĠTrans": 6919,
      "ĠÏĦ": 6920,
      "Ġsuggest": 6921,
      "Î¼": 6922,
      "ĠSun": 6923,
      "itors": 6924,
      "wing": 6925,
      "bran": 6926,
      "Ġwheel": 6927,
      "Ġcook": 6928,
      "Ġtear": 6929,
      "Ġprecise": 6930,
      "ĠCape": 6931,
      "Ġming": 6932,
      "itan": 6933,
      "âķĲ": 6934,
      "Ġacted": 6935,
      "Ġabsor": 6936,
      "unction": 6937,
      "ilton": 6938,
      "ĠHarry": 6939,
      "Ġfierce": 6940,
      "Ġincident": 6941,
      "high": 6942,
      "left": 6943,
      "Ġsolution": 6944,
      "forth": 6945,
      "da": 6946,
      "Ġignorance": 6947,
      "era": 6948,
      "ĠSub": 6949,
      "Ġadj": 6950,
      "Ġturns": 6951,
      "eyes": 6952,
      "taking": 6953,
      "urse": 6954,
      "engers": 6955,
      "Phil": 6956,
      "tow": 6957,
      "ints": 6958,
      "Ġanger": 6959,
      "Ġprejud": 6960,
      "Ġattempted": 6961,
      "Ġpreceding": 6962,
      "Ġretired": 6963,
      "ĠBesides": 6964,
      "ĠBoy": 6965,
      "Ġintense": 6966,
      "Ġpasses": 6967,
      "VIII": 6968,
      "Ġyounger": 6969,
      "ribution": 6970,
      "Ġsteel": 6971,
      "agger": 6972,
      "ĠIS": 6973,
      "Ġcousin": 6974,
      "lope": 6975,
      "Ġrelated": 6976,
      "wild": 6977,
      "Ġwarri": 6978,
      "Î·": 6979,
      "sing": 6980,
      "Ġspend": 6981,
      "represent": 6982,
      "Ġgrounds": 6983,
      "oping": 6984,
      "._]": 6985,
      "Ġfed": 6986,
      "making": 6987,
      "Ġsilk": 6988,
      "Ġalter": 6989,
      "ĠAtl": 6990,
      "bow": 6991,
      "Ġscale": 6992,
      "ĠMarg": 6993,
      "Ġaccustomed": 6994,
      "Ġprovisions": 6995,
      "Ġshr": 6996,
      "Ġpulled": 6997,
      "Ġ34": 6998,
      "ĠSenate": 6999,
      "Ġbears": 7000,
      "ĠDoctor": 7001,
      "bra": 7002,
      "Ġhollow": 7003,
      "ancholy": 7004,
      "Ġau": 7005,
      "Ġthread": 7006,
      "ummer": 7007,
      "Ġlegal": 7008,
      "Ġstor": 7009,
      "lest": 7010,
      "uine": 7011,
      "omach": 7012,
      "Ġcollected": 7013,
      "Ġancest": 7014,
      "Ġdoubtless": 7015,
      "ĠChina": 7016,
      "Ġapost": 7017,
      "Ġtravel": 7018,
      "Ġabsurd": 7019,
      "ĠWhich": 7020,
      "ĠTest": 7021,
      "ola": 7022,
      "utive": 7023,
      "build": 7024,
      "Ġadmiration": 7025,
      "har": 7026,
      ".*": 7027,
      "uddenly": 7028,
      "Ġinner": 7029,
      "Ġactions": 7030,
      "Ġsteep": 7031,
      "Ġbul": 7032,
      "Ġchest": 7033,
      "ĠLincoln": 7034,
      "Man": 7035,
      "ĠThree": 7036,
      "aments": 7037,
      "Ġ44": 7038,
      "Ġtables": 7039,
      "Ġscattered": 7040,
      "nex": 7041,
      "uthors": 7042,
      "gging": 7043,
      "ORK": 7044,
      "Ġcommerce": 7045,
      "raft": 7046,
      "usions": 7047,
      "comfort": 7048,
      "Ġreputation": 7049,
      "inch": 7050,
      "rates": 7051,
      "Ġbrings": 7052,
      "Ġscorn": 7053,
      "Go": 7054,
      "Ġcott": 7055,
      "ĠDec": 7056,
      "Ġavail": 7057,
      "osa": 7058,
      "Ġmortal": 7059,
      "Ġshed": 7060,
      "Ġproduction": 7061,
      "Ġtradition": 7062,
      "almost": 7063,
      "achment": 7064,
      "Ġoccasions": 7065,
      "Ġcompleted": 7066,
      "Ġ75": 7067,
      "Ġemotion": 7068,
      "Ġlect": 7069,
      "Ġpriests": 7070,
      "alys": 7071,
      "orus": 7072,
      "Ġparish": 7073,
      "Ġarts": 7074,
      "Ġrent": 7075,
      "Ġremove": 7076,
      "BR": 7077,
      "ĠGal": 7078,
      "Ġdebt": 7079,
      "Ġintim": 7080,
      "Ġsupported": 7081,
      "Ġdepth": 7082,
      "Ġconstruction": 7083,
      "Ġsupplied": 7084,
      "Ġquarters": 7085,
      "icians": 7086,
      "Ġacres": 7087,
      "Ġactivity": 7088,
      "Ġtent": 7089,
      "Ġmart": 7090,
      "vals": 7091,
      "Ġzeal": 7092,
      "Ġflying": 7093,
      "Ġyesterday": 7094,
      "Ġexperiment": 7095,
      "Ġwretched": 7096,
      "osure": 7097,
      "Ġnet": 7098,
      "ĠKent": 7099,
      "ifications": 7100,
      "Ġconsciousness": 7101,
      "ocratic": 7102,
      "Ġamaz": 7103,
      "Ġideal": 7104,
      "98": 7105,
      "until": 7106,
      "Ġbetray": 7107,
      "Ġdistress": 7108,
      "Ġstuff": 7109,
      "UST": 7110,
      "sylvania": 7111,
      "ellow": 7112,
      "omed": 7113,
      "ĠPen": 7114,
      "iti": 7115,
      "PER": 7116,
      "closed": 7117,
      "Ġpoem": 7118,
      "Ġimpr": 7119,
      "Ġcomparison": 7120,
      "ĠTy": 7121,
      "pline": 7122,
      "ĠAustri": 7123,
      "Ġatmosphere": 7124,
      "Ġachie": 7125,
      "Ġconvinced": 7126,
      "ĠFore": 7127,
      "acqu": 7128,
      "ĠVII": 7129,
      "Ġhotel": 7130,
      "Ġmourn": 7131,
      "Ġestim": 7132,
      "ĠHy": 7133,
      "racy": 7134,
      "izes": 7135,
      "Ġult": 7136,
      "Ġard": 7137,
      "ĠUN": 7138,
      "Po": 7139,
      "Ġresist": 7140,
      "brought": 7141,
      "orig": 7142,
      "rick": 7143,
      "Ġdisposed": 7144,
      "ĠAgain": 7145,
      "Ġinterior": 7146,
      "Ġcreatures": 7147,
      "ĠRock": 7148,
      "Ġauthorities": 7149,
      "Ġdeparture": 7150,
      "],": 7151,
      "Have": 7152,
      "Ġnest": 7153,
      "Ġapply": 7154,
      "Ġinstantly": 7155,
      "Ġdisposition": 7156,
      "ĠHol": 7157,
      "aux": 7158,
      "Ġ55": 7159,
      "ĠPeople": 7160,
      "ĠAnother": 7161,
      "ĠChild": 7162,
      "reck": 7163,
      "Ġrage": 7164,
      "Ġthroat": 7165,
      "Ġbatter": 7166,
      "Ä«": 7167,
      "Ġasleep": 7168,
      "ĠPass": 7169,
      "Ġroot": 7170,
      "Ã±": 7171,
      "ĠDun": 7172,
      "Ġhit": 7173,
      "Ġcapacity": 7174,
      "ican": 7175,
      "Ġangel": 7176,
      "proper": 7177,
      "Ġneighbor": 7178,
      "close": 7179,
      "Ġrecords": 7180,
      "Ġarrangement": 7181,
      "Ġmeal": 7182,
      "Ġinterpret": 7183,
      "forms": 7184,
      "Ġmistress": 7185,
      "ulgar": 7186,
      "uther": 7187,
      "ĠWestern": 7188,
      "Ġasking": 7189,
      "Ġpier": 7190,
      "Ġlargely": 7191,
      "Ġrefuse": 7192,
      "Ġali": 7193,
      "ĠBob": 7194,
      "Ġfert": 7195,
      "ĠSk": 7196,
      "rical": 7197,
      "Ġshining": 7198,
      "Ġmystery": 7199,
      "je": 7200,
      "Ġlights": 7201,
      "houses": 7202,
      "Ġcommonly": 7203,
      "ĠCastle": 7204,
      "oment": 7205,
      "round": 7206,
      "Ġuns": 7207,
      "ĠDen": 7208,
      "Ġcolony": 7209,
      "Ġartist": 7210,
      "hundred": 7211,
      "Ġanch": 7212,
      "bb": 7213,
      "acco": 7214,
      "Ġholds": 7215,
      "Ġtreasure": 7216,
      "Ġbath": 7217,
      "Ġlust": 7218,
      "idel": 7219,
      "Ġ''": 7220,
      "Ġscheme": 7221,
      "Ġbelonged": 7222,
      "umm": 7223,
      "Ġlimits": 7224,
      "ĠLieutenant": 7225,
      "Ġouter": 7226,
      "Ġdeny": 7227,
      "Ġeloqu": 7228,
      "acific": 7229,
      "amental": 7230,
      "ĠBoth": 7231,
      "Ġprayers": 7232,
      "Ġindic": 7233,
      "Ġeastern": 7234,
      "Ġtight": 7235,
      "Ġhaven": 7236,
      "Ġ58": 7237,
      "iron": 7238,
      "perhaps": 7239,
      "Ġhousehold": 7240,
      "Åį": 7241,
      "--------------------------------": 7242,
      "Ġwhenever": 7243,
      "ĠNothing": 7244,
      "Ġbarbar": 7245,
      "Ġweakness": 7246,
      "Ġsymb": 7247,
      "Ġinvol": 7248,
      "Ġrig": 7249,
      "ĠChief": 7250,
      "Ġrequires": 7251,
      "Ġinstruction": 7252,
      "inations": 7253,
      "Ġlibrary": 7254,
      "Ġeffic": 7255,
      ":-": 7256,
      "whom": 7257,
      "second": 7258,
      "ouch": 7259,
      "Ġâ": 7260,
      "Ġcam": 7261,
      "ĠCorn": 7262,
      "iasm": 7263,
      "Ġfathers": 7264,
      "Ġbreaking": 7265,
      "udent": 7266,
      "ĠIll": 7267,
      "TENTS": 7268,
      "Ġloyal": 7269,
      "ĠTro": 7270,
      "Ġcents": 7271,
      "onn": 7272,
      "Ġremo": 7273,
      "alks": 7274,
      "Ġexternal": 7275,
      "perfect": 7276,
      "tra": 7277,
      "ources": 7278,
      "home": 7279,
      "Ġinferior": 7280,
      "Ġdiscussion": 7281,
      "phen": 7282,
      "Ġcircumstance": 7283,
      "ISTORY": 7284,
      "Ġcharged": 7285,
      "ĠAlb": 7286,
      "suffic": 7287,
      "istence": 7288,
      "shine": 7289,
      "uty": 7290,
      "orders": 7291,
      "Ġconve": 7292,
      "thus": 7293,
      "Defn": 7294,
      "amation": 7295,
      "author": 7296,
      "Ġdisappeared": 7297,
      "Ġviolence": 7298,
      "Ġextrem": 7299,
      "Ġbasis": 7300,
      "lem": 7301,
      "ĠMartin": 7302,
      "Ġrelative": 7303,
      "fire": 7304,
      "ippi": 7305,
      "Ïħ": 7306,
      "Ġcharming": 7307,
      "ĠWH": 7308,
      "lay": 7309,
      "ulties": 7310,
      "ĠSat": 7311,
      "ĠSH": 7312,
      "spirit": 7313,
      "Ġgaze": 7314,
      "Ġurged": 7315,
      "ixture": 7316,
      "ĠRose": 7317,
      "Ġpresents": 7318,
      "Ġcabin": 7319,
      "Ġrecon": 7320,
      "Ġelev": 7321,
      "Ġsincere": 7322,
      "ĠVIII": 7323,
      "Ġapproached": 7324,
      "ĠMoses": 7325,
      "------": 7326,
      "berg": 7327,
      "ĠUpon": 7328,
      "iforn": 7329,
      "ĠPhiladelphia": 7330,
      "abs": 7331,
      "ĠSC": 7332,
      "Ġclub": 7333,
      "Ġham": 7334,
      "ĠJacob": 7335,
      "INT": 7336,
      "Ġopposed": 7337,
      "Ġhitherto": 7338,
      "better": 7339,
      "Ġnervous": 7340,
      "Ġ)": 7341,
      "Ġaffl": 7342,
      "Jan": 7343,
      "Ġsignific": 7344,
      "ERIC": 7345,
      "Ġrele": 7346,
      "Ġtermin": 7347,
      "ois": 7348,
      "Ġunfortunate": 7349,
      "Ġability": 7350,
      "Ġmiserable": 7351,
      "lit": 7352,
      "Ġconcluded": 7353,
      "Ġexisted": 7354,
      "zed": 7355,
      "Ġforbid": 7356,
      "amped": 7357,
      "Ġplainly": 7358,
      "riff": 7359,
      "third": 7360,
      "Ġrighteous": 7361,
      "upid": 7362,
      "Ġleaders": 7363,
      "allow": 7364,
      "Ġdecision": 7365,
      "Ġnobody": 7366,
      "Ġprofit": 7367,
      "urther": 7368,
      "Ġkitchen": 7369,
      "Ġattitude": 7370,
      "intend": 7371,
      "Ġindividuals": 7372,
      "ĠAust": 7373,
      "ferred": 7374,
      "Ġaunt": 7375,
      "ĠProtest": 7376,
      "hind": 7377,
      "Ġdeliber": 7378,
      "Ġhun": 7379,
      "pton": 7380,
      "ĠDev": 7381,
      "eman": 7382,
      "olation": 7383,
      "osh": 7384,
      "Ġmaterials": 7385,
      "Ġbeloved": 7386,
      "Ġuseless": 7387,
      "Ġroads": 7388,
      "tell": 7389,
      "Ġloves": 7390,
      "ribute": 7391,
      "quarters": 7392,
      "........": 7393,
      "ĠLook": 7394,
      "Ġfears": 7395,
      "Ġwooden": 7396,
      "!--": 7397,
      "Ġagreeable": 7398,
      "apped": 7399,
      "Ġtho": 7400,
      "ĠDivine": 7401,
      "Ã´": 7402,
      "Ġmatch": 7403,
      "Ġhistorical": 7404,
      "anting": 7405,
      "Ġswept": 7406,
      "istle": 7407,
      "Ġelder": 7408,
      "Ġfeather": 7409,
      "Â´": 7410,
      "Ġmaintained": 7411,
      "Ġproblem": 7412,
      "=:": 7413,
      "âķĲâķĲ": 7414,
      "King": 7415,
      "ni": 7416,
      "arl": 7417,
      "istics": 7418,
      "Ġrecently": 7419,
      "Ġanxiety": 7420,
      "aur": 7421,
      "Ġansw": 7422,
      "ĠAunt": 7423,
      "plicity": 7424,
      "erick": 7425,
      "ĠWall": 7426,
      "Ġconsequently": 7427,
      "Ġpreviously": 7428,
      "pract": 7429,
      "ĠEN": 7430,
      "Ġproduct": 7431,
      "Ġdeeds": 7432,
      "Like": 7433,
      "list": 7434,
      "Ġtoler": 7435,
      "Ġbride": 7436,
      "Ġexamined": 7437,
      "----\"": 7438,
      "terior": 7439,
      "Ġangels": 7440,
      "oups": 7441,
      "incl": 7442,
      "Ġleads": 7443,
      "Ġtendency": 7444,
      "Ġinform": 7445,
      "Ġsupreme": 7446,
      "ĠTim": 7447,
      "Ġpipe": 7448,
      "ĠPost": 7449,
      "Ġmagnificent": 7450,
      "Ġcheek": 7451,
      "Ġfest": 7452,
      "ĠMassachusetts": 7453,
      "Ġexcuse": 7454,
      "bler": 7455,
      "Ġaltern": 7456,
      "Ġbeings": 7457,
      "ĠBoard": 7458,
      "stairs": 7459,
      "Ġadvantages": 7460,
      "AW": 7461,
      "burn": 7462,
      "epartment": 7463,
      "Ġsale": 7464,
      "Ġunhappy": 7465,
      "Look": 7466,
      "words": 7467,
      "oser": 7468,
      "Ġearliest": 7469,
      "Ġantic": 7470,
      "encies": 7471,
      "Ġknife": 7472,
      "enough": 7473,
      "Ġthrust": 7474,
      "Ġaccounts": 7475,
      "ĠPur": 7476,
      "Ġpursued": 7477,
      "ĠEarth": 7478,
      "bal": 7479,
      "Ġinstitutions": 7480,
      "ships": 7481,
      "coll": 7482,
      "Ġcuriosity": 7483,
      "Ġdevotion": 7484,
      "death": 7485,
      "Ġbind": 7486,
      "Ġlofty": 7487,
      "Ġmisery": 7488,
      "Ġtrack": 7489,
      "Ġagric": 7490,
      "ervation": 7491,
      "Ġtower": 7492,
      "therefore": 7493,
      "ĠAnge": 7494,
      "rich": 7495,
      "Ġpenet": 7496,
      "ĠHoll": 7497,
      "illing": 7498,
      "Never": 7499,
      "rage": 7500,
      "Ġdoesn": 7501,
      "public": 7502,
      "Ġcontact": 7503,
      "Ġhorror": 7504,
      "ĠVict": 7505,
      "Ġluck": 7506,
      "ĠMost": 7507,
      "Ġcandid": 7508,
      "Ġrepublic": 7509,
      "GR": 7510,
      "Ġpause": 7511,
      "Ġnecessarily": 7512,
      "Ġeleven": 7513,
      "Ġinher": 7514,
      "Pres": 7515,
      "ĠNEW": 7516,
      "Ġstudent": 7517,
      "ĠYoung": 7518,
      "human": 7519,
      "Ġfailure": 7520,
      "Ġtrembling": 7521,
      "done": 7522,
      "Ġaccordingly": 7523,
      "Ġdeclare": 7524,
      "ĠUncle": 7525,
      "Ġpermit": 7526,
      "Ġspecul": 7527,
      "Ġuncertain": 7528,
      "Ġstrain": 7529,
      "Ġbishop": 7530,
      "ĠCapt": 7531,
      "Ġsuitable": 7532,
      "Ġsie": 7533,
      "Ġridic": 7534,
      "Ġblessing": 7535,
      "itudes": 7536,
      "Ġours": 7537,
      "CO": 7538,
      "Ġcoffee": 7539,
      "Ġrailroad": 7540,
      "ĠGre": 7541,
      "Ġcharacteristic": 7542,
      "igs": 7543,
      "Ġclay": 7544,
      "tery": 7545,
      "best": 7546,
      "Ġpermanent": 7547,
      "qual": 7548,
      "Ġgeneration": 7549,
      "Ġcheck": 7550,
      "Ġagent": 7551,
      "Ġstiff": 7552,
      "ĠSus": 7553,
      "Ġrum": 7554,
      "ĠInf": 7555,
      "Ġestablishment": 7556,
      "epend": 7557,
      "Ġinvited": 7558,
      "Ġcompass": 7559,
      "Ġingen": 7560,
      "Ġ53": 7561,
      "Two": 7562,
      "chester": 7563,
      "Ġqui": 7564,
      "Ġmysterious": 7565,
      "ras": 7566,
      "Ġlargest": 7567,
      "estab": 7568,
      "Ġ90": 7569,
      "Though": 7570,
      "Ġobey": 7571,
      "ĠLE": 7572,
      "Ġwidow": 7573,
      "Ġaltar": 7574,
      "Ġfruits": 7575,
      "Ġcir": 7576,
      "ĠConn": 7577,
      "Ġorganization": 7578,
      "iary": 7579,
      "French": 7580,
      "Ġsem": 7581,
      "ĠIsa": 7582,
      "Before": 7583,
      "ĠJudge": 7584,
      "Ġparallel": 7585,
      "Ġrushed": 7586,
      "arling": 7587,
      "Ġmood": 7588,
      "brew": 7589,
      "Ġshew": 7590,
      "ĠPri": 7591,
      "rawn": 7592,
      "ĠTR": 7593,
      "Ġmounted": 7594,
      "Another": 7595,
      "Ġcreation": 7596,
      "Ġmeas": 7597,
      "Ġshalt": 7598,
      "icago": 7599,
      "Ġbrethren": 7600,
      "break": 7601,
      "table": 7602,
      "Ġsenses": 7603,
      "commun": 7604,
      "arms": 7605,
      "iner": 7606,
      "Ġhomes": 7607,
      "ICE": 7608,
      "Ġarise": 7609,
      "Ġgrain": 7610,
      "different": 7611,
      "Ġgates": 7612,
      "Ġneat": 7613,
      "ige": 7614,
      "ĠMel": 7615,
      "Ġtomb": 7616,
      "nature": 7617,
      "ĠRog": 7618,
      "Ġarchitect": 7619,
      "Ġpound": 7620,
      "ĠRomans": 7621,
      "suff": 7622,
      "Ġsprang": 7623,
      "Ġelsewhere": 7624,
      "Ġrust": 7625,
      "Ġ42": 7626,
      "bellion": 7627,
      "Ġattacked": 7628,
      "wall": 7629,
      "Ġselected": 7630,
      "venue": 7631,
      "Ġstim": 7632,
      "Ġcas": 7633,
      "Ġrival": 7634,
      "Ġdelightful": 7635,
      "Ġspare": 7636,
      "_]": 7637,
      "ĠJones": 7638,
      "otions": 7639,
      "twenty": 7640,
      "Ġrestored": 7641,
      "dig": 7642,
      "seemed": 7643,
      "Ġlanded": 7644,
      "ouraged": 7645,
      "Ġexisting": 7646,
      "Ġ51": 7647,
      "Ġacting": 7648,
      "ĠSince": 7649,
      "sembly": 7650,
      "Ġfeast": 7651,
      "Ġlic": 7652,
      "anta": 7653,
      "Ġbeast": 7654,
      "Ġimpart": 7655,
      "Ġneglect": 7656,
      "ĠPRO": 7657,
      "Ġmarched": 7658,
      "Ġnav": 7659,
      "inks": 7660,
      "Ġfurnish": 7661,
      "\"--": 7662,
      "Ġhelped": 7663,
      "OOD": 7664,
      "First": 7665,
      "times": 7666,
      "cation": 7667,
      "Ġeverybody": 7668,
      "uris": 7669,
      "Ġdirections": 7670,
      "Ġsalvation": 7671,
      "Ġcomfortable": 7672,
      "Ġascend": 7673,
      "Ġfeed": 7674,
      "state": 7675,
      "uity": 7676,
      "tes": 7677,
      "obs": 7678,
      "Ġrevel": 7679,
      "dress": 7680,
      "Ġburned": 7681,
      "Ġpatience": 7682,
      "Ġtort": 7683,
      "account": 7684,
      "eded": 7685,
      "rol": 7686,
      "Ġapproaching": 7687,
      "Ġrolled": 7688,
      "ulars": 7689,
      "Ġcampaign": 7690,
      "och": 7691,
      "Ġentering": 7692,
      "ĠSax": 7693,
      "LD": 7694,
      "IFE": 7695,
      "compl": 7696,
      "Ġfeared": 7697,
      "Ġoriginally": 7698,
      "Â©": 7699,
      "Ġinsult": 7700,
      "ador": 7701,
      "Ġmarble": 7702,
      "icken": 7703,
      "Ġstudied": 7704,
      "Ġgets": 7705,
      "icles": 7706,
      "taining": 7707,
      "Ġsignal": 7708,
      "Ġpersec": 7709,
      "Ġslept": 7710,
      "ĠHaving": 7711,
      "Ġtraining": 7712,
      "ĠâĢĺ": 7713,
      "Ġber": 7714,
      "Ġfired": 7715,
      "oting": 7716,
      "Ġannounced": 7717,
      "changed": 7718,
      "cia": 7719,
      "Ġenormous": 7720,
      "American": 7721,
      "ugg": 7722,
      "Ġpicked": 7723,
      "Ġtele": 7724,
      "Ġ65": 7725,
      "Mad": 7726,
      "Ġnoon": 7727,
      "Ġdeparted": 7728,
      "Ġstronger": 7729,
      "Hen": 7730,
      "Ġflu": 7731,
      "pless": 7732,
      "Ġwrites": 7733,
      "posed": 7734,
      "Ġinquired": 7735,
      "Ġregions": 7736,
      "Ġconj": 7737,
      "press": 7738,
      "Ġincluded": 7739,
      "fortune": 7740,
      ".),": 7741,
      "agues": 7742,
      "Ġincreasing": 7743,
      "ieties": 7744,
      "Ġambition": 7745,
      "Ġdomin": 7746,
      "KE": 7747,
      "UE": 7748,
      "Ġadministration": 7749,
      "ĠSaint": 7750,
      "turned": 7751,
      "criptions": 7752,
      "Ġelectric": 7753,
      "tha": 7754,
      "Brit": 7755,
      "Ġbelongs": 7756,
      "Ġlonely": 7757,
      "class": 7758,
      "aping": 7759,
      "Ġconducted": 7760,
      "Ġgent": 7761,
      "Ġtemperature": 7762,
      "Ġresistance": 7763,
      "affect": 7764,
      "Pe": 7765,
      "Ġrat": 7766,
      "ĠJerusalem": 7767,
      "opes": 7768,
      "Ap": 7769,
      "Ġtroubles": 7770,
      "exam": 7771,
      "Ġfirmly": 7772,
      "Ġpains": 7773,
      "Ġstreams": 7774,
      "Ġstairs": 7775,
      "Ġcease": 7776,
      "ASS": 7777,
      "ĠĠĠĠĠĠĠĠĠĠĠĠĠĠĠĠĠĠĠĠĠĠĠĠĠĠĠĠĠĠĠĠĠ": 7778,
      "Ġpushed": 7779,
      "Ġprofess": 7780,
      "ĠSpani": 7781,
      "Ġsacrific": 7782,
      "gone": 7783,
      "ih": 7784,
      "open": 7785,
      "Ġconnect": 7786,
      "Ġrisk": 7787,
      "Ġinterrupted": 7788,
      "Ġassembled": 7789,
      "Ġroute": 7790,
      "wart": 7791,
      "iber": 7792,
      "Ġviz": 7793,
      "Ġprovide": 7794,
      "ĠLight": 7795,
      "ĠPL": 7796,
      "Ġgratitude": 7797,
      "word": 7798,
      "Ġsanct": 7799,
      "ĠEX": 7800,
      "Ġsoftly": 7801,
      "Christian": 7802,
      "ba": 7803,
      "ĠGar": 7804,
      "Ġfount": 7805,
      "ĠCross": 7806,
      "ĠLee": 7807,
      "Ġowner": 7808,
      "Oct": 7809,
      "Ġgloom": 7810,
      "Ġclimate": 7811,
      "Ġbi": 7812,
      "ĠCanada": 7813,
      "Ġcrowded": 7814,
      "hands": 7815,
      "iate": 7816,
      "85": 7817,
      "Ġtar": 7818,
      "-----+": 7819,
      "ĠAuthor": 7820,
      "Ġ(?": 7821,
      "Ġprepare": 7822,
      "Ġthereby": 7823,
      "Ġped": 7824,
      "Ġfitted": 7825,
      "amma": 7826,
      "Ġcens": 7827,
      "nation": 7828,
      "Ġpreserve": 7829,
      "ĠChristmas": 7830,
      "Ġpaused": 7831,
      "Ġpainful": 7832,
      "miral": 7833,
      "intell": 7834,
      "Ġanticip": 7835,
      "ĠCarolina": 7836,
      "ĠAccording": 7837,
      "Ġly": 7838,
      "Ġconviction": 7839,
      "thr": 7840,
      "Ġfarmer": 7841,
      "Ġlamp": 7842,
      "Ġcommunication": 7843,
      "ifornia": 7844,
      "Ġbrig": 7845,
      "FF": 7846,
      "Ġboil": 7847,
      "Ġexperienced": 7848,
      "Ġannual": 7849,
      "Ġabandoned": 7850,
      "Ġobvious": 7851,
      "oria": 7852,
      "black": 7853,
      "Perhaps": 7854,
      "92": 7855,
      "Me": 7856,
      "arks": 7857,
      "ĠRevolution": 7858,
      "Ġblame": 7859,
      "issippi": 7860,
      "ulating": 7861,
      "Ġembra": 7862,
      "ĠSEE": 7863,
      "'^": 7864,
      "akespe": 7865,
      "Ġdeed": 7866,
      "ĠNapoleon": 7867,
      "Ġpurchase": 7868,
      "ĠÂ»": 7869,
      "Ġreaders": 7870,
      "Thy": 7871,
      "Ġghost": 7872,
      "alo": 7873,
      "Ġintr": 7874,
      "Ġmanufacture": 7875,
      "vity": 7876,
      "erness": 7877,
      "Ġmidnight": 7878,
      "din": 7879,
      "edge": 7880,
      "ĠAdam": 7881,
      "atched": 7882,
      "ĠAny": 7883,
      "whether": 7884,
      "Ġpist": 7885,
      "Ġmerry": 7886,
      "Ġcheeks": 7887,
      "OND": 7888,
      "Ġwrought": 7889,
      "past": 7890,
      "100": 7891,
      "oubtedly": 7892,
      "Ġil": 7893,
      "quet": 7894,
      "Ġscarce": 7895,
      "Ġyard": 7896,
      "ĠEmpire": 7897,
      "ĠAsia": 7898,
      "bird": 7899,
      "Ġseas": 7900,
      "command": 7901,
      "Ġvine": 7902,
      "Ġautumn": 7903,
      "Ġseventy": 7904,
      "Ġclever": 7905,
      "dev": 7906,
      "THER": 7907,
      "Ġvague": 7908,
      "Ġmelancholy": 7909,
      "Ġheavenly": 7910,
      "Ġdelighted": 7911,
      "ĠSaviour": 7912,
      "racts": 7913,
      "Ġrarely": 7914,
      "Ġmetal": 7915,
      "Ġfrank": 7916,
      "num": 7917,
      "Ġtribut": 7918,
      "Ġreceiving": 7919,
      "gend": 7920,
      "object": 7921,
      "Ġpaint": 7922,
      "Ġintelligent": 7923,
      "Ġdefect": 7924,
      "Ġcries": 7925,
      "aneous": 7926,
      "gans": 7927,
      "ĠAbout": 7928,
      "former": 7929,
      "ĠJackson": 7930,
      "Ġruins": 7931,
      "Ġmap": 7932,
      "Ġdetail": 7933,
      "ĠOffice": 7934,
      "morning": 7935,
      "ghter": 7936,
      "Ġblock": 7937,
      "Ġeconom": 7938,
      "ĠGreece": 7939,
      "boat": 7940,
      "Ġsuperst": 7941,
      "IVE": 7942,
      "Ġidle": 7943,
      "quisite": 7944,
      "Ġcutting": 7945,
      "ĠOxford": 7946,
      "Ġenabled": 7947,
      "96": 7948,
      "Ġdrift": 7949,
      "rup": 7950,
      "Ġconception": 7951,
      "Ġthir": 7952,
      "Ġwhisper": 7953,
      "Ġcivilization": 7954,
      "ĠGall": 7955,
      "ĠLP": 7956,
      "irk": 7957,
      "Ġcomplex": 7958,
      "poon": 7959,
      "Ġrevealed": 7960,
      "ĠCy": 7961,
      "agree": 7962,
      "Ġdescribe": 7963,
      "Ġconvention": 7964,
      "Ġmould": 7965,
      "oi": 7966,
      "ĠPoint": 7967,
      "stra": 7968,
      "Ġsuccession": 7969,
      "dep": 7970,
      "Ġadventure": 7971,
      "does": 7972,
      "ga": 7973,
      "Ġsubl": 7974,
      "Ġeld": 7975,
      "During": 7976,
      "fif": 7977,
      "Ġministers": 7978,
      "ĠTra": 7979,
      "\";": 7980,
      "udence": 7981,
      "ĠFin": 7982,
      "Was": 7983,
      "Ġenable": 7984,
      "Ste": 7985,
      "onies": 7986,
      "Ġinstitution": 7987,
      "Har": 7988,
      "_).": 7989,
      "Ġcorp": 7990,
      "olate": 7991,
      "tor": 7992,
      "ĠPot": 7993,
      "Ġstepped": 7994,
      "Ġlesson": 7995,
      "eries": 7996,
      "utter": 7997,
      "Ġburden": 7998,
      "OY": 7999,
      "Ġhaste": 8000,
      "Ġvary": 8001,
      "Ġ}": 8002,
      "ĠOut": 8003,
      "Ġcourts": 8004,
      "Ġselect": 8005,
      "Ġcombined": 8006,
      "rines": 8007,
      "Ġaudience": 8008,
      "UD": 8009,
      "Ġantiqu": 8010,
      "pop": 8011,
      "ĠCommand": 8012,
      "Ġtorn": 8013,
      "Ġdaughters": 8014,
      "Ġprecip": 8015,
      "Ġ150": 8016,
      "Ġshouted": 8017,
      "Ġshelter": 8018,
      "anned": 8019,
      "pture": 8020,
      "95": 8021,
      "Fl": 8022,
      "ĠGreeks": 8023,
      "Ġprem": 8024,
      "tree": 8025,
      "thousand": 8026,
      "Ġunconscious": 8027,
      "Ġcart": 8028,
      "Ġcenter": 8029,
      "rels": 8030,
      "Ġroots": 8031,
      "Ġsteady": 8032,
      "Ġrecorded": 8033,
      "orum": 8034,
      "Ġshadows": 8035,
      "Ġinfl": 8036,
      "Ġresc": 8037,
      "Ġscri": 8038,
      "Ġsmell": 8039,
      "Ġlimit": 8040,
      "Ġrot": 8041,
      "vin": 8042,
      "Ġrush": 8043,
      "saw": 8044,
      "Ġstomach": 8045,
      "Îº": 8046,
      "top": 8047,
      "appro": 8048,
      "ĠHead": 8049,
      "uscript": 8050,
      "useum": 8051,
      "hearted": 8052,
      "Ġmanaged": 8053,
      "onia": 8054,
      "Ġculture": 8055,
      "Ġguests": 8056,
      "asket": 8057,
      "OUS": 8058,
      "si": 8059,
      "Ġaccompany": 8060,
      "Ġencourage": 8061,
      "Ġgoodness": 8062,
      "Ġstudies": 8063,
      "Ġproc": 8064,
      "akers": 8065,
      "Ġ57": 8066,
      "Ġheavens": 8067,
      "82": 8068,
      "Ġdur": 8069,
      "Ġtied": 8070,
      "Äĵ": 8071,
      "ENCE": 8072,
      "sight": 8073,
      "sett": 8074,
      "Ġdisturb": 8075,
      "ĠJOHN": 8076,
      "fav": 8077,
      "moment": 8078,
      "Ġmerc": 8079,
      "84": 8080,
      "urious": 8081,
      "Ġdepartment": 8082,
      "ifies": 8083,
      "Ġodd": 8084,
      "Very": 8085,
      "prof": 8086,
      "ients": 8087,
      "chn": 8088,
      "Ġsongs": 8089,
      "leness": 8090,
      "Ġcomposition": 8091,
      "Ġpassions": 8092,
      "Ïī": 8093,
      "ĠPortug": 8094,
      "ĠJoe": 8095,
      "sels": 8096,
      "Ġmasters": 8097,
      "Ġsore": 8098,
      "Ġwrath": 8099,
      "ĠJane": 8100,
      "sed": 8101,
      "picuous": 8102,
      "La": 8103,
      "Ġvirtues": 8104,
      "Ġprominent": 8105,
      "aue": 8106,
      "prot": 8107,
      "Ġnearest": 8108,
      "Ġplat": 8109,
      "during": 8110,
      "number": 8111,
      "Ġ]": 8112,
      "Ġpowder": 8113,
      "ipping": 8114,
      "cs": 8115,
      "ĠPle": 8116,
      "tre": 8117,
      "Ġ160": 8118,
      "Ġvice": 8119,
      "Ġtin": 8120,
      "ĠHaw": 8121,
      "Ġlaughter": 8122,
      "Ġgrateful": 8123,
      "Ã¤": 8124,
      "inqu": 8125,
      "alling": 8126,
      "Ġhunting": 8127,
      "Ġwire": 8128,
      "eur": 8129,
      "Ġgenuine": 8130,
      "Ġsuspicion": 8131,
      "Ġgrows": 8132,
      "mighty": 8133,
      "Ġuttered": 8134,
      "liver": 8135,
      "Ġwra": 8136,
      "within": 8137,
      "Ġwi": 8138,
      "ĠWalter": 8139,
      "Ġperceived": 8140,
      "def": 8141,
      "Ġmock": 8142,
      "Ġremote": 8143,
      "ĠTake": 8144,
      "ĠRec": 8145,
      "ĠCrown": 8146,
      "ĠMAN": 8147,
      "Ġsafely": 8148,
      "VER": 8149,
      "Ġcontinually": 8150,
      "Ġawa": 8151,
      "Ġtoil": 8152,
      "Ġrepeat": 8153,
      "Ġstudents": 8154,
      "uk": 8155,
      "Ġnaked": 8156,
      "told": 8157,
      "Ġforehead": 8158,
      "grow": 8159,
      "iel": 8160,
      "hedral": 8161,
      "Ġeighteen": 8162,
      "vous": 8163,
      "ĠWould": 8164,
      "MENT": 8165,
      "Ġexamples": 8166,
      "Ġtrip": 8167,
      "stru": 8168,
      "Ġpatron": 8169,
      "rd": 8170,
      "wich": 8171,
      "Ġteachers": 8172,
      "Ġpresident": 8173,
      "Ġreb": 8174,
      "giving": 8175,
      "spring": 8176,
      "Ġjew": 8177,
      "Enter": 8178,
      "Ġcommercial": 8179,
      "inking": 8180,
      "inence": 8181,
      "ĠJeff": 8182,
      "Ġfires": 8183,
      "Ġpassages": 8184,
      "soon": 8185,
      "dec": 8186,
      "Ġsailed": 8187,
      "gram": 8188,
      "86": 8189,
      "Ġsi": 8190,
      "Ġpoured": 8191,
      "ĠAndrew": 8192,
      "Ġwritings": 8193,
      "bear": 8194,
      "ĠMah": 8195,
      "Ġnevertheless": 8196,
      "Ġcolonies": 8197,
      "mil": 8198,
      "axim": 8199,
      "Ġshru": 8200,
      "ipt": 8201,
      "Ġreasonable": 8202,
      "Ġperfection": 8203,
      "Ġrays": 8204,
      "Ġcomment": 8205,
      "grand": 8206,
      "REF": 8207,
      "sa": 8208,
      "Ġinquiry": 8209,
      "Ġranks": 8210,
      "Ġamend": 8211,
      "blance": 8212,
      "Ġaged": 8213,
      "Ġformation": 8214,
      "Ġmistaken": 8215,
      "Ġpover": 8216,
      "Ġcryst": 8217,
      "Ġcopper": 8218,
      "Ġcontrast": 8219,
      "Ġgracious": 8220,
      "EX": 8221,
      "Ġcommence": 8222,
      "bacco": 8223,
      "ingham": 8224,
      "inery": 8225,
      "ĠAD": 8226,
      "Ġdenied": 8227,
      "rather": 8228,
      "aturday": 8229,
      "Ġprevented": 8230,
      "alysis": 8231,
      "few": 8232,
      "Ġafterward": 8233,
      "Ġgospel": 8234,
      "ĠMargaret": 8235,
      "Ġbone": 8236,
      "ĠMet": 8237,
      "plain": 8238,
      "Ġrope": 8239,
      "inson": 8240,
      "Ġsecurity": 8241,
      "Ġsport": 8242,
      "awn": 8243,
      "cause": 8244,
      "above": 8245,
      "Ġconquer": 8246,
      "bishop": 8247,
      "Ġtroubled": 8248,
      "abbath": 8249,
      "mediately": 8250,
      "Ġobedience": 8251,
      "Ġshield": 8252,
      "Su": 8253,
      "ĠPennsylvania": 8254,
      "Ġretire": 8255,
      "gate": 8256,
      "main": 8257,
      "olis": 8258,
      "Ġsorts": 8259,
      "cannot": 8260,
      "ĠPO": 8261,
      "quite": 8262,
      "Ġmorn": 8263,
      "Ġprosperity": 8264,
      "rene": 8265,
      "Ġcavalry": 8266,
      "Ġsentiments": 8267,
      "occup": 8268,
      "Ġavo": 8269,
      "Ġpoverty": 8270,
      "ĠIslands": 8271,
      "Ġclaimed": 8272,
      "sac": 8273,
      "cclesiast": 8274,
      "Ġadorn": 8275,
      "lot": 8276,
      "Ġexamine": 8277,
      "grim": 8278,
      "ĠAnne": 8279,
      "Ġexists": 8280,
      "ĠIX": 8281,
      "Ġgifts": 8282,
      "Ġwo": 8283,
      "Ġlighted": 8284,
      "Ġwars": 8285,
      "Ġstraw": 8286,
      "ĠTex": 8287,
      "Ġgrim": 8288,
      "Ġauthors": 8289,
      "Again": 8290,
      "Ġ170": 8291,
      "gentle": 8292,
      "Ġcomr": 8293,
      "SH": 8294,
      "Ġimprovement": 8295,
      "Ġarmies": 8296,
      "istent": 8297,
      "wealth": 8298,
      "pleasant": 8299,
      "asped": 8300,
      "plex": 8301,
      "ĠNight": 8302,
      "ĠTurk": 8303,
      "Ġquoted": 8304,
      "Ġflew": 8305,
      "Ġcig": 8306,
      "arrass": 8307,
      "rum": 8308,
      "ĠLew": 8309,
      "ILLI": 8310,
      "500": 8311,
      "WH": 8312,
      "ĠDar": 8313,
      "eff": 8314,
      "plan": 8315,
      "hension": 8316,
      "Ġfrightened": 8317,
      "97": 8318,
      "isting": 8319,
      "Ġ46": 8320,
      "inf": 8321,
      "Ġharmony": 8322,
      "justice": 8323,
      "Ġperceive": 8324,
      "Ġexceedingly": 8325,
      "uy": 8326,
      "illes": 8327,
      "Ġdescended": 8328,
      "experi": 8329,
      "London": 8330,
      "Ġrefuge": 8331,
      "reement": 8332,
      "Ġmedium": 8333,
      "ishops": 8334,
      "Ġsensible": 8335,
      "Ġanybody": 8336,
      "di": 8337,
      "ĠAmericans": 8338,
      "pled": 8339,
      "Ġwives": 8340,
      "fare": 8341,
      "ĠConstant": 8342,
      "Ġoutward": 8343,
      "Ġrav": 8344,
      "Ġdram": 8345,
      "Ġdesigned": 8346,
      "except": 8347,
      "diffic": 8348,
      "often": 8349,
      "uan": 8350,
      "Ġobjection": 8351,
      "Ġsummon": 8352,
      "Ġindicated": 8353,
      "Ġoffices": 8354,
      "comes": 8355,
      "Ġnotwithstanding": 8356,
      "feet": 8357,
      "ensation": 8358,
      "Ġwarning": 8359,
      "Ġperf": 8360,
      "Ġinstructions": 8361,
      "Ġnurs": 8362,
      "Ġadditional": 8363,
      "Ġinev": 8364,
      "uman": 8365,
      "Ġphot": 8366,
      "Ġconvenient": 8367,
      "Ġgroups": 8368,
      "Ġec": 8369,
      "Ġinduced": 8370,
      "Ġslain": 8371,
      "Ġsigned": 8372,
      "Ġborrow": 8373,
      "Ġpurple": 8374,
      "IAL": 8375,
      "94": 8376,
      "ictions": 8377,
      "Ġfoe": 8378,
      "ĠCL": 8379,
      "Ġpretend": 8380,
      "cross": 8381,
      "Ġwondered": 8382,
      "ĠĠĠĠĠĠĠĠĠĠĠĠĠĠĠĠĠĠĠĠĠĠĠĠĠĠĠĠĠĠĠĠĠĠ": 8383,
      "sych": 8384,
      "Ġcure": 8385,
      "Ġsomewhere": 8386,
      "early": 8387,
      "Ġstretched": 8388,
      "Ġmead": 8389,
      "Ġpreparation": 8390,
      "Ġdemands": 8391,
      "ĠJean": 8392,
      "zo": 8393,
      "Ġcliff": 8394,
      "Ġmerchant": 8395,
      "Ġmasses": 8396,
      "Ġforgive": 8397,
      "Ġabsent": 8398,
      "Ġgreet": 8399,
      "Ġfearful": 8400,
      "Ġseeking": 8401,
      "mere": 8402,
      "Ġreaching": 8403,
      "Ġconsequences": 8404,
      "hend": 8405,
      "sea": 8406,
      "Ġbri": 8407,
      "ĠHE": 8408,
      "ĠTherefore": 8409,
      "akespeare": 8410,
      "Ġprimitive": 8411,
      "Ġpronounced": 8412,
      "ĠBre": 8413,
      "Ġvener": 8414,
      "ĠRight": 8415,
      "Ġcaptured": 8416,
      "nut": 8417,
      "ocracy": 8418,
      "Gl": 8419,
      "Ġassume": 8420,
      "Ġsupplies": 8421,
      "onday": 8422,
      "Ġrecovered": 8423,
      "urrection": 8424,
      "SC": 8425,
      "ayed": 8426,
      "ĠGrace": 8427,
      "Ġaccess": 8428,
      "Ġinvolved": 8429,
      "Ġmoist": 8430,
      "Ġenv": 8431,
      "Ġphrase": 8432,
      "Ġirrit": 8433,
      "Ġhanging": 8434,
      "odge": 8435,
      "Ġpatter": 8436,
      "uting": 8437,
      "Ġpursuit": 8438,
      "Great": 8439,
      "Ġminor": 8440,
      "nto": 8441,
      "Ġlimbs": 8442,
      "Ġsleeping": 8443,
      "Â½": 8444,
      "arned": 8445,
      "Ġnotion": 8446,
      "Ġfeeble": 8447,
      "wit": 8448,
      "Ġartific": 8449,
      "Bar": 8450,
      "ĠPacific": 8451,
      "Ġinternal": 8452,
      "Ġprize": 8453,
      "Ġenthusiasm": 8454,
      "ez": 8455,
      "ighth": 8456,
      "83": 8457,
      "Ġimperfect": 8458,
      "Ġmultitude": 8459,
      "ĠCro": 8460,
      "Ġhanded": 8461,
      "Ġrespects": 8462,
      "LL": 8463,
      "_\"": 8464,
      "Ġtran": 8465,
      "Ġecho": 8466,
      "ciation": 8467,
      "Ġshores": 8468,
      "Ġindependence": 8469,
      "lessness": 8470,
      "Ġvaried": 8471,
      "ĠMarsh": 8472,
      "Ġhaunt": 8473,
      "Ġclerk": 8474,
      "Ġpractically": 8475,
      "Ġunusual": 8476,
      "Ġemployment": 8477,
      "advant": 8478,
      "ĠPage": 8479,
      "mont": 8480,
      "Ġtrick": 8481,
      "Ġeagerly": 8482,
      "Ġoun": 8483,
      "apes": 8484,
      "several": 8485,
      "leton": 8486,
      "ĠFROM": 8487,
      "Ġdared": 8488,
      "Ġpine": 8489,
      ".^": 8490,
      "Ġinfant": 8491,
      "ACK": 8492,
      "Ġsway": 8493,
      "Ġcontents": 8494,
      "Im": 8495,
      "Ġintroduction": 8496,
      "Ġpond": 8497,
      "conven": 8498,
      "whe": 8499,
      "ĠTemple": 8500,
      "ping": 8501,
      "Ġcommander": 8502,
      "93": 8503,
      "ĠPlace": 8504,
      "piece": 8505,
      "stud": 8506,
      "isk": 8507,
      "Ġdict": 8508,
      "Ġdesires": 8509,
      "Ġfolly": 8510,
      "ieu": 8511,
      "Ġpositive": 8512,
      "ĠGospel": 8513,
      "Ġinterview": 8514,
      "Ġliberal": 8515,
      "Ġirregular": 8516,
      "erving": 8517,
      "ĠAssoci": 8518,
      "opy": 8519,
      "covered": 8520,
      "Ġventure": 8521,
      "ader": 8522,
      "Ġadmire": 8523,
      "Ġmedical": 8524,
      "del": 8525,
      "ĠProvidence": 8526,
      "ĠFlore": 8527,
      "ayer": 8528,
      "91": 8529,
      "Ġriding": 8530,
      "Ġplanted": 8531,
      "Ġbreeze": 8532,
      "vet": 8533,
      "eer": 8534,
      "George": 8535,
      "Ġbottle": 8536,
      "PT": 8537,
      "ptoms": 8538,
      "Ġannoy": 8539,
      "Ġvillages": 8540,
      "Ġenterprise": 8541,
      "ball": 8542,
      "Ġfinest": 8543,
      "Ġdistinctly": 8544,
      "Ġdesperate": 8545,
      "exc": 8546,
      "Ġvow": 8547,
      "conn": 8548,
      "Ġstrangers": 8549,
      "ĠGrant": 8550,
      "Ġdew": 8551,
      "Ġwanting": 8552,
      "Ġhundreds": 8553,
      "street": 8554,
      "ĠSometimes": 8555,
      "particular": 8556,
      "Ġbrid": 8557,
      "RODU": 8558,
      "Ġstout": 8559,
      "hur": 8560,
      "Ġunexpected": 8561,
      "Ġeating": 8562,
      "Ġwoe": 8563,
      "Ġcree": 8564,
      "ĠGil": 8565,
      "ĠBeing": 8566,
      "ĠWat": 8567,
      "ĠBR": 8568,
      "agle": 8569,
      "Ġcircum": 8570,
      "Ġgazed": 8571,
      "Ġchron": 8572,
      "Ġsubsequent": 8573,
      "ATIONS": 8574,
      "\"_": 8575,
      "Ġattempts": 8576,
      "Ġmedicine": 8577,
      "Ġsisters": 8578,
      "Ġna": 8579,
      "Ġuniverse": 8580,
      "States": 8581,
      "Ġcontrad": 8582,
      "ĠCommon": 8583,
      "Ġcheap": 8584,
      "Ġhurry": 8585,
      "either": 8586,
      "Ġnights": 8587,
      "angle": 8588,
      "Ġhospital": 8589,
      "ĠLIFE": 8590,
      "Ġkissed": 8591,
      "mical": 8592,
      "ORT": 8593,
      "Ġdiscipline": 8594,
      "uming": 8595,
      "ĠNorthern": 8596,
      "Ġsubstant": 8597,
      "Ġprivilege": 8598,
      "Ġlift": 8599,
      "grat": 8600,
      "Ġlistening": 8601,
      "cession": 8602,
      "Ġbased": 8603,
      "ĠSpring": 8604,
      "Ġprotest": 8605,
      "Ġsunshine": 8606,
      "Ġobservations": 8607,
      "ansas": 8608,
      "ĠWhe": 8609,
      "Ġreports": 8610,
      "urred": 8611,
      "bene": 8612,
      "Ġrises": 8613,
      "pi": 8614,
      "money": 8615,
      "Ġcitizen": 8616,
      "Ġrailway": 8617,
      "ensity": 8618,
      "Ġcultivated": 8619,
      "xx": 8620,
      "Ġindustri": 8621,
      "Ġsang": 8622,
      "87": 8623,
      "Ġornament": 8624,
      "Ġsolic": 8625,
      "ifully": 8626,
      "Ġ63": 8627,
      "Ġeditor": 8628,
      "Ġshoes": 8629,
      "Ġbloss": 8630,
      "aying": 8631,
      "tical": 8632,
      "geant": 8633,
      "lyn": 8634,
      "Ġmaiden": 8635,
      "Ġabol": 8636,
      "Ġobe": 8637,
      "Ġhaz": 8638,
      "Ġdancing": 8639,
      "Ġdeeper": 8640,
      "Ġconceal": 8641,
      "abel": 8642,
      "Ro": 8643,
      "-^": 8644,
      "Ġfeature": 8645,
      "iche": 8646,
      "Ġot": 8647,
      "Ġchose": 8648,
      "government": 8649,
      "ĠGR": 8650,
      "Ġdetermine": 8651,
      "Ġvictim": 8652,
      "onic": 8653,
      "Ġexchange": 8654,
      "Ġimpulse": 8655,
      "fluence": 8656,
      "ĠEle": 8657,
      "ĠChicago": 8658,
      "Ġcustoms": 8659,
      "Ġpas": 8660,
      "ĠMAR": 8661,
      "Ġrespecting": 8662,
      "Even": 8663,
      "Ġlament": 8664,
      "James": 8665,
      "Ġstaff": 8666,
      "ĠPrincess": 8667,
      "rants": 8668,
      "Ġvolumes": 8669,
      "Ġshortly": 8670,
      "geance": 8671,
      "aging": 8672,
      "Ġfavourite": 8673,
      "dark": 8674,
      "Upon": 8675,
      "inned": 8676,
      "Ġplays": 8677,
      "arson": 8678,
      "Ġgallant": 8679,
      "stead": 8680,
      "Ġpupils": 8681,
      "aylor": 8682,
      "Ġdiameter": 8683,
      "olph": 8684,
      "cribe": 8685,
      "Ġendure": 8686,
      "itical": 8687,
      "Ġprinces": 8688,
      "unn": 8689,
      "knowledge": 8690,
      "reath": 8691,
      "keep": 8692,
      "Ġadapted": 8693,
      "Ġsending": 8694,
      "Ġconvey": 8695,
      "Ġthreatened": 8696,
      "ĠCOL": 8697,
      "Ġdepends": 8698,
      "Ġnodded": 8699,
      "everal": 8700,
      "ederal": 8701,
      "Ġcy": 8702,
      "Ġash": 8703,
      "ĠWind": 8704,
      "ĠRail": 8705,
      "church": 8706,
      "seven": 8707,
      "ano": 8708,
      "ĠXXX": 8709,
      "Ġvel": 8710,
      "Ġcheerful": 8711,
      "Ġraising": 8712,
      "atisfact": 8713,
      "Ġmajesty": 8714,
      "idd": 8715,
      "Ġselfish": 8716,
      "Ġseriously": 8717,
      "DR": 8718,
      "Ġcolored": 8719,
      "Ġbowed": 8720,
      "lier": 8721,
      "itia": 8722,
      "Ġhers": 8723,
      "Take": 8724,
      "iries": 8725,
      "ĠHebrew": 8726,
      "Ġlin": 8727,
      "Ye": 8728,
      "Ġimmortal": 8729,
      "ATES": 8730,
      "Ġemperor": 8731,
      "Ġfeels": 8732,
      "Ġrealized": 8733,
      "trees": 8734,
      "rained": 8735,
      "Ġperil": 8736,
      "Ġinvestig": 8737,
      "Ġinjury": 8738,
      "gave": 8739,
      "Ġmotive": 8740,
      "earth": 8741,
      "Ġhelpless": 8742,
      "Ġorgans": 8743,
      "Ġengage": 8744,
      "anything": 8745,
      "whel": 8746,
      "Ġoccurs": 8747,
      "Ã³": 8748,
      "Ġreflection": 8749,
      "Ġ52": 8750,
      "Ġconsisted": 8751,
      "ĠOnce": 8752,
      "Ġdecide": 8753,
      "ĠPeace": 8754,
      "Ġangle": 8755,
      "Ġbalance": 8756,
      "Ġprovision": 8757,
      "ĠCalifornia": 8758,
      "hered": 8759,
      "Ġcorps": 8760,
      "Ġdecor": 8761,
      "sters": 8762,
      "itself": 8763,
      "Ġasham": 8764,
      "Ġpoets": 8765,
      "treat": 8766,
      "Ġproceedings": 8767,
      "ISS": 8768,
      "Ġoak": 8769,
      "Ġshake": 8770,
      "ruit": 8771,
      "Ġconcealed": 8772,
      "Ġearthly": 8773,
      "Ġresting": 8774,
      "blood": 8775,
      "Ġplains": 8776,
      "ĠPan": 8777,
      "iveness": 8778,
      "Ġdrunk": 8779,
      "Ġattained": 8780,
      "Ġmostly": 8781,
      "ĠDou": 8782,
      "dess": 8783,
      "ĠHolland": 8784,
      "possible": 8785,
      "Ġjob": 8786,
      "Ġwheat": 8787,
      "Ġpermission": 8788,
      "Captain": 8789,
      "till": 8790,
      "acks": 8791,
      "Ġgest": 8792,
      "otal": 8793,
      "cester": 8794,
      "uing": 8795,
      "ĠHome": 8796,
      "ulus": 8797,
      "according": 8798,
      "ouri": 8799,
      "Ġimpl": 8800,
      "Ġvest": 8801,
      "Ġthirst": 8802,
      "Ġdwelling": 8803,
      "amen": 8804,
      "vell": 8805,
      "Ġcottage": 8806,
      "sometimes": 8807,
      "Ãł": 8808,
      "Ġcraft": 8809,
      "Ġbud": 8810,
      "ultural": 8811,
      "means": 8812,
      "Ġlan": 8813,
      "Ġsixteen": 8814,
      "(_": 8815,
      "Ġfet": 8816,
      "omp": 8817,
      "Ġmagist": 8818,
      "wife": 8819,
      "fold": 8820,
      "inburgh": 8821,
      "produ": 8822,
      "Ġmagic": 8823,
      "Ġdefeat": 8824,
      "ques": 8825,
      "Ġsuggestion": 8826,
      "Ġrecover": 8827,
      "Ġnurse": 8828,
      "aria": 8829,
      "Ġimagined": 8830,
      "Ġguilt": 8831,
      "ciences": 8832,
      "ĠAdams": 8833,
      "Ġpreacher": 8834,
      "Ġmixture": 8835,
      "urg": 8836,
      "ĠAtlantic": 8837,
      "81": 8838,
      "ector": 8839,
      "Ġarrive": 8840,
      "Ġorganized": 8841,
      "Ġtrail": 8842,
      "Ġrhy": 8843,
      "Ġexhausted": 8844,
      "ban": 8845,
      "Ġwherever": 8846,
      "Ġdriving": 8847,
      "Ġrepent": 8848,
      "Ġwash": 8849,
      "horse": 8850,
      "direct": 8851,
      "BERT": 8852,
      "ĠZe": 8853,
      "OUNT": 8854,
      "ĠTestament": 8855,
      "ĠGeorg": 8856,
      "Ġ56": 8857,
      "Ġomn": 8858,
      "ĠEst": 8859,
      "Ġimproved": 8860,
      "Ġlap": 8861,
      "ĠPop": 8862,
      "Ġcovering": 8863,
      "Ġleis": 8864,
      "phil": 8865,
      "adise": 8866,
      "important": 8867,
      "Ġceremony": 8868,
      "ĠHard": 8869,
      "ĠSac": 8870,
      "Ġrested": 8871,
      "anda": 8872,
      "Ġartillery": 8873,
      "ĠThrough": 8874,
      "ĠBon": 8875,
      "Ġinspired": 8876,
      "Ġdistricts": 8877,
      "Ġreform": 8878,
      "Ġinsisted": 8879,
      "ĠLuc": 8880,
      "ala": 8881,
      "sex": 8882,
      "creat": 8883,
      "Ġashamed": 8884,
      "Ġeminent": 8885,
      "ĠGra": 8886,
      "Ġfourteen": 8887,
      "Ġpious": 8888,
      "umer": 8889,
      "ĠSher": 8890,
      "ĠIllust": 8891,
      "ĠAssembly": 8892,
      "keeper": 8893,
      "Ġhungry": 8894,
      "Ġfifth": 8895,
      "sold": 8896,
      "Ġslender": 8897,
      "Ġtick": 8898,
      "Ġpropriet": 8899,
      "complete": 8900,
      "ĠMinister": 8901,
      "pson": 8902,
      "Ġtones": 8903,
      "orse": 8904,
      "Ġwaist": 8905,
      "ĠTenn": 8906,
      "Ġcharity": 8907,
      "Ġtiny": 8908,
      "Ġdeemed": 8909,
      "OLD": 8910,
      "._)": 8911,
      "Ã©e": 8912,
      "Ġ61": 8913,
      "rad": 8914,
      "ographical": 8915,
      "Ġbeaten": 8916,
      "gon": 8917,
      "appearance": 8918,
      "Ġsite": 8919,
      "Ġovercome": 8920,
      "ĠMod": 8921,
      "Ġconfer": 8922,
      "Ġling": 8923,
      "ĠSix": 8924,
      "olas": 8925,
      "ENE": 8926,
      "near": 8927,
      "Ġpossibility": 8928,
      "Ġ54": 8929,
      "believe": 8930,
      "ĠBurn": 8931,
      "parent": 8932,
      "ĠDistrict": 8933,
      "Co": 8934,
      "CL": 8935,
      "Ġglow": 8936,
      "ĠMississippi": 8937,
      "Ġportions": 8938,
      "Ġmutual": 8939,
      "Ġadvoc": 8940,
      "Ġburnt": 8941,
      "lines": 8942,
      "ĠKings": 8943,
      "Ġappar": 8944,
      "Ġdismiss": 8945,
      "Ġbeds": 8946,
      "Feb": 8947,
      "ĠShall": 8948,
      "ester": 8949,
      "Ġsatisfactory": 8950,
      "Ġexecuted": 8951,
      "Ġsubmit": 8952,
      "Ġhoney": 8953,
      "Ġmotives": 8954,
      "Sm": 8955,
      "icable": 8956,
      "Ġpolitics": 8957,
      "ials": 8958,
      "Ġassembly": 8959,
      "ĠAlthough": 8960,
      "ĠPruss": 8961,
      "Ġtobacco": 8962,
      "short": 8963,
      "Ġpleasing": 8964,
      "Ġdistinguish": 8965,
      "Ġvoc": 8966,
      "imately": 8967,
      "Ġglanced": 8968,
      "Ġcoach": 8969,
      "steps": 8970,
      "vas": 8971,
      "ĠAbraham": 8972,
      "fellow": 8973,
      "Ġperformance": 8974,
      "Ġconcent": 8975,
      ".'\"": 8976,
      "REFACE": 8977,
      "Ph": 8978,
      "Ġphysician": 8979,
      "Ġ%": 8980,
      "ĠBed": 8981,
      "Ġdemonstr": 8982,
      "asury": 8983,
      "box": 8984,
      "Ġ67": 8985,
      "Ġcel": 8986,
      "Ġcontest": 8987,
      "Ġdrinking": 8988,
      "Ġbeasts": 8989,
      "Ġgran": 8990,
      "ĠSwed": 8991,
      "green": 8992,
      "ounter": 8993,
      "says": 8994,
      "ĠDepartment": 8995,
      "Ġnarrative": 8996,
      "Ġregarding": 8997,
      "Ġnamely": 8998,
      "Ġunlike": 8999,
      "especially": 9000,
      "ITION": 9001,
      "OB": 9002,
      "log": 9003,
      "regard": 9004,
      "why": 9005,
      "anny": 9006,
      "ĠBaron": 9007,
      "ĠBas": 9008,
      "Ġ~": 9009,
      "Ġcontinent": 9010,
      "ĠEve": 9011,
      "eers": 9012,
      "Ġwhereas": 9013,
      "Ġshone": 9014,
      "business": 9015,
      "isation": 9016,
      "grad": 9017,
      "Ġneglected": 9018,
      "rot": 9019,
      "following": 9020,
      "etic": 9021,
      "Ġcondemned": 9022,
      "ĠTurn": 9023,
      "Ġscream": 9024,
      "willing": 9025,
      "Ġresources": 9026,
      "Ġliable": 9027,
      "river": 9028,
      "Ġreview": 9029,
      "ĠTell": 9030,
      "ĠEastern": 9031,
      "Ġhem": 9032,
      "Ġretain": 9033,
      "ĠHISTORY": 9034,
      "Ġrespond": 9035,
      "Ġhastily": 9036,
      "Old": 9037,
      "ĠApost": 9038,
      "Ġleather": 9039,
      "mill": 9040,
      "ligious": 9041,
      "llers": 9042,
      "Ġoccupation": 9043,
      "Ġbehalf": 9044,
      "Ġassigned": 9045,
      "itality": 9046,
      "_),": 9047,
      "Ġdiffer": 9048,
      "emplo": 9049,
      "ĠMichael": 9050,
      "Ġsheet": 9051,
      "Ġincor": 9052,
      "Ġtouching": 9053,
      "Ġslightest": 9054,
      "ĠPublic": 9055,
      "free": 9056,
      "Ġplun": 9057,
      "rust": 9058,
      "iy": 9059,
      "Ġeighty": 9060,
      "IB": 9061,
      "Ġinterfe": 9062,
      "ĠMethod": 9063,
      "Ġduke": 9064,
      "fa": 9065,
      "Still": 9066,
      "ĠDaniel": 9067,
      "Ãº": 9068,
      "Ġraces": 9069,
      "inv": 9070,
      "broken": 9071,
      "Ġabundant": 9072,
      "friends": 9073,
      "Ġdoubtful": 9074,
      "Ġowe": 9075,
      "maid": 9076,
      "oster": 9077,
      "umps": 9078,
      "Ġjustly": 9079,
      "Ġpuzz": 9080,
      "women": 9081,
      "rious": 9082,
      "ĠHo": 9083,
      "icing": 9084,
      "Ġlively": 9085,
      "ĠFlor": 9086,
      "ĠStephen": 9087,
      "roduction": 9088,
      "Ġtimber": 9089,
      "ĠGermans": 9090,
      "blems": 9091,
      "ĠMonsieur": 9092,
      "Ġknee": 9093,
      "ĠPa": 9094,
      "Ġnut": 9095,
      "pert": 9096,
      "Ġsprings": 9097,
      "court": 9098,
      "ĠHay": 9099,
      "gn": 9100,
      "Ġwherein": 9101,
      "bun": 9102,
      "ĠCentral": 9103,
      "Ġgardens": 9104,
      "Ġdivers": 9105,
      "Ġample": 9106,
      "Ġdischarge": 9107,
      "Ġuses": 9108,
      "Ġlion": 9109,
      "Ġov": 9110,
      "fied": 9111,
      "ĠSand": 9112,
      "Ġdisgrace": 9113,
      "itiz": 9114,
      "aired": 9115,
      "inus": 9116,
      "mine": 9117,
      "glass": 9118,
      "Ġimprison": 9119,
      "Ġflung": 9120,
      "Mon": 9121,
      "olt": 9122,
      "fashion": 9123,
      "ĠWITH": 9124,
      "comb": 9125,
      "iger": 9126,
      "Ġfury": 9127,
      "quer": 9128,
      "Ġcolours": 9129,
      "Ġmurmured": 9130,
      "det": 9131,
      "osity": 9132,
      "Ġpreparing": 9133,
      "Ġborder": 9134,
      "Ġchapel": 9135,
      "Ġlawyer": 9136,
      "Ġpoems": 9137,
      "fell": 9138,
      "headed": 9139,
      "ĠSupp": 9140,
      "scape": 9141,
      "ĠWin": 9142,
      "Ġafforded": 9143,
      "Ġseats": 9144,
      "Ġtherein": 9145,
      "Ġcrying": 9146,
      "Ġdisplayed": 9147,
      "Ġrecall": 9148,
      "Ġsphere": 9149,
      "Ġdeserted": 9150,
      "ĠStr": 9151,
      "lasting": 9152,
      "ĠJewish": 9153,
      "forward": 9154,
      "Henry": 9155,
      "Ġcomparatively": 9156,
      "Ġbeheld": 9157,
      "Ġretained": 9158,
      "Ġsod": 9159,
      "Ġchim": 9160,
      "manner": 9161,
      "emo": 9162,
      "ĠPier": 9163,
      "already": 9164,
      "Ġneighbourhood": 9165,
      "ACT": 9166,
      "Ġaloud": 9167,
      "Ġsurrender": 9168,
      "Ġprovinces": 9169,
      "adies": 9170,
      "Ġfatig": 9171,
      "east": 9172,
      "anguage": 9173,
      "lord": 9174,
      "cre": 9175,
      "ether": 9176,
      "ĠED": 9177,
      "Mary": 9178,
      "sar": 9179,
      "faith": 9180,
      "ĠField": 9181,
      "Ġfinish": 9182,
      "upreme": 9183,
      "Ġerrors": 9184,
      "Ġgloomy": 9185,
      "Ġ120": 9186,
      "ogue": 9187,
      "ushes": 9188,
      "Ġkeeps": 9189,
      "Ġcrossing": 9190,
      "Ġintimate": 9191,
      "ILLIAM": 9192,
      "Ġhind": 9193,
      "Ġcards": 9194,
      "isms": 9195,
      "iac": 9196,
      "Ġphenomena": 9197,
      "ashes": 9198,
      "Av": 9199,
      "Ġmodel": 9200,
      "iations": 9201,
      "Ġfurniture": 9202,
      "Ġoffering": 9203,
      "Ġtom": 9204,
      "Ġforests": 9205,
      "Ġconstructed": 9206,
      "Ġflatter": 9207,
      "?--": 9208,
      "begin": 9209,
      "Ġtranslation": 9210,
      "ĠSpaniards": 9211,
      "Ġshar": 9212,
      "Ġresponsible": 9213,
      "Nothing": 9214,
      "Ġpurchased": 9215,
      "Ġener": 9216,
      "Ġconsisting": 9217,
      "##": 9218,
      "Ġprey": 9219,
      "Ġcream": 9220,
      "Ġdrops": 9221,
      "Ġ^^": 9222,
      "Ġga": 9223,
      "Ġcolors": 9224,
      "Ġvital": 9225,
      "enna": 9226,
      "ĠWork": 9227,
      "itty": 9228,
      "Ġconceived": 9229,
      "ĠJustice": 9230,
      "Dec": 9231,
      "ĠDi": 9232,
      "Ġtoss": 9233,
      "forced": 9234,
      "Ġ69": 9235,
      "Church": 9236,
      "Ġremedy": 9237,
      "aders": 9238,
      "Ġintercourse": 9239,
      "Among": 9240,
      "iated": 9241,
      "Ġliquid": 9242,
      "Ġordin": 9243,
      "ĠBank": 9244,
      "Ġdoctrines": 9245,
      "ĠHa": 9246,
      "ĠCab": 9247,
      "Ġspecimens": 9248,
      "Spe": 9249,
      "Ġconfirmed": 9250,
      "Ġswim": 9251,
      "Ġcompanies": 9252,
      "Ġfoul": 9253,
      "lavery": 9254,
      "angled": 9255,
      "Ġlaying": 9256,
      "riages": 9257,
      "About": 9258,
      "alph": 9259,
      "egro": 9260,
      "ĠHand": 9261,
      "occasion": 9262,
      "Ġabandon": 9263,
      "Ġparliament": 9264,
      "Charles": 9265,
      "othy": 9266,
      "igence": 9267,
      "Ġthrowing": 9268,
      "More": 9269,
      "Ġib": 9270,
      "Ġlanding": 9271,
      "azine": 9272,
      "ĠHugh": 9273,
      "phas": 9274,
      "allowed": 9275,
      "ĠBapt": 9276,
      "osis": 9277,
      "Ġvivid": 9278,
      "Ġanyone": 9279,
      "Ġvulgar": 9280,
      "Ġguest": 9281,
      "bod": 9282,
      "ĠThee": 9283,
      "truth": 9284,
      "LEY": 9285,
      "ĠFam": 9286,
      "_.\"": 9287,
      "Ġsulph": 9288,
      "Ġrelieved": 9289,
      "herent": 9290,
      "Ġintervals": 9291,
      "ertainly": 9292,
      "borough": 9293,
      "wed": 9294,
      "portion": 9295,
      "Ġmix": 9296,
      "sus": 9297,
      "Ġsaints": 9298,
      "acing": 9299,
      "Ġboast": 9300,
      "azz": 9301,
      "Ġafore": 9302,
      "Ġdre": 9303,
      "rers": 9304,
      "IND": 9305,
      "ĠÃł": 9306,
      "ĠOb": 9307,
      "Ġfollowers": 9308,
      "ĠRet": 9309,
      "plom": 9310,
      "Ġassure": 9311,
      "Ġcolumns": 9312,
      "Ġclothing": 9313,
      "zes": 9314,
      "Ġlessons": 9315,
      "ĠLar": 9316,
      "Ġassociated": 9317,
      "Ã§": 9318,
      "Ġpublication": 9319,
      "ifference": 9320,
      "Ġconsidering": 9321,
      "Those": 9322,
      "-'": 9323,
[...]
