{
  "version": "1.0",
  "truncation": null,
  "padding": null,
  "added_tokens": [
    {
      "id": 0,
      "content": "<unk>",
      "single_word": false,
      "lstrip": false,
      "rstrip": false,
      "normalized": false,
      "special": true
    },
    {
      "id": 1,
      "content": "<bos>",
      "single_word": false,
      "lstrip": false,
      "rstrip": false,
      "normalized": false,
      "special": true
    },
    {
      "id": 2,
      "content": "<eos>",
      "single_word": false,
      "lstrip": false,
      "rstrip": false,
      "normalized": false,
      "special": true
    }
  ],
  "normalizer": null,
  "pre_tokenizer": {
    "type": "ByteLevel",
    "add_prefix_space": false,
    "trim_offsets": true,
    "use_regex": true
  },
  "post_processor": {
    "type": "TemplateProcessing",
    "single": [
      {
        "SpecialToken": {
          "id": "<bos>",
          "type_id": 0
        }
      },
      {
        "Sequence": {
          "id": "A",
          "type_id": 0
        }
      },
      {
        "SpecialToken": {
          "id": "<eos>",
          "type_id": 0
        }
      }
    ],
    "pair": [
      {
        "SpecialToken": {
          "id": "<bos>",
          "type_id": 0
        }
      },
      {
        "Sequence": {
          "id": "A",
          "type_id": 0
        }
      },
      {
        "SpecialToken": {
          "id": "<eos>",
          "type_id": 0
        }
      },
      {
        "Sequence": {
          "id": "B",
          "type_id": 0
        }
      },
      {
        "SpecialToken": {
          "id": "<eos>",
          "type_id": 0
        }
      }
    ],
    "special_tokens": {
      "<bos>": {
        "id": "<bos>",
        "ids": [
          1
        ],
        "tokens": [
          "<bos>"
        ]
      },
      "<eos>": {
        "id": "<eos>",
        "ids": [
          2
        ],
        "tokens": [
          "<eos>"
        ]
      }
    }
  },
  "decoder": {
    "type": "ByteLevel",
    "add_prefix_space": true,
    "trim_offsets": true,
    "use_regex": true
  },
  "model": {
    "type": "BPE",
    "dropout": null,
    "unk_token": "<unk>",
    "continuing_subword_prefix": null,
    "end_of_word_suffix": null,
    "fuse_unk": false,
    "byte_fallback": false,
    "ignore_merges": false,
    "vocab": {
      "<unk>": 0,
      "<bos>": 1,
      "<eos>": 2,
      "!": 3,
      "\"": 4,
      "#": 5,
      "$": 6,
      "%": 7,
      "&": 8,
      "'": 9,
      "(": 10,
      ")": 11,
      "*": 12,
      "+": 13,
      ",": 14,
      "-": 15,
      ".": 16,
      "/": 17,
      "0": 18,
      "1": 19,
      "2": 20,
      "3": 21,
      "4": 22,
      "5": 23,
      "6": 24,
      "7": 25,
      "8": 26,
      "9": 27,
      ":": 28,
      ";": 29,
      "<": 30,
      "=": 31,
      ">": 32,
      "?": 33,
      "@": 34,
      "A": 35,
      "B": 36,
      "C": 37,
      "D": 38,
      "E": 39,
      "F": 40,
      "G": 41,
      "H": 42,
      "I": 43,
      "J": 44,
      "K": 45,
      "L": 46,
      "M": 47,
      "N": 48,
      "O": 49,
      "P": 50,
      "Q": 51,
      "R": 52,
      "S": 53,
      "T": 54,
      "U": 55,
      "V": 56,
      "W": 57,
      "X": 58,
      "Y": 59,
      "Z": 60,
      "[": 61,
      "\\": 62,
      "]": 63,
      "^": 64,
      "_": 65,
      "`": 66,
      "a": 67,
      "b": 68,
      "c": 69,
      "d": 70,
      "e": 71,
      "f": 72,
      "g": 73,
      "h": 74,
      "i": 75,
      "j": 76,
      "k": 77,
      "l": 78,
      "m": 79,
      "n": 80,
      "o": 81,
      "p": 82,
      "q": 83,
      "r": 84,
      "s": 85,
      "t": 86,
      "u": 87,
      "v": 88,
      "w": 89,
      "x": 90,
      "y": 91,
      "z": 92,
      "{": 93,
      "|": 94,
      "}": 95,
      "~": 96,
      "¡": 97,
      "¢": 98,
      "£": 99,
      "¤": 100,
      "¥": 101,
      "¦": 102,
      "§": 103,
      "¨": 104,
      "©": 105,
      "ª": 106,
      "«": 107,
      "¬": 108,
      "®": 109,
      "¯": 110,
      "°": 111,
      "±": 112,
      "²": 113,
      "³": 114,
      "´": 115,
      "µ": 116,
      "¶": 117,
      "·": 118,
      "¸": 119,
      "¹": 120,
      "º": 121,
      "»": 122,
      "¼": 123,
      "½": 124,
      "¾": 125,
      "¿": 126,
      "Â": 127,
      "Ã": 128,
      "Ä": 129,
      "Å": 130,
      "Æ": 131,
      "È": 132,
      "É": 133,
      "Ê": 134,
      "Ë": 135,
      "Ì": 136,
      "Í": 137,
      "Î": 138,
      "Ï": 139,
      "Ð": 140,
      "Ñ": 141,
      "Ò": 142,
      "Ó": 143,
      "Ö": 144,
      "×": 145,
      "Ø": 146,
      "Ù": 147,
      "Ú": 148,
      "Û": 149,
      "à": 150,
      "á": 151,
      "â": 152,
      "ã": 153,
      "ä": 154,
      "å": 155,
      "æ": 156,
      "ç": 157,
      "è": 158,
      "é": 159,
      "ê": 160,
      "ï": 161,
      "Ċ": 162,
      "č": 163,
      "Ġ": 164,
      "ġ": 165,
      "Ģ": 166,
      "ģ": 167,
      "Ĥ": 168,
      "ĥ": 169,
      "Ħ": 170,
      "ħ": 171,
      "Ĩ": 172,
      "ĩ": 173,
      "Ī": 174,
      "ī": 175,
      "Ĭ": 176,
      "ĭ": 177,
      "Į": 178,
      "į": 179,
      "İ": 180,
      "ı": 181,
      "Ĳ": 182,
      "ĳ": 183,
      "Ĵ": 184,
      "ĵ": 185,
      "Ķ": 186,
      "ķ": 187,
      "ĸ": 188,
      "Ĺ": 189,
      "ĺ": 190,
      "Ļ": 191,
      "ļ": 192,
      "Ľ": 193,
      "ľ": 194,
      "Ŀ": 195,
      "ŀ": 196,
      "Ł": 197,
      "ł": 198,
      "Ń": 199,
      "Ġt": 200,
      "he": 201,
      "Ġa": 202,
      "in": 203,
      "Ġthe": 204,
      "Ġo": 205,
      "re": 206,
      "er": 207,
      "Ġs": 208,
      "Ġw": 209,
      "nd": 210,
      "Ġof": 211,
      "on": 212,
      "at": 213,
      "is": 214,
      "Ġb": 215,
      "en": 216,
      "it": 217,
      "Ġc": 218,
      "ed": 219,
      "Ġf": 220,
      "es": 221,
      "Ġp": 222,
      "or": 223,
      "ar": 224,
      "Ġm": 225,
      "ou": 226,
      "Ġin": 227,
      "Ġand": 228,
      "Ġh": 229,
      "an": 230,
      "Ġto": 231,
      "Ġd": 232,
      "al": 233,
      "ing": 234,
      "ic": 235,
      "Ġth": 236,
      "as": 237,
      "Ġl": 238,
      "om": 239,
      "ion": 240,
      "Ġn": 241,
      "Ġe": 242,
      "ll": 243,
      "Ġbe": 244,
      "ĠT": 245,
      "ent": 246,
      "le": 247,
      "ly": 248,
      "st": 249,
      "ĠI": 250,
      "Ġre": 251,
      "ot": 252,
      "ce": 253,
      "Ġg": 254,
      "ve": 255,
      "ĠS": 256,
      "Ġwh": 257,
      "ct": 258,
      "ut": 259,
      "se": 260,
      "ĠA": 261,
      "Ġ1": 262,
      "ro": 263,
      "ĠC": 264,
      "ur": 265,
      "im": 266,
      "ir": 267,
      "id": 268,
      "ad": 269,
      "Ġis": 270,
      "Ġhe": 271,
      "ĠM": 272,
      "et": 273,
      "Ġthat": 274,
      "Ġon": 275,
      "Ġit": 276,
      "Ġu": 277,
      "ver": 278,
      "ow": 279,
      "ith": 280,
      "Ġfor": 281,
      "ig": 282,
      "am": 283,
      "ch": 284,
      "Ġas": 285,
      "ld": 286,
      "ĠB": 287,
      "Ġwith": 288,
      "ay": 289,
      "ĠP": 290,
      "Ġ;": 291,
      "ĠH": 292,
      "Ġan": 293,
      "ich": 294,
      "ĠThe": 295,
      "Ġby": 296,
      "il": 297,
      "Ġwas": 298,
      "ter": 299,
      "Ġwe": 300,
      "ra": 301,
      "ul": 302,
      "âĢ": 303,
      "Ġcon": 304,
      "ation": 305,
      "her": 306,
      "Ġor": 307,
      "us": 308,
      "Ġwhich": 309,
      "if": 310,
      "Ġat": 311,
      "ĠL": 312,
      "Ġha": 313,
      "ol": 314,
      "Ġsu": 315,
      "Ġst": 316,
      "qu": 317,
      "Ġhis": 318,
      "Ġv": 319,
      "pe": 320,
      "Ġfr": 321,
      "ĠW": 322,
      "ill": 323,
      "Ġde": 324,
      "ĠE": 325,
      "um": 326,
      "ain": 327,
      "Ġy": 328,
      "od": 329,
      "Ġex": 330,
      "Ġnot": 331,
      "Ġ2": 332,
      "ĠD": 333,
      "th": 334,
      "ĠG": 335,
      "ri": 336,
      "ge": 337,
      "ess": 338,
      "Ġse": 339,
      "ĠF": 340,
      "res": 341,
      "our": 342,
      "ht": 343,
      "os": 344,
      "Ġfrom": 345,
      "ĠO": 346,
      "ab": 347,
      "ie": 348,
      "est": 349,
      "ate": 350,
      "ore": 351,
      "em": 352,
      "red": 353,
      "ĠR": 354,
      "ist": 355,
      "Ġare": 356,
      "Ġ(": 357,
      "nt": 358,
      "ant": 359,
      "la": 360,
      "Ġpro": 361,
      "Ġsh": 362,
      "Ġr": 363,
      "ers": 364,
      "ĠJ": 365,
      "ous": 366,
      "Ġthis": 367,
      "Ġcom": 368,
      "Ġhave": 369,
      "all": 370,
      "ould": 371,
      "ĠN": 372,
      "ĠâĢ": 373,
      "pp": 374,
      "ke": 375,
      "art": 376,
      "iv": 377,
      "ard": 378,
      "Ġ3": 379,
      "Ġbut": 380,
      "Ġne": 381,
      "ight": 382,
      "ect": 383,
      "Ġ.": 384,
      "pt": 385,
      "Ġso": 386,
      "Ġal": 387,
      "ies": 388,
      "Ġall": 389,
      "Ġch": 390,
      "ity": 391,
      "Ġ\"": 392,
      "ort": 393,
      "ac": 394,
      "Ġhad": 395,
      "un": 396,
      "Ġtheir": 397,
      "te": 398,
      "cc": 399,
      "ive": 400,
      "Ġwhe": 401,
      "ure": 402,
      "Ġ4": 403,
      "ord": 404,
      "oug": 405,
      "Ġme": 406,
      "and": 407,
      "Ġwho": 408,
      "Ġthey": 409,
      "ther": 410,
      "ment": 411,
      "ust": 412,
      "ome": 413,
      "Ġk": 414,
      "Ġwere": 415,
      "ci": 416,
      "ff": 417,
      "el": 418,
      "ong": 419,
      "very": 420,
      "ast": 421,
      "ost": 422,
      "ine": 423,
      "Ġab": 424,
      "op": 425,
      "Ġman": 426,
      "ound": 427,
      "ĠâĢĶ": 428,
      "Ġi": 429,
      "reat": 430,
      "Ġad": 431,
      "Ġbeen": 432,
      "per": 433,
      "ame": 434,
      "Ġhim": 435,
      "Ġup": 436,
      "Ġthem": 437,
      "Ġle": 438,
      "ond": 439,
      "Ġar": 440,
      "Ġone": 441,
      "ance": 442,
      "ish": 443,
      "ud": 444,
      "ib": 445,
      "to": 446,
      "ĠTh": 447,
      "Ġqu": 448,
      "ia": 449,
      "ence": 450,
      "ose": 451,
      "able": 452,
      "Ġj": 453,
      "ak": 454,
      "'s": 455,
      "Ġper": 456,
      "ary": 457,
      "ated": 458,
      "ind": 459,
      "ions": 460,
      "Ġdis": 461,
      "av": 462,
      "ry": 463,
      "Ġ:": 464,
      "Ġfe": 465,
      "Ġno": 466,
      "ag": 467,
      "ĠV": 468,
      "ood": 469,
      "Ġim": 470,
      "Ġother": 471,
      "Ġyou": 472,
      "Ġhas": 473,
      "Ġun": 474,
      "Ġpr": 475,
      "Ġthere": 476,
      "ap": 477,
      "out": 478,
      "ĠIn": 479,
      "Ġ18": 480,
      "Ġpart": 481,
      "Ġ5": 482,
      "ough": 483,
      "Ġwill": 484,
      "li": 485,
      "ally": 486,
      "ĠCh": 487,
      "ck": 488,
      "ass": 489,
      "Ġob": 490,
      "ans": 491,
      "ire": 492,
      "ount": 493,
      "Ġits": 494,
      "Ġmore": 495,
      "ice": 496,
      ".,": 497,
      "sel": 498,
      "Ġher": 499,
      "Ġdo": 500,
      "Ġmy": 501,
      "ue": 502,
      "wn": 503,
      "ide": 504,
      "Ġ6": 505,
      "ert": 506,
      "Ġpre": 507,
      "Ġmay": 508,
      "ĠIt": 509,
      "oll": 510,
      "Ġsp": 511,
      "ĠK": 512,
      "Ġen": 513,
      "ree": 514,
      "Ġtr": 515,
      "Ġtw": 516,
      "ne": 517,
      "fe": 518,
      "Ġcont": 519,
      "Ġany": 520,
      "ii": 521,
      "one": 522,
      "hed": 523,
      "ub": 524,
      "Ġwhen": 525,
      "Ġsome": 526,
      "00": 527,
      "Ġag": 528,
      "ĠHe": 529,
      "ars": 530,
      "Ġwould": 531,
      "les": 532,
      "..": 533,
      "ces": 534,
      "Ġam": 535,
      "act": 536,
      "Ġvery": 537,
      "ng": 538,
      "itt": 539,
      "Ġthan": 540,
      "Ġsa": 541,
      "Ġ'": 542,
      "nder": 543,
      "Ġwor": 544,
      "Ġgreat": 545,
      "Ġtim": 546,
      "are": 547,
      "age": 548,
      "au": 549,
      "ical": 550,
      "Ġinto": 551,
      "Ġus": 552,
      "ĠMr": 553,
      "Ġcomp": 554,
      "Ġ8": 555,
      "Ġcan": 556,
      "ens": 557,
      "ious": 558,
      "ĠSt": 559,
      "ok": 560,
      "ade": 561,
      "erv": 562,
      "Ġye": 563,
      "ress": 564,
      "ach": 565,
      "ove": 566,
      "ite": 567,
      "Ġres": 568,
      "fore": 569,
      "ced": 570,
      "Ġif": 571,
      "fter": 572,
      "Ġform": 573,
      "Ġpl": 574,
      "ition": 575,
      "Ġour": 576,
      "ase": 577,
      "Ġev": 578,
      "int": 579,
      "Ġ-": 580,
      "Ġcons": 581,
      "ft": 582,
      "Ġupon": 583,
      "Ġdes": 584,
      "ip": 585,
      "Ġrem": 586,
      "Ġcomm": 587,
      "ult": 588,
      "Ġsub": 589,
      "Ġacc": 590,
      "Ġ7": 591,
      "we": 592,
      "ath": 593,
      "Ġbr": 594,
      "ings": 595,
      "ations": 596,
      "ber": 597,
      "Ġthese": 598,
      "uch": 599,
      "og": 600,
      "ren": 601,
      "Ġout": 602,
      "ons": 603,
      "ake": 604,
      "Ġcl": 605,
      "Ġli": 606,
      "so": 607,
      "Ġonly": 608,
      "Ġap": 609,
      "Ġtwo": 610,
      "now": 611,
      "land": 612,
      "ign": 613,
      "Ġimp": 614,
      "Ġtime": 615,
      "ener": 616,
      "ction": 617,
      "Ġro": 618,
      "ru": 619,
      "Ġapp": 620,
      "Ġpo": 621,
      "ays": 622,
      "ward": 623,
      "ph": 624,
      "Ġsuch": 625,
      "Ġco": 626,
      "du": 627,
      "Ġfir": 628,
      "ark": 629,
      "Ġbeing": 630,
      "lo": 631,
      "Ġspe": 632,
      "Ġshe": 633,
      "Ġshould": 634,
      "ER": 635,
      "ian": 636,
      "ater": 637,
      "Ġafter": 638,
      "Ġpres": 639,
      "ep": 640,
      "ise": 641,
      "ang": 642,
      "Ġinc": 643,
      "Ġunder": 644,
      "Ġmost": 645,
      "Ġpla": 646,
      "urn": 647,
      "Ġpe": 648,
      "ject": 649,
      "self": 650,
      "HE": 651,
      "ĠU": 652,
      "Ġ*": 653,
      "ON": 654,
      "Ġlo": 655,
      "ile": 656,
      "lic": 657,
      "Ġgr": 658,
      "oth": 659,
      "hes": 660,
      "Ġmade": 661,
      "ory": 662,
      "âĢĶ": 663,
      "ied": 664,
      "Ġthose": 665,
      "Ġsame": 666,
      "Ġind": 667,
      "Ġdist": 668,
      "ents": 669,
      "âĢĻ": 670,
      "Ġinf": 671,
      "ks": 672,
      "Ġac": 673,
      "ĠSe": 674,
      "oss": 675,
      "Ġ^": 676,
      "orm": 677,
      "Ġ9": 678,
      "Ġfirst": 679,
      "ull": 680,
      "rit": 681,
      "ular": 682,
      "Ġexp": 683,
      "Ġmuch": 684,
      "Ġthen": 685,
      "Ġdif": 686,
      "ace": 687,
      "Ġ17": 688,
      "ĠAnd": 689,
      "Ġatt": 690,
      "ix": 691,
      "Ġrep": 692,
      "Ġsc": 693,
      "Ġfl": 694,
      "Ġte": 695,
      ".\"": 696,
      "Ġra": 697,
      "ial": 698,
      "ness": 699,
      "erm": 700,
      "ved": 701,
      "Ġknow": 702,
      "Ġhow": 703,
      "ug": 704,
      "ful": 705,
      "ors": 706,
      "Ġwhat": 707,
      "Ġappe": 708,
      "ict": 709,
      "Ġnow": 710,
      "Ġem": 711,
      "Ġwhere": 712,
      "Ġbet": 713,
      "Ġalso": 714,
      "Ġ,": 715,
      "Ġsaid": 716,
      "Ġgo": 717,
      "ĠTHE": 718,
      "Ġla": 719,
      "ower": 720,
      "iss": 721,
      "Ġlong": 722,
      "Ġagain": 723,
      "Ġ|": 724,
      "ĠY": 725,
      "Ġbec": 726,
      "Ġfound": 727,
      ".)": 728,
      "Ġoff": 729,
      "Ġbo": 730,
      "rib": 731,
      "ild": 732,
      "hen": 733,
      "Ġabout": 734,
      "iz": 735,
      "Ġwell": 736,
      "Ġent": 737,
      "Ġ10": 738,
      "other": 739,
      "Ġbefore": 740,
      "Ġsm": 741,
      "Ġgener": 742,
      "ĠThis": 743,
      "ather": 744,
      "igh": 745,
      "Ġbl": 746,
      "ĠBut": 747,
      "Ġ&": 748,
      "Ġmust": 749,
      "ife": 750,
      "ick": 751,
      "Ġover": 752,
      "Ġrec": 753,
      "lie": 754,
      "Ġ?": 755,
      "Ġ!": 756,
      "ty": 757,
      "ought": 758,
      "Ġ0": 759,
      "ily": 760,
      "led": 761,
      "cess": 762,
      "Ġevery": 763,
      "ES": 764,
      "Ġmany": 765,
      "Ġcould": 766,
      "Ġocc": 767,
      "ving": 768,
      "ract": 769,
      "Ġ16": 770,
      "ates": 771,
      "pect": 772,
      "ained": 773,
      "Ġgood": 774,
      "Ġnat": 775,
      "Ġyour": 776,
      "ĠOF": 777,
      "Ġthr": 778,
      "oh": 779,
      "ys": 780,
      "Ġop": 781,
      "orn": 782,
      "own": 783,
      "Ġext": 784,
      "Ġreg": 785,
      "Ġ15": 786,
      "ished": 787,
      "ves": 788,
      "Ġchar": 789,
      "row": 790,
      "uth": 791,
      "ĠEng": 792,
      "Ġcount": 793,
      "),": 794,
      "atter": 795,
      "Ġinst": 796,
      "ran": 797,
      "Ġsupp": 798,
      "Ġlike": 799,
      "Ġpass": 800,
      "Ġshall": 801,
      "cl": 802,
      "ual": 803,
      "TI": 804,
      "ell": 805,
      "Ġ12": 806,
      "ffect": 807,
      "Ġord": 808,
      "ollow": 809,
      "AN": 810,
      "eth": 811,
      "Ġlar": 812,
      "Ġwithout": 813,
      "nds": 814,
      "ĠDe": 815,
      "Ġ[": 816,
      "ittle": 817,
      "Ġgiv": 818,
      "Ġsec": 819,
      "ble": 820,
      "EN": 821,
      "Ġown": 822,
      "vers": 823,
      "Ġfa": 824,
      "io": 825,
      "Ġeven": 826,
      "ĠRe": 827,
      "Ġcall": 828,
      "Ġsur": 829,
      "ently": 830,
      "Ġ19": 831,
      "AL": 832,
      "Ġret": 833,
      "ple": 834,
      "Ġpers": 835,
      "Ġfollow": 836,
      "ont": 837,
      "Ġpur": 838,
      "ever": 839,
      "ĠAn": 840,
      "ĠWh": 841,
      "Ġear": 842,
      "ĠAs": 843,
      "ĠAr": 844,
      "Ġx": 845,
      "ale": 846,
      "ible": 847,
      "Ġlittle": 848,
      "Ġet": 849,
      "Ġinte": 850,
      "Ġho": 851,
      "Ġmen": 852,
      "Ġcar": 853,
      "Ġ11": 854,
      "ants": 855,
      "Ġpresent": 856,
      "Ġtak": 857,
      "Ġthrough": 858,
      "Ġnum": 859,
      "als": 860,
      "ered": 861,
      "ins": 862,
      "ack": 863,
      "ven": 864,
      "ĠGod": 865,
      "IN": 866,
      "ined": 867,
      "ited": 868,
      "AR": 869,
      "ouse": 870,
      "OR": 871,
      "osed": 872,
      "oy": 873,
      "Ġmight": 874,
      ",\"": 875,
      "ution": 876,
      "ts": 877,
      "Ġday": 878,
      "Ġass": 879,
      "ady": 880,
      "ither": 881,
      "Ġplace": 882,
      "Ġwork": 883,
      "und": 884,
      "wards": 885,
      "me": 886,
      "Ġthree": 887,
      "Ġinter": 888,
      "ĠCom": 889,
      "ures": 890,
      "Ġ14": 891,
      "its": 892,
      "ĠÂ": 893,
      "Ġsee": 894,
      "cy": 895,
      "ĠWe": 896,
      "ertain": 897,
      "ĠâĢľ": 898,
      "Ġact": 899,
      "Ġconf": 900,
      "ases": 901,
      "ause": 902,
      "Ġyears": 903,
      "ider": 904,
      "ĠLord": 905,
      "ink": 906,
      "nded": 907,
      "Ġsy": 908,
      "oc": 909,
      "ret": 910,
      "rist": 911,
      "Ġwater": 912,
      "rent": 913,
      "Ġsmall": 914,
      "ute": 915,
      "Ġnear": 916,
      "ince": 917,
      "ween": 918,
      "Â¬": 919,
      "ton": 920,
      ").": 921,
      "Ġeach": 922,
      "Ġvar": 923,
      "ient": 924,
      "Ġ13": 925,
      "ave": 926,
      "cept": 927,
      "Ġlast": 928,
      "ew": 929,
      "Ġref": 930,
      "Ġlet": 931,
      "Ġrel": 932,
      "Ġend": 933,
      "Ġint": 934,
      "ohn": 935,
      "Ġpub": 936,
      "ner": 937,
      "Ġadd": 938,
      "man": 939,
      "ments": 940,
      "Ġbetween": 941,
      "ention": 942,
      "Ġdid": 943,
      "Ġest": 944,
      "ene": 945,
      "Ġ...": 946,
      "irc": 947,
      "Ġobs": 948,
      "Ġprop": 949,
      "Ġhaving": 950,
      "Ġprodu": 951,
      "Ġcond": 952,
      "Ġposs": 953,
      "ob": 954,
      "Ġgra": 955,
      "ities": 956,
      "ĠDr": 957,
      "ted": 958,
      "Ġcol": 959,
      "ĠQ": 960,
      "of": 961,
      "Ġcor": 962,
      "ific": 963,
      "Ġstr": 964,
      "ail": 965,
      "Ġca": 966,
      "ating": 967,
      "uring": 968,
      "ric": 969,
      "Ġadv": 970,
      "Ġlarge": 971,
      "ety": 972,
      "ĠJohn": 973,
      "Ġpar": 974,
      "ĠNo": 975,
      "Ġcour": 976,
      "be": 977,
      "ĠTo": 978,
      "Ġhowever": 979,
      "ived": 980,
      "âĢĿ": 981,
      "ten": 982,
      "Ġdec": 983,
      "Ġnever": 984,
      "ceed": 985,
      "ĠAt": 986,
      "Ġfar": 987,
      "uc": 988,
      "Ġmon": 989,
      "ters": 990,
      "Ġstate": 991,
      "get": 992,
      "ains": 993,
      "rest": 994,
      "IS": 995,
      "ior": 996,
      "iam": 997,
      "ĠX": 998,
      "ĠFr": 999,
      "Ġspec": 1000,
      "II": 1001,
      "ĠOn": 1002,
      "Ġboth": 1003,
      "oun": 1004,
      "cip": 1005,
      "Ġhere": 1006,
      "ĠLe": 1007,
      "Ġhimself": 1008,
      "rown": 1009,
      "Ġnew": 1010,
      "Ġpoint": 1011,
      "ances": 1012,
      "Ġlife": 1013,
      "ĠSir": 1014,
      "urch": 1015,
      "Ġsay": 1016,
      "Ġwhole": 1017,
      "Ġdisc": 1018,
      "up": 1019,
      "ĠChrist": 1020,
      "Ġmar": 1021,
      "Ġins": 1022,
      "Ġmake": 1023,
      "Ġcase": 1024,
      "Ġfo": 1025,
      "Ġes": 1026,
      "lish": 1027,
      "Ġgl": 1028,
      "less": 1029,
      "Ġbod": 1030,
      "Ġseem": 1031,
      "ium": 1032,
      "ines": 1033,
      "Ġagainst": 1034,
      "Ġconsider": 1035,
      "ised": 1036,
      "ĠPr": 1037,
      "Ġperf": 1038,
      "Ġdep": 1039,
      "Ġsubject": 1040,
      "ĠSc": 1041,
      "Ġyet": 1042,
      "Ġcirc": 1043,
      "Ġ20": 1044,
      "Ġthough": 1045,
      "Ġdown": 1046,
      "Ġword": 1047,
      "Ġyear": 1048,
      "Ġpower": 1049,
      "Ġname": 1050,
      "Ġrece": 1051,
      "ern": 1052,
      "Ġcountry": 1053,
      "vern": 1054,
      "Ġke": 1055,
      "Ġold": 1056,
      "Ġless": 1057,
      "Ġdiffe": 1058,
      "Ġcalled": 1059,
      "Ġadm": 1060,
      "Ġed": 1061,
      "Ġart": 1062,
      "ps": 1063,
      "mer": 1064,
      "air": 1065,
      "ĠMar": 1066,
      "ople": 1067,
      "Ġsim": 1068,
      "Ġele": 1069,
      "outh": 1070,
      "ared": 1071,
      "ury": 1072,
      "Ġcertain": 1073,
      "Ġconst": 1074,
      "Ġsuff": 1075,
      "ired": 1076,
      "Ġgiven": 1077,
      "ius": 1078,
      "Ġmin": 1079,
      "Ġprin": 1080,
      "Ġstill": 1081,
      "Ġph": 1082,
      "Ġuse": 1083,
      "Ġcent": 1084,
      "Ġtra": 1085,
      "Ġread": 1086,
      "ĠAl": 1087,
      "Ġnor": 1088,
      "Ġway": 1089,
      "Ġvol": 1090,
      "med": 1091,
      "Ġjust": 1092,
      "ĠSp": 1093,
      "ĠIf": 1094,
      "ier": 1095,
      "ss": 1096,
      "Ġhead": 1097,
      "Ġfew": 1098,
      "ĠEd": 1099,
      "ably": 1100,
      "Ġval": 1101,
      "ĠThere": 1102,
      "ried": 1103,
      "ged": 1104,
      "Ġset": 1105,
      "Ġfour": 1106,
      "Ġright": 1107,
      "ĠBe": 1108,
      "not": 1109,
      "ason": 1110,
      "Ġeffect": 1111,
      "osition": 1112,
      "Ġpat": 1113,
      "Ġtoo": 1114,
      "ately": 1115,
      "inal": 1116,
      "ative": 1117,
      "ĠSo": 1118,
      "Ġdet": 1119,
      "ours": 1120,
      "alf": 1121,
      "ird": 1122,
      "ĠPro": 1123,
      "tern": 1124,
      "Ġmod": 1125,
      "Ġkind": 1126,
      "Ġgeneral": 1127,
      "Ġrequ": 1128,
      "ĠLond": 1129,
      "sh": 1130,
      "Ġinv": 1131,
      "xt": 1132,
      "ĠFor": 1133,
      "Ġamong": 1134,
      "ĠÎ": 1135,
      "Ġsl": 1136,
      "Ġcontin": 1137,
      "Ġauth": 1138,
      "hing": 1139,
      "pr": 1140,
      "Ġve": 1141,
      "way": 1142,
      "Ġdire": 1143,
      "ĠThey": 1144,
      "Ġprev": 1145,
      "Ġserv": 1146,
      "Ġmem": 1147,
      "rence": 1148,
      "oub": 1149,
      "Ġanother": 1150,
      "ley": 1151,
      "Ġequ": 1152,
      "ield": 1153,
      "Ġwar": 1154,
      "que": 1155,
      "ah": 1156,
      "Ġir": 1157,
      "Ġwr": 1158,
      "Ġtaken": 1159,
      "ĠAN": 1160,
      "ages": 1161,
      "Ġabove": 1162,
      "000": 1163,
      "Ġappear": 1164,
      "Ġtake": 1165,
      "eng": 1166,
      "Î½": 1167,
      "Ġnecess": 1168,
      "Ġrest": 1169,
      "ides": 1170,
      "Ġwhile": 1171,
      "Ġdra": 1172,
      "ĠPh": 1173,
      "Ġobserv": 1174,
      "Ġcharact": 1175,
      "ually": 1176,
      "Ġbre": 1177,
      "Ġhand": 1178,
      "Ġpeople": 1179,
      "ĠâĢĺ": 1180,
      "Ġgive": 1181,
      "Ġey": 1182,
      "iew": 1183,
      "Ġunt": 1184,
      "ĠInd": 1185,
      "Ġple": 1186,
      "Ġdesc": 1187,
      "cul": 1188,
      "IC": 1189,
      "AT": 1190,
      "Ġland": 1191,
      "ural": 1192,
      "Ġbeg": 1193,
      "Ġtrans": 1194,
      "aj": 1195,
      "Ġfind": 1196,
      "any": 1197,
      "selves": 1198,
      "Ġtherefore": 1199,
      "Ġtem": 1200,
      "cted": 1201,
      "ool": 1202,
      "mb": 1203,
      "fic": 1204,
      "Ġhigh": 1205,
      "ĠHis": 1206,
      "ĠWill": 1207,
      "Ġking": 1208,
      "Ġarm": 1209,
      "veral": 1210,
      "Ġexam": 1211,
      "Ġsol": 1212,
      "Ġthus": 1213,
      "Ġfact": 1214,
      "par": 1215,
      "Ġside": 1216,
      "Ġever": 1217,
      "Ġpartic": 1218,
      "ames": 1219,
      "ĠLondon": 1220,
      "Ġput": 1221,
      "ax": 1222,
      "mon": 1223,
      "Ġdiv": 1224,
      "Ġii": 1225,
      "ĠCo": 1226,
      "Ġwhom": 1227,
      "ened": 1228,
      "UR": 1229,
      "Ġ21": 1230,
      "Ġsom": 1231,
      "ches": 1232,
      "Ġpri": 1233,
      "ĠBy": 1234,
      "ided": 1235,
      "Ġopp": 1236,
      "ĠIs": 1237,
      "aint": 1238,
      "Ġinde": 1239,
      "oint": 1240,
      "vo": 1241,
      "ÏĦ": 1242,
      "att": 1243,
      "Ġport": 1244,
      "ript": 1245,
      "ĠPar": 1246,
      "ae": 1247,
      "Ġnumber": 1248,
      "ief": 1249,
      "Ġlaw": 1250,
      "Ġduring": 1251,
      "Ġproper": 1252,
      "Ġleft": 1253,
      "ense": 1254,
      "Ġlight": 1255,
      "Ġpa": 1256,
      "Ġthink": 1257,
      "Ġaff": 1258,
      "ament": 1259,
      "Ġobt": 1260,
      "Ġsent": 1261,
      "Ġcases": 1262,
      "Ġill": 1263,
      "Ġauthor": 1264,
      "Ġri": 1265,
      "Ġ25": 1266,
      "aw": 1267,
      "Ġcur": 1268,
      "Ġbody": 1269,
      "ery": 1270,
      "ude": 1271,
      "Ġrespect": 1272,
      "Ġfrie": 1273,
      "Ġcommon": 1274,
      "Ġdeath": 1275,
      "Ġorder": 1276,
      "Ġ22": 1277,
      "Ġothers": 1278,
      "Ġmeans": 1279,
      "Ġ30": 1280,
      "Ġche": 1281,
      "une": 1282,
      "ident": 1283,
      "Ġemp": 1284,
      "ott": 1285,
      "ured": 1286,
      "Ġ24": 1287,
      "Ġheart": 1288,
      "Ġce": 1289,
      "Ġmatter": 1290,
      "most": 1291,
      "Ġlook": 1292,
      "Ġthought": 1293,
      "Ġmed": 1294,
      "br": 1295,
      "Ġchild": 1296,
      "Ġaccount": 1297,
      "Ġmil": 1298,
      "Ġfre": 1299,
      "Ġsecond": 1300,
      "Î¿": 1301,
      "olog": 1302,
      "Ġbu": 1303,
      "Ġcome": 1304,
      "Ġseen": 1305,
      "ĠWhen": 1306,
      "Ġser": 1307,
      "Ġcannot": 1308,
      "Ġfull": 1309,
      "Ġcap": 1310,
      "Ġ=": 1311,
      "ways": 1312,
      "Ġmind": 1313,
      "Ġfam": 1314,
      "ued": 1315,
      "Ġdisp": 1316,
      "Ġ23": 1317,
      "sequ": 1318,
      "ording": 1319,
      "Ġprov": 1320,
      "vel": 1321,
      "Ġreturn": 1322,
      "Ġgu": 1323,
      "ling": 1324,
      "ination": 1325,
      "gh": 1326,
      "ians": 1327,
      "ĠOr": 1328,
      "ĠSh": 1329,
      "Ġbelie": 1330,
      "arn": 1331,
      "Ġinterest": 1332,
      "Ġmo": 1333,
      "Ġbest": 1334,
      "Ġseveral": 1335,
      "aking": 1336,
      "ased": 1337,
      "Ġtreat": 1338,
      "ility": 1339,
      "Ġcle": 1340,
      "lu": 1341,
      "Ġstre": 1342,
      "old": 1343,
      "ĠEngland": 1344,
      "Ġhum": 1345,
      "Ġdise": 1346,
      "Ġobject": 1347,
      "Ġcharacter": 1348,
      "OL": 1349,
      "imes": 1350,
      "ee": 1351,
      "Ġimport": 1352,
      "Ġfollowing": 1353,
      "the": 1354,
      "Ġmet": 1355,
      "Ġperson": 1356,
      "Ġpublic": 1357,
      "ison": 1358,
      "Ġmer": 1359,
      "Ġshow": 1360,
      "ĠBrit": 1361,
      "ham": 1362,
      "ists": 1363,
      "Ġdifferent": 1364,
      "ĠGe": 1365,
      "Ġterm": 1366,
      "Ġcoll": 1367,
      "Î±": 1368,
      "gether": 1369,
      "ature": 1370,
      "yd": 1371,
      "ane": 1372,
      "lied": 1373,
      "Ġvis": 1374,
      "itted": 1375,
      "ives": 1376,
      "ange": 1377,
      "amp": 1378,
      "omp": 1379,
      "Ġparts": 1380,
      "men": 1381,
      "ĠEs": 1382,
      "Ġhalf": 1383,
      "ices": 1384,
      "Ġworld": 1385,
      "ĠNew": 1386,
      "ism": 1387,
      "Ġeither": 1388,
      "Ġpract": 1389,
      "ec": 1390,
      "ai": 1391,
      "Ġoften": 1392,
      "ung": 1393,
      "aut": 1394,
      "here": 1395,
      "Ġused": 1396,
      "ĠEx": 1397,
      "ank": 1398,
      "Ġdef": 1399,
      ".'": 1400,
      "Ġsucc": 1401,
      "Ġbel": 1402,
      "Ġpurp": 1403,
      "Ġcare": 1404,
      "ĠAd": 1405,
      "Ġoccas": 1406,
      "Ġalways": 1407,
      "Ġprof": 1408,
      "ection": 1409,
      "Ġ28": 1410,
      "use": 1411,
      "Ġ26": 1412,
      "ĠBr": 1413,
      "Ġut": 1414,
      "aps": 1415,
      "Ġdays": 1416,
      "Ġdel": 1417,
      "Ġnature": 1418,
      "ĠKing": 1419,
      "iod": 1420,
      "Ġyoung": 1421,
      "irit": 1422,
      "ital": 1423,
      "Ġexper": 1424,
      "ĠCl": 1425,
      "Ġfore": 1426,
      "af": 1427,
      "Ġthemselves": 1428,
      "Ġprob": 1429,
      "Ġdoub": 1430,
      "ĠCon": 1431,
      "ĠThat": 1432,
      "inn": 1433,
      "Ġ27": 1434,
      "Ġhouse": 1435,
      "Ġwhose": 1436,
      "estion": 1437,
      "yed": 1438,
      "Ġer": 1439,
      "Ġfeet": 1440,
      "ues": 1441,
      "uss": 1442,
      "co": 1443,
      "ote": 1444,
      "ession": 1445,
      "ron": 1446,
      "oms": 1447,
      "Ġhon": 1448,
      "atis": 1449,
      "lack": 1450,
      "Ġcourse": 1451,
      "TION": 1452,
      "Ġturn": 1453,
      "IT": 1454,
      "Ġsk": 1455,
      "ĠIN": 1456,
      "ĠUn": 1457,
      "Ġshort": 1458,
      "lished": 1459,
      "Ġremark": 1460,
      "Ġview": 1461,
      "Ġsoon": 1462,
      "ĠCa": 1463,
      "by": 1464,
      "Ġsix": 1465,
      "ĠAND": 1466,
      "Ġonce": 1467,
      "Ġ29": 1468,
      "tend": 1469,
      "oman": 1470,
      "Ġ\\": 1471,
      "iar": 1472,
      "ĠZ": 1473,
      "Ġdoes": 1474,
      "Ġel": 1475,
      "Ġabs": 1476,
      "Ġformer": 1477,
      "ĠEnglish": 1478,
      ".âĢĶ": 1479,
      "pend": 1480,
      "Ġver": 1481,
      "ĠWilliam": 1482,
      "Ġtown": 1483,
      "Ġanim": 1484,
      "LE": 1485,
      "ission": 1486,
      "Ġnothing": 1487,
      "Ġfur": 1488,
      "Ġconc": 1489,
      "unt": 1490,
      "Ġcal": 1491,
      "ls": 1492,
      "Ġson": 1493,
      "Ġincre": 1494,
      "gg": 1495,
      "Ġcame": 1496,
      "Ġacid": 1497,
      "ĠPl": 1498,
      "Ġopen": 1499,
      "ime": 1500,
      "Ġtre": 1501,
      "Ġknown": 1502,
      "Ġorig": 1503,
      "Ġexc": 1504,
      "ges": 1505,
      "aster": 1506,
      "Ġstrong": 1507,
      "Ġmanner": 1508,
      "ĠNor": 1509,
      "Ġsum": 1510,
      "idd": 1511,
      "Ġá": 1512,
      "ĠChar": 1513,
      "Ġdone": 1514,
      "alth": 1515,
      "ting": 1516,
      "Ġrather": 1517,
      "iness": 1518,
      "Ġback": 1519,
      "Ġemplo": 1520,
      "che": 1521,
      "Ġalmost": 1522,
      "idence": 1523,
      "Ġresult": 1524,
      "Ġcircum": 1525,
      "rs": 1526,
      "Ġregard": 1527,
      "wh": 1528,
      "Ġsince": 1529,
      "Î¹": 1530,
      "Ġwithin": 1531,
      "Ġten": 1532,
      "Ġprincip": 1533,
      "pper": 1534,
      "Ġprom": 1535,
      "bers": 1536,
      "Ġwrit": 1537,
      "uly": 1538,
      "Ġsal": 1539,
      "ĠShe": 1540,
      "Ġparticular": 1541,
      "Ġcomple": 1542,
      "Ġground": 1543,
      "ressed": 1544,
      "Ġdeg": 1545,
      "der": 1546,
      "US": 1547,
      "ross": 1548,
      "Ġblood": 1549,
      "ĠII": 1550,
      "yn": 1551,
      "'d": 1552,
      "ets": 1553,
      "ock": 1554,
      "ĠTr": 1555,
      "ster": 1556,
      "Ġbecause": 1557,
      "ford": 1558,
      "alk": 1559,
      "Ġbro": 1560,
      "Ġfav": 1561,
      "rop": 1562,
      "Ġdi": 1563,
      "Ġbrought": 1564,
      "ED": 1565,
      "ots": 1566,
      "Ġfeel": 1567,
      "Ġ31": 1568,
      "Ġperiod": 1569,
      "etimes": 1570,
      "Ġsuper": 1571,
      "ĠMay": 1572,
      "Ġthings": 1573,
      "Ġgre": 1574,
      "stem": 1575,
      "ica": 1576,
      "aves": 1577,
      "Ġtill": 1578,
      "ring": 1579,
      "Ġopin": 1580,
      "Ġjud": 1581,
      "Ġhapp": 1582,
      "dom": 1583,
      "overed": 1584,
      "ength": 1585,
      "ze": 1586,
      "ils": 1587,
      "uf": 1588,
      "Ġaccording": 1589,
      "owers": 1590,
      "Ġstand": 1591,
      "EL": 1592,
      "ann": 1593,
      "Ġoccasion": 1594,
      "Ġreason": 1595,
      "Ġair": 1596,
      "Ġfig": 1597,
      "Ġlove": 1598,
      "Ġlab": 1599,
      "Ġgenerally": 1600,
      "de": 1601,
      "ĠBo": 1602,
      "Ġcause": 1603,
      "vernment": 1604,
      "Ġoper": 1605,
      "rench": 1606,
      "ina": 1607,
      "asure": 1608,
      "Ġoccur": 1609,
      "lor": 1610,
      "ĠHen": 1611,
      "^^": 1612,
      "OM": 1613,
      "aining": 1614,
      "inary": 1615,
      "ien": 1616,
      "Ġfree": 1617,
      "AS": 1618,
      "Ġlatter": 1619,
      "Ġmark": 1620,
      "bs": 1621,
      "ET": 1622,
      "ĠComm": 1623,
      "ficult": 1624,
      "Ġann": 1625,
      "ĠWith": 1626,
      "Ġfrequ": 1627,
      "Ġtook": 1628,
      "uted": 1629,
      "Ġund": 1630,
      "Ġbetter": 1631,
      "ata": 1632,
      "enty": 1633,
      "Ġsing": 1634,
      ".]": 1635,
      "ciety": 1636,
      "Ġtrue": 1637,
      "ov": 1638,
      "itu": 1639,
      "IL": 1640,
      "ics": 1641,
      "Ġexist": 1642,
      "Ġcr": 1643,
      "medi": 1644,
      "Ġwhite": 1645,
      "Ġaway": 1646,
      "Ġdifficult": 1647,
      "Ġnecessary": 1648,
      "Ġmonth": 1649,
      "Ġtimes": 1650,
      "inct": 1651,
      "oura": 1652,
      "Ġchief": 1653,
      "ying": 1654,
      "Ġreceived": 1655,
      "ishop": 1656,
      "ral": 1657,
      "ĠCH": 1658,
      "Ġaffect": 1659,
      "osp": 1660,
      "haps": 1661,
      "well": 1662,
      "Ġspecies": 1663,
      "Ġdoubt": 1664,
      "Ġlib": 1665,
      "Îµ": 1666,
      "Ġsuccess": 1667,
      "Ġeas": 1668,
      "Ġround": 1669,
      "Ġfall": 1670,
      "ĠOf": 1671,
      "Ġhard": 1672,
      "Ġexcept": 1673,
      "erous": 1674,
      "Ġitself": 1675,
      "resent": 1676,
      "yl": 1677,
      "Ġtogether": 1678,
      "Ġdest": 1679,
      "cient": 1680,
      "Ġwhether": 1681,
      "cial": 1682,
      "ĠAll": 1683,
      "Ġnight": 1684,
      "Ġlength": 1685,
      "ected": 1686,
      "ĠSee": 1687,
      "empt": 1688,
      "Ġvi": 1689,
      "ĠMed": 1690,
      "Ġthing": 1691,
      "Ġeng": 1692,
      "Ġthy": 1693,
      "Ġconsequ": 1694,
      "ified": 1695,
      "eb": 1696,
      "itions": 1697,
      "ĠGo": 1698,
      "ape": 1699,
      "ĠMe": 1700,
      "Ġsil": 1701,
      "Ġbene": 1702,
      "aring": 1703,
      "Ġsays": 1704,
      "Ġbeaut": 1705,
      "Ġred": 1706,
      "Ġincl": 1707,
      "Ġnearly": 1708,
      "Ġhist": 1709,
      "Ġproceed": 1710,
      "Ġhor": 1711,
      "ience": 1712,
      "Ġwords": 1713,
      "uit": 1714,
      "Ġdisease": 1715,
      "Ġbar": 1716,
      "Ġ/": 1717,
      "ĠPo": 1718,
      "gy": 1719,
      "ĠThese": 1720,
      "18": 1721,
      "Ġsystem": 1722,
      "Ġste": 1723,
      "Ġ40": 1724,
      "Â°": 1725,
      "ĠEsq": 1726,
      "Ġquant": 1727,
      "ĠFrench": 1728,
      "Ġpol": 1729,
      "eter": 1730,
      "Ġvarious": 1731,
      "Ġbook": 1732,
      "Ġexh": 1733,
      "uct": 1734,
      "rew": 1735,
      "Ġgent": 1736,
      "ribed": 1737,
      "Ġmag": 1738,
      "Ġline": 1739,
      "llow": 1740,
      "duced": 1741,
      "Ġhands": 1742,
      "ached": 1743,
      "Ġmeet": 1744,
      "cing": 1745,
      "face": 1746,
      "ĠAb": 1747,
      "ister": 1748,
      "ĠAug": 1749,
      "den": 1750,
      "ched": 1751,
      "ĠChurch": 1752,
      "though": 1753,
      "Ġpain": 1754,
      "Ġsometimes": 1755,
      "Ġallow": 1756,
      "Ġclass": 1757,
      "ality": 1758,
      "Ġquestion": 1759,
      "Ġtowards": 1760,
      "eds": 1761,
      "cil": 1762,
      "ony": 1763,
      "ering": 1764,
      "ÏĤ": 1765,
      "Ġlead": 1766,
      "ards": 1767,
      "ize": 1768,
      "Ġtlie": 1769,
      "gen": 1770,
      "Ġpersons": 1771,
      "ĠCol": 1772,
      "Ġfather": 1773,
      "Ġsubst": 1774,
      "Ġindeed": 1775,
      "rely": 1776,
      "Ġspirit": 1777,
      "Ġheav": 1778,
      "Ġnext": 1779,
      "ips": 1780,
      "oul": 1781,
      "Ġcircumst": 1782,
      "ully": 1783,
      "Ġleg": 1784,
      "Ġlate": 1785,
      "used": 1786,
      "rie": 1787,
      "Ġchurch": 1788,
      "ready": 1789,
      "Ġfine": 1790,
      "Ġbecome": 1791,
      "Ġvari": 1792,
      "ĠCar": 1793,
      "Ġentire": 1794,
      "arent": 1795,
      "iter": 1796,
      "Ġcut": 1797,
      "ilar": 1798,
      "ats": 1799,
      "Ġans": 1800,
      "amm": 1801,
      "Ġmention": 1802,
      "TER": 1803,
      "Ġft": 1804,
      "ruct": 1805,
      "Ġleast": 1806,
      "Ġsch": 1807,
      "Ġdev": 1808,
      "iii": 1809,
      "Ġru": 1810,
      "ash": 1811,
      "Ġlim": 1812,
      "ĠHer": 1813,
      "Ġ{": 1814,
      "Ġsign": 1815,
      ".âĢĿ": 1816,
      "cell": 1817,
      "RE": 1818,
      "Ġpost": 1819,
      "Ġder": 1820,
      "Ġsw": 1821,
      "usc": 1822,
      "ĠAm": 1823,
      "iment": 1824,
      "erc": 1825,
      "Ġmis": 1826,
      "ision": 1827,
      "gan": 1828,
      "ught": 1829,
      "ales": 1830,
      "Ġformed": 1831,
      "Ġsuffic": 1832,
      "Ġ+": 1833,
      "ulation": 1834,
      "cially": 1835,
      "Ġimmedi": 1836,
      "Ġstud": 1837,
      "ume": 1838,
      "AC": 1839,
      "Ġalready": 1840,
      "Ġwant": 1841,
      "Ġquite": 1842,
      "AM": 1843,
      "Ġgave": 1844,
      "Ã©": 1845,
      "ms": 1846,
      "Ġfive": 1847,
      "Ġaction": 1848,
      "read": 1849,
      "Ġ32": 1850,
      "ising": 1851,
      "Ġextre": 1852,
      "Ġgrow": 1853,
      "Ġearth": 1854,
      "10": 1855,
      "Ġdirect": 1856,
      "Ġage": 1857,
      "Ġacqu": 1858,
      "oured": 1859,
      "ĠThom": 1860,
      "Ġgreater": 1861,
      "Ġplaced": 1862,
      "atic": 1863,
      "Ġperhaps": 1864,
      "fl": 1865,
      "oses": 1866,
      "ining": 1867,
      "Ġappears": 1868,
      "Ġuntil": 1869,
      "Ġperfect": 1870,
      "ledge": 1871,
      "ones": 1872,
      "Ġcolour": 1873,
      "ĠFrom": 1874,
      "emp": 1875,
      "oph": 1876,
      "iving": 1877,
      "ĠGr": 1878,
      "Ġ185": 1879,
      "ENT": 1880,
      "Ġclose": 1881,
      "Ġoffic": 1882,
      "Ġdut": 1883,
      "Ġ33": 1884,
      "ĠHenry": 1885,
      "Ġmean": 1886,
      "Ġblack": 1887,
      "uke": 1888,
      "az": 1889,
      "ger": 1890,
      "Ġrelig": 1891,
      "els": 1892,
      "Ġkeep": 1893,
      "ilt": 1894,
      "Ġthou": 1895,
      "Ġ184": 1896,
      "ĠColl": 1897,
      "Ġpurpose": 1898,
      "erve": 1899,
      "oe": 1900,
      "range": 1901,
      "Ġwind": 1902,
      "cr": 1903,
      "Ġobtained": 1904,
      "omen": 1905,
      "Ġmot": 1906,
      "Ġopinion": 1907,
      "Ġrepresent": 1908,
      "Ġnatural": 1909,
      "wer": 1910,
      "Ġfort": 1911,
      "Ġant": 1912,
      "ĠWhat": 1913,
      "Ġtri": 1914,
      "Ġbeh": 1915,
      "ork": 1916,
      "Ġdeep": 1917,
      "á½": 1918,
      "ĠÂ£": 1919,
      "Ġ35": 1920,
      "Ġá¼": 1921,
      "orts": 1922,
      ",'": 1923,
      "ference": 1924,
      "gr": 1925,
      "Ġgentle": 1926,
      "Ġ<": 1927,
      "ĠBritish": 1928,
      "oud": 1929,
      "Ġappro": 1930,
      "Ïģ": 1931,
      "ĠNe": 1932,
      "Ġves": 1933,
      "Ġseems": 1934,
      "oney": 1935,
      "ĠBar": 1936,
      "Ġestab": 1937,
      "ING": 1938,
      "Ġexpress": 1939,
      "Ġinflu": 1940,
      "mp": 1941,
      "Ġsurface": 1942,
      "Ġconn": 1943,
      "laim": 1944,
      "Ġcommun": 1945,
      "ivers": 1946,
      "illed": 1947,
      "ney": 1948,
      "Ġter": 1949,
      "ixed": 1950,
      "undred": 1951,
      "ĠYou": 1952,
      "rum": 1953,
      "day": 1954,
      "Ġespe": 1955,
      "ĠQu": 1956,
      "orge": 1957,
      "Ġsac": 1958,
      "Ġwent": 1959,
      "ĠHow": 1960,
      "na": 1961,
      "Ġeff": 1962,
      "stand": 1963,
      "Ġfin": 1964,
      "Ġconv": 1965,
      "Ġ186": 1966,
      "usion": 1967,
      "reg": 1968,
      "Ġ34": 1969,
      "Ïĥ": 1970,
      "Ġinform": 1971,
      "Ġmor": 1972,
      "ĠPer": 1973,
      "ĠJune": 1974,
      "Ġsepar": 1975,
      "atisf": 1976,
      "Ġwood": 1977,
      "ĠMan": 1978,
      "nal": 1979,
      "over": 1980,
      "pid": 1981,
      "Ġcommand": 1982,
      "Ġpay": 1983,
      "let": 1984,
      "Ġbelieve": 1985,
      "Ġ44": 1986,
      "Ġwee": 1987,
      "angu": 1988,
      "Ġfurther": 1989,
      "11": 1990,
      "ĠPe": 1991,
      "ox": 1992,
      "ĠJames": 1993,
      "Ġlay": 1994,
      "ĠJan": 1995,
      "Ġletter": 1996,
      "Ġtruth": 1997,
      "uro": 1998,
      "AP": 1999,
      "Ġ36": 2000,
      "Ġchildren": 2001,
      "ler": 2002,
      "idge": 2003,
      "Ġpassed": 2004,
      "arch": 2005,
      "ises": 2006,
      "Ġdau": 2007,
      "Ġheld": 2008,
      "Ġpop": 2009,
      "EC": 2010,
      "val": 2011,
      "fully": 2012,
      "ounds": 2013,
      "Ġafterwards": 2014,
      "Ġimpro": 2015,
      "ries": 2016,
      "fort": 2017,
      "rict": 2018,
      "ĠMy": 2019,
      "Ġhundred": 2020,
      "Ġobl": 2021,
      "Ġdied": 2022,
      "elt": 2023,
      "Ġfaith": 2024,
      "ĠRob": 2025,
      "Ġ42": 2026,
      "Ġhold": 2027,
      "Ġpossess": 2028,
      "pted": 2029,
      "iff": 2030,
      "ĠHo": 2031,
      "ĠAmer": 2032,
      "Ġclear": 2033,
      "Ġsimilar": 2034,
      "Ġamount": 2035,
      "Ġworks": 2036,
      "Ġeyes": 2037,
      "Ġmiles": 2038,
      "Ġ43": 2039,
      "Ġconsiderable": 2040,
      "Ġproduced": 2041,
      "Ġlearn": 2042,
      "ÏĢ": 2043,
      "mn": 2044,
      "Ġden": 2045,
      "Ġ38": 2046,
      "Ġearly": 2047,
      "ĠJuly": 2048,
      "ĠThomas": 2049,
      "Ġaccomp": 2050,
      "Ġbra": 2051,
      "Ġforce": 2052,
      "Ġfriend": 2053,
      "idered": 2054,
      "Ġpoor": 2055,
      "urg": 2056,
      "tended": 2057,
      "Ġpriv": 2058,
      "ibus": 2059,
      "Ġprobably": 2060,
      "ĠOct": 2061,
      "Ġprot": 2062,
      "ĠFrance": 2063,
      "ized": 2064,
      "Ġdark": 2065,
      "Ġfamily": 2066,
      "Ġ183": 2067,
      "Ġarri": 2068,
      "Ġgen": 2069,
      "fer": 2070,
      "Ġget": 2071,
      "ator": 2072,
      "Ġhy": 2073,
      "Ġbus": 2074,
      "Ġexpl": 2075,
      "Ġz": 2076,
      "Ġbecame": 2077,
      "Ġsea": 2078,
      "ĠApr": 2079,
      "Ġmom": 2080,
      "Ġable": 2081,
      "Ġtwenty": 2082,
      "Ġdr": 2083,
      "Ġbran": 2084,
      "Ġhope": 2085,
      "ows": 2086,
      "Ġplant": 2087,
      "sc": 2088,
      "ĠCO": 2089,
      "Ġtell": 2090,
      "Ġscar": 2091,
      "Ġsitu": 2092,
      "semb": 2093,
      "Ġsaw": 2094,
      "Ġalthough": 2095,
      "Ġhuman": 2096,
      "Ġconcl": 2097,
      "bit": 2098,
      "akes": 2099,
      "Ġcomplete": 2100,
      "eneral": 2101,
      "ingu": 2102,
      "Ġespecially": 2103,
      "Ġpossible": 2104,
      "yr": 2105,
      "Ġ37": 2106,
      "son": 2107,
      "ĠCor": 2108,
      "Ġ39": 2109,
      "Ġintro": 2110,
      "Ġwit": 2111,
      "Ġportion": 2112,
      "itude": 2113,
      "ĠLet": 2114,
      "Ġexpect": 2115,
      "Ġdeterm": 2116,
      "ences": 2117,
      "ĠSept": 2118,
      "aving": 2119,
      "ĠCharles": 2120,
      "ift": 2121,
      "Ġcity": 2122,
      "Ġmount": 2123,
      "Ġslight": 2124,
      "RO": 2125,
      "Ġide": 2126,
      "ĠRev": 2127,
      "iously": 2128,
      "Ġquantity": 2129,
      "Ġcondition": 2130,
      "Ġlie": 2131,
      "Ġhig": 2132,
      "Ġpie": 2133,
      "Ġattention": 2134,
      "Ġobserved": 2135,
      "irt": 2136,
      "reet": 2137,
      "20": 2138,
      "cks": 2139,
      "Ġask": 2140,
      "wise": 2141,
      "Ġsun": 2142,
      "ĠSch": 2143,
      "enn": 2144,
      "Ġbur": 2145,
      "ĠGeorge": 2146,
      "Ġspeak": 2147,
      "'t": 2148,
      "Ġtub": 2149,
      "inc": 2150,
      "Ġ_": 2151,
      "Ġvessel": 2152,
      "Ġwall": 2153,
      "ĠCan": 2154,
      "Ġcarried": 2155,
      "Ġfriends": 2156,
      "Ġneed": 2157,
      "pond": 2158,
      "Ġdegree": 2159,
      "ription": 2160,
      "Ġ50": 2161,
      "bour": 2162,
      "The": 2163,
      "Ġoccup": 2164,
      "urs": 2165,
      "Ġheard": 2166,
      "lect": 2167,
      "Ġconsidered": 2168,
      "Ġcontr": 2169,
      "ĠSec": 2170,
      "Ġiii": 2171,
      "itution": 2172,
      "Ġbuild": 2173,
      "Ġsatisf": 2174,
      "Ġ..": 2175,
      "Ġknowledge": 2176,
      "orning": 2177,
      "Ġdem": 2178,
      "iful": 2179,
      "Ġunc": 2180,
      "ĠHar": 2181,
      "Ġxx": 2182,
      "Ġtho": 2183,
      "Ġattempt": 2184,
      "Ġemployed": 2185,
      "vere": 2186,
      "ĠOne": 2187,
      "Ġthird": 2188,
      "Ġappoint": 2189,
      "Ġlow": 2190,
      "Ġeight": 2191,
      "Ġ>": 2192,
      "Ġfire": 2193,
      "Ġiv": 2194,
      "ouncil": 2195,
      "RI": 2196,
      "Ġleaves": 2197,
      "Ġimportant": 2198,
      "Ġeye": 2199,
      "ĠTO": 2200,
      "Ġfif": 2201,
      "Ġ45": 2202,
      "Ġrev": 2203,
      "Ġcontinued": 2204,
      "ively": 2205,
      "lf": 2206,
      "Ġalone": 2207,
      "Ġtest": 2208,
      "raph": 2209,
      "Ġforms": 2210,
      "Ġought": 2211,
      "12": 2212,
      "Ġhealth": 2213,
      "Ġadvant": 2214,
      "15": 2215,
      "ĠHouse": 2216,
      "ĠSu": 2217,
      "Ġkne": 2218,
      "go": 2219,
      "Ġface": 2220,
      "Ġdang": 2221,
      "Ġbelong": 2222,
      "alt": 2223,
      "Ġartic": 2224,
      "uses": 2225,
      "Ġpot": 2226,
      "Ġappearance": 2227,
      "ounded": 2228,
      "ĠMrs": 2229,
      "Ġrun": 2230,
      "Ġcomb": 2231,
      "ethod": 2232,
      "Ġlower": 2233,
      "urope": 2234,
      "Ġreal": 2235,
      "ald": 2236,
      "wing": 2237,
      "Â«": 2238,
      "ortion": 2239,
      "ration": 2240,
      "hab": 2241,
      "Ġposition": 2242,
      "Ġmaking": 2243,
      "Ġhar": 2244,
      "culiar": 2245,
      "Ġmoment": 2246,
      "omin": 2247,
      "ĠChristian": 2248,
      "Ġlord": 2249,
      "Ġexhib": 2250,
      "ĠAfter": 2251,
      "Ġhome": 2252,
      "ulph": 2253,
      "Ġvo": 2254,
      "Ġloc": 2255,
      "ĠAct": 2256,
      "17": 2257,
      "ĠNot": 2258,
      "Ġmater": 2259,
      "Ġty": 2260,
      "ĠFran": 2261,
      "Ġtemper": 2262,
      "Ġque": 2263,
      "Ġpatient": 2264,
      "Ġbring": 2265,
      "ĠSociety": 2266,
      "ops": 2267,
      "Ġfavour": 2268,
      "isc": 2269,
      "ency": 2270,
      "ember": 2271,
      "Ġdistinct": 2272,
      "iddle": 2273,
      "atch": 2274,
      "Ġsupport": 2275,
      "Ġsus": 2276,
      "ĠAp": 2277,
      "Ġinj": 2278,
      "Ġfac": 2279,
      "Ġperform": 2280,
      "itten": 2281,
      "ĠWest": 2282,
      "Ġhistory": 2283,
      "iet": 2284,
      "Ġpeculiar": 2285,
      "Ġequal": 2286,
      "ruction": 2287,
      "ĠMaj": 2288,
      "Ġriver": 2289,
      "Ġstri": 2290,
      "Ġthick": 2291,
      "Ġworth": 2292,
      "TH": 2293,
      "tt": 2294,
      "iting": 2295,
      "attle": 2296,
      "Ġappeared": 2297,
      "Ġfrequently": 2298,
      "Ġcold": 2299,
      "ĠHist": 2300,
      "ĠEurope": 2301,
      "Ġid": 2302,
      "iled": 2303,
      "Ġprocess": 2304,
      "Ġfoot": 2305,
      "ĠSm": 2306,
      "ex": 2307,
      "lex": 2308,
      "Ġbecom": 2309,
      "19": 2310,
      "Ġancient": 2311,
      "Ġvalue": 2312,
      "ement": 2313,
      "rect": 2314,
      "Ġneg": 2315,
      "ead": 2316,
      "ĠGu": 2317,
      "Ġcast": 2318,
      "Ġcircumstances": 2319,
      "Ġang": 2320,
      "ivid": 2321,
      "ux": 2322,
      "ĠEar": 2323,
      "Ġfair": 2324,
      "Ġfat": 2325,
      "Ġmorning": 2326,
      ".-": 2327,
      "ĠChe": 2328,
      "utes": 2329,
      "Ġenem": 2330,
      "CH": 2331,
      "ĠDo": 2332,
      "amed": 2333,
      "Ġpen": 2334,
      "ui": 2335,
      "Ġservice": 2336,
      "Ġquar": 2337,
      "ĠAg": 2338,
      "Ġkept": 2339,
      "bo": 2340,
      "ĠPhil": 2341,
      "uded": 2342,
      "atus": 2343,
      "Ġenough": 2344,
      "Ġda": 2345,
      "aries": 2346,
      "Ġstra": 2347,
      "Ġorigin": 2348,
      "Ġdescribed": 2349,
      "Ġbes": 2350,
      "ills": 2351,
      "Ġinfluence": 2352,
      "uous": 2353,
      "ĠPa": 2354,
      "Ġthee": 2355,
      "Ġlangu": 2356,
      "16": 2357,
      "Ġnar": 2358,
      "ousand": 2359,
      "ĠAnt": 2360,
      "ested": 2361,
      "ĠComp": 2362,
      "bon": 2363,
      "iments": 2364,
      "Ġmonths": 2365,
      "Ġswe": 2366,
      "vi": 2367,
      "Ġimmediately": 2368,
      "ken": 2369,
      "Ġpast": 2370,
      "ites": 2371,
      "gress": 2372,
      "Ġsens": 2373,
      "ĠNow": 2374,
      "Ġchange": 2375,
      "ires": 2376,
      "14": 2377,
      "Ġmoney": 2378,
      "ns": 2379,
      "Ġtold": 2380,
      "Ġprevent": 2381,
      ",âĢĿ": 2382,
      "Ġrequired": 2383,
      "Ġaw": 2384,
      "Ġplants": 2385,
      "Ġcourt": 2386,
      "aste": 2387,
      "Ġplaces": 2388,
      "Ġpal": 2389,
      "anc": 2390,
      "ĠCal": 2391,
      "ĠSte": 2392,
      "Ġado": 2393,
      "Ġwife": 2394,
      "ĠFeb": 2395,
      "13": 2396,
      "Ġsin": 2397,
      "Ġheat": 2398,
      "OS": 2399,
      "Ġalong": 2400,
      "Ġmentioned": 2401,
      "ĠGerm": 2402,
      "ouble": 2403,
      "Ġemb": 2404,
      "Ġconsist": 2405,
      "itary": 2406,
      "Ġhours": 2407,
      "ĠRoy": 2408,
      "....": 2409,
      "ption": 2410,
      "ouses": 2411,
      "Ġ182": 2412,
      "acy": 2413,
      "ĠParis": 2414,
      "Ġwa": 2415,
      "Ġdoct": 2416,
      "Ġpaper": 2417,
      "Ġur": 2418,
      "Ġpress": 2419,
      "Ġ100": 2420,
      "Ġsle": 2421,
      "Ġschool": 2422,
      "Ġsense": 2423,
      "IST": 2424,
      "Ġsold": 2425,
      "ĠST": 2426,
      "Ġbrother": 2427,
      "enth": 2428,
      "imate": 2429,
      "Ġee": 2430,
      "Ġdistingu": 2431,
      "Ġ187": 2432,
      "Ġgold": 2433,
      "lled": 2434,
      "itte": 2435,
      "Ġpray": 2436,
      "rate": 2437,
      "ATION": 2438,
      "cience": 2439,
      "for": 2440,
      "Ġleave": 2441,
      "iqu": 2442,
      "UN": 2443,
      "EM": 2444,
      "Ġmagn": 2445,
      "OO": 2446,
      "UL": 2447,
      "Ġdie": 2448,
      "iver": 2449,
      "fs": 2450,
      "Ġthousand": 2451,
      "Ġapplic": 2452,
      "Î»": 2453,
      "Ġmother": 2454,
      "thing": 2455,
      "IR": 2456,
      "Ġunto": 2457,
      "liament": 2458,
      "oke": 2459,
      "Ġassist": 2460,
      "Ġremain": 2461,
      "lin": 2462,
      "Ġorgan": 2463,
      "Ġdesign": 2464,
      "Ġcop": 2465,
      "con": 2466,
      "Ġnumerous": 2467,
      "ĠRich": 2468,
      "Ġprep": 2469,
      "ĠCr": 2470,
      "ĠGree": 2471,
      "Ġinches": 2472,
      "gar": 2473,
      "ĠNorth": 2474,
      "anged": 2475,
      "Ġmyself": 2476,
      "Ġiron": 2477,
      "Ġthir": 2478,
      "cer": 2479,
      "Ġpublished": 2480,
      "Ġlost": 2481,
      "Ġnation": 2482,
      "oo": 2483,
      "Ġstreng": 2484,
      "Ġplan": 2485,
      "lt": 2486,
      "antly": 2487,
      "Ġox": 2488,
      "hire": 2489,
      "ula": 2490,
      "Ġconcern": 2491,
      "Ġvill": 2492,
      "Ġmass": 2493,
      "por": 2494,
      "Ġarch": 2495,
      ".*": 2496,
      "Ġexec": 2497,
      "Ġdim": 2498,
      "Ġmethod": 2499,
      "Ġdu": 2500,
      "Ġremo": 2501,
      "Ġsuc": 2502,
      "Ġnon": 2503,
      "Ġsize": 2504,
      "Ġsufficient": 2505,
      "Ġdistance": 2506,
      "lands": 2507,
      "ma": 2508,
      "ĠCapt": 2509,
      "ĠScot": 2510,
      "Ġdefe": 2511,
      "Ġpeace": 2512,
      "ege": 2513,
      "á¿": 2514,
      "mber": 2515,
      "esty": 2516,
      "Ġrefer": 2517,
      "ipp": 2518,
      "tered": 2519,
      "Ġ48": 2520,
      "Ġphys": 2521,
      "ĠRobert": 2522,
      "ĠCour": 2523,
      "ology": 2524,
      "Ġenc": 2525,
      "Ġscarce": 2526,
      "Ġpi": 2527,
      "Î¼": 2528,
      "respond": 2529,
      "nding": 2530,
      "Ġimm": 2531,
      "Ġspecim": 2532,
      "Ġfurn": 2533,
      "app": 2534,
      "ieut": 2535,
      "Ġarmy": 2536,
      "ĠQue": 2537,
      "Ġjo": 2538,
      "ĠFl": 2539,
      "Ġfear": 2540,
      "ĠGl": 2541,
      "Ġinhab": 2542,
      "Ġproduce": 2543,
      "Ġiss": 2544,
      "mpt": 2545,
      "ĠThen": 2546,
      "umb": 2547,
      "Ġproportion": 2548,
      "velop": 2549,
      "gment": 2550,
      "Ġgovernment": 2551,
      "ere": 2552,
      "ĠGra": 2553,
      "Ġnorth": 2554,
      "oted": 2555,
      "yond": 2556,
      "amb": 2557,
      "Ġviol": 2558,
      "Ġentirely": 2559,
      "Â»": 2560,
      "Ġtit": 2561,
      "Ġlonger": 2562,
      "Ġwritten": 2563,
      "aug": 2564,
      "Ġexcell": 2565,
      "ĠSome": 2566,
      "OT": 2567,
      "Ġparty": 2568,
      "with": 2569,
      "Ġtreatment": 2570,
      "Ġcommunic": 2571,
      "ato": 2572,
      "Ġneigh": 2573,
      "Ġov": 2574,
      "Ġkn": 2575,
      "Ġauthority": 2576,
      "irm": 2577,
      "soci": 2578,
      "hip": 2579,
      "Ġ46": 2580,
      "Ġrepe": 2581,
      "ERS": 2582,
      "Ġlater": 2583,
      "ospital": 2584,
      "Ġbad": 2585,
      "Ġ47": 2586,
      "Ġforth": 2587,
      "ĠDec": 2588,
      "ĠSouth": 2589,
      "Ġdue": 2590,
      "Ġlaid": 2591,
      "Ġhour": 2592,
      "Ġdaugh": 2593,
      "ĠProf": 2594,
      "Ġaf": 2595,
      "ĠAc": 2596,
      "Ġpet": 2597,
      "Ġapplied": 2598,
      "cious": 2599,
      "ĠThus": 2600,
      "gin": 2601,
      "Ġcult": 2602,
      "Ġfem": 2603,
      "Ġextent": 2604,
      "arm": 2605,
      "ĠIII": 2606,
      "Ġdiss": 2607,
      "olved": 2608,
      "Ġav": 2609,
      "ĠGre": 2610,
      "UM": 2611,
      "ĠMon": 2612,
      "Ġdead": 2613,
      "Ġfelt": 2614,
      "Ġprincipal": 2615,
      "ship": 2616,
      "what": 2617,
      "Ġupper": 2618,
      "ĠEdward": 2619,
      "Ġneither": 2620,
      "ification": 2621,
      "Ġep": 2622,
      "Ġnotice": 2623,
      "Ġattend": 2624,
      "Ġtro": 2625,
      "ning": 2626,
      "ids": 2627,
      "Ġpp": 2628,
      "ĠItal": 2629,
      "50": 2630,
      "ĠÏĦ": 2631,
      "Ġinqu": 2632,
      "erior": 2633,
      "Ġmove": 2634,
      "Ġfront": 2635,
      "ĠGreat": 2636,
      "Ġsecret": 2637,
      "Ġasc": 2638,
      "Ġsucceed": 2639,
      "ams": 2640,
      "Ġpun": 2641,
      "Ġanimal": 2642,
      "Ġhorse": 2643,
      "Ġhath": 2644,
      "Ġindivid": 2645,
      "ĠRoyal": 2646,
      "arden": 2647,
      "Ġgives": 2648,
      "ternal": 2649,
      "Ġroad": 2650,
      "orough": 2651,
      "Ġseemed": 2652,
      "Ġgreen": 2653,
      "Ġduty": 2654,
      "Ġfollowed": 2655,
      "Ġmiddle": 2656,
      "Ġ)": 2657,
      "Ġbeyond": 2658,
      "ething": 2659,
      "Ġaddition": 2660,
      "Ġcost": 2661,
      "30": 2662,
      "Ġsupposed": 2663,
      "Ġconce": 2664,
      "olution": 2665,
      "ille": 2666,
      "Ġsett": 2667,
      "Ġextreme": 2668,
      "Ġhel": 2669,
      "iu": 2670,
      "Ġmaj": 2671,
      "Ġreport": 2672,
      "Ġhonour": 2673,
      "Ġcry": 2674,
      "iers": 2675,
      "Ġ180": 2676,
      "Ġbeautiful": 2677,
      "Ġbelow": 2678,
      "Ġyellow": 2679,
      "atever": 2680,
      "Ġadded": 2681,
      "Ġconduct": 2682,
      "teen": 2683,
      "Ġinfl": 2684,
      "Ġoriginal": 2685,
      "ĠSw": 2686,
      "Ġtaking": 2687,
      "Ġweight": 2688,
      "Ġoperation": 2689,
      "Ġadj": 2690,
      "aged": 2691,
      "ĠIndia": 2692,
      "Ġsimple": 2693,
      "Ġfield": 2694,
      "Ġpractice": 2695,
      "AND": 2696,
      "Ġextra": 2697,
      "Ġillust": 2698,
      "inter": 2699,
      "Ġdry": 2700,
      "Ġ60": 2701,
      "ias": 2702,
      "Ġaut": 2703,
      "Ġrapid": 2704,
      "Ġfood": 2705,
      "resh": 2706,
      "Ġesc": 2707,
      "ander": 2708,
      "ĠHere": 2709,
      "ĠOff": 2710,
      "Ġconsequence": 2711,
      "Ġcovered": 2712,
      "Ġcell": 2713,
      "Ġdepart": 2714,
      "lock": 2715,
      "ograph": 2716,
      "ST": 2717,
      "Ġsingle": 2718,
      "Ġcross": 2719,
      "tic": 2720,
      "Ġcarry": 2721,
      "ĠGeneral": 2722,
      "bed": 2723,
      "ĠMiss": 2724,
      "Ġbird": 2725,
      "ules": 2726,
      "ĠLa": 2727,
      "ging": 2728,
      "airs": 2729,
      "Ġanswer": 2730,
      "Ġinstance": 2731,
      "Ġgrad": 2732,
      "Ġ49": 2733,
      "end": 2734,
      "ĠAugust": 2735,
      "ris": 2736,
      "Ġbase": 2737,
      "Ġroom": 2738,
      "uck": 2739,
      "Ġhear": 2740,
      "ror": 2741,
      "osing": 2742,
      "ĠSy": 2743,
      "iction": 2744,
      "CE": 2745,
      "Ġmaterial": 2746,
      "Ġindividual": 2747,
      "Ġbed": 2748,
      "erved": 2749,
      "Ġattack": 2750,
      "ĠPort": 2751,
      "Ġordinary": 2752,
      "atory": 2753,
      "Ġmembers": 2754,
      "ivil": 2755,
      "Ġoblig": 2756,
      "ĠRoman": 2757,
      "Ġwoman": 2758,
      "Ġpra": 2759,
      "omme": 2760,
      "ole": 2761,
      "char": 2762,
      "Ġcorrespond": 2763,
      "Ġ]": 2764,
      "Ġsqu": 2765,
      "ett": 2766,
      "ye": 2767,
      "aid": 2768,
      "Ġrecord": 2769,
      "ĠON": 2770,
      "mit": 2771,
      "Ġintell": 2772,
      "wo": 2773,
      "aff": 2774,
      "Ġevidence": 2775,
      "40": 2776,
      "Ġdistrict": 2777,
      "Ġwish": 2778,
      "orth": 2779,
      "Ġil": 2780,
      "Ġarg": 2781,
      "Ġfut": 2782,
      "Ġcompl": 2783,
      "Ġcertainly": 2784,
      "Ġparticularly": 2785,
      "ĠMarch": 2786,
      "Ġmouth": 2787,
      "Ġled": 2788,
      "Ġpict": 2789,
      "olic": 2790,
      "Ġtrib": 2791,
      "pl": 2792,
      "ih": 2793,
      "Ġusual": 2794,
      "AD": 2795,
      "Ġimag": 2796,
      "Ġing": 2797,
      "Ġment": 2798,
      "Ġcreat": 2799,
      "itting": 2800,
      "Ġpure": 2801,
      "Ġsoul": 2802,
      "ĠIre": 2803,
      "Ġrend": 2804,
      "TS": 2805,
      "Ġafford": 2806,
      "Ġarms": 2807,
      "ogn": 2808,
      "Ġbas": 2809,
      "ĠTe": 2810,
      "uff": 2811,
      "ĠAv": 2812,
      "Ġsolution": 2813,
      "ittee": 2814,
      "no": 2815,
      "Ġindic": 2816,
      "ĠGovernment": 2817,
      "Ġadvantage": 2818,
      "Ġenj": 2819,
      "Ġexerc": 2820,
      "ĠOx": 2821,
      "rated": 2822,
      "ĠVol": 2823,
      "Ġdestro": 2824,
      "Ġflowers": 2825,
      "utions": 2826,
      "ĠApril": 2827,
      "Ġgrant": 2828,
      "atur": 2829,
      "Ġsud": 2830,
      "Ġsouth": 2831,
      "pir": 2832,
      "athe": 2833,
      "ĠReg": 2834,
      "Ġsomewhat": 2835,
      "Ġsomething": 2836,
      "Ġsympt": 2837,
      "Ġfol": 2838,
      "Ġdeb": 2839,
      "Ġpoints": 2840,
      "Ġstated": 2841,
      "ros": 2842,
      "Ġge": 2843,
      "Ġplain": 2844,
      "ciple": 2845,
      "Ġclaim": 2846,
      "Ġpaid": 2847,
      "nce": 2848,
      "Ġlive": 2849,
      "Ġlines": 2850,
      "Ġreturned": 2851,
      "Ġweak": 2852,
      "Ïī": 2853,
      "aching": 2854,
      "Ġusually": 2855,
      "Ġnone": 2856,
      "Ġgot": 2857,
      "Ġdevelop": 2858,
      "ĠNov": 2859,
      "Ġfun": 2860,
      "ij": 2861,
      "ufact": 2862,
      "...": 2863,
      "Ġbusiness": 2864,
      "Ġlabour": 2865,
      "Ġvent": 2866,
      "Ġgreatest": 2867,
      "Ġlanguage": 2868,
      "Ġtot": 2869,
      "Ġremoved": 2870,
      "ilst": 2871,
      "Ġeasily": 2872,
      "ĠIV": 2873,
      "Ġmaster": 2874,
      "Ġsound": 2875,
      "mitted": 2876,
      "Ġweek": 2877,
      ".;": 2878,
      "ctions": 2879,
      "Ġpreced": 2880,
      "ĠSur": 2881,
      "omy": 2882,
      "ule": 2883,
      "mo": 2884,
      "ik": 2885,
      "Ġmusc": 2886,
      "Ġrich": 2887,
      "Ġgoing": 2888,
      "ĠDav": 2889,
      "Ġliving": 2890,
      "Ġib": 2891,
      "Ġprogress": 2892,
      "aded": 2893,
      "inent": 2894,
      "ĠLieut": 2895,
      "ĠJes": 2896,
      "Ġwond": 2897,
      "Ġbear": 2898,
      "atin": 2899,
      "ishes": 2900,
      "Ġdirection": 2901,
      "Ġremarkable": 2902,
      "Ġot": 2903,
      "itable": 2904,
      "Ġpul": 2905,
      "Ġsugg": 2906,
      "ĠBer": 2907,
      "Ġmort": 2908,
      "Ġscarcely": 2909,
      "Ġles": 2910,
      "Ġmain": 2911,
      "ĠArch": 2912,
      "ID": 2913,
      "ĠCount": 2914,
      "Ġvirt": 2915,
      "Ġbegan": 2916,
      "ĠÂ«": 2917,
      "ourable": 2918,
      "Ġproperty": 2919,
      "Ġende": 2920,
      "Ġess": 2921,
      "Ġextens": 2922,
      "Ġstrength": 2923,
      "ĠIreland": 2924,
      "Ġsulph": 2925,
      "Ġthin": 2926,
      "IA": 2927,
      "king": 2928,
      "Ġdil": 2929,
      "Ġpurs": 2930,
      "Ġmedical": 2931,
      "ores": 2932,
      "ari": 2933,
      "Ġhyd": 2934,
      "itation": 2935,
      "vell": 2936,
      "rh": 2937,
      "Ġmerely": 2938,
      "ĠMin": 2939,
      "Ġbroad": 2940,
      "ĠMag": 2941,
      "Ġexceed": 2942,
      "Ġaud": 2943,
      "IV": 2944,
      "Ġunderstand": 2945,
      "Î¯": 2946,
      "Ġreligion": 2947,
      "ĠRep": 2948,
      "itor": 2949,
      "bran": 2950,
      "Ġtrust": 2951,
      "hood": 2952,
      "Ġ179": 2953,
      "ĠDuke": 2954,
      "Ġidea": 2955,
      "Ġenter": 2956,
      "inning": 2957,
      "Ġknew": 2958,
      "Ġinhabit": 2959,
      "Ġreceive": 2960,
      "Ġincreased": 2961,
      "Ġsudden": 2962,
      "Ġplay": 2963,
      "Ġallowed": 2964,
      "Ġtend": 2965,
      "bury": 2966,
      "Ġdear": 2967,
      "bur": 2968,
      "Ġcapt": 2969,
      "Ġforward": 2970,
      "80": 2971,
      "Ġimper": 2972,
      "Ġtrees": 2973,
      "Ġresults": 2974,
      "ument": 2975,
      "Ġrelie": 2976,
      "Ġflu": 2977,
      "Ġtou": 2978,
      "Ġanimals": 2979,
      "ests": 2980,
      "ĠCourt": 2981,
      "Ġsupply": 2982,
      "Ġfal": 2983,
      "Ġloss": 2984,
      "eness": 2985,
      "Ġrecomme": 2986,
      "iy": 2987,
      "Ġappointed": 2988,
      "form": 2989,
      "Ġremains": 2990,
      "ĠBl": 2991,
      "pic": 2992,
      "Ġbecomes": 2993,
      "ĠMary": 2994,
      "ĠCouncil": 2995,
      "ify": 2996,
      "ustom": 2997,
      "like": 2998,
      "Ġinstead": 2999,
      "AG": 3000,
      "riage": 3001,
      "Ġbott": 3002,
      "Ġprint": 3003,
      "Ġwhatever": 3004,
      "Ġcentury": 3005,
      "yal": 3006,
      "Ġeduc": 3007,
      "Ġmist": 3008,
      "Ġdecla": 3009,
      "Ġbound": 3010,
      "min": 3011,
      "iding": 3012,
      "rom": 3013,
      "ĠLady": 3014,
      "Ġdecl": 3015,
      "Ġexact": 3016,
      "Ġstone": 3017,
      "Ġoffice": 3018,
      "Ġdifficulty": 3019,
      "Ġdaughter": 3020,
      "Ġpassage": 3021,
      "ĠRome": 3022,
      "Ġproc": 3023,
      "Ġsides": 3024,
      "Ġere": 3025,
      "Ġpoet": 3026,
      "Ġapparent": 3027,
      "60": 3028,
      "Ġmotion": 3029,
      "25": 3030,
      "Ġheaven": 3031,
      "elve": 3032,
      "Ġexample": 3033,
      "ables": 3034,
      "rees": 3035,
      "ĠMo": 3036,
      "eral": 3037,
      "essor": 3038,
      "Ġincrease": 3039,
      "Ġgiving": 3040,
      "yle": 3041,
      "ĠQueen": 3042,
      "Ġelect": 3043,
      "Ġoffe": 3044,
      "Ġgrace": 3045,
      "pel": 3046,
      "Ġexperience": 3047,
      "Ġmeasure": 3048,
      "Ġwalk": 3049,
      "ancy": 3050,
      "Ġletters": 3051,
      "Ġraised": 3052,
      "Ġmeeting": 3053,
      "Ġhair": 3054,
      "Ġgrand": 3055,
      "Ġconve": 3056,
      "Ġcoun": 3057,
      "Ġshown": 3058,
      "anks": 3059,
      "Ġready": 3060,
      "Ġ189": 3061,
      "ĠRo": 3062,
      "ĠSal": 3063,
      "Ġimportance": 3064,
      "Ġnerv": 3065,
      "Ġtable": 3066,
      "anced": 3067,
      "Ġcrown": 3068,
      "ĠMac": 3069,
      "verse": 3070,
      "iform": 3071,
      "Ġfil": 3072,
      "pped": 3073,
      "Ġseven": 3074,
      "Ġprinciple": 3075,
      "Ġdeal": 3076,
      "ĠPre": 3077,
      "ush": 3078,
      "/.": 3079,
      "ati": 3080,
      "Ġneighbour": 3081,
      "Ġdescription": 3082,
      "ws": 3083,
      "Ġpresence": 3084,
      "ĠXX": 3085,
      "cent": 3086,
      "ni": 3087,
      "ĠCam": 3088,
      "ological": 3089,
      "Ġdemand": 3090,
      "Ġdoctr": 3091,
      "bert": 3092,
      "band": 3093,
      "Ġ55": 3094,
      "Ġsole": 3095,
      "ym": 3096,
      "AY": 3097,
      "Ġcompar": 3098,
      "Ġsoft": 3099,
      "Ġign": 3100,
      "Ġmaint": 3101,
      "owed": 3102,
      "Ġfu": 3103,
      "Ġheight": 3104,
      "Ġbehind": 3105,
      "ergy": 3106,
      "Ġdrawn": 3107,
      "Ġreign": 3108,
      "Ġelse": 3109,
      "Ġmur": 3110,
      "Ġcre": 3111,
      "Ġproved": 3112,
      "osit": 3113,
      "Ġturned": 3114,
      "Ġinteresting": 3115,
      "ĠTH": 3116,
      "Ġaccept": 3117,
      "Ġevening": 3118,
      "Ġlady": 3119,
      "anges": 3120,
      "Ġlist": 3121,
      "Ġbrown": 3122,
      "ĠMad": 3123,
      "ĠBishop": 3124,
      "Ġsou": 3125,
      "Ġphil": 3126,
      "Ġendeav": 3127,
      "Ġcharge": 3128,
      "Ġ190": 3129,
      "Ġmeas": 3130,
      "rd": 3131,
      "IG": 3132,
      "Ġsubstance": 3133,
      "Ġcentre": 3134,
      "Ġhelp": 3135,
      "ĠHon": 3136,
      "isp": 3137,
      "Ġforeign": 3138,
      "Ġmal": 3139,
      "Ġfell": 3140,
      "Ġglass": 3141,
      "ĠAcc": 3142,
      "Ġ41": 3143,
      "Ġtrade": 3144,
      "nes": 3145,
      "Ġpolit": 3146,
      "Ġship": 3147,
      "iling": 3148,
      "Ġfruit": 3149,
      "apt": 3150,
      "Ġast": 3151,
      "Ġfuture": 3152,
      "field": 3153,
      "Ġtli": 3154,
      "Ġgall": 3155,
      "lace": 3156,
      "ĠEn": 3157,
      "Ġsight": 3158,
      "Ġnote": 3159,
      "Ġnoble": 3160,
      "Ġpleas": 3161,
      "Ġfra": 3162,
      "Ġanal": 3163,
      "Ġ53": 3164,
      "III": 3165,
      "Ġsure": 3166,
      "Ġcele": 3167,
      "house": 3168,
      "Ġmere": 3169,
      "Ġregular": 3170,
      "ĠEarl": 3171,
      "Ġtop": 3172,
      "ously": 3173,
      "Ġsla": 3174,
      "ression": 3175,
      "Ïħ": 3176,
      "osite": 3177,
      "43": 3178,
      "Ġself": 3179,
      "ĠIr": 3180,
      "ĠAf": 3181,
      "ĠMess": 3182,
      "Ġpret": 3183,
      "Ġsubjects": 3184,
      "ortun": 3185,
      "Ġuseful": 3186,
      "Ġconnected": 3187,
      "Ġprove": 3188,
      "âĢĺ": 3189,
      "action": 3190,
      "Ġwild": 3191,
      "Ġfixed": 3192,
      "ĠEm": 3193,
      "Ġstru": 3194,
      "ta": 3195,
      "Ġ188": 3196,
      "Ġenjoy": 3197,
      "Ġcoast": 3198,
      "Ġsort": 3199,
      "Ġwarm": 3200,
      "ican": 3201,
      "ĠMor": 3202,
      "OC": 3203,
      "hens": 3204,
      "Ġlaws": 3205,
      "Ġcauses": 3206,
      "Ġ**": 3207,
      "Ġcho": 3208,
      "ĠPres": 3209,
      "NG": 3210,
      ",)": 3211,
      "Ġprison": 3212,
      "ĠMedical": 3213,
      "ĠBra": 3214,
      "ĠLaw": 3215,
      "Ġestablish": 3216,
      "Ġdesire": 3217,
      "Ġdri": 3218,
      "Ġcontaining": 3219,
      "ially": 3220,
      "Ġnarrow": 3221,
      "Ġwhy": 3222,
      "ulated": 3223,
      "ĠCaptain": 3224,
      "era": 3225,
      "Ġimposs": 3226,
      "Ġnames": 3227,
      "ĠCollege": 3228,
      "Ġcontains": 3229,
      "Ġliqu": 3230,
      "Ġwomen": 3231,
      "ria": 3232,
      "ca": 3233,
      "Ġhot": 3234,
      "ability": 3235,
      "Ġwide": 3236,
      "Ġstruct": 3237,
      "Ġmus": 3238,
      "Ġsuperior": 3239,
      "Ġ52": 3240,
      "Ġprinciples": 3241,
      "Ġvariety": 3242,
      "olute": 3243,
      "Ġcultiv": 3244,
      "nown": 3245,
      "Ġarrange": 3246,
      "Ġnative": 3247,
      "Ġapplication": 3248,
      "Ġeffects": 3249,
      "rous": 3250,
      "Ġhabit": 3251,
      "Ġmode": 3252,
      "Ġreally": 3253,
      "Ġsymptoms": 3254,
      "Ġbless": 3255,
      "hest": 3256,
      "Ġvessels": 3257,
      "Ġbenef": 3258,
      "ray": 3259,
      "Ġentered": 3260,
      "Ġprepared": 3261,
      "lar": 3262,
      "ĠEp": 3263,
      "Ġcivil": 3264,
      "ishing": 3265,
      "ĠInst": 3266,
      "Ġae": 3267,
      "Ġago": 3268,
      "ĠMa": 3269,
      "Ġpleasure": 3270,
      "uding": 3271,
      "iles": 3272,
      "ening": 3273,
      "ili": 3274,
      "cis": 3275,
      "ĠAlex": 3276,
      "aled": 3277,
      "ories": 3278,
      "Ġwhilst": 3279,
      "Ġprivate": 3280,
      "Ġexcellent": 3281,
      "Ġintended": 3282,
      "Ġdistinguished": 3283,
      "ĠWal": 3284,
      "Ġprim": 3285,
      "Ġmembran": 3286,
      "Ġequally": 3287,
      "Ġprice": 3288,
      "Ġhouses": 3289,
      "Ġq": 3290,
      "Ġseason": 3291,
      "Ġ....": 3292,
      "Ġlarger": 3293,
      "Ġmult": 3294,
      "Ġcorn": 3295,
      "Îº": 3296,
      "Ġlocal": 3297,
      "aught": 3298,
      "ĠRE": 3299,
      "orrow": 3300,
      "itate": 3301,
      "Ġsoil": 3302,
      "Ġcloth": 3303,
      "Ġcav": 3304,
      "Ġmakes": 3305,
      "Ġgovern": 3306,
      "Ġvisit": 3307,
      "Ġlooked": 3308,
      "ĠPal": 3309,
      "Ġexistence": 3310,
      "Ġmanufact": 3311,
      "hers": 3312,
      "Ġcat": 3313,
      "Ġproof": 3314,
      "sec": 3315,
      "ĠWhere": 3316,
      "Ġseries": 3317,
      "ĠSuch": 3318,
      "--": 3319,
      "ĠAnn": 3320,
      "Ġdesp": 3321,
      "ike": 3322,
      "Ġfresh": 3323,
      "42": 3324,
      "Ġstep": 3325,
      "Ġprepar": 3326,
      "Ġflo": 3327,
      "umed": 3328,
      "Ġfully": 3329,
      "Ġcelebr": 3330,
      "Ġinstrum": 3331,
      "Ġofficers": 3332,
      "oup": 3333,
      "Ġpowers": 3334,
      "''": 3335,
      "70": 3336,
      "Ġvict": 3337,
      "uls": 3338,
      "Ġemploy": 3339,
      "Ġqual": 3340,
      "Ġinhabitants": 3341,
      "ĠWood": 3342,
      "Ġinflamm": 3343,
      "Ġjour": 3344,
      "Ġagree": 3345,
      "ĠAust": 3346,
      "iently": 3347,
      "duction": 3348,
      "Ġsir": 3349,
      "ĠWell": 3350,
      "Ġdifference": 3351,
      "Ġunivers": 3352,
      "Ġgentleman": 3353,
      "Ġborn": 3354,
      "Ġsand": 3355,
      "ĠHall": 3356,
      "Ġstat": 3357,
      "Ġspecial": 3358,
      "Ġfirm": 3359,
      "Ġtwelve": 3360,
      "Ġchiefly": 3361,
      "Ġliter": 3362,
      "Ġkingdom": 3363,
      "Ġrise": 3364,
      "Ġhus": 3365,
      "ey": 3366,
      "Ġfib": 3367,
      "ĠBur": 3368,
      "Ġbread": 3369,
      "Ġadmin": 3370,
      "Ġcompany": 3371,
      "Ġnit": 3372,
      "oi": 3373,
      "Ġvoice": 3374,
      "irth": 3375,
      "Ġtemperature": 3376,
      "Ġfla": 3377,
      "Ġdro": 3378,
      "Ġyield": 3379,
      "AB": 3380,
      "Ġfamil": 3381,
      "Ġimprove": 3382,
      "fi": 3383,
      "ĠRichard": 3384,
      "ails": 3385,
      "Ġinformation": 3386,
      "aped": 3387,
      "Ġmid": 3388,
      "Ġfit": 3389,
      "Ġdivided": 3390,
      "Ġthirty": 3391,
      "irst": 3392,
      "ented": 3393,
      "set": 3394,
      "Ġvalu": 3395,
      "Ġterms": 3396,
      "Ġbodies": 3397,
      "erted": 3398,
      "Ġ80": 3399,
      "Ġhigher": 3400,
      "omb": 3401,
      "ody": 3402,
      "Ġasked": 3403,
      "lly": 3404,
      "Ġ56": 3405,
      "Ġenemy": 3406,
      "ĠWar": 3407,
      "Ġbishop": 3408,
      "ĠJour": 3409,
      "Ġestablished": 3410,
      "ĠEli": 3411,
      "Ġinn": 3412,
      "orks": 3413,
      "SS": 3414,
      "Ġsurr": 3415,
      "va": 3416,
      "Ġpresented": 3417,
      "ĠFig": 3418,
      "Ġopposite": 3419,
      "uary": 3420,
      "ĠScotland": 3421,
      "Ġspot": 3422,
      "ored": 3423,
      "Ġlad": 3424,
      "Ġhop": 3425,
      "ĠAmerica": 3426,
      "ĠPet": 3427,
      "orum": 3428,
      "Ġintroduced": 3429,
      "ĠCath": 3430,
      "Ġdischar": 3431,
      "Ġlat": 3432,
      "Ġdepend": 3433,
      "OG": 3434,
      "Ġdoor": 3435,
      "Ġremained": 3436,
      "Ġfellow": 3437,
      "racted": 3438,
      "OND": 3439,
      "ĠStreet": 3440,
      "Ġdanger": 3441,
      "Ġspring": 3442,
      "Ġpros": 3443,
      "Ġexcl": 3444,
      "Ġrequire": 3445,
      "Ġcontrary": 3446,
      "isions": 3447,
      "Ġsociety": 3448,
      "Ġstates": 3449,
      "Ġcred": 3450,
      "Ġperfectly": 3451,
      "Ġfever": 3452,
      "Ġ54": 3453,
      "Ġisland": 3454,
      "ĠTur": 3455,
      "Ġcover": 3456,
      "ini": 3457,
      "arp": 3458,
      "Ġsilver": 3459,
      "Ġunless": 3460,
      "Ġpiece": 3461,
      "Ġbright": 3462,
      "Ġspace": 3463,
      "Ġmedic": 3464,
      "Ġappre": 3465,
      "Ġopportun": 3466,
      "omm": 3467,
      "Ġrender": 3468,
      "Ġwinter": 3469,
      "Ġbranches": 3470,
      "lected": 3471,
      "arily": 3472,
      "Ġadmir": 3473,
      "sp": 3474,
      "Ġimpossible": 3475,
      "Ġmarked": 3476,
      "Ġrule": 3477,
      "gs": 3478,
      "ha": 3479,
      "Ġsalt": 3480,
      "worth": 3481,
      "iced": 3482,
      "Ġgreatly": 3483,
      "Ġchap": 3484,
      "Ġadopted": 3485,
      "ĠHigh": 3486,
      "vent": 3487,
      "Ġstood": 3488,
      "ĠTheir": 3489,
      "ĠSpe": 3490,
      "Ġfi": 3491,
      "ingly": 3492,
      "Ġoil": 3493,
      "Ġ70": 3494,
      "Ġcoming": 3495,
      "Ġgone": 3496,
      "ibility": 3497,
      "ĠPaul": 3498,
      "Ġevil": 3499,
      "ades": 3500,
      "Ġcontained": 3501,
      "terior": 3502,
      "Ġsan": 3503,
      "22": 3504,
      "OP": 3505,
      "Ġtitle": 3506,
      "Ġamongst": 3507,
      "ĠÐ": 3508,
      "isters": 3509,
      "Ġma": 3510,
      "bid": 3511,
      "rt": 3512,
      "Ġdiscovered": 3513,
      "ĠCHAP": 3514,
      "Ġjoint": 3515,
      "Ġpossession": 3516,
      "Ġpap": 3517,
      "Ġtion": 3518,
      "Ġotherwise": 3519,
      "ĠNat": 3520,
      "ixt": 3521,
      "Ġvolume": 3522,
      "Ġtransl": 3523,
      "ĠAra": 3524,
      "ĠDes": 3525,
      "IF": 3526,
      "lc": 3527,
      "Ġsacr": 3528,
      "Ġattended": 3529,
      "Ġdesce": 3530,
      "Ġsweet": 3531,
      "Ġquick": 3532,
      "Ġ57": 3533,
      "Ġ~": 3534,
      "Ġexamination": 3535,
      "Ġtum": 3536,
      "ĠEast": 3537,
      "Ġwalls": 3538,
      "Ġdraw": 3539,
      "Ġarrived": 3540,
      "Ġminute": 3541,
      "Ġresemb": 3542,
      "Ġskin": 3543,
      "Ġfeeling": 3544,
      "Ġunf": 3545,
      "ically": 3546,
      "gn": 3547,
      "Ġwat": 3548,
      "itute": 3549,
      "Ġbeginning": 3550,
      "Ġdimin": 3551,
      "Ġspread": 3552,
      "Ġcalcul": 3553,
      "Ġdetermined": 3554,
      "Ġbuilding": 3555,
      "Ġsour": 3556,
      "Ġabund": 3557,
      "Ġthroughout": 3558,
      "ĠPers": 3559,
      "inity": 3560,
      "Ġlibert": 3561,
      "Ġconvers": 3562,
      "peror": 3563,
      "Ġtakes": 3564,
      "road": 3565,
      "Ġhast": 3566,
      "Ġmodern": 3567,
      "Ġ58": 3568,
      "TIC": 3569,
      "ĠPrince": 3570,
      "orses": 3571,
      "ĠRom": 3572,
      "Ġtree": 3573,
      "Ġadmitted": 3574,
      "Ġpassing": 3575,
      "ara": 3576,
      "edy": 3577,
      "ĠMem": 3578,
      "ĠJesus": 3579,
      "inite": 3580,
      "ua": 3581,
      "ĠPart": 3582,
      "Ġreligious": 3583,
      "alle": 3584,
      "Ġinstances": 3585,
      "Ġglo": 3586,
      "Ġdon": 3587,
      "ana": 3588,
      "Ġphilos": 3589,
      "Ġjudgment": 3590,
      "hold": 3591,
      "wood": 3592,
      "Ġwitness": 3593,
      "Ġprofession": 3594,
      "Ġbuilt": 3595,
      "pet": 3596,
      "Ġcorrect": 3597,
      "Ġqui": 3598,
      "ĠMil": 3599,
      "Ġdiscuss": 3600,
      "ĠCont": 3601,
      "ĠSmith": 3602,
      "Ġfacts": 3603,
      "asc": 3604,
      "Ġanything": 3605,
      "ech": 3606,
      "Ġ59": 3607,
      "cts": 3608,
      "Ġproposed": 3609,
      "Ġgod": 3610,
      "Ġsuppose": 3611,
      "Ġdelight": 3612,
      "Ġfilled": 3613,
      "Ġsho": 3614,
      "ients": 3615,
      "ĠCat": 3616,
      "gra": 3617,
      "ĠPri": 3618,
      "ARD": 3619,
      "ĠâĢŀ": 3620,
      "Ġnob": 3621,
      "iis": 3622,
      "Ġtaste": 3623,
      "ĠYork": 3624,
      "ĠCast": 3625,
      "Ġsituation": 3626,
      "where": 3627,
      "ĠOur": 3628,
      "Ġconsideration": 3629,
      "Î·": 3630,
      "gypt": 3631,
      "Ġalter": 3632,
      "ds": 3633,
      "ura": 3634,
      "umn": 3635,
      "Ġlearned": 3636,
      "Ġax": 3637,
      "Ġfer": 3638,
      "Ġobtain": 3639,
      "Ġmel": 3640,
      "aved": 3641,
      "Ġhusband": 3642,
      "Ġaver": 3643,
      "Ġbooks": 3644,
      "ned": 3645,
      "Ġfle": 3646,
      "23": 3647,
      "ĠSub": 3648,
      "Ġrendered": 3649,
      "ĠHistory": 3650,
      "Ġsup": 3651,
      "Ġinvest": 3652,
      "duce": 3653,
      "Ġextrem": 3654,
      "ĠIm": 3655,
      "ĠParliament": 3656,
      "Ġfollows": 3657,
      "aken": 3658,
      "lay": 3659,
      "ev": 3660,
      "known": 3661,
      "Ġcapital": 3662,
      "Ġtroops": 3663,
      "Ġti": 3664,
      "Ġwonder": 3665,
      "Ġavo": 3666,
      "Ġvaluable": 3667,
      "Ġjustice": 3668,
      "Ġholy": 3669,
      "ho": 3670,
      "Ġmatters": 3671,
      "Ġreference": 3672,
      "ĠIts": 3673,
      "ino": 3674,
      "erate": 3675,
      "ĠÏĢ": 3676,
      "Ġones": 3677,
      ".),": 3678,
      "Ġelev": 3679,
      "Ġcarbon": 3680,
      "Ġ178": 3681,
      "Ġprec": 3682,
      "ese": 3683,
      "Ġrecogn": 3684,
      "AV": 3685,
      "ĠDiv": 3686,
      "ORY": 3687,
      "Ġhighly": 3688,
      "Ġrock": 3689,
      "Ġfast": 3690,
      "Ġdouble": 3691,
      "och": 3692,
      "Ġanx": 3693,
      "Ġbreak": 3694,
      "Ġaccompan": 3695,
      "ibly": 3696,
      "eties": 3697,
      "lies": 3698,
      "lement": 3699,
      "ios": 3700,
      "rief": 3701,
      "Ġobjects": 3702,
      "Ġbattle": 3703,
      "EW": 3704,
      "erus": 3705,
      "itect": 3706,
      "ĠAR": 3707,
      "UT": 3708,
      "Ġmill": 3709,
      "Ġsimp": 3710,
      "Ġobservations": 3711,
      "ublic": 3712,
      "rey": 3713,
      "Ġfigure": 3714,
      "ourage": 3715,
      "geon": 3716,
      "ĠGreek": 3717,
      "Ġbit": 3718,
      "Ġlikely": 3719,
      "28": 3720,
      "29": 3721,
      "ching": 3722,
      "Ġband": 3723,
      "ĠJew": 3724,
      "ĠPat": 3725,
      "ĠMal": 3726,
      "Ġrad": 3727,
      "Ġpurch": 3728,
      "Ġnamed": 3729,
      "Ġcomes": 3730,
      "Ġroyal": 3731,
      "ributed": 3732,
      "ĠPeter": 3733,
      "ĠMajesty": 3734,
      "ational": 3735,
      "Ġfail": 3736,
      "ailed": 3737,
      "Ġaround": 3738,
      "ĠSpan": 3739,
      "ems": 3740,
      "27": 3741,
      "omach": 3742,
      "Ġprovided": 3743,
      "Ġrate": 3744,
      "Ġexpected": 3745,
      "udes": 3746,
      "OW": 3747,
      "24": 3748,
      "Ġsubsequ": 3749,
      "33": 3750,
      "Ġbow": 3751,
      "Ġinch": 3752,
      "Ġbeauty": 3753,
      "Ġchem": 3754,
      "ĠColon": 3755,
      "Ġfro": 3756,
      "ington": 3757,
      "ĠJO": 3758,
      "ĠSam": 3759,
      "Ġherself": 3760,
      "ĠGen": 3761,
      "ĠTrans": 3762,
      "Ġmerc": 3763,
      "LI": 3764,
      "enced": 3765,
      "Ġhab": 3766,
      "Ġhydro": 3767,
      "Ġburn": 3768,
      "'.": 3769,
      "Ġconstitution": 3770,
      "Ġeasy": 3771,
      "eg": 3772,
      "jo": 3773,
      "Ġdate": 3774,
      "Ġcomposed": 3775,
      "orne": 3776,
      ",,": 3777,
      "Ġstyle": 3778,
      "arr": 3779,
      "Ġdiff": 3780,
      "ĠOld": 3781,
      "Ġcru": 3782,
      "Ġgradually": 3783,
      "Ġhappy": 3784,
      "inate": 3785,
      "Ġorn": 3786,
      "Ġopened": 3787,
      "asons": 3788,
      "Ġsi": 3789,
      "Ġstudy": 3790,
      "night": 3791,
      "ĠState": 3792,
      "Ġcaused": 3793,
      "Ġbroken": 3794,
      "Ġol": 3795,
      "unc": 3796,
      "Ġdiam": 3797,
      "oration": 3798,
      "Ġalto": 3799,
      "ĠConst": 3800,
      "Ġgas": 3801,
      "Ġmanif": 3802,
      "Ġscience": 3803,
      "ival": 3804,
      "Ġaffection": 3805,
      "rid": 3806,
      "ĠBel": 3807,
      "Ġspir": 3808,
      "Ġexped": 3809,
      "26": 3810,
      "ĠEgypt": 3811,
      "Ġtbe": 3812,
      "ĠPR": 3813,
      "Ġresist": 3814,
      "irs": 3815,
      "Ġfluid": 3816,
      "Ġveget": 3817,
      "EE": 3818,
      "Ġnumbers": 3819,
      "ESS": 3820,
      "Ġnecessity": 3821,
      "ĠUnivers": 3822,
      "Ġspecimens": 3823,
      "Ġorders": 3824,
      "Ġetc": 3825,
      "lesh": 3826,
      "Ġpressure": 3827,
      "ĠOh": 3828,
      "Ġprevious": 3829,
      "Ġformerly": 3830,
      "Ġgrat": 3831,
      "Ġbesides": 3832,
      "Ġblue": 3833,
      "ĠApp": 3834,
      "ĠÂ§": 3835,
      "Ġflower": 3836,
      "Ġtreated": 3837,
      "ourse": 3838,
      "Ġsurpr": 3839,
      "Ġpred": 3840,
      "Ġune": 3841,
      "ingham": 3842,
      "Ġabsolute": 3843,
      "arsh": 3844,
      "ĠTra": 3845,
      "Ġ65": 3846,
      "ora": 3847,
      "ico": 3848,
      "ential": 3849,
      "Ġmut": 3850,
      "Ġquarter": 3851,
      "Ġsend": 3852,
      "Ġextend": 3853,
      "my": 3854,
      "vert": 3855,
      "ĠMart": 3856,
      "umes": 3857,
      "Ġack": 3858,
      "Ġod": 3859,
      "igned": 3860,
      "ICAL": 3861,
      "ĠArt": 3862,
      "ifice": 3863,
      "ober": 3864,
      "pon": 3865,
      "Ġful": 3866,
      "aa": 3867,
      "Ġwine": 3868,
      "Ġrace": 3869,
      "burgh": 3870,
      "ĠJe": 3871,
      "Ġstructure": 3872,
      "urb": 3873,
      "Ġpale": 3874,
      "Ġrepeated": 3875,
      "Ġslow": 3876,
      "Ïĩ": 3877,
      "Ġcompan": 3878,
      "Ġgrowth": 3879,
      "Ġflat": 3880,
      "stone": 3881,
      "OD": 3882,
      "Ġpieces": 3883,
      "Ġexternal": 3884,
      "45": 3885,
      "Ġcryst": 3886,
      "Ġstock": 3887,
      "75": 3888,
      "Ġmoral": 3889,
      "Ġadminist": 3890,
      "Ġhighest": 3891,
      "Ġrose": 3892,
      "Ġhorses": 3893,
      "'^": 3894,
      "ators": 3895,
      "ĠSto": 3896,
      "side": 3897,
      "Ġhardly": 3898,
      "Ġobliged": 3899,
      "*.": 3900,
      "Ġwest": 3901,
      "Ġcit": 3902,
      "Ġfrequent": 3903,
      "cs": 3904,
      "ĠVer": 3905,
      "Ġdaily": 3906,
      "kes": 3907,
      "ĠCompany": 3908,
      "oles": 3909,
      "Ġconditions": 3910,
      "Ġagre": 3911,
      "ĠDon": 3912,
      "Ġ^^": 3913,
      "Ġreplied": 3914,
      "Ġsleep": 3915,
      "ĠFather": 3916,
      "ĠIndian": 3917,
      "Ġforg": 3918,
      "ĠEr": 3919,
      "Ġexcess": 3920,
      "Ġboard": 3921,
      "itis": 3922,
      "Ġaid": 3923,
      "Ġattached": 3924,
      "utation": 3925,
      "ĠÂ»": 3926,
      "Ġaffected": 3927,
      "port": 3928,
      "ĠProfessor": 3929,
      "ĠYet": 3930,
      "Ġassoci": 3931,
      "Ġvers": 3932,
      "itto": 3933,
      "Ġ66": 3934,
      "Ġexperiments": 3935,
      "nest": 3936,
      "Ġbreat": 3937,
      "ĠDE": 3938,
      "ĠBook": 3939,
      "Ġsummer": 3940,
      "Ġreached": 3941,
      "ĠMont": 3942,
      "ĠMessrs": 3943,
      "Ġacknow": 3944,
      "ĠInt": 3945,
      "Ġearli": 3946,
      "fo": 3947,
      "uments": 3948,
      "Ġjoy": 3949,
      "Ġsucceeded": 3950,
      "Ġdom": 3951,
      "Ġdig": 3952,
      "Ġignor": 3953,
      "Ġperce": 3954,
      "ĠWhite": 3955,
      "Ġworthy": 3956,
      "Ġgarden": 3957,
      "Ġrepresented": 3958,
      "ĠEl": 3959,
      "ĠHoly": 3960,
      "Ġwrote": 3961,
      "iant": 3962,
      "Ġguard": 3963,
      "order": 3964,
      "Ġbank": 3965,
      "Ġindepend": 3966,
      "Ġaltogether": 3967,
      "ELL": 3968,
      "ask": 3969,
      "ĠCON": 3970,
      "Ġleaving": 3971,
      "ĠEliz": 3972,
      "ĠAss": 3973,
      "Ġreduced": 3974,
      "ĠFR": 3975,
      "Ġoccurred": 3976,
      "gans": 3977,
      "Ġobst": 3978,
      "Ġyouth": 3979,
      "Ġbeneath": 3980,
      "ĠAfric": 3981,
      "UC": 3982,
      "Ġreferred": 3983,
      "osis": 3984,
      "lls": 3985,
      "Ġkinds": 3986,
      "acks": 3987,
      "Ġcere": 3988,
      "Ġdirected": 3989,
      "Ġchlor": 3990,
      "Ġengaged": 3991,
      "ĠVI": 3992,
      "ĠAmerican": 3993,
      "ĠFOR": 3994,
      "Ġdescrib": 3995,
      "Ġ63": 3996,
      "ĠLib": 3997,
      "Ġsevere": 3998,
      "ĠTwo": 3999,
      "Ġhence": 4000,
      "Ġfalse": 4001,
      "otion": 4002,
      "ĠSon": 4003,
      "ÎŃ": 4004,
      "ĠHospital": 4005,
      "ĠOxford": 4006,
      "aces": 4007,
      "ĠStates": 4008,
      "Ġdece": 4009,
      "ĠSim": 4010,
      "head": 4011,
      "illing": 4012,
      "Ġcounty": 4013,
      "90": 4014,
      "Ġded": 4015,
      "osa": 4016,
      "Ġsat": 4017,
      "Ġcelebrated": 4018,
      "Ġarc": 4019,
      "Ġduties": 4020,
      "ĠGerman": 4021,
      "ĠCommittee": 4022,
      "Ġheavy": 4023,
      "Ġtong": 4024,
      "bridge": 4025,
      "Ġpurposes": 4026,
      "aria": 4027,
      "Ġdelic": 4028,
      "48": 4029,
      "ĠCla": 4030,
      "cn": 4031,
      "Ġparish": 4032,
      "asing": 4033,
      "Ġtal": 4034,
      "ainted": 4035,
      "aft": 4036,
      "Ġopportunity": 4037,
      "Ġpath": 4038,
      "Ġped": 4039,
      "Ġglory": 4040,
      "Ġble": 4041,
      "Ġadvanced": 4042,
      "ĠNove": 4043,
      "Ġreb": 4044,
      "Ġdoing": 4045,
      "Ġremarks": 4046,
      "ĠAng": 4047,
      "Ġcum": 4048,
      "Ġgro": 4049,
      "ĠOctober": 4050,
      "Ġcomfort": 4051,
      "Ġderived": 4052,
      "Ġvain": 4053,
      "empy": 4054,
      "ION": 4055,
      "astic": 4056,
      "Ġweather": 4057,
      "ĠRuss": 4058,
      "Ġexpressed": 4059,
      "Ġflesh": 4060,
      "Ġtor": 4061,
      "Ġdesir": 4062,
      "Ġedition": 4063,
      "ĠHim": 4064,
      "Ġsed": 4065,
      "Ġven": 4066,
      "Ġ%": 4067,
      "cies": 4068,
      "Ġslightly": 4069,
      "PP": 4070,
      "ishment": 4071,
      "lla": 4072,
      "fect": 4073,
      "Ġparent": 4074,
      "eding": 4075,
      "Ġhost": 4076,
      "uv": 4077,
      "Ġwid": 4078,
      "Ġpreceding": 4079,
      "Ġcurious": 4080,
      "Ġintellig": 4081,
      "Ġcurrent": 4082,
      "ump": 4083,
      "Ġstomach": 4084,
      "Ġmarried": 4085,
      "Ġconsists": 4086,
      "Ġviz": 4087,
      "ARY": 4088,
      "tr": 4089,
      "Ġmach": 4090,
      "iry": 4091,
      "Ġhither": 4092,
      "ĠProv": 4093,
      "Ġ68": 4094,
      "Ġcollection": 4095,
      "emb": 4096,
      "ĠBritain": 4097,
      "Ġopening": 4098,
      "Ġsick": 4099,
      "Ġsn": 4100,
      "Ġforty": 4101,
      "Ġfemale": 4102,
      "chan": 4103,
      "Ġbottom": 4104,
      "ĠCons": 4105,
      "ĠLou": 4106,
      "itz": 4107,
      "KS": 4108,
      "Ġoffered": 4109,
      "een": 4110,
      "Ġdivine": 4111,
      "ception": 4112,
      "Ġapply": 4113,
      "cd": 4114,
      "ĠHam": 4115,
      "ĠEdin": 4116,
      "Ġaccompanied": 4117,
      "ĠSpain": 4118,
      "ĠBlack": 4119,
      "Ġoccupied": 4120,
      "Ġentit": 4121,
      "atum": 4122,
      "aph": 4123,
      "icul": 4124,
      "Ġlands": 4125,
      "ĠFirst": 4126,
      "stood": 4127,
      "Ġeast": 4128,
      "Ġprince": 4129,
      "Ġassemb": 4130,
      "Ġpopulation": 4131,
      "ples": 4132,
      "66": 4133,
      "Ġlived": 4134,
      "Ġprecip": 4135,
      "Ġthrow": 4136,
      "Ġissue": 4137,
      "Ġrank": 4138,
      "Ġeat": 4139,
      "ĠLo": 4140,
      "Ġcla": 4141,
      "Ġprefer": 4142,
      "Ġstrict": 4143,
      ".^": 4144,
      "Ġcrit": 4145,
      "Ġarticle": 4146,
      "Ġcontro": 4147,
      "Ġbranch": 4148,
      "Ġliberty": 4149,
      "Ġnet": 4150,
      "Ġlikewise": 4151,
      "Ġteeth": 4152,
      "owing": 4153,
      "ĠUnited": 4154,
      "ĠHIST": 4155,
      "Ġtext": 4156,
      "ricult": 4157,
      "Ġvillage": 4158,
      "amber": 4159,
      "Ġtender": 4160,
      "overy": 4161,
      "orther": 4162,
      "Ġmine": 4163,
      "ĠIll": 4164,
      "ĠYe": 4165,
      "col": 4166,
      "Ġperformed": 4167,
      "Ġbirds": 4168,
      "Ġsuffer": 4169,
      "Ġregarded": 4170,
      "estern": 4171,
      "Ġdoctrine": 4172,
      "Ġchanges": 4173,
      "ĠDan": 4174,
      "Ġdress": 4175,
      "Ġje": 4176,
      "Ġconven": 4177,
      "ĠSom": 4178,
      "Ġstart": 4179,
      "istry": 4180,
      "Th": 4181,
      "Ġaccur": 4182,
      "Ġneck": 4183,
      "ĠJud": 4184,
      "Ġproject": 4185,
      "Ġoccasionally": 4186,
      "Î³": 4187,
      "ertained": 4188,
      "Ġnav": 4189,
      "ĠSecret": 4190,
      "Ġcountries": 4191,
      "Ġsaying": 4192,
      "ti": 4193,
      "Ġjudge": 4194,
      "Ġdiseases": 4195,
      "ode": 4196,
      "Ġexpression": 4197,
      "Ġseparate": 4198,
      "ĠWho": 4199,
      "nex": 4200,
      "Ġgir": 4201,
      "Ġtalk": 4202,
      "IX": 4203,
      "Ġhistor": 4204,
      "istic": 4205,
      "ĠJanuary": 4206,
      "oon": 4207,
      "Ġthrown": 4208,
      "Ġiu": 4209,
      "Ġpage": 4210,
      "wed": 4211,
      "standing": 4212,
      "Ġglad": 4213,
      "Ġevent": 4214,
      "Ch": 4215,
      "Ġpersonal": 4216,
      "oid": 4217,
      "ĠScript": 4218,
      "igation": 4219,
      "Ġbill": 4220,
      "Ġarter": 4221,
      "right": 4222,
      "Ġextensive": 4223,
      "uns": 4224,
      "bar": 4225,
      "Ġpowerful": 4226,
      "quis": 4227,
      "Ġsafe": 4228,
      "ccles": 4229,
      "44": 4230,
      "ĠPark": 4231,
      "icle": 4232,
      "Ġviews": 4233,
      "Ġevid": 4234,
      "Ġamb": 4235,
      "ĠSeptember": 4236,
      "Ġforming": 4237,
      "ada": 4238,
      "Ġexposed": 4239,
      "35": 4240,
      "Ġfee": 4241,
      "aker": 4242,
      "street": 4243,
      "rary": 4244,
      "ĠVal": 4245,
      "Ġcompletely": 4246,
      "Ġfame": 4247,
      "Ġcommer": 4248,
      "ĠVOL": 4249,
      "het": 4250,
      "ÏĮ": 4251,
      "Ġuns": 4252,
      "Ġprinted": 4253,
      "icer": 4254,
      "Ġ$": 4255,
      "ĠBu": 4256,
      "emed": 4257,
      "ĠDavid": 4258,
      "ension": 4259,
      "77": 4260,
      "ĠRed": 4261,
      "acc": 4262,
      "Ġconstant": 4263,
      "Ġcord": 4264,
      "',": 4265,
      "Ġvig": 4266,
      "Ġcand": 4267,
      "Ġdre": 4268,
      "Ġwriter": 4269,
      "Ġcollect": 4270,
      "Ġsple": 4271,
      "add": 4272,
      "Ġmilitary": 4273,
      "Ġsolid": 4274,
      "umber": 4275,
      "Ġcolon": 4276,
      "IM": 4277,
      "Ġprobable": 4278,
      "Ġfourth": 4279,
      "ĠTre": 4280,
      "ĠDece": 4281,
      "atio": 4282,
      "Ġcapable": 4283,
      "Ġdecided": 4284,
      "Ġsufficiently": 4285,
      "Ġpreviously": 4286,
      "Ġinferior": 4287,
      "Ġserve": 4288,
      "line": 4289,
      "Ġabdom": 4290,
      "orious": 4291,
      "ivered": 4292,
      "ading": 4293,
      "acity": 4294,
      "38": 4295,
      "ĠÎº": 4296,
      "Ġmountains": 4297,
      "Ġweeks": 4298,
      "abeth": 4299,
      "Ġrelation": 4300,
      "ĠIS": 4301,
      "aments": 4302,
      "Ġmixed": 4303,
      "Ġ75": 4304,
      "Ġourselves": 4305,
      "Ġclasses": 4306,
      "Ġsmaller": 4307,
      "UB": 4308,
      "Ġinflammation": 4309,
      "verted": 4310,
      "Ġrare": 4311,
      "gments": 4312,
      "Ġstrange": 4313,
      "Ġstage": 4314,
      "ĠLatin": 4315,
      "fortun": 4316,
      "estions": 4317,
      "Ġpolitical": 4318,
      "Ġeducation": 4319,
      "Ġpopular": 4320,
      "Ġdam": 4321,
      "Ġfounded": 4322,
      "Ġactive": 4323,
      "Ġships": 4324,
      "ĠSav": 4325,
      "ols": 4326,
      "Ġhur": 4327,
      "ĠRes": 4328,
      "Ġpractical": 4329,
      "Ġextremely": 4330,
      "Ġmountain": 4331,
      "Ġnations": 4332,
      "atures": 4333,
      "alm": 4334,
      "ĠGreen": 4335,
      "Ġcontain": 4336,
      "Ġdwell": 4337,
      "ager": 4338,
      "Ġfh": 4339,
      "Ġrecent": 4340,
      "ordinary": 4341,
      "Ġirrit": 4342,
      "ĠSk": 4343,
      "Ġmajor": 4344,
      "ĠId": 4345,
      "orthern": 4346,
      "Ġminutes": 4347,
      "inous": 4348,
      "49": 4349,
      "Ġeld": 4350,
      "Ġquiet": 4351,
      "Ġreadily": 4352,
      "Ġcustom": 4353,
      "ĠIrish": 4354,
      "Ġdistant": 4355,
      "bes": 4356,
      "Ġdeli": 4357,
      "41": 4358,
      "ĠFrancis": 4359,
      "Ġenlar": 4360,
      "ĠWhy": 4361,
      "39": 4362,
      "ĠWil": 4363,
      "Ġaddress": 4364,
      "ĠJose": 4365,
      "ĠProt": 4366,
      "ldom": 4367,
      "Ġbone": 4368,
      "ĠVir": 4369,
      "Ġdeclared": 4370,
      "Ġ*'": 4371,
      "Ġapart": 4372,
      "Ġá½": 4373,
      "Ġ69": 4374,
      "ĠFe": 4375,
      "78": 4376,
      "Ġsquare": 4377,
      "Ġordered": 4378,
      "Ġexercise": 4379,
      "Ġcamp": 4380,
      "Ġsteam": 4381,
      "ĠItaly": 4382,
      "uits": 4383,
      "ĠOR": 4384,
      "Ġcrow": 4385,
      "Ġoffer": 4386,
      "Ġconqu": 4387,
      "Ġutter": 4388,
      "Ġtry": 4389,
      "ares": 4390,
      "ĠGood": 4391,
      "Ġ}": 4392,
      "Ġdrink": 4393,
      "wered": 4394,
      "Ġquality": 4395,
      "Ġbirth": 4396,
      "under": 4397,
      "uft": 4398,
      "ĠSpirit": 4399,
      "Ġinterp": 4400,
      "68": 4401,
      "Ġdefend": 4402,
      "Ġconcerning": 4403,
      "Ġegg": 4404,
      "Ġwis": 4405,
      "Ġnine": 4406,
      "Ġbrain": 4407,
      "asm": 4408,
      "ophy": 4409,
      "Ġsituated": 4410,
      "ama": 4411,
      "Ġcontinue": 4412,
      "Ġ90": 4413,
      "Ġarticles": 4414,
      "Ġfifty": 4415,
      "rance": 4416,
      "ek": 4417,
      "Ġrese": 4418,
      "Ġpretty": 4419,
      "ounced": 4420,
      "rel": 4421,
      "ville": 4422,
      "Ġmeaning": 4423,
      "Ġze": 4424,
      "Ġpow": 4425,
      "rupt": 4426,
      "appe": 4427,
      "hel": 4428,
      "Ġpointed": 4429,
      "Ġacross": 4430,
      "Ġpron": 4431,
      ",*": 4432,
      "elf": 4433,
      "ĠPrin": 4434,
      "Ġalt": 4435,
      "Ġcra": 4436,
      "Ġimmediate": 4437,
      "Ġrespecting": 4438,
      "Ġspeaking": 4439,
      "Ġvast": 4440,
      "hem": 4441,
      "Ġinse": 4442,
      "pelled": 4443,
      "Ġcharacters": 4444,
      "Ġtail": 4445,
      "ĠVen": 4446,
      "je": 4447,
      "ysis": 4448,
      "ician": 4449,
      "^.": 4450,
      "Ġwatch": 4451,
      "ĠSecond": 4452,
      "Ġboy": 4453,
      "Ġpartly": 4454,
      "Ġparties": 4455,
      "GE": 4456,
      "Ġstation": 4457,
      "Ġexperiment": 4458,
      "Ġobservation": 4459,
      "xx": 4460,
      "Ġscene": 4461,
      "Ġlooking": 4462,
      "Ġtravell": 4463,
      "asp": 4464,
      "ĠDep": 4465,
      "Ġsingular": 4466,
      "ĠCur": 4467,
      "Ġtiss": 4468,
      "enant": 4469,
      "rian": 4470,
      "iti": 4471,
      "umph": 4472,
      "21": 4473,
      "Ġshr": 4474,
      "Â£": 4475,
      "ĠPhys": 4476,
      "Ġchance": 4477,
      "Ġtube": 4478,
      "Ġcircumstance": 4479,
      "Ġentitled": 4480,
      "ĠJust": 4481,
      "Ġstory": 4482,
      "Ġphen": 4483,
      "chester": 4484,
      "Ġundert": 4485,
      "Ġinstrument": 4486,
      "Ġsto": 4487,
      "ĠNovember": 4488,
      "lle": 4489,
      "Ġunderstood": 4490,
      "55": 4491,
      "Ġtotal": 4492,
      "ulate": 4493,
      "79": 4494,
      "Ġobserve": 4495,
      "Ġevident": 4496,
      "ĠWater": 4497,
      "Ġwriting": 4498,
      "Î¬": 4499,
      "INE": 4500,
      "Ġxv": 4501,
      "Ġplate": 4502,
      "ĠDecember": 4503,
      "Ġinternal": 4504,
      "ĠPop": 4505,
      "46": 4506,
      "ĠPol": 4507,
      "Ġroot": 4508,
      "Ġstanding": 4509,
      "ĠJoseph": 4510,
      "ĠMet": 4511,
      "76": 4512,
      "Ġacute": 4513,
      "ĠLife": 4514,
      "Ġexamined": 4515,
      "Ġshows": 4516,
      "Ġcontract": 4517,
      "Ġdia": 4518,
      "Ġorgans": 4519,
      "Ġdelivered": 4520,
      "Ġta": 4521,
      "Ġreader": 4522,
      "Ġfing": 4523,
      "Ġspr": 4524,
      "Ġens": 4525,
      "ĠSoc": 4526,
      "Ġbenefit": 4527,
      "Ġdivision": 4528,
      "Ġrect": 4529,
      "ĠCorn": 4530,
      "aches": 4531,
      "Ġmale": 4532,
      "ĠUniversity": 4533,
      "rical": 4534,
      "Ġwrong": 4535,
      "nn": 4536,
      "itch": 4537,
      "ĠCHAPTER": 4538,
      "agement": 4539,
      "ĠWhe": 4540,
      "ras": 4541,
      "Ġsubs": 4542,
      "Ġadmit": 4543,
      "Ġstrang": 4544,
      "mond": 4545,
      "raction": 4546,
      "gu": 4547,
      "Ġheads": 4548,
      "Ġdiscover": 4549,
      "Ġsuffered": 4550,
      "pton": 4551,
      "Ġmeasures": 4552,
      "TR": 4553,
      "Ġfigures": 4554,
      "ĠChap": 4555,
      "pi": 4556,
      "ĠSer": 4557,
      "Ġwriters": 4558,
      "Ġwise": 4559,
      "Ġseat": 4560,
      "Ġnatur": 4561,
      "ĠFred": 4562,
      "URE": 4563,
      "ĠMer": 4564,
      "Ġextraordinary": 4565,
      "Ġreve": 4566,
      "Ġpossessed": 4567,
      "Ġdign": 4568,
      "Ġcontemp": 4569,
      "Ġnoticed": 4570,
      "ĠEv": 4571,
      "olk": 4572,
      "uing": 4573,
      "Ġvii": 4574,
      "TON": 4575,
      "rences": 4576,
      "mission": 4577,
      ".).": 4578,
      "Ġfeelings": 4579,
      "ĠAlexander": 4580,
      "coh": 4581,
      "Ġcarefully": 4582,
      "rer": 4583,
      "Ġaverage": 4584,
      "Ġfish": 4585,
      "Ġ''": 4586,
      "regular": 4587,
      "Ġremember": 4588,
      "Ġcro": 4589,
      "END": 4590,
      "IES": 4591,
      "vey": 4592,
      "Ġtempor": 4593,
      "Ġrain": 4594,
      "wick": 4595,
      "Ġsmo": 4596,
      "ĠAmong": 4597,
      "Ġconsequently": 4598,
      "Ġpor": 4599,
      "bl": 4600,
      "ĠMany": 4601,
      "ulations": 4602,
      "Ġarchitect": 4603,
      "ming": 4604,
      "Ġlies": 4605,
      "Ġsection": 4606,
      "leg": 4607,
      "ĠElizabeth": 4608,
      "Ġmarriage": 4609,
      "Ġrocks": 4610,
      "Ġclean": 4611,
      "atives": 4612,
      "Ġabsence": 4613,
      "ique": 4614,
      "unk": 4615,
      "imony": 4616,
      "Ġgranted": 4617,
      "ĠSchool": 4618,
      "urches": 4619,
      "Ġrid": 4620,
      "ĠDut": 4621,
      "ĠLy": 4622,
      "ĠVict": 4623,
      "Ġcloud": 4624,
      "Ġformation": 4625,
      "Ġtongue": 4626,
      "vy": 4627,
      "Ġmembrane": 4628,
      "Ġbelonging": 4629,
      "Ġshape": 4630,
      "36": 4631,
      "Ġau": 4632,
      "ruary": 4633,
      "Ġanswered": 4634,
      "Ġvan": 4635,
      "ĠCOM": 4636,
      "Ġcopy": 4637,
      "enz": 4638,
      "Ġofficer": 4639,
      "Ġball": 4640,
      "Ġextended": 4641,
      "Ġtried": 4642,
      "Ġgentlemen": 4643,
      "Ġevents": 4644,
      "Î´": 4645,
      "Ġspecimen": 4646,
      "Ġpour": 4647,
      "ette": 4648,
      "ĠJournal": 4649,
      "Ġá¼Ĳ": 4650,
      "ĠMore": 4651,
      "Ġopinions": 4652,
      "itive": 4653,
      "Ġseed": 4654,
      "Ġindust": 4655,
      "rations": 4656,
      "Ġmilk": 4657,
      "oned": 4658,
      "ĠPL": 4659,
      "eration": 4660,
      "Ġcommonly": 4661,
      "Ġadvance": 4662,
      "Ġapparently": 4663,
      "ĠSP": 4664,
      "arer": 4665,
      "Ġthorough": 4666,
      "see": 4667,
      "Ġult": 4668,
      "Ġpatients": 4669,
      "inated": 4670,
      "ĠDuring": 4671,
      "Ġreven": 4672,
      "ims": 4673,
      "Ġbelieved": 4674,
      "ĠLong": 4675,
      "Ġstrongly": 4676,
      "Ġmuc": 4677,
      "OUS": 4678,
      "Ġproperly": 4679,
      "Ġworking": 4680,
      "rates": 4681,
      "ston": 4682,
      "Ġdread": 4683,
      "Ġescape": 4684,
      "ba": 4685,
      "ny": 4686,
      "zen": 4687,
      "Ġpicture": 4688,
      "Ġconclusion": 4689,
      "ĠCommission": 4690,
      "Ġlately": 4691,
      "ita": 4692,
      "mi": 4693,
      "ORD": 4694,
      "Ġserious": 4695,
      "Ġtowns": 4696,
      "Ġrelative": 4697,
      "off": 4698,
      "Ġexception": 4699,
      "gl": 4700,
      "ĠEX": 4701,
      "Ġexhibited": 4702,
      "Ġwo": 4703,
      "Ġvic": 4704,
      "alled": 4705,
      "Ġtl": 4706,
      "urd": 4707,
      "Ġvirtue": 4708,
      "ners": 4709,
      "Ġdestroyed": 4710,
      "Ġtin": 4711,
      "ructed": 4712,
      "Ġunited": 4713,
      "Ġreading": 4714,
      "Ġatm": 4715,
      "ospel": 4716,
      "alous": 4717,
      "Ġanterior": 4718,
      "Ġoun": 4719,
      "Ġthoughts": 4720,
      "ixture": 4721,
      "withstanding": 4722,
      "Ġhospital": 4723,
      "Ġseldom": 4724,
      "Ġsave": 4725,
      "Ġcommence": 4726,
      "ĠStra": 4727,
      "ivity": 4728,
      "Ġfatal": 4729,
      "Ġparliament": 4730,
      "Ġreach": 4731,
      "ded": 4732,
      "urity": 4733,
      "iU": 4734,
      "thur": 4735,
      "Ġirregular": 4736,
      "Ġseeing": 4737,
      "Ġrepro": 4738,
      "Ġerr": 4739,
      "Ġarr": 4740,
      "ĠBrown": 4741,
      "ĠCy": 4742,
      "usted": 4743,
      "Ġpounds": 4744,
      "cut": 4745,
      "ĠHISTORY": 4746,
      "hib": 4747,
      "Ġwhence": 4748,
      "Ġexert": 4749,
      "Ġbones": 4750,
      "Ġmir": 4751,
      "ĠHor": 4752,
      "Ġsuddenly": 4753,
      "oa": 4754,
      "Ġassistance": 4755,
      "Ġhitherto": 4756,
      "Ġbold": 4757,
      "room": 4758,
      "icular": 4759,
      "Ġtheory": 4760,
      "Ġgenus": 4761,
      "Ġaffairs": 4762,
      "Ġconfined": 4763,
      "Ġhat": 4764,
      "Ġlives": 4765,
      "Ġhill": 4766,
      "aints": 4767,
      "Ġshowed": 4768,
      "icy": 4769,
      "Ġcy": 4770,
      "47": 4771,
      "ĠâĢĿ": 4772,
      "Ġbearing": 4773,
      "OU": 4774,
      "Ġ200": 4775,
      "Ġassert": 4776,
      "Ġproceeded": 4777,
      "iel": 4778,
      "ena": 4779,
      "Ġrub": 4780,
      "Ġoccurs": 4781,
      "Ġnotes": 4782,
      "ardens": 4783,
      "Ġ51": 4784,
      "Ġwaters": 4785,
      "Ġmember": 4786,
      "Ġwealth": 4787,
      "Ġroots": 4788,
      "ties": 4789,
      "inus": 4790,
      "uries": 4791,
      "ĠFebruary": 4792,
      "ĠEvery": 4793,
      "inner": 4794,
      "Ġshare": 4795,
      "Ġlevel": 4796,
      "uer": 4797,
      "Ġlung": 4798,
      "Ġarrangement": 4799,
      "Ġstream": 4800,
      "ĠNap": 4801,
      "ola": 4802,
      "Ġaccident": 4803,
      "Ġlime": 4804,
      "Ġpreserved": 4805,
      "icks": 4806,
      "ĠDub": 4807,
      "Ġcollected": 4808,
      "Ġwrite": 4809,
      "Ġneighbourhood": 4810,
      "zz": 4811,
      "ĠHy": 4812,
      "ĠâĢĻ": 4813,
      "ĠBot": 4814,
      "Ġclot": 4815,
      "mir": 4816,
      "Ġseparated": 4817,
      "Ġsons": 4818,
      "Ġdisplay": 4819,
      "cho": 4820,
      "ĠWhile": 4821,
      "ĠEdinburgh": 4822,
      "ositions": 4823,
      "Ġmad": 4824,
      "Î¿ÏĤ": 4825,
      "Ġprofess": 4826,
      "Ġdepth": 4827,
      "Ġowing": 4828,
      "Ġspiritual": 4829,
      "fc": 4830,
      "Ġxxx": 4831,
      "Ġsmooth": 4832,
      "icked": 4833,
      "ugh": 4834,
      "Ġabsor": 4835,
      "Ġviolent": 4836,
      "Ġdesired": 4837,
      "Ġwound": 4838,
      "Ġtrad": 4839,
      "Ġshore": 4840,
      "Ġcouncil": 4841,
      "ĠPope": 4842,
      "Ġkilled": 4843,
      "Ġgrave": 4844,
      "Ġmerch": 4845,
      "itated": 4846,
      "otes": 4847,
      "Ġsupplied": 4848,
      "Ġrelief": 4849,
      "ĠLouis": 4850,
      "Ġvel": 4851,
      "shire": 4852,
      "Ġphenomen": 4853,
      "isl": 4854,
      "ĠSecretary": 4855,
      "Ġsit": 4856,
      "Ġclearly": 4857,
      "ĠAL": 4858,
      "Ġpoison": 4859,
      "Ġsplend": 4860,
      "AIN": 4861,
      "Ġupwards": 4862,
      "sell": 4863,
      "Ġtrouble": 4864,
      "ĠIns": 4865,
      "aven": 4866,
      "oken": 4867,
      "VE": 4868,
      "useum": 4869,
      "Ġasce": 4870,
      "88": 4871,
      "Ġhyp": 4872,
      "Ġcommission": 4873,
      "ĠCatholic": 4874,
      "Ġleading": 4875,
      "Ġacts": 4876,
      "Ġdrawing": 4877,
      "Ġevidently": 4878,
      "iast": 4879,
      "Ġsister": 4880,
      "Ġminister": 4881,
      "uel": 4882,
      "TE": 4883,
      "isk": 4884,
      "rant": 4885,
      "Ġul": 4886,
      "Ġgoods": 4887,
      "Ġuniform": 4888,
      "Ġsen": 4889,
      "using": 4890,
      "Ġnaturally": 4891,
      "LES": 4892,
      "pro": 4893,
      "Ġlect": 4894,
      "ĠIND": 4895,
      "Ġcells": 4896,
      "Ġtrial": 4897,
      "ĠKe": 4898,
      "Î¿Î½": 4899,
      "Ġatmosp": 4900,
      "Ġbreast": 4901,
      "ĠPs": 4902,
      "ĠCastle": 4903,
      "Ġmemory": 4904,
      "ĠXV": 4905,
      "otton": 4906,
      "ĠLand": 4907,
      "apel": 4908,
      "pended": 4909,
      "cher": 4910,
      "Ġleaf": 4911,
      "Ġlin": 4912,
      "ĠAnother": 4913,
      "Ġpropri": 4914,
      "Ġsacred": 4915,
      "ĠMus": 4916,
      "Ġjourney": 4917,
      "iture": 4918,
      "ĠDev": 4919,
      "'ll": 4920,
      "iour": 4921,
      "Ġenemies": 4922,
      "adem": 4923,
      "Ġtur": 4924,
      "ĠInf": 4925,
      "ĠHence": 4926,
      "Ġexactly": 4927,
      "ĠScott": 4928,
      "Ġwings": 4929,
      "augh": 4930,
      "Ġcomparative": 4931,
      "illa": 4932,
      "Ġsugar": 4933,
      "aked": 4934,
      "Ġannual": 4935,
      "onia": 4936,
      "Ġoperations": 4937,
      "ifying": 4938,
      "Ġcou": 4939,
      "acle": 4940,
      "Ġalcoh": 4941,
      "pes": 4942,
      "Ġclergy": 4943,
      "inction": 4944,
      "Ġhi": 4945,
      "ĠBell": 4946,
      "NE": 4947,
      "inations": 4948,
      "Ġconfidence": 4949,
      "Ġvols": 4950,
      "Ġcool": 4951,
      "iring": 4952,
      "Ġincluding": 4953,
      "ef": 4954,
      "Ġrent": 4955,
      "Ġgroup": 4956,
      "rose": 4957,
      "Ġestim": 4958,
      "Ġtax": 4959,
      "ĠAssoci": 4960,
      "69": 4961,
      "Ġobv": 4962,
      "Ġliquid": 4963,
      "orous": 4964,
      "Ġdangerous": 4965,
      "erable": 4966,
      "ĠYes": 4967,
      "Ġsword": 4968,
      "37": 4969,
      "á¼": 4970,
      "ogue": 4971,
      "estic": 4972,
      "Ġfly": 4973,
      "Ġammon": 4974,
      "ĠFore": 4975,
      "ĠBen": 4976,
      "Ġstruck": 4977,
      "Ġtwice": 4978,
      "Ġsod": 4979,
      "ĠBay": 4980,
      "ĠOP": 4981,
      "Ġomn": 4982,
      "ĠFer": 4983,
      "actory": 4984,
      "wich": 4985,
      "Î¸": 4986,
      "ĠSan": 4987,
      "udd": 4988,
      "vis": 4989,
      "Ġperman": 4990,
      "Ġfarm": 4991,
      "ĠEven": 4992,
      "Ġstriking": 4993,
      "Ġinterv": 4994,
      "ĠGent": 4995,
      "ĠTR": 4996,
      "Ġdevelopment": 4997,
      "light": 4998,
      "65": 4999,
      "Ġplates": 5000,
      "Ġminds": 5001,
      "ĠSC": 5002,
      "Ġqueen": 5003,
      "Ġstatement": 5004,
      "Ġix": 5005,
      "SH": 5006,
      "Ġnational": 5007,
      "ĠFreder": 5008,
      "ĠHoll": 5009,
      "Ġlegs": 5010,
      "ped": 5011,
      "Ġrapidly": 5012,
      "Ġ85": 5013,
      "Ġestate": 5014,
      "Ġinstruct": 5015,
      "Ġ78": 5016,
      "Ġstraight": 5017,
      "ĠBoard": 5018,
      "Ġaged": 5019,
      "Ġju": 5020,
      "Ġtruly": 5021,
      "Ġrecently": 5022,
      "Ġ175": 5023,
      "kins": 5024,
      "Ġinformed": 5025,
      "Ġfight": 5026,
      "ĠAT": 5027,
      "Ġ67": 5028,
      "Ġactual": 5029,
      "Ġfurnished": 5030,
      "Ġactually": 5031,
      "ĠRh": 5032,
      "ĠBill": 5033,
      "Ġ79": 5034,
      "Ġsulphur": 5035,
      "ĠCent": 5036,
      "Ġgrey": 5037,
      "lection": 5038,
      "Ġspeech": 5039,
      "lis": 5040,
      "acher": 5041,
      "Ġsource": 5042,
      "Ġlic": 5043,
      "ĠWales": 5044,
      "XX": 5045,
      "ĠMel": 5046,
      "Ġages": 5047,
      "Ġbul": 5048,
      "rog": 5049,
      "oked": 5050,
      "Î±Î¹": 5051,
      "Ġearnest": 5052,
      "Ġsoldiers": 5053,
      "ĠSil": 5054,
      "thern": 5055,
      "ĠHaving": 5056,
      "Ġident": 5057,
      "ipt": 5058,
      "Ġ88": 5059,
      "Ġprem": 5060,
      "Ġprivile": 5061,
      "Ġvarieties": 5062,
      "ĠHill": 5063,
      "Ġvir": 5064,
      "Ġnut": 5065,
      "pping": 5066,
      "Ġquod": 5067,
      "Ġcondem": 5068,
      "ĠUnder": 5069,
      "pert": 5070,
      "Ġcredit": 5071,
      "Ġsovere": 5072,
      "ĠAuth": 5073,
      "ea": 5074,
      "ĠArthur": 5075,
      "Ġstands": 5076,
      "Ġmargin": 5077,
      "piration": 5078,
      "Ġparalle": 5079,
      "Ġclosely": 5080,
      "bishop": 5081,
      "Ġerror": 5082,
      "Ġreply": 5083,
      "Ġacquainted": 5084,
      "Ġessential": 5085,
      "bb": 5086,
      "Ġmas": 5087,
      "Ġurine": 5088,
      "which": 5089,
      "ĠGal": 5090,
      "Ġspect": 5091,
      "Ġ,,": 5092,
      "Ġcompet": 5093,
      "ĠPresident": 5094,
      "Ġhabits": 5095,
      "Ġ170": 5096,
      "Ġhom": 5097,
      "Ġrail": 5098,
      "Ġcompared": 5099,
      "Ġmarket": 5100,
      "Ġwholly": 5101,
      "Ġcopper": 5102,
      "ĠGovern": 5103,
      "Ġ99": 5104,
      "four": 5105,
      "Ġdiameter": 5106,
      "Ġremaining": 5107,
      "Ġconfess": 5108,
      "Ġfreed": 5109,
      "Ġgran": 5110,
      "Ġinner": 5111,
      "icip": 5112,
      "uration": 5113,
      "Ġservant": 5114,
      "Ġrelations": 5115,
      "ĠSE": 5116,
      "Ġmuscles": 5117,
      "ĠTem": 5118,
      "umption": 5119,
      "then": 5120,
      "Ġsuccessful": 5121,
      "ALL": 5122,
      "ÏĨ": 5123,
      "cientific": 5124,
      "Ġwli": 5125,
      "LAND": 5126,
      "Ġdefence": 5127,
      "Ġmanifest": 5128,
      "iac": 5129,
      "ropri": 5130,
      "ization": 5131,
      "Ġpup": 5132,
      "Ġsecure": 5133,
      "Ġ00": 5134,
      "Ġcomposition": 5135,
      "Ġouter": 5136,
      "Ġdemon": 5137,
      "^'": 5138,
      "ATE": 5139,
      "ĠÎ´": 5140,
      "orted": 5141,
      "ATI": 5142,
      "Ġaltern": 5143,
      "Ġcure": 5144,
      "Ġdomin": 5145,
      "clock": 5146,
      "oria": 5147,
      "ĠPhilip": 5148,
      "Ġantiqu": 5149,
      "Ġserved": 5150,
      "Ġbis": 5151,
      "Ġcattle": 5152,
      "ĠThou": 5153,
      "hy": 5154,
      "ashion": 5155,
      "Ġmoved": 5156,
      "ĠColonel": 5157,
      "Ġwing": 5158,
      "ĠRO": 5159,
      "Ġbal": 5160,
      "lling": 5161,
      "ona": 5162,
      "Ġintention": 5163,
      "uble": 5164,
      "Ġdepos": 5165,
      "Ġpleased": 5166,
      "iah": 5167,
      "ĠPAR": 5168,
      "Ġsolemn": 5169,
      "Ġchanged": 5170,
      "Ġcontrib": 5171,
      "onn": 5172,
      "Ġworship": 5173,
      "po": 5174,
      "ads": 5175,
      "Ġtaught": 5176,
      "anging": 5177,
      "Ġeffic": 5178,
      "osph": 5179,
      "Ġ?\"": 5180,
      "ĠCap": 5181,
      "aratus": 5182,
      "ĠEst": 5183,
      "ĠBes": 5184,
      "ĠGermany": 5185,
      "Ġfavourable": 5186,
      "yx": 5187,
      "Ġexecution": 5188,
      "iation": 5189,
      "uge": 5190,
      "Ġforest": 5191,
      "UE": 5192,
      "Ġgoes": 5193,
      "Ġunknown": 5194,
      "Ġsimply": 5195,
      "aths": 5196,
      "Ġinterior": 5197,
      "kind": 5198,
      "ĠSpanish": 5199,
      "Ġsymp": 5200,
      "Ġfortune": 5201,
      "rem": 5202,
      "Ġenab": 5203,
      "Ġpan": 5204,
      "Ġends": 5205,
      "Ġdegrees": 5206,
      "Ġai": 5207,
      "Ġsharp": 5208,
      "Ġhealthy": 5209,
      "Ġspirits": 5210,
      "**": 5211,
      "Ġexplan": 5212,
      "omet": 5213,
      "Ġfault": 5214,
      "Ġdirectly": 5215,
      "Ġdischarge": 5216,
      "Ġia": 5217,
      "ĠJo": 5218,
      "Ġgrass": 5219,
      "dra": 5220,
      "Ġspoken": 5221,
      "Ġexpense": 5222,
      "Ġfix": 5223,
      "-.": 5224,
      "Ġpictures": 5225,
      "Ġjoined": 5226,
      "Ġnamely": 5227,
      "Ġoe": 5228,
      "^,": 5229,
      "Ġedge": 5230,
      "aks": 5231,
      "Ġstones": 5232,
      "Ġextract": 5233,
      "Ġlod": 5234,
      "Ġmedicine": 5235,
      "sey": 5236,
      "31": 5237,
      "Ġconstantly": 5238,
      "Ġmeant": 5239,
      "ĠAfrica": 5240,
      "ĠMark": 5241,
      ");": 5242,
      "Ġduke": 5243,
      "Ġhero": 5244,
      "ĠTest": 5245,
      "ĠYour": 5246,
      "Ġcommunication": 5247,
      "ĠDist": 5248,
      "ani": 5249,
      "ĠImp": 5250,
      "ĠPost": 5251,
      "Ġviii": 5252,
      "Ġposterior": 5253,
      "ĠEdition": 5254,
      "Ġ!\"": 5255,
      "Ġprayer": 5256,
      "IAN": 5257,
      "Ġthro": 5258,
      "Ġargument": 5259,
      "Ġcoal": 5260,
      "Ġmax": 5261,
      "ault": 5262,
      "ilities": 5263,
      "ISH": 5264,
      "ĠRem": 5265,
      "osen": 5266,
      "Ġrig": 5267,
      "Ġthence": 5268,
      "ĠJac": 5269,
      "Ġsupported": 5270,
      "ĠMajor": 5271,
      "otten": 5272,
      "Ġdiscip": 5273,
      "Ġstay": 5274,
      "inet": 5275,
      "Ġspoke": 5276,
      "uce": 5277,
      "ĠMount": 5278,
      "Ġfart": 5279,
      "ĠAre": 5280,
      "jud": 5281,
      "ĠWas": 5282,
      "ĠThose": 5283,
      "Ġchron": 5284,
      "Ġornament": 5285,
      "Ġpair": 5286,
      "Ġswell": 5287,
      "Ġhills": 5288,
      "ĠDem": 5289,
      "ĠWor": 5290,
      "ĠHel": 5291,
      "Ġendeavour": 5292,
      "ulous": 5293,
      "Ġ160": 5294,
      "Ġpersu": 5295,
      "Ġobsc": 5296,
      "Ġmercy": 5297,
      "Ġcommenced": 5298,
      "ĠPRO": 5299,
      "sex": 5300,
      "pent": 5301,
      "ĠThough": 5302,
      "ĠObs": 5303,
      "aneous": 5304,
      "ĠCe": 5305,
      "Ġmechan": 5306,
      "Ġstreet": 5307,
      "riptions": 5308,
      "inth": 5309,
      "ĠBro": 5310,
      "Ġcong": 5311,
      "ĠDra": 5312,
      "Ġunfortun": 5313,
      "Ġhearts": 5314,
      "com": 5315,
      "bi": 5316,
      "Ġcup": 5317,
      "ĠBY": 5318,
      "Ġ150": 5319,
      "ilis": 5320,
      "Ġgar": 5321,
      "Ġimprovement": 5322,
      "Ġconj": 5323,
      "Ġunion": 5324,
      "ige": 5325,
      "Ġauthors": 5326,
      "ĠHeb": 5327,
      "Ġfallen": 5328,
      "Ġcommitted": 5329,
      "Ġpapers": 5330,
      "ituted": 5331,
      "tion": 5332,
      "oking": 5333,
      "Ġcolours": 5334,
      "irmed": 5335,
      "ĠAccording": 5336,
      "ague": 5337,
      "Ġmixture": 5338,
      "iance": 5339,
      "ĠSa": 5340,
      "Ġprovince": 5341,
      "ĠAdd": 5342,
      "ctor": 5343,
      "Ġ89": 5344,
      "Ġspeed": 5345,
      "Ġ64": 5346,
      "do": 5347,
      "Ġerected": 5348,
      "Ġlying": 5349,
      "ĠBank": 5350,
      "Ġll": 5351,
      "ĠThy": 5352,
      "Ġresolved": 5353,
      "ĠFa": 5354,
      "Ġsheep": 5355,
      "enses": 5356,
      "iency": 5357,
      "ĠHol": 5358,
      "Ġacknowled": 5359,
      "lets": 5360,
      "St": 5361,
      "Ġthreat": 5362,
      "Ġerect": 5363,
      "ĠCL": 5364,
      "BER": 5365,
      "ĠTy": 5366,
      "Ġhut": 5367,
      "Ġeleg": 5368,
      "Ġmaterials": 5369,
      "ounding": 5370,
      "aux": 5371,
      "Ġbi": 5372,
      "isted": 5373,
      "ĠServ": 5374,
      "ĠStr": 5375,
      "Ġservices": 5376,
      "theless": 5377,
      "antic": 5378,
      "Ġpref": 5379,
      "Ġhind": 5380,
      "Ġprotection": 5381,
      "Ġquestions": 5382,
      "Ġperpet": 5383,
      "Ġexperien": 5384,
      "gon": 5385,
      "Ġhappened": 5386,
      "Ġdisappe": 5387,
      "Ġwished": 5388,
      "Ġseek": 5389,
      "work": 5390,
      "Ġliable": 5391,
      "Ġremedy": 5392,
      "Ġinterests": 5393,
      "cia": 5394,
      "ali": 5395,
      "Ġapost": 5396,
      "ses": 5397,
      "ĠDublin": 5398,
      "Ġlimited": 5399,
      "EST": 5400,
      "Ġcart": 5401,
      "Ġbrief": 5402,
      "Ġbuildings": 5403,
      "Ġparallel": 5404,
      "ait": 5405,
      "Ġthereof": 5406,
      "Ġdog": 5407,
      "Ġhappiness": 5408,
      "Ġagreed": 5409,
      "Ġposit": 5410,
      "Ġapproach": 5411,
      "Ġos": 5412,
      "RY": 5413,
      "Ġengine": 5414,
      "Ġabst": 5415,
      "aly": 5416,
      "IP": 5417,
      "Ġservants": 5418,
      "Ġaware": 5419,
      "Ġclosed": 5420,
      "AK": 5421,
      ",âĢĻ": 5422,
      "ĠAC": 5423,
      "Ġpromise": 5424,
      "Ġregion": 5425,
      "ĠSol": 5426,
      "ulars": 5427,
      "laimed": 5428,
      "Ġentrance": 5429,
      "Ġrequires": 5430,
      "alis": 5431,
      "Ġrising": 5432,
      "Ġtype": 5433,
      "Ġmoist": 5434,
      "Ġcentral": 5435,
      "Ġou": 5436,
      "iner": 5437,
      "Ġcompre": 5438,
      "orter": 5439,
      "Ġstorm": 5440,
      "Ġthrone": 5441,
      "Ġnatives": 5442,
      "ĠCape": 5443,
      "Ġaddressed": 5444,
      "cription": 5445,
      "Ġvary": 5446,
      "Ġportions": 5447,
      "IFE": 5448,
      "eed": 5449,
      "Ġflour": 5450,
      "olate": 5451,
      "Ġforces": 5452,
      "Ġarranged": 5453,
      "Ġangle": 5454,
      "Ġrough": 5455,
      "wers": 5456,
      "Ġadditional": 5457,
      "Ġscale": 5458,
      "Ġsettled": 5459,
      "?\"": 5460,
      "Ġintellect": 5461,
      "eous": 5462,
      "Ġproduction": 5463,
      "Ġtendency": 5464,
      "MENT": 5465,
      "Ġreform": 5466,
      "long": 5467,
      "Ġspecific": 5468,
      "Ġnerves": 5469,
      "Ġdisposed": 5470,
      "Ġvisited": 5471,
      "Ġrecoll": 5472,
      "ĠSund": 5473,
      "oting": 5474,
      "Ġbegin": 5475,
      "ĠTreat": 5476,
      "Ġ76": 5477,
      "Ġideas": 5478,
      "ĠChem": 5479,
      "Ġestablishment": 5480,
      "Ġinduced": 5481,
      "Ġmat": 5482,
      "Ġwisdom": 5483,
      "Ġpassion": 5484,
      "ĠNature": 5485,
      "Ġ77": 5486,
      "ECT": 5487,
      "Ġshowing": 5488,
      "Ġconnection": 5489,
      "Ġnervous": 5490,
      "32": 5491,
      "Ġrecommend": 5492,
      "Ġexisting": 5493,
      "Ġfome": 5494,
      "Ġring": 5495,
      ".âĢĻ": 5496,
      "ensions": 5497,
      "Ġsought": 5498,
      "Ġgrowing": 5499,
      "Ġsaf": 5500,
      "Ġaccordingly": 5501,
      "Ġforced": 5502,
      "ked": 5503,
      "Ġrecorded": 5504,
      "Ġmanufacture": 5505,
      "Ġsad": 5506,
      "Ġie": 5507,
      "Ġpraise": 5508,
      "pool": 5509,
      "rm": 5510,
      "pected": 5511,
      "Ġcarrying": 5512,
      "ĠNEW": 5513,
      "Ġsubstances": 5514,
      "Ġstim": 5515,
      "Ġrecommended": 5516,
      "mas": 5517,
      "Ġmusic": 5518,
      "met": 5519,
      "ĠAssociation": 5520,
      "Ġsong": 5521,
      "itur": 5522,
      "mat": 5523,
      "Ġsake": 5524,
      "ano": 5525,
      "iate": 5526,
      "ĠBa": 5527,
      "Ġchair": 5528,
      "-,": 5529,
      "rael": 5530,
      "ji": 5531,
      "lim": 5532,
      "Ġoccasions": 5533,
      "Ġange": 5534,
      "Ġreasons": 5535,
      "ĠItalian": 5536,
      "Ġhall": 5537,
      "Ġrarely": 5538,
      "EX": 5539,
      "ĠCamp": 5540,
      "Ġ120": 5541,
      "Ġways": 5542,
      "Ġbecoming": 5543,
      "Ġfaithful": 5544,
      "Ġreject": 5545,
      "Ġconversation": 5546,
      "Ġfamiliar": 5547,
      "Ġreaders": 5548,
      "inch": 5549,
      "Ġeffected": 5550,
      "PH": 5551,
      "Ġprovin": 5552,
      "Ġarrival": 5553,
      "Ġdecomp": 5554,
      "acon": 5555,
      "Ġbanks": 5556,
      "Ġquantities": 5557,
      "Ġterrit": 5558,
      "99": 5559,
      "yer": 5560,
      "Ġempire": 5561,
      "olly": 5562,
      "ĠDel": 5563,
      "after": 5564,
      "Ġchurches": 5565,
      "Ġroof": 5566,
      "ĠUpon": 5567,
      "Ġadvantages": 5568,
      "ida": 5569,
      "Ġblo": 5570,
      "Ġinfant": 5571,
      "ITH": 5572,
      "Ġpaint": 5573,
      "Ġfreely": 5574,
      "vol": 5575,
      "ĠENG": 5576,
      "Ġdevoted": 5577,
      "Ġarea": 5578,
      "ram": 5579,
      "Ġaband": 5580,
      "Ġconstruction": 5581,
      "ĠSen": 5582,
      "ĠMur": 5583,
      "Ġmoderate": 5584,
      "Ġbeat": 5585,
      "ĠPap": 5586,
      "miral": 5587,
      "Ġdistricts": 5588,
      "rim": 5589,
      "Ġschools": 5590,
      "Ġrunning": 5591,
      "ĠCambridge": 5592,
      "Ġlig": 5593,
      "34": 5594,
      "Ġbitter": 5595,
      "Ġdifficulties": 5596,
      "Ġextremity": 5597,
      "Ġsurrounded": 5598,
      "ĠSea": 5599,
      "Ġsnow": 5600,
      "Ġconsult": 5601,
      "eper": 5602,
      "vation": 5603,
      "rived": 5604,
      "ĠSax": 5605,
      "Ġsatisfied": 5606,
      "Ġmess": 5607,
      "bre": 5608,
      "Ġtons": 5609,
      "Ġkeeping": 5610,
      "Ġeste": 5611,
      "Ġsex": 5612,
      "othe": 5613,
      "Ġsev": 5614,
      "Ġcorresponding": 5615,
      "Ġfifteen": 5616,
      "Ġcried": 5617,
      "Ġban": 5618,
      "don": 5619,
      "Ġ168": 5620,
      "Ġnecessarily": 5621,
      "Ġimpression": 5622,
      "ĠPH": 5623,
      "Ïį": 5624,
      "Ġdistinction": 5625,
      ",.": 5626,
      "Ġgained": 5627,
      "ormal": 5628,
      "Ġinjury": 5629,
      "Ġcircle": 5630,
      "Ġtu": 5631,
      "icus": 5632,
      "ushed": 5633,
      "Ġagricult": 5634,
      "ĠÂ©": 5635,
      "ĠBed": 5636,
      "ĠEt": 5637,
      "ĠRel": 5638,
      "Ġtroub": 5639,
      "orial": 5640,
      "ĠAuthor": 5641,
      "Ġimproved": 5642,
      "Ġindividuals": 5643,
      "Ġfoundation": 5644,
      "enes": 5645,
      "ensis": 5646,
      "Ġvisible": 5647,
      "Ġsorrow": 5648,
      "Ġfarther": 5649,
      "Ġtone": 5650,
      "rig": 5651,
      "ĠHyd": 5652,
      "ĠDIS": 5653,
      "ael": 5654,
      "Ġprecise": 5655,
      "-^": 5656,
      "Ġsust": 5657,
      "Ġton": 5658,
      "burg": 5659,
      "58": 5660,
      "Ġá¼Ģ": 5661,
      "Ġresidence": 5662,
      "Ġhopes": 5663,
      "Ġcounten": 5664,
      "atre": 5665,
      "lance": 5666,
      "erk": 5667,
      "Ġexamples": 5668,
      "law": 5669,
      "ĠMah": 5670,
      "Ġavoid": 5671,
      "Ġintest": 5672,
      "ygen": 5673,
      "Ġexplained": 5674,
      "Ġdisposition": 5675,
      "Ġice": 5676,
      "ĠHad": 5677,
      "Ġknight": 5678,
      "Ġstar": 5679,
      "Ġsav": 5680,
      "Ġtriumph": 5681,
      "Ġ98": 5682,
      "Ġgenius": 5683,
      "Ġadvice": 5684,
      "iche": 5685,
      "Ġmajority": 5686,
      "teenth": 5687,
      "Ġapparatus": 5688,
      "ĠNav": 5689,
      "Ġnotwithstanding": 5690,
      "Ġknows": 5691,
      "ĠEll": 5692,
      "iffe": 5693,
      "hall": 5694,
      "ĠAtt": 5695,
      "Ġacquired": 5696,
      "Ġkings": 5697,
      "Ġrefused": 5698,
      "ĠLOND": 5699,
      ",âĢĶ": 5700,
      "Ġ86": 5701,
      "ography": 5702,
      "Ġdestruction": 5703,
      "ylind": 5704,
      "Ġalcohol": 5705,
      "ĠAD": 5706,
      "Ġcareful": 5707,
      "Ġcert": 5708,
      "Ġmission": 5709,
      "ĠVII": 5710,
      "inced": 5711,
      "Ġrange": 5712,
      "Ġ61": 5713,
      "ĠIl": 5714,
      "Ġgrown": 5715,
      "amen": 5716,
      "Ġrene": 5717,
      "Ġremove": 5718,
      "Ġhoriz": 5719,
      "Ġaur": 5720,
      "Ġpolicy": 5721,
      "Ġtemple": 5722,
      "usive": 5723,
      "orrh": 5724,
      "oval": 5725,
      "Ġmerit": 5726,
      "ĠCard": 5727,
      "Ġaccounts": 5728,
      "Ġeccles": 5729,
      "bra": 5730,
      "las": 5731,
      "Ġproceedings": 5732,
      "ĠRet": 5733,
      "SE": 5734,
      "ĠJews": 5735,
      "iny": 5736,
      "lem": 5737,
      "ĠLinn": 5738,
      "ĠArab": 5739,
      "Ġanxious": 5740,
      "ĠMuseum": 5741,
      "Ġfashion": 5742,
      "mony": 5743,
      "Ġ62": 5744,
      "omer": 5745,
      "Ġdeeply": 5746,
      "hi": 5747,
      "ĠTown": 5748,
      "uting": 5749,
      "Ġtears": 5750,
      "IE": 5751,
      "iana": 5752,
      "Ġefforts": 5753,
      "Ġcrim": 5754,
      "ĠMaster": 5755,
      "IB": 5756,
      "Ġunable": 5757,
      "ĠMc": 5758,
      "Ġindul": 5759,
      "ĠLIFE": 5760,
      "Ġecon": 5761,
      "Ġoi": 5762,
      "asts": 5763,
      "Ġpasses": 5764,
      "gate": 5765,
      "Ġfill": 5766,
      "Ġpresents": 5767,
      "Ġgirl": 5768,
      "ĠMill": 5769,
      "ĠEuropean": 5770,
      "ANT": 5771,
      "Ġhung": 5772,
      "car": 5773,
      "uris": 5774,
      "VER": 5775,
      "Ġhorn": 5776,
      "Ġarise": 5777,
      "Ġdeveloped": 5778,
      "ĠEmperor": 5779,
      "Ġsubsequent": 5780,
      "Ġdoth": 5781,
      "Ġdemonst": 5782,
      "Ġobed": 5783,
      "HN": 5784,
      "ĠBart": 5785,
      "rap": 5786,
      "ucted": 5787,
      "Ġlearning": 5788,
      "Ġaccord": 5789,
      "Ġrequest": 5790,
      "In": 5791,
      "Ġenabled": 5792,
      "ĠProtest": 5793,
      "Ġsuffering": 5794,
      "race": 5795,
      "Ġemployment": 5796,
      "ĠSupp": 5797,
      "Ġincon": 5798,
      "Ġmile": 5799,
      "ĠMS": 5800,
      "*,": 5801,
      "Ġforget": 5802,
      "Ġdefect": 5803,
      "Ġnorthern": 5804,
      "Ġalle": 5805,
      "oral": 5806,
      "Ġladies": 5807,
      "Ġimperfect": 5808,
      "Ġcastle": 5809,
      "icated": 5810,
      "Ġfamilies": 5811,
      "Ġflow": 5812,
      "ENCE": 5813,
      "Ġregret": 5814,
      "Ġsli": 5815,
      "Ġgrains": 5816,
      "ĠVIII": 5817,
      "Ġhem": 5818,
      "Ġsatisfaction": 5819,
      "ĠHa": 5820,
      "ĠEnt": 5821,
      "ĠFour": 5822,
      "Ġfortun": 5823,
      "abb": 5824,
      "ĠPot": 5825,
      "Ġfond": 5826,
      "ĠBull": 5827,
      "ĠOrd": 5828,
      "Ġimmense": 5829,
      "Ġconsiderably": 5830,
      "Ġconsisting": 5831,
      "ĠCro": 5832,
      "ums": 5833,
      "chief": 5834,
      "Ġcanal": 5835,
      "Ġexha": 5836,
      "Ġexcited": 5837,
      "loc": 5838,
      "oma": 5839,
      "ky": 5840,
      "Ġeee": 5841,
      "Ġ:âĢĶ": 5842,
      "ĠLONDON": 5843,
      "Ġgrav": 5844,
      "acles": 5845,
      "Ġsail": 5846,
      "Ġ95": 5847,
      "Ġran": 5848,
      "ĠOther": 5849,
      "Ġopposition": 5850,
      "Ġresp": 5851,
      "ĠKh": 5852,
      "Ġcontent": 5853,
      "Ġoriginally": 5854,
      "Ġcompound": 5855,
      "ĠKent": 5856,
      "Ġpossibly": 5857,
      "Ġrob": 5858,
      "Ġdinner": 5859,
      "Ġvoy": 5860,
      "Ġrights": 5861,
      "ĠSand": 5862,
      "Ġdetails": 5863,
      "nde": 5864,
      "Ġartific": 5865,
      "rn": 5866,
      "Ġdiscovery": 5867,
      "ĠAgain": 5868,
      "ĠCrown": 5869,
      "Ġpleasant": 5870,
      "Ġnerve": 5871,
      "ĠGall": 5872,
      "ĠDis": 5873,
      "Ġframe": 5874,
      "ĠMatt": 5875,
      "ĠÎ¼": 5876,
      "ima": 5877,
      "ĠDer": 5878,
      "Ġfate": 5879,
      "Ġcombined": 5880,
      "Ġscientific": 5881,
      "ĠLiver": 5882,
      "Ġboat": 5883,
      "Ġcontact": 5884,
      "Ġphysical": 5885,
      "Ġbeds": 5886,
      "Ġinquiry": 5887,
      "Ġtoler": 5888,
      "ĠSi": 5889,
      "ifications": 5890,
      "ĠAM": 5891,
      "Ġly": 5892,
      "Ġworse": 5893,
      "Ġsale": 5894,
      "Ġchest": 5895,
      "Ġfinding": 5896,
      "retched": 5897,
      "erson": 5898,
      "Ġbull": 5899,
      "Ġsie": 5900,
      "ficial": 5901,
      "gest": 5902,
      "ensive": 5903,
      "Ġtouch": 5904,
      "Ġdelay": 5905,
      "67": 5906,
      "Ġsovereign": 5907,
      "Ġseeds": 5908,
      "orax": 5909,
      "Ġconsent": 5910,
      "Ġsuggested": 5911,
      "Ġsteps": 5912,
      "Ġraise": 5913,
      "Ġelements": 5914,
      "ĠPen": 5915,
      "Ġconnex": 5916,
      "Ġmaintained": 5917,
      "Ġbox": 5918,
      "Ġeverything": 5919,
      "Ġexecuted": 5920,
      "ILL": 5921,
      "Ġcylind": 5922,
      "Ġalk": 5923,
      "ĠOffice": 5924,
      "iber": 5925,
      "Ġappropri": 5926,
      "Ġrules": 5927,
      "rible": 5928,
      "acious": 5929,
      "Ġtrace": 5930,
      "Ġuniversal": 5931,
      "Ġelectric": 5932,
      "Ġmetal": 5933,
      "Ġbelief": 5934,
      "ĠAbout": 5935,
      "ĠMat": 5936,
      "Ġgain": 5937,
      "ĠChristians": 5938,
      "Ġpride": 5939,
      "Ġgla": 5940,
      "Ġprospect": 5941,
      "Ġengra": 5942,
      "Ġom": 5943,
      "Ġgrounds": 5944,
      "Ġassured": 5945,
      "Ġmonarch": 5946,
      "Ġoutside": 5947,
      "Ġchemical": 5948,
      "Ġvul": 5949,
      "ici": 5950,
      "Ġpil": 5951,
      "rative": 5952,
      "unction": 5953,
      "Ġcoloured": 5954,
      "Ġef": 5955,
      "Ġacquaint": 5956,
      "ste": 5957,
      "ĠFrederick": 5958,
      "ĠZe": 5959,
      "Ġtissue": 5960,
      "Ġdism": 5961,
      "Ġblind": 5962,
      "Ġabdomen": 5963,
      "Ġpains": 5964,
      "Ġpowder": 5965,
      "Ġexists": 5966,
      "Ġassumed": 5967,
      "Ġpill": 5968,
      "Ġcreated": 5969,
      "ĠGold": 5970,
      "Ġstrugg": 5971,
      "Ġfund": 5972,
      "Ġoblong": 5973,
      "Ġskill": 5974,
      "Ġfavourite": 5975,
      "Ġhandsome": 5976,
      "Ġni": 5977,
      "ais": 5978,
      "Ġauthorities": 5979,
      "Ġproperties": 5980,
      "Ġparticulars": 5981,
      "Ġearlier": 5982,
      "Ġeminent": 5983,
      "Ġqualities": 5984,
      "ĠIsrael": 5985,
      "ITY": 5986,
      "ĠAPP": 5987,
      "Ġinclined": 5988,
      "pse": 5989,
      "Ġaspect": 5990,
      "Ġrejo": 5991,
      "Ġexisted": 5992,
      "Ġcavity": 5993,
      "aret": 5994,
      "Ġpriest": 5995,
      "asion": 5996,
      "98": 5997,
      "bell": 5998,
      "Ġvalley": 5999,
      "uh": 6000,
      "Ġmental": 6001,
      "Ġlit": 6002,
      "cean": 6003,
      "ĠIsland": 6004,
      "Ġhonest": 6005,
      "ĠBre": 6006,
      "Ġdelicate": 6007,
      "Ġprotect": 6008,
      "that": 6009,
      "Ġ177": 6010,
      "ĠHolland": 6011,
      "Ġsafety": 6012,
      "cribed": 6013,
      "Ġdivers": 6014,
      "ints": 6015,
      "Ġascertain": 6016,
      "Ġissued": 6017,
      "Ġmic": 6018,
      "Ġchapter": 6019,
      "adder": 6020,
      "Ġholding": 6021,
      "ĠBE": 6022,
      "Ġingen": 6023,
      "Ġmagnific": 6024,
      "five": 6025,
      "Ġwindow": 6026,
      "minster": 6027,
      "water": 6028,
      "Ġada": 6029,
      "Ġatmosphere": 6030,
      "Ġconcerned": 6031,
      "Ġ87": 6032,
      "LL": 6033,
      "Ġacted": 6034,
      "Ġtran": 6035,
      "Ġchosen": 6036,
      "kin": 6037,
      "pa": 6038,
      "ACE": 6039,
      "Ġproduct": 6040,
      "ĠBaron": 6041,
      "itutions": 6042,
      "ĠMen": 6043,
      "Ġcam": 6044,
      "hew": 6045,
      "Ġindependent": 6046,
      "Ġenable": 6047,
      "Ġcompleted": 6048,
      "rows": 6049,
      "ATIONS": 6050,
      "Ġpages": 6051,
      "Ġfinally": 6052,
      "win": 6053,
      "Ġmoon": 6054,
      "Ġprejud": 6055,
      "Ġeggs": 6056,
      "ira": 6057,
      "van": 6058,
      "arest": 6059,
      "ĠNorm": 6060,
      "Ġadministration": 6061,
      "ropol": 6062,
      "ĠSH": 6063,
      "othing": 6064,
      "Ġfet": 6065,
      "Ġwounded": 6066,
      "ĠProp": 6067,
      "ĠHind": 6068,
      "Ġislands": 6069,
      "Ġstem": 6070,
      "Ġmild": 6071,
      "ĠDen": 6072,
      "cast": 6073,
      "Ġloose": 6074,
      "Ġsuitable": 6075,
      "Ġpreserv": 6076,
      "uity": 6077,
      "Ġxi": 6078,
      "ĠDor": 6079,
      "mes": 6080,
      "Ġfamous": 6081,
      "mouth": 6082,
      "cked": 6083,
      "iety": 6084,
      "Ġcard": 6085,
      "Ġcharged": 6086,
      "Ġbark": 6087,
      "Ġdiscussion": 6088,
      "ulating": 6089,
      "imum": 6090,
      "ĠHead": 6091,
      "jus": 6092,
      "Ġdisapp": 6093,
      "erred": 6094,
      "Ġproceeding": 6095,
      "ĠLu": 6096,
      "Ġditto": 6097,
      "Ġ74": 6098,
      "ĠMAR": 6099,
      "Ġber": 6100,
      "ellow": 6101,
      "Ġanalog": 6102,
      "Ġlose": 6103,
      "Ġben": 6104,
      "Ġcompelled": 6105,
      "Ġace": 6106,
      "Ġsatisfactory": 6107,
      "Ġactions": 6108,
      "za": 6109,
      "Ġrays": 6110,
      "ĠLat": 6111,
      "ulus": 6112,
      "iit": 6113,
      "ĠBefore": 6114,
      "osure": 6115,
      "ĠHE": 6116,
      "ala": 6117,
      "urance": 6118,
      "Ġyards": 6119,
      "Ġbrill": 6120,
      "Ġzeal": 6121,
      "Ġfreedom": 6122,
      "Ġcrystall": 6123,
      "Ġemperor": 6124,
      "Ġfeatures": 6125,
      "Ġmankind": 6126,
      "GH": 6127,
      "Ġproducing": 6128,
      "Ġ300": 6129,
      "Ġjudic": 6130,
      "aling": 6131,
      "Ġcruel": 6132,
      "athers": 6133,
      "ĠLE": 6134,
      "Ġadapted": 6135,
      "bly": 6136,
      "Ġplease": 6137,
      "Ġcalculated": 6138,
      "Ġmarks": 6139,
      "Mr": 6140,
      "Ġavail": 6141,
      "ĠPortug": 6142,
      "Ġsuccession": 6143,
      "ĠMid": 6144,
      "Ġcourage": 6145,
      "ilty": 6146,
      "Ġfailed": 6147,
      "ĠCommon": 6148,
      "ĠFort": 6149,
      "Ġutmost": 6150,
      "Ġobjection": 6151,
      "ester": 6152,
      "Ġinvol": 6153,
      "change": 6154,
      "Ġreward": 6155,
      "ĠDutch": 6156,
      "Ġ72": 6157,
      "more": 6158,
      "ĠAh": 6159,
      "Ġexperienced": 6160,
      "Ġphenomena": 6161,
      "thren": 6162,
      "Ġdistress": 6163,
      "Ġpermanent": 6164,
      "Ġchoice": 6165,
      "ATH": 6166,
      "tends": 6167,
      "Ġlog": 6168,
      "rison": 6169,
      "Ġjoin": 6170,
      "ĠApost": 6171,
      "Ġstandard": 6172,
      "Ġmaintain": 6173,
      "á½¶": 6174,
      "Ġbore": 6175,
      "Ġaa": 6176,
      "icians": 6177,
      "Ġincreasing": 6178,
      "usions": 6179,
      "itors": 6180,
      "adow": 6181,
      "Ġwanted": 6182,
      "oir": 6183,
      "Ġdeliver": 6184,
      "Ġsearch": 6185,
      "ĠJul": 6186,
      "phy": 6187,
      "ĠWorks": 6188,
      "Ġexplanation": 6189,
      "arian": 6190,
      "Ġregards": 6191,
      "Ġfold": 6192,
      "Ġdriven": 6193,
      "alem": 6194,
      "Ġbell": 6195,
      "Ġimpress": 6196,
      "Ġvac": 6197,
      "Ġshut": 6198,
      "aceous": 6199,
      "Ġthoroughly": 6200,
      "Ġvolunt": 6201,
      "OUR": 6202,
      "ĠFrank": 6203,
      "Ġpermitted": 6204,
      "Ġexplain": 6205,
      "Ġsuspic": 6206,
      "Ġchamber": 6207,
      "Ġaffections": 6208,
      "ĠOs": 6209,
      "ĠThree": 6210,
      "iae": 6211,
      "Ġquickly": 6212,
      "Ġgrain": 6213,
      "Ġcust": 6214,
      "itan": 6215,
      "Ġafforded": 6216,
      "itud": 6217,
      "Ġoxygen": 6218,
      "ĠTurn": 6219,
      "ĠCra": 6220,
      "Ġaston": 6221,
      "Ġincluded": 6222,
      "Ġalb": 6223,
      "imately": 6224,
      "ĠED": 6225,
      "osal": 6226,
      "Ġviolence": 6227,
      "Ġrot": 6228,
      "Ġunb": 6229,
      "59": 6230,
      "ante": 6231,
      "ĠMED": 6232,
      "Ġobvious": 6233,
      "Ġencl": 6234,
      "Ġlam": 6235,
      "Ġpunct": 6236,
      "ĠAustral": 6237,
      "Ġveins": 6238,
      "ĠMich": 6239,
      "Ġrivers": 6240,
      "hich": 6241,
      "Ġabsolutely": 6242,
      "ĠÎºÎ±": 6243,
      "icles": 6244,
      "nat": 6245,
      "Ġbare": 6246,
      "tis": 6247,
      "attered": 6248,
      "ĠBR": 6249,
      "orus": 6250,
      "Ġlake": 6251,
      "inted": 6252,
      "Ġmovement": 6253,
      "Ġrelated": 6254,
      "Ġlateral": 6255,
      "Ġrestored": 6256,
      "62": 6257,
      "orated": 6258,
      "Ġcitiz": 6259,
      "ĠLab": 6260,
      "Ġthereby": 6261,
      "ĠWalter": 6262,
      "mark": 6263,
      "Ġresolution": 6264,
      "Ġinstant": 6265,
      "mble": 6266,
      "Ġschol": 6267,
      "Ġhearing": 6268,
      "Ġinfinite": 6269,
      "Ġsigns": 6270,
      "Ġ'^": 6271,
      "borough": 6272,
      "ĠOp": 6273,
      "annel": 6274,
      "Ġrib": 6275,
      "wall": 6276,
      "Ġwet": 6277,
      "mar": 6278,
      "ĠLoc": 6279,
      "Ġsche": 6280,
      "ĠNOT": 6281,
      "ĠFar": 6282,
      "ĠMAN": 6283,
      "ommod": 6284,
      "hat": 6285,
      "Ġ73": 6286,
      "Ġapt": 6287,
      "Ġabundant": 6288,
      "Ġpull": 6289,
      "Ġlif": 6290,
      "Ġprevented": 6291,
      "Ġthefe": 6292,
      "Ġremarked": 6293,
      "Ġsympath": 6294,
      "Ġcountenance": 6295,
      "Ġdomestic": 6296,
      "Ġrecon": 6297,
      "ĠTw": 6298,
      "ĠSat": 6299,
      "ĠâĢĺâĢĺ": 6300,
      "Ġministers": 6301,
      "Ġfacult": 6302,
      "Ġcalls": 6303,
      "low": 6304,
      "Ġattacked": 6305,
      "Ġintroduction": 6306,
      "ĠDire": 6307,
      "Ġburied": 6308,
      "Ġloft": 6309,
      "Ġlabours": 6310,
      "ĠClass": 6311,
      "chn": 6312,
      "iol": 6313,
      "Ġbot": 6314,
      "Ġfier": 6315,
      "Ġ71": 6316,
      "Ġseized": 6317,
      "Ġwhereas": 6318,
      "Ġtt": 6319,
      "Ġdignity": 6320,
      "Ġadopt": 6321,
      "Ġfifth": 6322,
      "Ġsentence": 6323,
      "rection": 6324,
      "Ġdisturb": 6325,
      "aine": 6326,
      "Ġstreets": 6327,
      "Ġwear": 6328,
      "ental": 6329,
      "Ġcirculation": 6330,
      "ĠSac": 6331,
      "ounce": 6332,
      "á¾": 6333,
      "Ġfancy": 6334,
      "ĠStep": 6335,
      "Ġpassages": 6336,
      "ersed": 6337,
      "Ġlungs": 6338,
      "Ġdrew": 6339,
      "ĠBoth": 6340,
      "Ġcontents": 6341,
      "Ġami": 6342,
      "quare": 6343,
      "Ġspent": 6344,
      "Ġpulse": 6345,
      "61": 6346,
      "rait": 6347,
      "ĠAlb": 6348,
      "Ġsouls": 6349,
      "achment": 6350,
      "ĠChina": 6351,
      "rr": 6352,
      "ĠCity": 6353,
      "Ġpromised": 6354,
      "ĠAlthough": 6355,
      "Ġprosper": 6356,
      "Ġexpedition": 6357,
      "âĢľ": 6358,
      "Ġga": 6359,
      "Ġextending": 6360,
      "Ġclay": 6361,
      "Ġacres": 6362,
      "Ġfub": 6363,
      "AGE": 6364,
      "Ġxii": 6365,
      "Ġape": 6366,
      "Ġyourself": 6367,
      "Ġwon": 6368,
      "igs": 6369,
      "eries": 6370,
      "Ġmanners": 6371,
      "ĠAS": 6372,
      "uis": 6373,
      "Ġpreparation": 6374,
      "Ġparents": 6375,
      "ĠCommons": 6376,
      "Ġ169": 6377,
      "fast": 6378,
      "lit": 6379,
      "ensity": 6380,
      "Ġpayment": 6381,
      "inson": 6382,
      "ĠLieutenant": 6383,
      "UD": 6384,
      "Ġentertain": 6385,
      "Ġcommencement": 6386,
      "Ġlux": 6387,
      "Ġelement": 6388,
      "Ġexceedingly": 6389,
      "Ġcheer": 6390,
      "Ġprophe": 6391,
      "Ġammonia": 6392,
      "Ġtract": 6393,
      "llor": 6394,
      "Ġcommanded": 6395,
      "Ġmarch": 6396,
      "Ġturning": 6397,
      "lv": 6398,
      "Ġfert": 6399,
      "Ġpalace": 6400,
      "inds": 6401,
      "Ġlips": 6402,
      "Ġpard": 6403,
      "iastical": 6404,
      "Ġfunctions": 6405,
      "Ġreflect": 6406,
      "Ġbapt": 6407,
      "ĠWestminster": 6408,
      "Ġcultivated": 6409,
      "Ġfleet": 6410,
      "ĠDi": 6411,
      "Ġcommittee": 6412,
      "sels": 6413,
      "Ġease": 6414,
      "Ġconducted": 6415,
      "Ġclimate": 6416,
      "bey": 6417,
      "IGH": 6418,
      "fa": 6419,
      "ĠChristianity": 6420,
      "ĠSunday": 6421,
      "Ġsacrifice": 6422,
      "Ġremoval": 6423,
      "Ġconscious": 6424,
      "ĠNich": 6425,
      "ĠCOL": 6426,
      "ĠGovernor": 6427,
      "Ġinnoc": 6428,
      "Ġreck": 6429,
      "Ġsyn": 6430,
      "Ġconfirmed": 6431,
      "Ġric": 6432,
      "bt": 6433,
      "ĠÎ¿": 6434,
      "arum": 6435,
      "never": 6436,
      "Ġmould": 6437,
      "Ġdirections": 6438,
      "ĠIT": 6439,
      "ĠSL": 6440,
      "Ġblessed": 6441,
      "place": 6442,
      "Ġdistrib": 6443,
      "Ġdefic": 6444,
      "ĠWhich": 6445,
      "Ġliver": 6446,
      "itals": 6447,
      "57": 6448,
      "Ġdescend": 6449,
      "Ġ84": 6450,
      "key": 6451,
      "ords": 6452,
      "Ġthanks": 6453,
      "Ġfulf": 6454,
      "Ġrespects": 6455,
      "Ġba": 6456,
      "ĠPass": 6457,
      "qual": 6458,
      "ĠIM": 6459,
      "Ġih": 6460,
      "Ġcounter": 6461,
      "Ġwicked": 6462,
      "Ġdull": 6463,
      "Ġsor": 6464,
      "Ġblow": 6465,
      "Ġcontempl": 6466,
      "jj": 6467,
      "Ġfibres": 6468,
      "cester": 6469,
      "ĠBon": 6470,
      "ĠPrice": 6471,
      "Ġfool": 6472,
      "Ġdistinctly": 6473,
      "Ġcharacteristic": 6474,
      "Ġenergy": 6475,
      "Ġattempted": 6476,
      "Ġwilling": 6477,
      "QU": 6478,
      "Ġears": 6479,
      "64": 6480,
      "Ġshot": 6481,
      "Ġcomparison": 6482,
      "sen": 6483,
      "Ġconnexion": 6484,
      "Ġboiling": 6485,
      "Ġcities": 6486,
      "Ġvegetable": 6487,
      "ĠAdmiral": 6488,
      "ĠDun": 6489,
      "Ġcalm": 6490,
      "Ġremed": 6491,
      "ĠForm": 6492,
      "63": 6493,
      "arts": 6494,
      "Ġay": 6495,
      "Ġhumble": 6496,
      "ĠÎµ": 6497,
      "Ġsubsc": 6498,
      "Ġ81": 6499,
      "ancing": 6500,
      "Ġ158": 6501,
      "OLOG": 6502,
      "Ġtestimony": 6503,
      "Ġprovisions": 6504,
      "ĠLords": 6505,
      "Ġwithdra": 6506,
      "Ġfairly": 6507,
      "Ġfaint": 6508,
      "ication": 6509,
      "Ġshell": 6510,
      "ĠTer": 6511,
      "TING": 6512,
      "Ġbreadth": 6513,
      "Ġgrie": 6514,
      "ĠBesides": 6515,
      "arse": 6516,
      "etic": 6517,
      "Ġhes": 6518,
      "ĠJer": 6519,
      "ĠGer": 6520,
      "OOK": 6521,
      "tical": 6522,
      "ĠIndians": 6523,
      "ĠLiverpool": 6524,
      "Ġconverted": 6525,
      "Ġopposed": 6526,
      "Ġgetting": 6527,
      "Ġretreat": 6528,
      "Ġbears": 6529,
      "otal": 6530,
      "'-": 6531,
      "ĠChron": 6532,
      "Ġsitting": 6533,
      "Ġsecurity": 6534,
      "Ġslowly": 6535,
      "Ġloved": 6536,
      "Ġbutter": 6537,
      "ĠDu": 6538,
      "Ġulcer": 6539,
      "Ġna": 6540,
      "ÎµÎ¹": 6541,
      "ĠOd": 6542,
      "Ġflight": 6543,
      "Ġ110": 6544,
      "Ġagreeable": 6545,
      "Ġfloor": 6546,
      "Ġcolum": 6547,
      "Ġmagist": 6548,
      "Ġdestroy": 6549,
      "ĠCle": 6550,
      "Ġproud": 6551,
      "Ġabroad": 6552,
      "Ġmercury": 6553,
      "irk": 6554,
      "Ġloud": 6555,
      "Ġmultip": 6556,
      "URN": 6557,
      "Ġvap": 6558,
      "Ġborne": 6559,
      "cel": 6560,
      "orders": 6561,
      "Ġsins": 6562,
      "Ġmeat": 6563,
      "Ġlb": 6564,
      "Ġreported": 6565,
      "come": 6566,
      "Ġcultivation": 6567,
      "ĠLeaves": 6568,
      "urious": 6569,
      "cle": 6570,
      "ĠLanc": 6571,
      "war": 6572,
      "ials": 6573,
      "ĠÂ°": 6574,
      "berg": 6575,
      "Ġprud": 6576,
      "ĠBet": 6577,
      "uni": 6578,
      "ĠWed": 6579,
      "tes": 6580,
      "Ġreceiving": 6581,
      "eri": 6582,
      "Ġamid": 6583,
      "Ġlargest": 6584,
      "ighth": 6585,
      "actions": 6586,
      "Ġvest": 6587,
      "Ġpit": 6588,
      "ĠAlf": 6589,
      "Ġworked": 6590,
      "rove": 6591,
      "ĠLin": 6592,
      "Ġlooks": 6593,
      "Ġfinished": 6594,
      "ĠCre": 6595,
      "Ġ#": 6596,
      "Ġcow": 6597,
      "ĠPublic": 6598,
      "rag": 6599,
      "Ġvon": 6600,
      "Ġgun": 6601,
      "Ġrespons": 6602,
      "ĠRec": 6603,
      "Ġrequis": 6604,
      "Ġcommerce": 6605,
      "ĠSince": 6606,
      "Ġstop": 6607,
      "ĠGarden": 6608,
      "isher": 6609,
      "Î¾": 6610,
      "Ġdetermine": 6611,
      "Ġthinking": 6612,
      "Ġempt": 6613,
      "Ġproduces": 6614,
      "ANS": 6615,
      "Ġwritings": 6616,
      "Ġlimits": 6617,
      "seless": 6618,
      "Ġinstruction": 6619,
      "ĠAnne": 6620,
      "Ġrevol": 6621,
      "Ġslender": 6622,
      "Ġliterature": 6623,
      "ĠScripture": 6624,
      "Ġquoted": 6625,
      "Ġenlarged": 6626,
      "Ġsplendid": 6627,
      "Ġdoc": 6628,
      "Ġconfirm": 6629,
      "Ġ97": 6630,
      "mg": 6631,
      "Ġreputation": 6632,
      "Ġbringing": 6633,
      "ĠLuc": 6634,
      "Ġearl": 6635,
      "Ġec": 6636,
      "ĠIllust": 6637,
      "Ġobli": 6638,
      "Ġprisoner": 6639,
      "Ġarrest": 6640,
      "ker": 6641,
      "Ġtermed": 6642,
      "Ġeternal": 6643,
      "Ġfalling": 6644,
      "lia": 6645,
      "Ġdesirable": 6646,
      "Ġconsequences": 6647,
      "Ġfalls": 6648,
      "ĠVar": 6649,
      "Ġ159": 6650,
      "Ġtrif": 6651,
      "Ġboil": 6652,
      "ĠLt": 6653,
      "Ġignorant": 6654,
      "rupted": 6655,
      "á½¸": 6656,
      "iot": 6657,
      "ĠXXX": 6658,
      "ĠPoly": 6659,
      "Ġascertained": 6660,
      "Ġpunishment": 6661,
      "Ġsixty": 6662,
      "tempy": 6663,
      "Ġpatron": 6664,
      "rat": 6665,
      "Ġelected": 6666,
      "ometer": 6667,
      "ĠManchester": 6668,
      "Ġ82": 6669,
      "aration": 6670,
      "ĠExt": 6671,
      "ĠLim": 6672,
      "Ġenorm": 6673,
      "Ġgate": 6674,
      "ourn": 6675,
      "VI": 6676,
      "Ġmi": 6677,
      "imus": 6678,
      "idents": 6679,
      "See": 6680,
      "Ġdebt": 6681,
      "AW": 6682,
      "Ġtemp": 6683,
      "org": 6684,
      "Ġinvestig": 6685,
      "Ġsaved": 6686,
      "Ġ83": 6687,
      "/'": 6688,
      "Ġbay": 6689,
      "Ġindustry": 6690,
      "ĠConstant": 6691,
      "ĠBible": 6692,
      "TO": 6693,
      "oes": 6694,
      "Ġprofit": 6695,
      "Ġspots": 6696,
      "ĠAndrew": 6697,
      "Ġoccurrence": 6698,
      "Ġsilence": 6699,
      "rious": 6700,
      "asg": 6701,
      "Ġrecovered": 6702,
      "Ġphosph": 6703,
      "Ġstir": 6704,
      "ĠEmp": 6705,
      "rers": 6706,
      "Ġbrethren": 6707,
      "Ġacting": 6708,
      "Ġprincipally": 6709,
      "ĠTim": 6710,
      "Ġante": 6711,
      "ĠSus": 6712,
      "ĠCHR": 6713,
      "Ġwoods": 6714,
      "ĠEle": 6715,
      "ĠPur": 6716,
      "CO": 6717,
      "ĠStock": 6718,
      "ĠDivine": 6719,
      "Ġprices": 6720,
      "Ġdiet": 6721,
      "Ġpack": 6722,
      "ĠWH": 6723,
      "Ġspeaks": 6724,
      "oli": 6725,
      "ĠOrder": 6726,
      "Ġsubsequently": 6727,
      "Ġsurely": 6728,
      "Ġcompr": 6729,
      "ymph": 6730,
      "Ġine": 6731,
      "Ġpainted": 6732,
      "cope": 6733,
      "Ġaug": 6734,
      "Ġneglect": 6735,
      "ĠRiver": 6736,
      "Ġsumm": 6737,
      "oubted": 6738,
      "ĠVe": 6739,
      "ĠAB": 6740,
      "Ġnovel": 6741,
      "ĠMartin": 6742,
      "oln": 6743,
      "Ġconscience": 6744,
      "hedral": 6745,
      "ĠActs": 6746,
      "Ġtb": 6747,
      "reen": 6748,
      "Ġpainful": 6749,
      "rup": 6750,
      "athered": 6751,
      "ustomed": 6752,
      "ĠUN": 6753,
      "Ġ||": 6754,
      "ĠReport": 6755,
      "Ġceased": 6756,
      "Ġattract": 6757,
      "Ġmidst": 6758,
      "Ġbehold": 6759,
      "'m": 6760,
      "Ġguilty": 6761,
      "esc": 6762,
      "rod": 6763,
      "anth": 6764,
      "ulent": 6765,
      "ĠCross": 6766,
      "Ġunus": 6767,
      "Ġbridge": 6768,
      "Ġren": 6769,
      "Ġretired": 6770,
      "ĠVirgin": 6771,
      "Ġ@": 6772,
      "Ġconvey": 6773,
      "Ġattrib": 6774,
      "Ġsem": 6775,
      "Ġcombination": 6776,
      "Ġscheme": 6777,
      "Ġbond": 6778,
      "oper": 6779,
      "Ġlegisl": 6780,
      "Ġresistance": 6781,
      "Ġexamine": 6782,
      "ĠRomans": 6783,
      "Ġquarters": 6784,
      "Ġglorious": 6785,
      "ithe": 6786,
      "Ġtransverse": 6787,
      "Ġaccomplished": 6788,
      "aunt": 6789,
      "Ġcomparatively": 6790,
      "ero": 6791,
      "Ġaccepted": 6792,
      "ĠMR": 6793,
      "enny": 6794,
      "ĠIndeed": 6795,
      "Ġlot": 6796,
      "itic": 6797,
      "Ġcotton": 6798,
      "Ġburning": 6799,
      "ache": 6800,
      "unct": 6801,
      "Ġfuch": 6802,
      "pends": 6803,
      "Ġarts": 6804,
      "wa": 6805,
      "TIONS": 6806,
      "Ġfunction": 6807,
      "Ġshel": 6808,
      "LY": 6809,
      "agh": 6810,
      "ĠÏĥ": 6811,
      "Ġ130": 6812,
      "ĠBas": 6813,
      "Ġcab": 6814,
      "ĠUnion": 6815,
      "ĠMedic": 6816,
      "Ġ140": 6817,
      "Ġ108": 6818,
      "ONS": 6819,
      "Ġaside": 6820,
      "Ġsuit": 6821,
      "Ġnost": 6822,
      "Ġhydrogen": 6823,
      "ĠJones": 6824,
      "Ġplaint": 6825,
      "Ġtreaty": 6826,
      "ĠSyn": 6827,
      "Ġeager": 6828,
      "quer": 6829,
      "ĠYoung": 6830,
      "Ġrelating": 6831,
      "Ġpublication": 6832,
      "Ġmanagement": 6833,
      "Ġintelligence": 6834,
      "erusalem": 6835,
      "ĠTay": 6836,
      "ointed": 6837,
      "Ġtumour": 6838,
      "Ġmart": 6839,
      "ĠHeaven": 6840,
      "Ġtransp": 6841,
      "Ġvice": 6842,
      "Ġthank": 6843,
      "Ġtask": 6844,
      "ĠSic": 6845,
      "Ġburst": 6846,
      "Ġrh": 6847,
      "Ġcub": 6848,
      "Ġtells": 6849,
      "Ġsocial": 6850,
      "izing": 6851,
      "Ġinterpret": 6852,
      "Ġrul": 6853,
      "ĠTom": 6854,
      "ĠWall": 6855,
      "Ġaim": 6856,
      "Ġignorance": 6857,
      "ĠSatur": 6858,
      "Ġcarriage": 6859,
      "ean": 6860,
      "idden": 6861,
      "itus": 6862,
      "Ġwaste": 6863,
      "Ġdans": 6864,
      "ĠSar": 6865,
      "ĠLET": 6866,
      "Ġboys": 6867,
      "ĠPruss": 6868,
      "AST": 6869,
      "Ġbroke": 6870,
      "Ġattain": 6871,
      "Ġremainder": 6872,
      "ĠAst": 6873,
      "Ġpenet": 6874,
      "nr": 6875,
      "ĠHowever": 6876,
      "olia": 6877,
      "Ġgovernor": 6878,
      "ilson": 6879,
      "Ġvolumes": 6880,
      "Ġadvent": 6881,
      "Ġfp": 6882,
      "Ġbron": 6883,
      "Ġguide": 6884,
      "Ġwanting": 6885,
      "Ġaccommod": 6886,
      "ĠStat": 6887,
      "utt": 6888,
      "Ġwait": 6889,
      "ĠLinc": 6890,
      "Ġbreath": 6891,
      "ĠSwed": 6892,
      "ĠElect": 6893,
      "ĠGa": 6894,
      "Ġsouthern": 6895,
      "Ġmuscular": 6896,
      "Ġah": 6897,
      "Ġconvenient": 6898,
      "Ġwonderful": 6899,
      "ĠDise": 6900,
      "Ġbag": 6901,
      "Ġconcluded": 6902,
      "ĠLeg": 6903,
      "ĠNO": 6904,
      "Ġounces": 6905,
      "Ġmajesty": 6906,
      "ASS": 6907,
      "Ġanc": 6908,
      "hend": 6909,
      "oric": 6910,
      "Ġshortly": 6911,
      "Ġescaped": 6912,
      "Ġorganic": 6913,
      "Ġgardens": 6914,
      "Ġdesert": 6915,
      "Ġclaims": 6916,
      "Ġtribes": 6917,
      "Ġhoped": 6918,
      "Ġpartial": 6919,
      "Ġbladder": 6920,
      "oni": 6921,
      "ĠTempy": 6922,
      "ĠOb": 6923,
      "Ġborder": 6924,
      "Ġfields": 6925,
      "orary": 6926,
      "idel": 6927,
      "ĠJOHN": 6928,
      "Ġcaptain": 6929,
      "Ġretained": 6930,
      "ĠLew": 6931,
      "asant": 6932,
      "ĠArist": 6933,
      "ĠJerusalem": 6934,
      "ĠKings": 6935,
      "Ġchapel": 6936,
      "Ġunh": 6937,
      "Ġoo": 6938,
      "Ġpersec": 6939,
      "Ġcandid": 6940,
      "fed": 6941,
      "Ġcutting": 6942,
      "ĠSaviour": 6943,
      "Ġcolumn": 6944,
      "ĠBi": 6945,
      "Ġclo": 6946,
      "Ġconnect": 6947,
      "Ġdip": 6948,
      "ĠLove": 6949,
      "Ġmovements": 6950,
      "ĠTro": 6951,
      "noon": 6952,
      "Ġheated": 6953,
      "fr": 6954,
      "Ġanat": 6955,
      "Ġmasses": 6956,
      "opher": 6957,
      "Ġcontempt": 6958,
      "Ġnevertheless": 6959,
      "Ġpas": 6960,
      "ĠMod": 6961,
      "General": 6962,
      "Ġcrop": 6963,
      "Ġsooner": 6964,
      "Ġlu": 6965,
      "rep": 6966,
      "ĠDar": 6967,
      "Ġard": 6968,
      "ĠBuck": 6969,
      "Ġunderstanding": 6970,
      "Ġtomb": 6971,
      "Ġappreci": 6972,
      "Ġhollow": 6973,
      "Ġimage": 6974,
      "otic": 6975,
      "Ġchronic": 6976,
      "Ġarising": 6977,
      "Ġsanct": 6978,
      "ĠHard": 6979,
      "Ġlegal": 6980,
      "ĠStan": 6981,
      "ifh": 6982,
      "Ġpound": 6983,
      "ĠTor": 6984,
      "ĠLow": 6985,
      "Ġdish": 6986,
      "ducing": 6987,
      "Ġruns": 6988,
      "Ġtransfer": 6989,
      "ĠGh": 6990,
      "roke": 6991,
      "Ġshew": 6992,
      "Ġmethods": 6993,
      "YS": 6994,
      "Ġmelan": 6995,
      "ĠIX": 6996,
      "TT": 6997,
      "Ġdated": 6998,
      "56": 6999,
      "Ġselected": 7000,
      "ĠSl": 7001,
      "Ġcreature": 7002,
      "Ġdepartment": 7003,
      "geons": 7004,
      "Ġuncertain": 7005,
      "can": 7006,
      "Ġwi": 7007,
      "Ġwestern": 7008,
      "Ġimagine": 7009,
      "orate": 7010,
      "Ġpotass": 7011,
      "].": 7012,
      "rick": 7013,
      "ĠSamuel": 7014,
      "ĠMarg": 7015,
      "uation": 7016,
      "Ġendeavoured": 7017,
      "ella": 7018,
      "Ġcircular": 7019,
      "illy": 7020,
      "Ġplanted": 7021,
      "hus": 7022,
      "ĠEss": 7023,
      "Ġanticip": 7024,
      "Ġnormal": 7025,
      "Ġfan": 7026,
      "Ġputting": 7027,
      "Ġinsects": 7028,
      "Ġcrime": 7029,
      "pass": 7030,
      "Ġcoat": 7031,
      "rad": 7032,
      "Ġelsewhere": 7033,
      "Ġadhe": 7034,
      "iday": 7035,
      "ĠCong": 7036,
      "Ġoccasioned": 7037,
      "ENER": 7038,
      "Ġvom": 7039,
      "Ġprize": 7040,
      "Ġdict": 7041,
      "igne": 7042,
      "ĠÃ©": 7043,
      "Ġprinces": 7044,
      "Ġsecured": 7045,
      "Ġconvinced": 7046,
      "ĠGar": 7047,
      "isen": 7048,
      "Ġdiffer": 7049,
      "ĠTri": 7050,
      "Ġfinal": 7051,
      "Ġcas": 7052,
      "pson": 7053,
      "reme": 7054,
      "Ġalarm": 7055,
      "Ġquad": 7056,
      "omed": 7057,
      "Ġappeal": 7058,
      "Ġdust": 7059,
      "Ġprovision": 7060,
      "Ġwishes": 7061,
      "Ġconstructed": 7062,
      "Ġaccum": 7063,
      "Ġprevail": 7064,
      "Ġtea": 7065,
      "Ġaltered": 7066,
      "54": 7067,
      "Ġpriests": 7068,
      "eur": 7069,
      "Ġ;\"": 7070,
      "Ġtranslation": 7071,
      "Ġthofe": 7072,
      "Ġpurple": 7073,
      "Ġmiss": 7074,
      "Ġeldest": 7075,
      "ĠMarsh": 7076,
      "Ġknowing": 7077,
      "á¿¦": 7078,
      "Ġdried": 7079,
      "ĠGospel": 7080,
      "Ġinterc": 7081,
      "Ġsever": 7082,
      "Ġearliest": 7083,
      "á¿ĸ": 7084,
      "ylon": 7085,
      "Ġalive": 7086,
      "ĠLamb": 7087,
      "Ġcovering": 7088,
      "Ġusing": 7089,
      "asting": 7090,
      "odd": 7091,
      "Ġoft": 7092,
      "ĠBab": 7093,
      "Ġpatri": 7094,
      "Ġrestra": 7095,
      "raid": 7096,
      "ribe": 7097,
      "Ġlance": 7098,
      "ĠFle": 7099,
      "Ġentering": 7100,
      "Ġwindows": 7101,
      "ĠFre": 7102,
      "Ġ96": 7103,
      "Ġhonourable": 7104,
      "inence": 7105,
      "ĠNatural": 7106,
      "Ġcott": 7107,
      "Ġspite": 7108,
      "Ġoffices": 7109,
      "ĠLect": 7110,
      "ĠIsa": 7111,
      "ĠAV": 7112,
      "Ġvital": 7113,
      "lax": 7114,
      "asted": 7115,
      "oks": 7116,
      "Ġattained": 7117,
      "Ġrighteous": 7118,
      "Ġdying": 7119,
      "isation": 7120,
      "uated": 7121,
      "Ġuterus": 7122,
      "Ġ500": 7123,
      "Ġ93": 7124,
      "Ġtempt": 7125,
      "Ġcens": 7126,
      "Ġdecay": 7127,
      "Ġphilosophy": 7128,
      "ilton": 7129,
      "Ġtribe": 7130,
      "Ġcu": 7131,
      "Ġpetition": 7132,
      "Ġaccess": 7133,
      "Ġdistinguish": 7134,
      "ipes": 7135,
      "Ġvaried": 7136,
      "No": 7137,
      "UND": 7138,
      "hand": 7139,
      "Ġpreserve": 7140,
      "Ġdepends": 7141,
      "ĠWOR": 7142,
      "irds": 7143,
      "Ġheir": 7144,
      "Ġvictory": 7145,
      "Ġprocured": 7146,
      "Ġdoubtless": 7147,
      "Ġartificial": 7148,
      "shaped": 7149,
      "Ġarose": 7150,
      "FF": 7151,
      ".:": 7152,
      "Ġmistake": 7153,
      "ĠNotes": 7154,
      "aming": 7155,
      "Ġgolden": 7156,
      "Ġmarg": 7157,
      "53": 7158,
      "Ġdrops": 7159,
      "ĠRussia": 7160,
      "Ġsurgeon": 7161,
      "Ġundoubted": 7162,
      "Ġtrain": 7163,
      "Ġliber": 7164,
      "Ġcritic": 7165,
      "ĠHay": 7166,
      "ga": 7167,
      "ĠFam": 7168,
      "Ġruin": 7169,
      "Ġelection": 7170,
      "icted": 7171,
      "ĠLike": 7172,
      "Î¿Î¹": 7173,
      "Ġvag": 7174,
      "Ġeffort": 7175,
      "ĠEach": 7176,
      "Ġteach": 7177,
      "Ġnews": 7178,
      "Ġunw": 7179,
      "ĠJohnson": 7180,
      "Ġjaw": 7181,
      "ĠDur": 7182,
      "Ġaccustomed": 7183,
      "ref": 7184,
      "IRE": 7185,
      "Ġdy": 7186,
      "ifts": 7187,
      "ulpt": 7188,
      "ĠHan": 7189,
      "cket": 7190,
      "Ġsoldier": 7191,
      "Ġpu": 7192,
      "Ġaccompany": 7193,
      "Ġwelc": 7194,
      "ĠSum": 7195,
      "ĠDie": 7196,
      "ĠAmb": 7197,
      "Ġperfection": 7198,
      "anim": 7199,
      "iT": 7200,
      "Ġconceive": 7201,
      "embered": 7202,
      "inese": 7203,
      "Ġwheat": 7204,
      "Ġmedium": 7205,
      "Ġfc": 7206,
      "ffic": 7207,
      "Ġthroat": 7208,
      "ĠAld": 7209,
      "Ġperiods": 7210,
      "Ġsurv": 7211,
      "Ġencourage": 7212,
      "assad": 7213,
      "Ġvoyage": 7214,
      "Ġquart": 7215,
      "Ġmighty": 7216,
      "ĠGib": 7217,
      "ifies": 7218,
      "Ġcapacity": 7219,
      "ĠYorks": 7220,
      "Ġapex": 7221,
      "Ġconcent": 7222,
      "bot": 7223,
      "Ġadvoc": 7224,
      "Ġinstruments": 7225,
      "Ġlaugh": 7226,
      "KE": 7227,
      "Ġartery": 7228,
      "Ġverb": 7229,
      "Ġpositive": 7230,
      "Ġelong": 7231,
      "Ġuncle": 7232,
      "Ġprimary": 7233,
      "Ġvision": 7234,
      "Ġbee": 7235,
      "Ġedges": 7236,
      "ĠTake": 7237,
      "Ġsket": 7238,
      "Ġ94": 7239,
      "ĠStill": 7240,
      "Î®": 7241,
      "oute": 7242,
      "ĠGlasg": 7243,
      "Ġpurchase": 7244,
      "Ġannum": 7245,
      "Ġsurprise": 7246,
      "Ġbegins": 7247,
      "Ġalluded": 7248,
      "Ġdarkness": 7249,
      "ĠGRE": 7250,
      "Ġeastern": 7251,
      "Ġinconven": 7252,
      "Ġ109": 7253,
      "ĠChief": 7254,
      "rin": 7255,
      "achers": 7256,
      "Ġfruits": 7257,
      "ĠHab": 7258,
      "Ġsensible": 7259,
      "ĠMond": 7260,
      "ĠLincoln": 7261,
      "ĠUpper": 7262,
      "Ġprovinces": 7263,
      "ĠFo": 7264,
      "ĠCanada": 7265,
      "Ġcolumns": 7266,
      "ĠBeing": 7267,
      "Ġacquaintance": 7268,
      "Ġpressed": 7269,
      "ĠSaturday": 7270,
      "ĠNever": 7271,
      "loqu": 7272,
      "Ġdiminished": 7273,
      "anus": 7274,
      "ptic": 7275,
      "Ġlimb": 7276,
      "ĠJacob": 7277,
      "Ġconfusion": 7278,
      "Ġabsurd": 7279,
      "Ġthinks": 7280,
      "Ġsorts": 7281,
      "Ġconsidering": 7282,
      "Ġfitted": 7283,
      "Ġkindness": 7284,
      "oea": 7285,
      "Ġcalling": 7286,
      "Ġverse": 7287,
      "Ġarmed": 7288,
      "ĠCHAR": 7289,
      "Ġnaked": 7290,
      "Ġmurder": 7291,
      "ĠMost": 7292,
      "Ġsolic": 7293,
      "52": 7294,
      "Ġautumn": 7295,
      "Ġuncom": 7296,
      "Ġrespective": 7297,
      "illary": 7298,
      "Ġinserted": 7299,
      "Ġinvestigation": 7300,
      "amin": 7301,
      "Ġhappen": 7302,
      "Ġunfortunate": 7303,
      "Ġsilent": 7304,
      "Ġnearer": 7305,
      "ĠChild": 7306,
      "Î¿Ïħ": 7307,
      "Ġrecover": 7308,
      "iece": 7309,
      "Ġpractition": 7310,
      "Ġ91": 7311,
      "ĠHaw": 7312,
      "Ġbarbar": 7313,
      "lict": 7314,
      "Ġexcit": 7315,
      "ĠDR": 7316,
      "],": 7317,
      "Ġiod": 7318,
      "Ġneut": 7319,
      "ĠFin": 7320,
      "Ġshorter": 7321,
      "phal": 7322,
      "Ġmit": 7323,
      "astern": 7324,
      "itudes": 7325,
      "Ġalike": 7326,
      "An": 7327,
      "Ġattacks": 7328,
      "Ġangles": 7329,
      "Ġcaught": 7330,
      "Ġtall": 7331,
      "Ġregions": 7332,
      "arks": 7333,
      "was": 7334,
      "ĠFROM": 7335,
      "Ġfract": 7336,
      "Ġgland": 7337,
      "ciences": 7338,
      "Ġexclaimed": 7339,
      "Ġlest": 7340,
      "Ġdissolved": 7341,
      "ĠObserv": 7342,
      "Ġminor": 7343,
      "Ġperceive": 7344,
      "ĠHal": 7345,
      "72": 7346,
      "Ġsalts": 7347,
      "ollen": 7348,
      "Ġea": 7349,
      "Ġactivity": 7350,
      "ioned": 7351,
      "Ġgods": 7352,
      "Ġstudents": 7353,
      "Ġnotion": 7354,
      "Ġconse": 7355,
      "ĠDay": 7356,
      "Ġelegant": 7357,
      "ĠMex": 7358,
      "uds": 7359,
      "Ġbrave": 7360,
      "Ġindicated": 7361,
      "It": 7362,
      "Ġfed": 7363,
      "Ġ92": 7364,
      "á¿¶": 7365,
      "ĠWilson": 7366,
      "Ġinject": 7367,
      "ENS": 7368,
      "ĠAsia": 7369,
      "Ġtn": 7370,
      "Ġconclude": 7371,
      "čĊ": 7372,
      "Ġsite": 7373,
      "CC": 7374,
      "Ġkid": 7375,
      "Ġanch": 7376,
      "ĠGE": 7377,
      "Ġabundance": 7378,
      "Ġinduce": 7379,
      "Ġprominent": 7380,
      "uk": 7381,
      "inte": 7382,
      "Ġincur": 7383,
      "Ġafraid": 7384,
      "Ġtliat": 7385,
      "iat": 7386,
      "Ġattributed": 7387,
      "ĠCOR": 7388,
      "ĠEN": 7389,
      "Ġprocesses": 7390,
      "Ġoh": 7391,
      "Ġbent": 7392,
      "ĠGlasgow": 7393,
      "Ġdescribe": 7394,
      "Ġseated": 7395,
      "ĠTemple": 7396,
      "Ġwants": 7397,
      "ĠNational": 7398,
      "Ġadds": 7399,
      "Ġphysician": 7400,
      "ĠSher": 7401,
      "Ġattempts": 7402,
      "ĠDeath": 7403,
      "Ġimpart": 7404,
      "ĠRight": 7405,
      "Ġappointment": 7406,
      "ĠHave": 7407,
      "ĠRoad": 7408,
      "Ġquam": 7409,
      "Ġprisoners": 7410,
      "intend": 7411,
      "izes": 7412,
      "ĠTestament": 7413,
      "Ġlust": 7414,
      "ĠNothing": 7415,
      "but": 7416,
      "Ġcorp": 7417,
      "Ġdetail": 7418,
      "Ġordin": 7419,
      "Ġconsisted": 7420,
      "Ġcf": 7421,
      "Ġpursued": 7422,
      "Ġworst": 7423,
      "Ġclim": 7424,
      "vest": 7425,
      "Ġmm": 7426,
      "ĠThird": 7427,
      "Ġepid": 7428,
      "ĠWIL": 7429,
      "MAN": 7430,
      "Ġremembered": 7431,
      "Ġsuggest": 7432,
      "ĠPerhaps": 7433,
      "71": 7434,
      "Ġexhibit": 7435,
      "Ġgrew": 7436,
      "Ġnig": 7437,
      "alry": 7438,
      "ĠCase": 7439,
      "dd": 7440,
      "sch": 7441,
      "Ġdare": 7442,
      "Ġstopped": 7443,
      "iph": 7444,
      "Ġoxide": 7445,
      "Ġcontinually": 7446,
      "Ġhorizont": 7447,
      "Ġmasters": 7448,
      "west": 7449,
      "Ġburnt": 7450,
      "ĠSou": 7451,
      "ĠCommissioners": 7452,
      "ĠPan": 7453,
      "Ġure": 7454,
      "Ġsalvation": 7455,
      "ĠDid": 7456,
      "Ġmoreover": 7457,
      "ĠPO": 7458,
      "Ġintervals": 7459,
      "occ": 7460,
      "Ġretain": 7461,
      "Ġcollege": 7462,
      "ĠThr": 7463,
      "ĠMort": 7464,
      "OOD": 7465,
      "Ġ111": 7466,
      "rob": 7467,
      "Ġenjoyed": 7468,
      "Ġsurrounding": 7469,
      "51": 7470,
      "arches": 7471,
      "ees": 7472,
      "Ġfel": 7473,
      "Ġrevolution": 7474,
      "Ġstranger": 7475,
      "erves": 7476,
      "ĠTa": 7477,
      "pher": 7478,
      "Ġentertained": 7479,
      "ĠÃ": 7480,
      "Ġdoubtful": 7481,
      "olas": 7482,
      "Ġpropriet": 7483,
      "Ġjustly": 7484,
      "Ġperceived": 7485,
      "ĠHand": 7486,
      "Ġfriendship": 7487,
      "Ġmyst": 7488,
      "Ġbowels": 7489,
      "ĠFlor": 7490,
      "Ġworn": 7491,
      "ĠBru": 7492,
      "Ġbelongs": 7493,
      "ĠGreeks": 7494,
      "ĠChinese": 7495,
      "Ġinvari": 7496,
      "Ġdecre": 7497,
      "ito": 7498,
      "ĠZool": 7499,
      "ln": 7500,
      "ei": 7501,
      "Ġbrilliant": 7502,
      "Ġ400": 7503,
      "from": 7504,
      "Ġham": 7505,
      "Ġram": 7506,
      "istics": 7507,
      "Ġreasonable": 7508,
      "Ġphr": 7509,
      "vii": 7510,
      "Ġcontrad": 7511,
      "ĠIslands": 7512,
      "alogue": 7513,
      "ĠAlfred": 7514,
      "Ġwherein": 7515,
      "ĠRog": 7516,
      "tera": 7517,
      "iest": 7518,
      "Ġarrangements": 7519,
      "Ġagent": 7520,
      "ĠGrand": 7521,
      "ĠPage": 7522,
      "ĠBeng": 7523,
      "ĠSvo": 7524,
      "inge": 7525,
      "Ġhunt": 7526,
      "ila": 7527,
      "Ġcontinues": 7528,
      "Ġimagination": 7529,
      "ĠPract": 7530,
      "Ġphysi": 7531,
      "ĠKnight": 7532,
      "ĠStaff": 7533,
      "Ġmachine": 7534,
      "Ġell": 7535,
      "Ġelevated": 7536,
      "Ġpardon": 7537,
      "umen": 7538,
      "Ġbath": 7539,
      "ĠBath": 7540,
      "isms": 7541,
      "Ġdivide": 7542,
      "ulum": 7543,
      "Ġcorpor": 7544,
      "Ġjealous": 7545,
      "Ġmucous": 7546,
      "erity": 7547,
      "Ġbishops": 7548,
      "wt": 7549,
      "Ġacknowledged": 7550,
      "Ġprosec": 7551,
      "Ġaltar": 7552,
      "chie": 7553,
      "ĠTlie": 7554,
      "ĠFlore": 7555,
      "Ġweakness": 7556,
      "vin": 7557,
      "Ġobedience": 7558,
      "ANC": 7559,
      "Ġsuperst": 7560,
      "Ġconviction": 7561,
      "omical": 7562,
      "IAL": 7563,
      "Ar": 7564,
      "allic": 7565,
      "ĠGR": 7566,
      "yard": 7567,
      "Ġindign": 7568,
      "itious": 7569,
      "fes": 7570,
      "Ġcenturies": 7571,
      "Ġtherein": 7572,
      "Ġmagnificent": 7573,
      "istle": 7574,
      "Ġcontrol": 7575,
      "Ġdissol": 7576,
      "ĠAcadem": 7577,
      "Ġrecords": 7578,
      "Ġlac": 7579,
      "Ġfest": 7580,
      "ruption": 7581,
      "Ġpotash": 7582,
      "Ġevap": 7583,
      "picuous": 7584,
      "Ġinstitution": 7585,
      "Ġprevailed": 7586,
      "ĠMax": 7587,
      "Ġshade": 7588,
      "Ġvine": 7589,
      "Ġirritation": 7590,
      "Ġremote": 7591,
      "Ġpoetry": 7592,
      "Ġunp": 7593,
      "Ġcoff": 7594,
      "Ġbelonged": 7595,
      "74": 7596,
      "ĠRose": 7597,
      "ĠSurg": 7598,
      "Ġpus": 7599,
      "Ġcompass": 7600,
      "Ġslaves": 7601,
      "Ġbos": 7602,
      "Ġwinds": 7603,
      "Ġcommercial": 7604,
      "igen": 7605,
      "Ġfoss": 7606,
      "Ġdeemed": 7607,
      "Ġconveyed": 7608,
      "ĠMichael": 7609,
      "mt": 7610,
      "isse": 7611,
      "umin": 7612,
      "Ġvener": 7613,
      "Ġscattered": 7614,
      "Ġassociated": 7615,
      "uy": 7616,
      "Ġbat": 7617,
      "olla": 7618,
      "ĠHebrew": 7619,
      "ope": 7620,
      "Ġcourts": 7621,
      "Ġdeaths": 7622,
      "ĠLam": 7623,
      "Ġoblique": 7624,
      "Ġhistorical": 7625,
      "Ġvoc": 7626,
      "Ġredd": 7627,
      "roc": 7628,
      "Ġprecious": 7629,
      "Ġeo": 7630,
      "Ġneighbouring": 7631,
      "Ġsentiments": 7632,
      "ĠLake": 7633,
      "Ġrom": 7634,
      "Ġrounded": 7635,
      "nut": 7636,
      "Ġthickness": 7637,
      "Ġmand": 7638,
      "eting": 7639,
      "Ġelevation": 7640,
      "Ġchain": 7641,
      "Ġovate": 7642,
      "Ġadmission": 7643,
      "Ġneat": 7644,
      "gue": 7645,
      "ĠBern": 7646,
      "ĠTotal": 7647,
      "inea": 7648,
      ",^": 7649,
      "tering": 7650,
      "Ġsilk": 7651,
      "Ġobtaining": 7652,
      "fig": 7653,
      "rol": 7654,
      "Ġsoluble": 7655,
      "Ġcommunicated": 7656,
      "wy": 7657,
      "Ġesq": 7658,
      "Ġdoctrines": 7659,
      "Ġ148": 7660,
      "Ġtower": 7661,
      "Ġlowest": 7662,
      "ori": 7663,
      "chlor": 7664,
      "Ġliterary": 7665,
      "Ġdeparture": 7666,
      "coloured": 7667,
      "Ġfeed": 7668,
      "Ġmes": 7669,
      "ben": 7670,
      "rot": 7671,
      "Ġsky": 7672,
      "Ġforgotten": 7673,
      "arc": 7674,
      "Ġprayers": 7675,
      "zed": 7676,
      "ĠSing": 7677,
      "ĠLETTER": 7678,
      "Ġcomplaint": 7679,
      "ĠReform": 7680,
      "Ġgame": 7681,
      "ĠExp": 7682,
      "Ġgang": 7683,
      "bours": 7684,
      "Ġpractised": 7685,
      "olera": 7686,
      "ĠProtestant": 7687,
      "Ġsoda": 7688,
      "Ġassume": 7689,
      "Ġtent": 7690,
      "ĠArchbishop": 7691,
      "Ġreturning": 7692,
      "ĠAy": 7693,
      "Ġecclesiastical": 7694,
      "ĠGreece": 7695,
      "Ġinsol": 7696,
      "Ġmans": 7697,
      "ĠLes": 7698,
      "ĠDa": 7699,
      "Ġtuberc": 7700,
      "Ġoffence": 7701,
      "born": 7702,
      "Ġuseless": 7703,
      "Ġgathered": 7704,
      "onic": 7705,
      "iva": 7706,
      "Ġintent": 7707,
      "Ġwhenever": 7708,
      "lan": 7709,
      "inding": 7710,
      "Ġbig": 7711,
      "Ġmineral": 7712,
      "ENTS": 7713,
      "ulf": 7714,
      "Ġhol": 7715,
      "ĠCop": 7716,
      "uming": 7717,
      "Ġchloride": 7718,
      "Ġeducated": 7719,
      "Ġenormous": 7720,
      "ĠQU": 7721,
      "Ġteaching": 7722,
      "Ġprobability": 7723,
      "vant": 7724,
      "iscop": 7725,
      "73": 7726,
      "ĠPy": 7727,
      "Ġaxis": 7728,
      "Ġmoving": 7729,
      "ÏīÎ½": 7730,
      "ĠRail": 7731,
      "ĠAnth": 7732,
      "Ġencoura": 7733,
      "ipped": 7734,
      "Ġic": 7735,
      "ĠSix": 7736,
      "Ġconform": 7737,
      "ICH": 7738,
      "str": 7739,
      "ĠHerbert": 7740,
      "ĠOv": 7741,
      "500": 7742,
      "ector": 7743,
      "Ġstars": 7744,
      "Ġincons": 7745,
      "ĠNic": 7746,
      "Ġnose": 7747,
      "Ġ118": 7748,
      "Ġdivisions": 7749,
      "Ġplaintiff": 7750,
      "ĠGil": 7751,
      "ĠBran": 7752,
      "ĠTable": 7753,
      "Ġwarrant": 7754,
      "ĠLittle": 7755,
      "zes": 7756,
      "Ġcomment": 7757,
      "idi": 7758,
      "^^^": 7759,
      "Ġample": 7760,
      "Ġsacrific": 7761,
      "dale": 7762,
      "ĠSEC": 7763,
      "upon": 7764,
      "Ġgift": 7765,
      "ÏĦÎ±": 7766,
      "going": 7767,
      "ĠIndies": 7768,
      "Ġassembled": 7769,
      "Ġlimbs": 7770,
      "Ġassigned": 7771,
      "ĠWel": 7772,
      "Ġcitizens": 7773,
      "held": 7774,
      "ĠLight": 7775,
      "Ġ.......": 7776,
      "Ġaccomplish": 7777,
      "ĠCounty": 7778,
      "umberland": 7779,
      "Ġcaps": 7780,
      "ĠSY": 7781,
      "Ġnom": 7782,
      "ĠBow": 7783,
      "Ġtemporary": 7784,
      "Ġhosp": 7785,
      "uther": 7786,
      "Ġcomplic": 7787,
      "wen": 7788,
      "Ġprovide": 7789,
      "Ġintim": 7790,
      "ĠBRI": 7791,
      "Ġafternoon": 7792,
      "Ġrequisite": 7793,
      "Ġdefinite": 7794,
      "arl": 7795,
      "appy": 7796,
      "Ġ105": 7797,
      "ĠSurgeon": 7798,
      "Ġdent": 7799,
      "inery": 7800,
      "ĠFair": 7801,
      "Ġdeclare": 7802,
      "estone": 7803,
      "Ġsettle": 7804,
      "ĠPay": 7805,
      "hor": 7806,
      "Ġtiie": 7807,
      "Ġmaid": 7808,
      "LEY": 7809,
      "Ġretire": 7810,
      "Ġpy": 7811,
      "ĠEngine": 7812,
      "rys": 7813,
      "OB": 7814,
      "choly": 7815,
      "ĠWilliams": 7816,
      "Ġplane": 7817,
      "Ġfab": 7818,
      "Ġtab": 7819,
      "ĠAdam": 7820,
      "alks": 7821,
      "ortions": 7822,
      "unter": 7823,
      "Ġdilig": 7824,
      "ght": 7825,
      "Ġshame": 7826,
      "Ġtorn": 7827,
      "SON": 7828,
      "ubs": 7829,
      "ĠDitto": 7830,
      "Ġresembling": 7831,
      "ographical": 7832,
      "Ġapproaching": 7833,
      "Ġvit": 7834,
      "di": 7835,
      "Ġmorbid": 7836,
      "Ġterritory": 7837,
      "Ġthread": 7838,
      "Ġserm": 7839,
      "Ġwrites": 7840,
      "ĠWin": 7841,
      "Ġthrew": 7842,
      "folk": 7843,
      "ĠVery": 7844,
      "cont": 7845,
      "akers": 7846,
      "part": 7847,
      "ĠYorkshire": 7848,
      "Ġunex": 7849,
      "Ġquo": 7850,
      "duc": 7851,
      "Ġgravity": 7852,
      "Ġneglected": 7853,
      "Ġgi": 7854,
      "ĠSun": 7855,
      "Ġmechanical": 7856,
      "rac": 7857,
      "ĠBal": 7858,
      "Ġsurprised": 7859,
      "Ġdream": 7860,
      "Ġsettlement": 7861,
      "lier": 7862,
      "Ġlament": 7863,
      "Ġextremities": 7864,
      "Ġsecondary": 7865,
      "ĠPhilos": 7866,
      "rier": 7867,
      "lope": 7868,
      "Ġresol": 7869,
      "Ġesse": 7870,
      "Ġreturns": 7871,
      "Ġgather": 7872,
      "Ġinside": 7873,
      "ĠChance": 7874,
      "oups": 7875,
      "ĠHome": 7876,
      "Ġether": 7877,
      "ĠOfficer": 7878,
      "Ġadmiration": 7879,
      "Ġsculpt": 7880,
      "ĠAber": 7881,
      "Ġinstantly": 7882,
      "Ġrooms": 7883,
      "Ġaccurate": 7884,
      "Ġmyster": 7885,
      "ĠOffic": 7886,
      "Ġutterly": 7887,
      "ques": 7888,
      "Ġnest": 7889,
      "ĠFox": 7890,
      "Ġdesigned": 7891,
      "ĠGentle": 7892,
      "Ġregiment": 7893,
      "Ġglands": 7894,
      "ĠHugh": 7895,
      "laced": 7896,
      "uty": 7897,
      "Ġdisorder": 7898,
      "Ġjoints": 7899,
      "Ġdozen": 7900,
      "Ġproceeds": 7901,
      "Ġ104": 7902,
      "Ġrefuse": 7903,
      "ensation": 7904,
      "ĠMas": 7905,
      "Ġruins": 7906,
      "Ġ128": 7907,
      "Ġtravel": 7908,
      "Ġartist": 7909,
      "Ġliberal": 7910,
      "Ġdeny": 7911,
      "Ġslave": 7912,
      "ĠUr": 7913,
      "ĠAthen": 7914,
      "Ġsurre": 7915,
      "Ġreality": 7916,
      "Ġsteel": 7917,
      "Ġdefendant": 7918,
      "Ġbegun": 7919,
      "ĠArm": 7920,
      "ĠBL": 7921,
      "Ġcrossed": 7922,
      "Ġeloqu": 7923,
      "Ġacids": 7924,
      "owered": 7925,
      "Ġeleven": 7926,
      "Ġwand": 7927,
      "Ġdisse": 7928,
      "Ġrailway": 7929,
      "^-": 7930,
      "ĠBarn": 7931,
      "ĠPE": 7932,
      "itc": 7933,
      "Ġverte": 7934,
      "ĠOl": 7935,
      "Ġsep": 7936,
      "Ġ149": 7937,
      "Ġurged": 7938,
      "Ġfourteen": 7939,
      "Ġunne": 7940,
      "Ġmun": 7941,
      "Ġterrible": 7942,
      "ĠImper": 7943,
      "Ġeighteen": 7944,
      "PER": 7945,
      "houses": 7946,
      "Ġdense": 7947,
      "Ġcharges": 7948,
      "wart": 7949,
      "Ġprod": 7950,
      "Ġtranslated": 7951,
      "Ġmillions": 7952,
      "Ġcompanion": 7953,
      "idity": 7954,
      "ceptible": 7955,
      "Ġwidow": 7956,
      "Ġwire": 7957,
      "Ġmix": 7958,
      "just": 7959,
      "Ġyounger": 7960,
      "lain": 7961,
      "Ġlabou": 7962,
      "ĠBurn": 7963,
      "Ġsubt": 7964,
      "Ġfinger": 7965,
      "\".": 7966,
      "Ġconsol": 7967,
      "Ġintense": 7968,
      "arded": 7969,
      "lers": 7970,
      "ĠBib": 7971,
      "rogen": 7972,
      "Ġsink": 7973,
      "Ġmerits": 7974,
      "Ġhereafter": 7975,
      "Ġenthus": 7976,
      "Ġcolony": 7977,
      "Ġlun": 7978,
      "urst": 7979,
      "ĠStud": 7980,
      "Ġflame": 7981,
      "Ġamuse": 7982,
      "Ġgrief": 7983,
      "Ġequival": 7984,
      "Ġtib": 7985,
      "umer": 7986,
      "ĠBrist": 7987,
      "Ġlargely": 7988,
      "Ġcreatures": 7989,
      "ocks": 7990,
      "Ġ'*": 7991,
      "Ġharm": 7992,
      "Ġrespectively": 7993,
      "Ġtotally": 7994,
      "Ġhal": 7995,
      "Ġdors": 7996,
      "Ġfurnish": 7997,
      "uli": 7998,
      "ĠIbid": 7999,
      "isis": 8000,
      "Ġdeed": 8001,
      "ĠPle": 8002,
      "Ġintr": 8003,
      "Ġadding": 8004,
      "Ġroll": 8005,
      "ĠTrade": 8006,
      "Ġextends": 8007,
      "Ġmol": 8008,
      "Ġpity": 8009,
      "ding": 8010,
      "Ġ^'": 8011,
      "riv": 8012,
      "Ġjuris": 8013,
      "ava": 8014,
      "Ġphot": 8015,
      "Ġobserves": 8016,
      "ĠTaylor": 8017,
      "Ġfathers": 8018,
      "Ġrevenue": 8019,
      "ĠExam": 8020,
      "Ġrude": 8021,
      "Ġdoors": 8022,
      "Ġindisp": 8023,
      "Ġ103": 8024,
      "Ġsell": 8025,
      "ĠWalk": 8026,
      "Ġgenu": 8027,
      "agues": 8028,
      "Ġprecisely": 8029,
      "Ġinsp": 8030,
      "ĠFL": 8031,
      "Ġff": 8032,
      "Ġabsent": 8033,
      "Ġdisplayed": 8034,
      "Ġinher": 8035,
      "Ġstead": 8036,
      "illery": 8037,
      "Ġadmirable": 8038,
      "Ġspo": 8039,
      "Ġshed": 8040,
      "Ġfm": 8041,
      "Ġtradition": 8042,
      "Ġwhit": 8043,
      "Ġapert": 8044,
      "eping": 8045,
      "Ġanalysis": 8046,
      "Ġerrors": 8047,
      "Ġcopies": 8048,
      "Ġfinest": 8049,
      "To": 8050,
      "Ġumb": 8051,
      "Ġseve": 8052,
      "Ġsetting": 8053,
      "Ġcommunity": 8054,
      "ĠSuff": 8055,
      "peare": 8056,
      "blem": 8057,
      "ione": 8058,
      "Ġjudges": 8059,
      "body": 8060,
      "ĠOut": 8061,
      "Ġprecipitate": 8062,
      "ĠLar": 8063,
      "ĠCond": 8064,
      "ĠMi": 8065,
      "Ġventure": 8066,
      "ĠLuke": 8067,
      "Ġconject": 8068,
      "Ġsmile": 8069,
      "ĠInc": 8070,
      "Ġocean": 8071,
      "Ġtalents": 8072,
      "Ġtimber": 8073,
      "ĠWy": 8074,
      "Ġdeposited": 8075,
      "ĠWol": 8076,
      "licity": 8077,
      "Ġplus": 8078,
      "ulse": 8079,
      "Ġdoctor": 8080,
      "Ġ129": 8081,
      "ĠRus": 8082,
      "Col": 8083,
      "Ġsurf": 8084,
      "Ġprocure": 8085,
      "fulness": 8086,
      "osh": 8087,
      "two": 8088,
      "ĠWestern": 8089,
      "ĠScotch": 8090,
      "Ġinstitutions": 8091,
      "ĠPray": 8092,
      "Ġresour": 8093,
      "ĠMonday": 8094,
      "anted": 8095,
      "leton": 8096,
      "licted": 8097,
      "Ġdeposit": 8098,
      "Ġglab": 8099,
      "Ġtun": 8100,
      "Ġguns": 8101,
      "ĠPRE": 8102,
      "Ġmarble": 8103,
      "Ġperformance": 8104,
      "Ġsulphate": 8105,
      "Ġcondemned": 8106,
      "sea": 8107,
      "ĠSeveral": 8108,
      "Ġanxiety": 8109,
      "resents": 8110,
      "Ġhang": 8111,
      "Ġ101": 8112,
      "Ġobscure": 8113,
      "ĠHas": 8114,
      "Ġsuspended": 8115,
      "Ġbasis": 8116,
      "ĠDom": 8117,
      "Ġreports": 8118,
      "Ġcontracted": 8119,
      "ĠAsh": 8120,
      "Ġlibrary": 8121,
      "ORT": 8122,
      "Ġleads": 8123,
      "ĠWork": 8124,
      "Ġsubmitted": 8125,
      "Ġfingers": 8126,
      "Ġ138": 8127,
      "Ġdeprived": 8128,
      "ka": 8129,
      "illes": 8130,
      "Ġalteration": 8131,
      "ĠPlate": 8132,
      "ĠLetters": 8133,
      "Ġdetermination": 8134,
      "ĠJap": 8135,
      "Ġray": 8136,
      "Ġlbs": 8137,
      "Ġrises": 8138,
      "Ġharbour": 8139,
      "Ġpurchased": 8140,
      "ĠLetter": 8141,
      "ths": 8142,
      "Ġmultitude": 8143,
      "Ġalkal": 8144,
      "Ġlofty": 8145,
      "bro": 8146,
      "Ġtriang": 8147,
      "Ġdecision": 8148,
      "Ġdescribes": 8149,
      "ete": 8150,
      "Ġsensation": 8151,
      "Ġster": 8152,
      "hesis": 8153,
      "\",": 8154,
      "Ġarguments": 8155,
      "ĠHope": 8156,
      "alysis": 8157,
      "resses": 8158,
      "EAS": 8159,
      "hent": 8160,
      "Ġrisk": 8161,
      "while": 8162,
      "Ġcongreg": 8163,
      "Ġpronounced": 8164,
      "Ġapprehens": 8165,
      "Ġfec": 8166,
      "Ġ119": 8167,
      "ateful": 8168,
      "Ġresemblance": 8169,
      "rc": 8170,
      "Ġinvolved": 8171,
      "ĠHum": 8172,
      "Ġthine": 8173,
      "Ġlimit": 8174,
      "Ġrow": 8175,
      "Ġincor": 8176,
      "Ġbalance": 8177,
      "Ġcher": 8178,
      "vas": 8179,
      "Ġgross": 8180,
      "á½Ĳ": 8181,
      "Ġglob": 8182,
      "!\"": 8183,
      "Ġseparation": 8184,
      "din": 8185,
      "worthy": 8186,
      "Ġtraced": 8187,
      "Ġdifferences": 8188,
      "ĠConf": 8189,
      "urbed": 8190,
      "Ġpier": 8191,
      "Ġ102": 8192,
      "Ġdrop": 8193,
      "pit": 8194,
      "ĠSOC": 8195,
      "ĠMA": 8196,
      "ĠVan": 8197,
      "Ġoath": 8198,
      "Ġrestrict": 8199,
      "ĠWhether": 8200,
      "Ġenterpr": 8201,
      "Ġtar": 8202,
      "Ġcharity": 8203,
      "Ġoz": 8204,
      "Ġmostly": 8205,
      "non": 8206,
      "ĠGray": 8207,
      "gnosis": 8208,
      "Ġwashed": 8209,
      "Ġkindly": 8210,
      "ĠMoses": 8211,
      "castle": 8212,
      "Ġweigh": 8213,
      "Ġprolong": 8214,
      "ĠRussian": 8215,
      "Ġexceeding": 8216,
      "agon": 8217,
      "Ġwalked": 8218,
      "Ġow": 8219,
      "Ġstrictly": 8220,
      "Ġintellectual": 8221,
      "âĢŀ": 8222,
      "ended": 8223,
      "Ġillustrated": 8224,
      "ĠMadame": 8225,
      "Ġpoem": 8226,
      "Ġnoise": 8227,
      "Ġlongitud": 8228,
      "ĠAccount": 8229,
      "Ġcompanions": 8230,
      "Ġfright": 8231,
      "rive": 8232,
      "Ġboats": 8233,
      "Ġcoarse": 8234,
      "ĠDepart": 8235,
      "ĠSO": 8236,
      "Ġremedies": 8237,
      "Ġwretched": 8238,
      "Ġbehalf": 8239,
      "Ġsubstant": 8240,
      "Ġrecognised": 8241,
      "Ġbatt": 8242,
      "igns": 8243,
      "Ġ250": 8244,
      "BS": 8245,
      "Ġoccupy": 8246,
      "bing": 8247,
      "Ġliquor": 8248,
      "odes": 8249,
      "Ġstudent": 8250,
      "Ġsupplies": 8251,
      "Ġio": 8252,
      "Ġoutward": 8253,
      "ĠEssex": 8254,
      "Ġpatent": 8255,
      "Ġdrain": 8256,
      "ĠTen": 8257,
      "Ġvulgar": 8258,
      "ĠÎ±": 8259,
      "Ġpermit": 8260,
      "Ġholds": 8261,
      "iries": 8262,
      "Ġdistribution": 8263,
      "ĠAssist": 8264,
      "uance": 8265,
      "LIAM": 8266,
      "ado": 8267,
      "Ġmuscle": 8268,
      "igo": 8269,
      "Ġstudied": 8270,
      "Ġunnecess": 8271,
      "ÏĦÎµ": 8272,
      "Ġreview": 8273,
      "ĠCome": 8274,
      "Ġcli": 8275,
      "Ġmelancholy": 8276,
      "Ġparticles": 8277,
      "Ġpope": 8278,
      "Ġ107": 8279,
      "Ġhappens": 8280,
      "ĠSU": 8281,
      "neys": 8282,
      "Ġstern": 8283,
      "Ġthousands": 8284,
      "Ġcorner": 8285,
      "Ġade": 8286,
      "Ġsulphuric": 8287,
      "Ġinterfe": 8288,
      "hill": 8289,
      "-'": 8290,
      "ilia": 8291,
      "eded": 8292,
      "ĠWat": 8293,
      "Ġtroubles": 8294,
      "ĠJu": 8295,
      "Ġsolitary": 8296,
      "Ġembra": 8297,
      "Ġdenied": 8298,
      "Ġgroups": 8299,
      "ĠNorfolk": 8300,
      "icli": 8301,
      "Ġrepair": 8302,
      "sy": 8303,
      "ao": 8304,
      "Ġmac": 8305,
      "Ġfinds": 8306,
      "Ġuses": 8307,
      "Ġobser": 8308,
      "ĠGreg": 8309,
      "Ġdischarged": 8310,
      "Ġnoted": 8311,
      "ĠCu": 8312,
      "Ġ-|": 8313,
      "ĠPoor": 8314,
      "ĠSometimes": 8315,
      "Ġfeeble": 8316,
      "amation": 8317,
      "Ġamp": 8318,
      "HES": 8319,
      "Ġhay": 8320,
      "Ġclouds": 8321,
      "Ġconceived": 8322,
      "utor": 8323,
      "Ġrepresents": 8324,
      "Ġtubes": 8325,
      "agn": 8326,
      "imon": 8327,
      "ĠCant": 8328,
      "ighter": 8329,
      "Ġancest": 8330,
      "len": 8331,
      "otted": 8332,
      "ĠMass": 8333,
      "Ġtuber": 8334,
      "ĠStephen": 8335,
      "Ġtooth": 8336,
      "eenth": 8337,
      "sm": 8338,
      "Ġwed": 8339,
      "orable": 8340,
      "aired": 8341,
      "Ġselect": 8342,
      "Ġaqu": 8343,
      "ĠEdm": 8344,
      "Ġestates": 8345,
      "Ġlords": 8346,
      "RIC": 8347,
      "ĠHort": 8348,
      "AU": 8349,
      "Ġwrought": 8350,
      "ĠFitz": 8351,
      "Ġconspicuous": 8352,
      "Ġrecur": 8353,
      "Ġcheck": 8354,
      "Ġslightest": 8355,
      "ements": 8356,
      "ĠNote": 8357,
      "ĠMargaret": 8358,
      "Ġrav": 8359,
      "Ġcrystals": 8360,
      "Ġstrengthen": 8361,
      "Ġstronger": 8362,
      "Ġlev": 8363,
      "Ġfemales": 8364,
      "leness": 8365,
      "Ġgrows": 8366,
      "gent": 8367,
      "Ġprohib": 8368,
      "Ġsources": 8369,
      "oleon": 8370,
      "ois": 8371,
      "uffic": 8372,
      "Ġinterval": 8373,
      "iie": 8374,
      "ĠSaint": 8375,
      "ĠGlou": 8376,
      "ĠPrincip": 8377,
      "Ġwaiting": 8378,
      "ENDIX": 8379,
      "Ġconvex": 8380,
      "cieties": 8381,
      "ĠWm": 8382,
      "Ġtables": 8383,
      "Ġpoly": 8384,
      "Ġgh": 8385,
      "Ġadult": 8386,
      "ĠINDEX": 8387,
      "Ġarrive": 8388,
      "Ġxiv": 8389,
      "ANCE": 8390,
      "ĠSuper": 8391,
      "cu": 8392,
      "Ġfirmly": 8393,
      "ĠKingdom": 8394,
      "ifully": 8395,
      "Ġengage": 8396,
      "aris": 8397,
      "Ġsore": 8398,
      "Ġmistaken": 8399,
      "Ġgerm": 8400,
      "Ġdesigns": 8401,
      "Ġwalking": 8402,
      "Ġvirtues": 8403,
      "Ġrecovery": 8404,
      "Ġdisgra": 8405,
      "Ġsympathy": 8406,
      "alls": 8407,
      "Ġcontinuous": 8408,
      "mus": 8409,
      "Ġplans": 8410,
      "Ġperse": 8411,
      "sa": 8412,
      "Ġbreaking": 8413,
      "ĠPlant": 8414,
      "ĠLower": 8415,
      "Ġclothes": 8416,
      "Ġgospel": 8417,
      "Ġtie": 8418,
      "ĠInn": 8419,
      "Ġfled": 8420,
      "Ġpt": 8421,
      "ĠHamilton": 8422,
      "ifferent": 8423,
      "Ġsteep": 8424,
      "ĠQuar": 8425,
      "ĠDomin": 8426,
      "Ġoccasional": 8427,
      "ĠBoy": 8428,
      "Ġtort": 8429,
      "Ġconvuls": 8430,
      "ĠGaz": 8431,
      "zing": 8432,
      "Ġdescended": 8433,
      "Ġpreferred": 8434,
      "Ġended": 8435,
      "Ġij": 8436,
      "Ġinstructions": 8437,
      "Ġaffords": 8438,
      "ĠTrinity": 8439,
      "usively": 8440,
      "oirs": 8441,
      "Ġsubmit": 8442,
      "Ġexpenses": 8443,
      "Ġarises": 8444,
      "bted": 8445,
      "Ġcrops": 8446,
      "Ġofficial": 8447,
      "ĠMis": 8448,
      "ucle": 8449,
      "ĠKn": 8450,
      "Ġexcitement": 8451,
      "ĠChair": 8452,
      "mans": 8453,
      "ampton": 8454,
      "Ġrelieved": 8455,
      "onge": 8456,
      "ĠField": 8457,
      "agger": 8458,
      "Ġestimated": 8459,
      "ĠÑ": 8460,
      "ĠReview": 8461,
      "Ġenfor": 8462,
      "ĠMinister": 8463,
      "ouch": 8464,
      "vous": 8465,
      "Ġwool": 8466,
      "Ġpel": 8467,
      "Ġcous": 8468,
      "Ġmiserable": 8469,
      "Ġresid": 8470,
      "Ġinvention": 8471,
      "Ġintercourse": 8472,
      "Ġlion": 8473,
      "Ġafores": 8474,
      "urrection": 8475,
      "encies": 8476,
      "Ġbatter": 8477,
      "Ġabol": 8478,
      "Ġswelling": 8479,
      "Ġregist": 8480,
      "Ġwin": 8481,
      "Ġsty": 8482,
      "Ġflood": 8483,
      "Ġpossesses": 8484,
      "Ġexercised": 8485,
      "Ġconstitu": 8486,
      "Ġmischief": 8487,
      "ĠNative": 8488,
      "hess": 8489,
      "Ġsmell": 8490,
      "ĠArmy": 8491,
      "Ġcomplex": 8492,
      "Ġlip": 8493,
      "Ġcheap": 8494,
      "Ġcos": 8495,
      "armed": 8496,
      "Ġore": 8497,
      "ĠBridge": 8498,
      "ucc": 8499,
      "Ġdies": 8500,
      "ERN": 8501,
      "Ġwounds": 8502,
      "Ġduration": 8503,
      "Ġstraw": 8504,
      "Ġforb": 8505,
      "Ġwheel": 8506,
      "lest": 8507,
      "Ġreception": 8508,
      "ĠTues": 8509,
      "He": 8510,
      "ĠFlowers": 8511,
      "Ġabandoned": 8512,
      "ERY": 8513,
      "Ġappend": 8514,
      "Ġalfo": 8515,
      "ĠEu": 8516,
      "Ġblessing": 8517,
      "Ġnurs": 8518,
      "ĠAnat": 8519,
      "LD": 8520,
      "Ġincident": 8521,
      "Ġ106": 8522,
      "Ġnegative": 8523,
      "Ġdoses": 8524,
      "ĠNOTES": 8525,
      "Ġcounsel": 8526,
      "rating": 8527,
      "emic": 8528,
      "Ġcreation": 8529,
      "Ġinquire": 8530,
      "Ġdial": 8531,
      "Ġomitted": 8532,
      "felf": 8533,
      "Ġgeneration": 8534,
      "Ġlaug": 8535,
      "Ġswall": 8536,
      "ĠAG": 8537,
      "ĠCic": 8538,
      "Ġallied": 8539,
      "Ġproportions": 8540,
      "Ġinterested": 8541,
      "Ġadorn": 8542,
      "retion": 8543,
      "Ġrecollect": 8544,
      "âĤ": 8545,
      "ĠCow": 8546,
      "âĢĶâĢĶ": 8547,
      "rar": 8548,
      "ĠCirc": 8549,
      "Ġprepare": 8550,
      "ĠPI": 8551,
      "Ġrebell": 8552,
      "ĠTime": 8553,
      "Ġneutral": 8554,
      "iger": 8555,
      "ĠGeo": 8556,
      "ĠHunt": 8557,
      "Ġroads": 8558,
      "zo": 8559,
      "gi": 8560,
      "ĠMEM": 8561,
      "ĠPlat": 8562,
      "Ġcontrovers": 8563,
      "Ġindebted": 8564,
      "iere": 8565,
      "Ġfeature": 8566,
      "Ġundoubtedly": 8567,
      "tn": 8568,
      "ĠCas": 8569,
      "89": 8570,
      "emon": 8571,
      "ĠTurk": 8572,
      "Ġshadow": 8573,
      "Ġ125": 8574,
      "Ġdistributed": 8575,
      "ĠBristol": 8576,
      "Ġcease": 8577,
      "âĤ¬": 8578,
      "Ġvein": 8579,
      "Ġincap": 8580,
      "Ġgenera": 8581,
      "Ġcalyx": 8582,
      "aced": 8583,
      "Ġcareer": 8584,
      "arte": 8585,
      "OY": 8586,
      "ĠTherefore": 8587,
      "ĠWhit": 8588,
      "Ġdevotion": 8589,
      "six": 8590,
      "Ġxiii": 8591,
      "burn": 8592,
      "ĠCOMM": 8593,
      "ĠAnge": 8594,
      "ĠArtic": 8595,
      "Ġconver": 8596,
      "Ġturns": 8597,
      "Ġempty": 8598,
      "Ġadjo": 8599,
      "who": 8600,
      "ĠTho": 8601,
      "Ġaforesaid": 8602,
      "Ġtions": 8603,
      "Ġsurg": 8604,
      "Ġihe": 8605,
      "Ġanten": 8606,
      "mediate": 8607,
      "Ġprost": 8608,
      "ĠAlso": 8609,
      "Ġlinear": 8610,
      "Ġcarbonic": 8611,
      "Ġsounds": 8612,
      "Ġfailure": 8613,
      "Ġquot": 8614,
      "Ġnu": 8615,
      "Ġattending": 8616,
      "Ġfragments": 8617,
      "Ġsequ": 8618,
      "ĠSerm": 8619,
      "itia": 8620,
      "Ġcoven": 8621,
      "Ġfy": 8622,
      "Ġattendance": 8623,
      "CT": 8624,
      "Ġquid": 8625,
      "ĠPlace": 8626,
      "ĠScottish": 8627,
      "ĠScience": 8628,
      "Ġowner": 8629,
      "Ġdaughters": 8630,
      "Ġlanded": 8631,
      "Ġwitli": 8632,
      "dr": 8633,
      "Ġrepent": 8634,
      "Ġannually": 8635,
      "gend": 8636,
      "Ġindicate": 8637,
      "Ġcurios": 8638,
      "ĠAPPENDIX": 8639,
      "ĠBirm": 8640,
      "Ġchoose": 8641,
      "Ġantiquity": 8642,
      "Ġsect": 8643,
      "adel": 8644,
      "osc": 8645,
      "Ġgenerous": 8646,
      "Ġferv": 8647,
      "Ġfeathers": 8648,
      "ĠHom": 8649,
      "á½°": 8650,
      "Ġcatch": 8651,
      "ĠSS": 8652,
      "ĠAlbert": 8653,
      "Ġdic": 8654,
      "Ġdressed": 8655,
      "ĠGrace": 8656,
      "ĠBat": 8657,
      "Ġnay": 8658,
      "Ġwages": 8659,
      "ĠFrie": 8660,
      "Ġsanction": 8661,
      "ĠSmall": 8662,
      "Ġdeclaration": 8663,
      "nell": 8664,
      "ships": 8665,
      "Ġseal": 8666,
      "Ġdevil": 8667,
      "ĠFur": 8668,
      "Ġmetallic": 8669,
      "irty": 8670,
      "Î¶": 8671,
      "riages": 8672,
      "THE": 8673,
      "Ġsiege": 8674,
      "Ġapproved": 8675,
      "Ġmonument": 8676,
      "Ġeconomy": 8677,
      "Ġuncommon": 8678,
      "Ġdiscipline": 8679,
      "tery": 8680,
      "Ġsixteen": 8681,
      "rf": 8682,
      "Ġpleasing": 8683,
      "Ġscenes": 8684,
      "ĠRad": 8685,
      "iveness": 8686,
      "oche": 8687,
      "Î±Î½": 8688,
      "Ġstruggle": 8689,
      "Ġsess": 8690,
      "Ġvarying": 8691,
      "Ġdesirous": 8692,
      "Ġsaith": 8693,
      "ĠBengal": 8694,
      "uscript": 8695,
      "neum": 8696,
      "Ġinjured": 8697,
      "ĠOrig": 8698,
      "Ġregularly": 8699,
      "imo": 8700,
      "Ġei": 8701,
      "Ġdemanded": 8702,
      "Ġpropag": 8703,
      "ensed": 8704,
      "Ġevils": 8705,
      "Ġperpend": 8706,
      "ĠDiss": 8707,
      "ifi": 8708,
      "Ġva": 8709,
      "Ġexpand": 8710,
      "Ġseventy": 8711,
      "ĠThurs": 8712,
      "Ġinvent": 8713,
      "Ġveloc": 8714,
      "TICAL": 8715,
      "oping": 8716,
      "ĠPel": 8717,
      "TIES": 8718,
      "ĠBol": 8719,
      "Ġther": 8720,
      "Ġcorps": 8721,
      "Ġhaz": 8722,
      "Ġcarbonate": 8723,
      "ĠCanter": 8724,
      "Ġtide": 8725,
      "ya": 8726,
      "ĠBOOK": 8727,
      "Ġplainly": 8728,
      "Ġpreparations": 8729,
      "Ġimprison": 8730,
      "Ġcolonies": 8731,
      "Ġconstit": 8732,
      "dt": 8733,
      "ĠTRE": 8734,
      "Ġdose": 8735,
      "alty": 8736,
      "ĠOper": 8737,
      "Ġdas": 8738,
      "ĠPla": 8739,
      "ĠClar": 8740,
      "Ġstudies": 8741,
      "ago": 8742,
      "Ġexpend": 8743,
      "ĠLast": 8744,
      "Ġtale": 8745,
      "Ġmisery": 8746,
      "Ġtreasure": 8747,
      "Ġboiled": 8748,
      "ĠLang": 8749,
      "lying": 8750,
      "ĠDuc": 8751,
      "rene": 8752,
      "una": 8753,
      "Ġinvariably": 8754,
      "Ġtransport": 8755,
      "Ġherb": 8756,
      "ĠHi": 8757,
      "Ġcoin": 8758,
      "ĠNapoleon": 8759,
      "Ġbosom": 8760,
      "Ġestimate": 8761,
      "Ġstrike": 8762,
      "Ġprivileges": 8763,
      "ĠSER": 8764,
      "//": 8765,
      "ĠScriptures": 8766,
      "ĠDoug": 8767,
      "ÎµÎ½": 8768,
      "cm": 8769,
      "Ġbon": 8770,
      "?.": 8771,
      "Ġanci": 8772,
      "ĠJun": 8773,
      "Ġgenuine": 8774,
      "Ġannounced": 8775,
      "Ġdogs": 8776,
      "Ġcrowded": 8777,
      "Ġelder": 8778,
      "aper": 8779,
      "Ġprofound": 8780,
      "Ġconsumption": 8781,
      "Ġsigned": 8782,
      "Ġrepresentation": 8783,
      "Ġportrait": 8784,
      "ĠNon": 8785,
      "ĠForeign": 8786,
      "Ġtouched": 8787,
      "Ġ139": 8788,
      "Ġorange": 8789,
      "iders": 8790,
      "Ġtermin": 8791,
      "ACH": 8792,
      "Ġig": 8793,
      "Ġpreparing": 8794,
      "Ġassembly": 8795,
      "Ġcau": 8796,
      "ĠHart": 8797,
      "Ġlecture": 8798,
      "TISH": 8799,
      "nl": 8800,
      "Ġhorizontal": 8801,
      "Ġsurfaces": 8802,
      "acter": 8803,
      "ĠWITH": 8804,
      ",-": 8805,
      "Ġshining": 8806,
      "Ġsuspicion": 8807,
      "ĠINT": 8808,
      "Ġextension": 8809,
      "Ġprosperity": 8810,
      "Ġtouching": 8811,
      "diction": 8812,
      "liness": 8813,
      "Ġbrass": 8814,
      "ĠSpani": 8815,
      "Ġconstitute": 8816,
      "version": 8817,
      "Ġbeside": 8818,
      "Ġscales": 8819,
      "Ġcel": 8820,
      "utive": 8821,
      "ĠList": 8822,
      "ĠMerc": 8823,
      "icable": 8824,
      "ĠAustralia": 8825,
      "Ġgarr": 8826,
      "Ġoval": 8827,
      "ĠCab": 8828,
      "Ġappet": 8829,
      "Ġpupil": 8830,
      "Ġemer": 8831,
      "Ġhairs": 8832,
      "Ġpassions": 8833,
      "ĠLibrary": 8834,
      "Ġrival": 8835,
      "Ġvapour": 8836,
      "Ġprior": 8837,
      "enger": 8838,
      "wr": 8839,
      "Ġdreadful": 8840,
      "Ġhole": 8841,
      "ophical": 8842,
      "Ġacknowledge": 8843,
      "Sp": 8844,
      "Ġhoney": 8845,
      "Ġbrings": 8846,
      "Ġexcite": 8847,
      "velled": 8848,
      "ĠCOMP": 8849,
      "Ġmutual": 8850,
      "ĠBapt": 8851,
      "Ġcrowd": 8852,
      "Ġsummit": 8853,
      "Ġraising": 8854,
      "Ġrepublic": 8855,
      "ulis": 8856,
      "Ġinsert": 8857,
      "Ġillustration": 8858,
      "ĠCornwall": 8859,
      "Ġvillages": 8860,
      "fts": 8861,
      "Ġstarted": 8862,
      "Ġsixth": 8863,
      "yng": 8864,
      "pox": 8865,
      "Ġwooden": 8866,
      "ĠJustice": 8867,
      "Ġprivilege": 8868,
      "Ġmerchants": 8869,
      "Ġambition": 8870,
      "Ġ112": 8871,
      "Ġdiffers": 8872,
      "Ġvote": 8873,
      "chi": 8874,
      "ĠBerlin": 8875,
      "Ġoccupation": 8876,
      "ĠIb": 8877,
      "Ġcree": 8878,
      "Ġsentiment": 8879,
      "Ġbelo": 8880,
      "Ġstrain": 8881,
      "Ġtenant": 8882,
      "Ġcant": 8883,
      "ĠUt": 8884,
      "Ġacre": 8885,
      "Ġmerchant": 8886,
      "Ġconcur": 8887,
      "ĠLeon": 8888,
      "Ġ1000": 8889,
      "Ġnour": 8890,
      "Ġacquire": 8891,
      "Ġyn": 8892,
      "Ġave": 8893,
      "Ġaccuracy": 8894,
      "Ġwelcome": 8895,
      "Ġbrick": 8896,
      "ĠJane": 8897,
      "rand": 8898,
      "Ġfaces": 8899,
      "Ġlymph": 8900,
      "athemat": 8901,
      "ĠRow": 8902,
      "Ġequivalent": 8903,
      "Ġmarry": 8904,
      "ĠJoh": 8905,
      "Ġpipe": 8906,
      "Ġsenses": 8907,
      "ĠGoth": 8908,
      "Ġsaints": 8909,
      "ĠlO": 8910,
      "Ġreduction": 8911,
      "Ġconcealed": 8912,
      "Ġming": 8913,
      "Ġblock": 8914,
      "Ġarbit": 8915,
      "Ġagreement": 8916,
      "Ġliis": 8917,
      "TY": 8918,
      "apes": 8919,
      "Ġ199": 8920,
      "Ġibid": 8921,
      "oring": 8922,
      "oult": 8923,
      "Ġcontraction": 8924,
      "Ġrespectable": 8925,
      "ĠNorman": 8926,
      "ĠIron": 8927,
      "Ġmu": 8928,
      "Ġfriendly": 8929,
      "Ġkill": 8930,
      "acent": 8931,
      "ĠAlexand": 8932,
      "Ġana": 8933,
      "Ġfatig": 8934,
      "quate": 8935,
      "Ġvigour": 8936,
      "We": 8937,
      "icum": 8938,
      "azine": 8939,
      "DER": 8940,
      "ĠShould": 8941,
      "Ġnn": 8942,
      "dered": 8943,
      "Ġpainting": 8944,
      "ĠAnim": 8945,
      "Ġidol": 8946,
      "da": 8947,
      "ĠChancellor": 8948,
      "Ġpin": 8949,
      "Ġmortality": 8950,
      "ĠMON": 8951,
      "olics": 8952,
      "rea": 8953,
      "Ġolder": 8954,
      "ĠFriday": 8955,
      "Ġimprovements": 8956,
      "ALE": 8957,
      "ĠMiddle": 8958,
      "Ġshaft": 8959,
      "Ġhumour": 8960,
      "ki": 8961,
      "UCTION": 8962,
      "Ġdespair": 8963,
      "Ġagents": 8964,
      "ĠPitt": 8965,
      "esar": 8966,
      "Ġhypot": 8967,
      "icult": 8968,
      "Ġdio": 8969,
      "ferences": 8970,
      "Ġcavalry": 8971,
      "Ġsegments": 8972,
      "ilation": 8973,
      "ĠWednes": 8974,
      "Ġrele": 8975,
      "08": 8976,
      "Ġproducts": 8977,
      "Ġgratitude": 8978,
      "mm": 8979,
      "Ġrejected": 8980,
      "Ġounce": 8981,
      "Ġsmoke": 8982,
      "Ġpreval": 8983,
      "Ġcertainty": 8984,
      "Ġfom": 8985,
      "Ġdiseased": 8986,
      "Ġimmort": 8987,
      "Ġreceipt": 8988,
      "Ġaffair": 8989,
      "Ġcorrespondence": 8990,
      "ĠLewis": 8991,
      "pection": 8992,
      "Ġ115": 8993,
      "Ġxvi": 8994,
      "heum": 8995,
      "Ġplenty": 8996,
      "his": 8997,
      "Ġlayer": 8998,
      "Â®": 8999,
      "Ġenact": 9000,
      "Ġcontributed": 9001,
      "icate": 9002,
      "ĠÂ¢": 9003,
      "Ġpatience": 9004,
      "ĠMons": 9005,
      "tra": 9006,
      "Ġenlarge": 9007,
      "mann": 9008,
      "ĠCrom": 9009,
      "Ġfought": 9010,
      "Ġborrow": 9011,
      "ĠFree": 9012,
      "oso": 9013,
      "lig": 9014,
      "ITION": 9015,
      "Ġspeedily": 9016,
      "Ġrenders": 9017,
      "Ġbree": 9018,
      "oti": 9019,
      "Ġexhibition": 9020,
      "Ġsevent": 9021,
      "Ġunnecessary": 9022,
      "Ġaux": 9023,
      "INGS": 9024,
      "orem": 9025,
      "Ġshock": 9026,
      "Ġspreading": 9027,
      "Ġattachment": 9028,
      "uret": 9029,
      "iage": 9030,
      "ĠAU": 9031,
      "ĠGARD": 9032,
      "Ġyellowish": 9033,
      "ĠMun": 9034,
      "omatic": 9035,
      "Ġ])": 9036,
      "Ġhed": 9037,
      "onst": 9038,
      "ĠMoore": 9039,
      "Ġplacing": 9040,
      "ĠBour": 9041,
      "Ġscript": 9042,
      "ĠDown": 9043,
      "Ġtreas": 9044,
      "ĠInstitution": 9045,
      "ĠLane": 9046,
      "ifl": 9047,
      "Ġregarding": 9048,
      "ĠTimes": 9049,
      "Ġpropose": 9050,
      "Ġinjurious": 9051,
      "Ġtraces": 9052,
      "Ġbeneficial": 9053,
      "bral": 9054,
      "Ġsummon": 9055,
      "Ġfolio": 9056,
      "Ġbands": 9057,
      "ĠMean": 9058,
      "ĠET": 9059,
      "Ġstages": 9060,
      "Ġeru": 9061,
      "Ġpall": 9062,
      "hyd": 9063,
      "Ġculture": 9064,
      "Ġwax": 9065,
      "dy": 9066,
      "Ġcolle": 9067,
      "erman": 9068,
      "ĠBurg": 9069,
      "Ġimagined": 9070,
      "Ġmanure": 9071,
      "ĠAcademy": 9072,
      "Ġprofessional": 9073,
      "Ġvicinity": 9074,
      "arly": 9075,
      "Ġexhausted": 9076,
      "Ġassisted": 9077,
      "Ġgently": 9078,
      "Ġmetropol": 9079,
      "Ġfrost": 9080,
      "Ġdys": 9081,
      "Ġgay": 9082,
      "Ġgoodness": 9083,
      "rav": 9084,
      "ĠAgricult": 9085,
      "Ġdoll": 9086,
      "ĠSpec": 9087,
      "acco": 9088,
      "Ġexcessive": 9089,
      "Ġdeparted": 9090,
      "Ġfount": 9091,
      "ĠUs": 9092,
      "Ġfirft": 9093,
      "ĠUl": 9094,
      "ĠMack": 9095,
      "ĠPi": 9096,
      "ether": 9097,
      "Ġct": 9098,
      "Ġsuccessive": 9099,
      "Ġpreached": 9100,
      "ĠÏĦÎ¿": 9101,
      "Ġpoured": 9102,
      "inis": 9103,
      "Ġ113": 9104,
      "Ġcul": 9105,
      "jr": 9106,
      "Ġheavenly": 9107,
      "IET": 9108,
      "ĠPed": 9109,
      "ĠCentral": 9110,
      "Ġarteries": 9111,
      "::": 9112,
      "ĠSyd": 9113,
      "ĠMedicine": 9114,
      "Se": 9115,
      "ĠRelig": 9116,
      "Ġtha": 9117,
      "Ġshield": 9118,
      "Ġnearest": 9119,
      "Ġ114": 9120,
      "Ġwhereby": 9121,
      "ĠHerod": 9122,
      "ĠEduc": 9123,
      "Ġtrunk": 9124,
      "Ġverd": 9125,
      "Ġrequested": 9126,
      "pan": 9127,
      "Ġgates": 9128,
      "Ġadministered": 9129,
      "Ġmotives": 9130,
      "late": 9131,
      "Cr": 9132,
      "Ġlia": 9133,
      "Ġmentions": 9134,
      "ĠVes": 9135,
      "oda": 9136,
      "laps": 9137,
      "Ġjuice": 9138,
      "Â§": 9139,
      "ĠDoctor": 9140,
      "ĠClub": 9141,
      "bu": 9142,
      "ĠSep": 9143,
      "book": 9144,
      "Ġpossibility": 9145,
      "Ġ121": 9146,
      "cus": 9147,
      "Ġconsecr": 9148,
      "Ġexchange": 9149,
      "ogy": 9150,
      "PT": 9151,
      "ÏĥÏĦ": 9152,
      "ĠEastern": 9153,
      "Ġinvited": 9154,
      "uminous": 9155,
      "ĠLiter": 9156,
      "Ġcha": 9157,
      "Ġinsect": 9158,
      "Ġcontrast": 9159,
      "Ġpert": 9160,
      "Ġbought": 9161,
      "á½´": 9162,
      "ĠCanterbury": 9163,
      "Ġterror": 9164,
      "ĠJapan": 9165,
      "Ġprotest": 9166,
      "ĠVic": 9167,
      "inued": 9168,
      "ja": 9169,
      "Ġbv": 9170,
      "Â¢": 9171,
      "Ġward": 9172,
      "iatic": 9173,
      "ĠBirmingham": 9174,
      ";\"": 9175,
      "Ġsymb": 9176,
      "Ġhered": 9177,
      "Ġstore": 9178,
      "Ġdru": 9179,
      "Ġknife": 9180,
      "Ġyours": 9181,
      "bus": 9182,
      "Com": 9183,
      "isons": 9184,
      "Ġpau": 9185,
      "Ġupright": 9186,
      "Ġstout": 9187,
      "ket": 9188,
      "Ġkiss": 9189,
      "ĠSomer": 9190,
      "Ġsunt": 9191,
      "ĠMic": 9192,
      "amph": 9193,
      "Ġpious": 9194,
      "Ġchannel": 9195,
      "Ġpend": 9196,
      "Ġdescent": 9197,
      "vet": 9198,
      "ĠAbbey": 9199,
      "Ġbreed": 9200,
      "Ġphrase": 9201,
      "Ġeh": 9202,
      "Ġdwelling": 9203,
      "Ġwidely": 9204,
      "Ġinex": 9205,
      "Ġnarrative": 9206,
      "Ġsurvey": 9207,
      "Ġaugment": 9208,
      "Ġrepresenting": 9209,
      "oty": 9210,
      "Ġunusual": 9211,
      "Ġprimitive": 9212,
      "ĠTower": 9213,
      "Ġgle": 9214,
      "ĠHook": 9215,
      "ĠTill": 9216,
      "osity": 9217,
      "Ġwore": 9218,
      "ĠDean": 9219,
      "Ġpermission": 9220,
      "ĠRos": 9221,
      "aund": 9222,
      "ĠBla": 9223,
      "Ġshoulder": 9224,
      "ĠLordship": 9225,
      "Ġfupp": 9226,
      "Ġgallant": 9227,
      "Ġrelates": 9228,
      "Ġpots": 9229,
      "unning": 9230,
      "Ġoak": 9231,
      "Ġperpendicular": 9232,
      "Ġmachinery": 9233,
      "anity": 9234,
      "Ġrespiration": 9235,
      "Ġdrive": 9236,
      "Ġflav": 9237,
      "morrow": 9238,
      "\"\"": 9239,
      "Ġplough": 9240,
      "lyn": 9241,
      "Ġultimately": 9242,
      "Ġdispute": 9243,
      "Ġbloom": 9244,
      "erton": 9245,
      "ĠService": 9246,
      "Ġcartil": 9247,
      "Ġneighbours": 9248,
      "Ġarsen": 9249,
      "Ġ117": 9250,
      "Ġremarkably": 9251,
      "Ġinnocent": 9252,
      "pered": 9253,
      "ĠSquare": 9254,
      "ĠNewton": 9255,
      "Ġsafely": 9256,
      "urus": 9257,
      "ĠFab": 9258,
      "Ġtraveller": 9259,
      "Ġhumanity": 9260,
      "ONG": 9261,
      "ĠAny": 9262,
      "Ġelab": 9263,
      "Ġdiscont": 9264,
      "Ġbestowed": 9265,
      "Ġaward": 9266,
      "Ġzinc": 9267,
      "lication": 9268,
      "ĠChr": 9269,
      "Ġproves": 9270,
      "ICE": 9271,
      "Ġadjoining": 9272,
      "Ġener": 9273,
      "Ġny": 9274,
      "inger": 9275,
      "ylum": 9276,
      "ĠBall": 9277,
      "Ġproductions": 9278,
      "Ġspecially": 9279,
      "Ġshalt": 9280,
      "uta": 9281,
      "ĠLeices": 9282,
      "On": 9283,
      "eches": 9284,
      "nefs": 9285,
      "Ġadvert": 9286,
      "Ġbeloved": 9287,
      "Ġsets": 9288,
      "ruit": 9289,
      "usal": 9290,
      "urt": 9291,
      "ĠCampbell": 9292,
      "Ġlectures": 9293,
      "Ġpartially": 9294,
      "Ġshores": 9295,
      "Ġterminal": 9296,
      "iderable": 9297,
      "And": 9298,
      "Ġpinn": 9299,
      "ĠGENER": 9300,
      "soever": 9301,
      "ĠMSS": 9302,
      "Ġresearches": 9303,
      "Ġlaying": 9304,
      "ART": 9305,
      "ushing": 9306,
      "Ġbef": 9307,
      "asy": 9308,
      "Ġsickness": 9309,
      "Ġbrothers": 9310,
      "Ġflex": 9311,
      "Ġrepeat": 9312,
      "ĠTuesday": 9313,
      "Ġvertical": 9314,
      "Ġability": 9315,
      "Ġsorry": 9316,
      "engers": 9317,
      "Ġduly": 9318,
      "Ġbetray": 9319,
      "Ġangels": 9320,
      "Ġrear": 9321,
      "Ġcholera": 9322,
      "rank": 9323,
      "Ġsecretary": 9324,
      "OK": 9325,
      "Ġhide": 9326,
[...]
