{
  "version": "1.0",
  "truncation": null,
  "padding": null,
  "added_tokens": [
    {
      "id": 0,
      "content": "<|pad|>",
      "single_word": false,
      "lstrip": false,
      "rstrip": false,
      "normalized": false,
      "special": true
    },
    {
      "id": 1,
      "content": "<|unk|>",
      "single_word": false,
      "lstrip": false,
      "rstrip": false,
      "normalized": false,
      "special": true
    },
    {
      "id": 2,
      "content": "<|mask|>",
      "single_word": false,
      "lstrip": false,
      "rstrip": false,
      "normalized": false,
      "special": true
    },
    {
      "id": 3,
      "content": "<|bos|>",
      "single_word": false,
      "lstrip": false,
      "rstrip": false,
      "normalized": false,
      "special": true
    },
    {
      "id": 4,
      "content": "<|eos|>",
      "single_word": false,
      "lstrip": false,
      "rstrip": false,
      "normalized": false,
      "special": true
    },
    {
      "id": 5,
      "content": "<|system|>",
      "single_word": false,
      "lstrip": false,
      "rstrip": false,
      "normalized": false,
      "special": true
    },
    {
      "id": 6,
      "content": "<|user|>",
      "single_word": false,
      "lstrip": false,
      "rstrip": false,
      "normalized": false,
      "special": true
    },
    {
      "id": 7,
      "content": "<|assistant|>",
      "single_word": false,
      "lstrip": false,
      "rstrip": false,
      "normalized": false,
      "special": true
    },
    {
      "id": 8,
      "content": "<|future1|>",
      "single_word": false,
      "lstrip": false,
      "rstrip": false,
      "normalized": false,
      "special": true
    },
    {
      "id": 9,
      "content": "<|future2|>",
      "single_word": false,
      "lstrip": false,
      "rstrip": false,
      "normalized": false,
      "special": true
    },
    {
      "id": 10,
      "content": "<|future3|>",
      "single_word": false,
      "lstrip": false,
      "rstrip": false,
      "normalized": false,
      "special": true
    },
    {
      "id": 11,
      "content": "<|future4|>",
      "single_word": false,
      "lstrip": false,
      "rstrip": false,
      "normalized": false,
      "special": true
    },
    {
      "id": 12,
      "content": "<|future5|>",
      "single_word": false,
      "lstrip": false,
      "rstrip": false,
      "normalized": false,
      "special": true
    },
    {
      "id": 13,
      "content": "<|future6|>",
      "single_word": false,
      "lstrip": false,
      "rstrip": false,
      "normalized": false,
      "special": true
    },
    {
      "id": 14,
      "content": "<|future7|>",
      "single_word": false,
      "lstrip": false,
      "rstrip": false,
      "normalized": false,
      "special": true
    },
    {
      "id": 15,
      "content": "<|future8|>",
      "single_word": false,
      "lstrip": false,
      "rstrip": false,
      "normalized": false,
      "special": true
    }
  ],
  "normalizer": null,
  "pre_tokenizer": {
    "type": "ByteLevel",
    "add_prefix_space": false,
    "trim_offsets": true,
    "use_regex": true
  },
  "post_processor": {
    "type": "TemplateProcessing",
    "single": [
      {
        "Sequence": {
          "id": "A",
          "type_id": 0
        }
      }
    ],
    "pair": [
      {
        "Sequence": {
          "id": "A",
          "type_id": 0
        }
      },
      {
        "Sequence": {
          "id": "B",
          "type_id": 1
        }
      }
    ],
    "special_tokens": {}
  },
  "decoder": {
    "type": "ByteLevel",
    "add_prefix_space": true,
    "trim_offsets": true,
    "use_regex": true
  },
  "model": {
    "type": "BPE",
    "dropout": null,
    "unk_token": "<|unk|>",
    "continuing_subword_prefix": null,
    "end_of_word_suffix": null,
    "fuse_unk": false,
    "byte_fallback": false,
    "ignore_merges": false,
    "vocab": {
      "<|pad|>": 0,
      "<|unk|>": 1,
      "<|mask|>": 2,
      "<|bos|>": 3,
      "<|eos|>": 4,
      "<|system|>": 5,
      "<|user|>": 6,
      "<|assistant|>": 7,
      "<|future1|>": 8,
      "<|future2|>": 9,
      "<|future3|>": 10,
      "<|future4|>": 11,
      "<|future5|>": 12,
      "<|future6|>": 13,
      "<|future7|>": 14,
      "<|future8|>": 15,
      "!": 16,
      "\"": 17,
      "#": 18,
      "$": 19,
      "%": 20,
      "&": 21,
      "'": 22,
      "(": 23,
      ")": 24,
      "*": 25,
      "+": 26,
      ",": 27,
      "-": 28,
      ".": 29,
      "/": 30,
      "0": 31,
      "1": 32,
      "2": 33,
      "3": 34,
      "4": 35,
      "5": 36,
      "6": 37,
      "7": 38,
      "8": 39,
      "9": 40,
      ":": 41,
      ";": 42,
      "<": 43,
      "=": 44,
      ">": 45,
      "?": 46,
      "@": 47,
      "A": 48,
      "B": 49,
      "C": 50,
      "D": 51,
      "E": 52,
      "F": 53,
      "G": 54,
      "H": 55,
      "I": 56,
      "J": 57,
      "K": 58,
      "L": 59,
      "M": 60,
      "N": 61,
      "O": 62,
      "P": 63,
      "Q": 64,
      "R": 65,
      "S": 66,
      "T": 67,
      "U": 68,
      "V": 69,
      "W": 70,
      "X": 71,
      "Y": 72,
      "Z": 73,
      "[": 74,
      "\\": 75,
      "]": 76,
      "^": 77,
      "_": 78,
      "`": 79,
      "a": 80,
      "b": 81,
      "c": 82,
      "d": 83,
      "e": 84,
      "f": 85,
      "g": 86,
      "h": 87,
      "i": 88,
      "j": 89,
      "k": 90,
      "l": 91,
      "m": 92,
      "n": 93,
      "o": 94,
      "p": 95,
      "q": 96,
      "r": 97,
      "s": 98,
      "t": 99,
      "u": 100,
      "v": 101,
      "w": 102,
      "x": 103,
      "y": 104,
      "z": 105,
      "{": 106,
      "|": 107,
      "}": 108,
      "~": 109,
      "¡": 110,
      "¢": 111,
      "£": 112,
      "¤": 113,
      "¥": 114,
      "¦": 115,
      "§": 116,
      "¨": 117,
      "©": 118,
      "ª": 119,
      "«": 120,
      "¬": 121,
      "®": 122,
      "¯": 123,
      "°": 124,
      "±": 125,
      "²": 126,
      "³": 127,
      "´": 128,
      "µ": 129,
      "¶": 130,
      "·": 131,
      "¸": 132,
      "¹": 133,
      "º": 134,
      "»": 135,
      "¼": 136,
      "½": 137,
      "¾": 138,
      "¿": 139,
      "À": 140,
      "Á": 141,
      "Â": 142,
      "Ã": 143,
      "Ä": 144,
      "Å": 145,
      "Æ": 146,
      "Ç": 147,
      "È": 148,
      "É": 149,
      "Ê": 150,
      "Ë": 151,
      "Ì": 152,
      "Í": 153,
      "Î": 154,
      "Ï": 155,
      "Ð": 156,
      "Ñ": 157,
      "Ò": 158,
      "Ó": 159,
      "Ô": 160,
      "Õ": 161,
      "Ö": 162,
      "×": 163,
      "Ø": 164,
      "Ù": 165,
      "Ú": 166,
      "Û": 167,
      "Ü": 168,
      "Ý": 169,
      "Þ": 170,
      "ß": 171,
      "à": 172,
      "á": 173,
      "â": 174,
      "ã": 175,
      "ä": 176,
      "å": 177,
      "æ": 178,
      "ç": 179,
      "è": 180,
      "é": 181,
      "ê": 182,
      "ë": 183,
      "ì": 184,
      "í": 185,
      "î": 186,
      "ï": 187,
      "ð": 188,
      "ñ": 189,
      "ò": 190,
      "ó": 191,
      "ô": 192,
      "õ": 193,
      "ö": 194,
      "÷": 195,
      "ø": 196,
      "ù": 197,
      "ú": 198,
      "û": 199,
      "ü": 200,
      "ý": 201,
      "þ": 202,
      "ÿ": 203,
      "Ā": 204,
      "ā": 205,
      "Ă": 206,
      "ă": 207,
      "Ą": 208,
      "ą": 209,
      "Ć": 210,
      "ć": 211,
      "Ĉ": 212,
      "ĉ": 213,
      "Ċ": 214,
      "ċ": 215,
      "Č": 216,
      "č": 217,
      "Ď": 218,
      "ď": 219,
      "Đ": 220,
      "đ": 221,
      "Ē": 222,
      "ē": 223,
      "Ĕ": 224,
      "ĕ": 225,
      "Ė": 226,
      "ė": 227,
      "Ę": 228,
      "ę": 229,
      "Ě": 230,
      "ě": 231,
      "Ĝ": 232,
      "ĝ": 233,
      "Ğ": 234,
      "ğ": 235,
      "Ġ": 236,
      "ġ": 237,
      "Ģ": 238,
      "ģ": 239,
      "Ĥ": 240,
      "ĥ": 241,
      "Ħ": 242,
      "ħ": 243,
      "Ĩ": 244,
      "ĩ": 245,
      "Ī": 246,
      "ī": 247,
      "Ĭ": 248,
      "ĭ": 249,
      "Į": 250,
      "į": 251,
      "İ": 252,
      "ı": 253,
      "Ĳ": 254,
      "ĳ": 255,
      "Ĵ": 256,
      "ĵ": 257,
      "Ķ": 258,
      "ķ": 259,
      "ĸ": 260,
      "Ĺ": 261,
      "ĺ": 262,
      "Ļ": 263,
      "ļ": 264,
      "Ľ": 265,
      "ľ": 266,
      "Ŀ": 267,
      "ŀ": 268,
      "Ł": 269,
      "ł": 270,
      "Ń": 271,
      "Ġt": 272,
      "he": 273,
      "Ġa": 274,
      "Ġthe": 275,
      "in": 276,
      "Ġo": 277,
      "re": 278,
      "Ġs": 279,
      "Ġw": 280,
      "er": 281,
      "on": 282,
      "en": 283,
      "Ġof": 284,
      "at": 285,
      "is": 286,
      "nd": 287,
      "it": 288,
      "ed": 289,
      "Ġb": 290,
      "Ġc": 291,
      "es": 292,
      "Ġp": 293,
      "Ġf": 294,
      "ou": 295,
      "Ġm": 296,
      "or": 297,
      "Ġh": 298,
      "ing": 299,
      "Ġto": 300,
      "Ġand": 301,
      "ar": 302,
      "Ġin": 303,
      "an": 304,
      "Ġd": 305,
      "Ġth": 306,
      "al": 307,
      "as": 308,
      "ic": 309,
      "ion": 310,
      "le": 311,
      "om": 312,
      "Ġn": 313,
      "ent": 314,
      "ly": 315,
      "Ġe": 316,
      "Ġbe": 317,
      "st": 318,
      "Ġre": 319,
      "Ġl": 320,
      "se": 321,
      "ll": 322,
      "ce": 323,
      "ot": 324,
      "Ġg": 325,
      "ut": 326,
      "ve": 327,
      "Ġhe": 328,
      "Ġwh": 329,
      "ct": 330,
      "im": 331,
      "ur": 332,
      "Ġthat": 333,
      "ad": 334,
      "ro": 335,
      "ir": 336,
      "Ġu": 337,
      "ver": 338,
      "ig": 339,
      "Ġis": 340,
      "ld": 341,
      "ith": 342,
      "ow": 343,
      "id": 344,
      "Ġfor": 345,
      "ĠT": 346,
      "Ġit": 347,
      "et": 348,
      "Ġas": 349,
      "ĠI": 350,
      "Ġwith": 351,
      "ch": 352,
      "Ġon": 353,
      "ation": 354,
      "Ġwas": 355,
      "Ġcon": 356,
      "ra": 357,
      "Ġhis": 358,
      "ere": 359,
      "Ġst": 360,
      "Ġsu": 361,
      "ess": 362,
      "ay": 363,
      "if": 364,
      "Ġan": 365,
      "il": 366,
      "her": 367,
      "ul": 368,
      "Ġby": 369,
      "ter": 370,
      "Ġnot": 371,
      "Ġde": 372,
      "am": 373,
      "ain": 374,
      "Ġy": 375,
      "ĠS": 376,
      "ĠC": 377,
      "ich": 378,
      "ri": 379,
      "ht": 380,
      "est": 381,
      "ĠA": 382,
      "Ġha": 383,
      "ol": 384,
      "res": 385,
      "ĠThe": 386,
      "rom": 387,
      "Ġwhich": 388,
      "od": 389,
      "ab": 390,
      "Ġex": 391,
      "pe": 392,
      "Ġv": 393,
      "Ġse": 394,
      "Ġor": 395,
      "qu": 396,
      "th": 397,
      "ore": 398,
      "Ġat": 399,
      "em": 400,
      "ill": 401,
      "Ġthis": 402,
      "ate": 403,
      "and": 404,
      "our": 405,
      "ous": 406,
      "ist": 407,
      "ge": 408,
      "Ġsh": 409,
      "us": 410,
      "ĠM": 411,
      "ĠH": 412,
      "Ġpro": 413,
      "ould": 414,
      "ity": 415,
      "Ġfrom": 416,
      "Ġcom": 417,
      "os": 418,
      "ers": 419,
      "um": 420,
      "Ġwe": 421,
      "ant": 422,
      "ight": 423,
      "nt": 424,
      "ac": 425,
      "ure": 426,
      "Ġso": 427,
      "end": 428,
      "ke": 429,
      "Ġare": 430,
      "Ġtheir": 431,
      "oug": 432,
      "Ġne": 433,
      "âĢ": 434,
      "Ġbut": 435,
      "Ġhad": 436,
      "iv": 437,
      "pp": 438,
      "ĠB": 439,
      "all": 440,
      "Ġr": 441,
      "Ġhave": 442,
      "ĠP": 443,
      "Ġch": 444,
      "ard": 445,
      "ust": 446,
      "Ġwho": 447,
      "Ġall": 448,
      "Ġwhe": 449,
      "ies": 450,
      "ive": 451,
      "Ġint": 452,
      "art": 453,
      "ie": 454,
      "ment": 455,
      "ĠG": 456,
      "pt": 457,
      "Ġup": 458,
      "ort": 459,
      "ĠW": 460,
      "Ġthey": 461,
      "ast": 462,
      "Ġhim": 463,
      "Ġle": 464,
      "ci": 465,
      "Ġwere": 466,
      "Ġman": 467,
      "ound": 468,
      "red": 469,
      "Ġ*": 470,
      "very": 471,
      "ence": 472,
      "Ġme": 473,
      "Ġal": 474,
      "Ġ\"": 475,
      "able": 476,
      "ost": 477,
      "'s": 478,
      "ĠF": 479,
      "ect": 480,
      "Ġher": 481,
      "ance": 482,
      "el": 483,
      "ĠL": 484,
      "ome": 485,
      "Ġyou": 486,
      "ther": 487,
      "ĠE": 488,
      "ff": 489,
      "Ġdis": 490,
      "ong": 491,
      "Ġthem": 492,
      "reat": 493,
      "Ġun": 494,
      "Ġone": 495,
      "ru": 496,
      "op": 497,
      "ough": 498,
      "Ġwor": 499,
      "cc": 500,
      "Ġk": 501,
      "ind": 502,
      "Ġar": 503,
      "sel": 504,
      "Ġim": 505,
      "ose": 506,
      "per": 507,
      "ĠD": 508,
      "ions": 509,
      "ag": 510,
      "un": 511,
      "ak": 512,
      "ud": 513,
      "Ġper": 514,
      "pl": 515,
      "ine": 516,
      "The": 517,
      "ib": 518,
      "Ġad": 519,
      "ish": 520,
      "Ġno": 521,
      "Ġab": 522,
      "Ġour": 523,
      "ary": 524,
      "av": 525,
      "Ġbeen": 526,
      "ĠR": 527,
      "Ġen": 528,
      "Ġgo": 529,
      "ally": 530,
      "ated": 531,
      "Ġsp": 532,
      "Ġits": 533,
      "ry": 534,
      "Ġdo": 535,
      "Ġ1": 536,
      "Ġupon": 537,
      "Ġfe": 538,
      "Ġwill": 539,
      "wn": 540,
      "out": 541,
      "Ġpl": 542,
      "ap": 543,
      "ame": 544,
      "Ġmore": 545,
      "Ġmy": 546,
      "hed": 547,
      "ass": 548,
      "Ġwould": 549,
      "Ġthere": 550,
      "Ġj": 551,
      "ord": 552,
      "Ġag": 553,
      "ious": 554,
      "ount": 555,
      "ice": 556,
      "ress": 557,
      "Ġcont": 558,
      "ĠO": 559,
      "Ġhas": 560,
      "Ġpre": 561,
      "ĠN": 562,
      "Ġwhen": 563,
      "ire": 564,
      "ĠTh": 565,
      "ert": 566,
      "ven": 567,
      "ans": 568,
      "Ġres": 569,
      "Ġqu": 570,
      "Ġother": 571,
      "Ġvery": 572,
      "Ġsa": 573,
      "âĢĶ": 574,
      "Ġob": 575,
      "ign": 576,
      "act": 577,
      "au": 578,
      "the": 579,
      "Ġlo": 580,
      "Ġcl": 581,
      "Ġam": 582,
      "Ġinto": 583,
      "are": 584,
      "ered": 585,
      "erv": 586,
      "itt": 587,
      "ace": 588,
      "one": 589,
      "Ġshe": 590,
      "ĠCh": 591,
      "Ġthese": 592,
      "Ġus": 593,
      "ical": 594,
      "ful": 595,
      "Ġany": 596,
      "Ġtr": 597,
      "Ġcomm": 598,
      "Ġpr": 599,
      "Ġcan": 600,
      "age": 601,
      "ok": 602,
      "now": 603,
      "Ġsuch": 604,
      "ep": 605,
      "Ġgreat": 606,
      "ime": 607,
      "fore": 608,
      "Ġthan": 609,
      "Ġpart": 610,
      "ide": 611,
      "ng": 612,
      "self": 613,
      "Ġif": 614,
      "bl": 615,
      "ck": 616,
      "Ġdes": 617,
      "cl": 618,
      "Ġsome": 619,
      "ition": 620,
      "ĠJ": 621,
      "ĠHe": 622,
      "ations": 623,
      "nder": 624,
      "ile": 625,
      "ĠIt": 626,
      "ings": 627,
      "ue": 628,
      "ult": 629,
      "ars": 630,
      "ond": 631,
      "Ġout": 632,
      "ne": 633,
      "ness": 634,
      "Ġrem": 635,
      "ree": 636,
      "ade": 637,
      "we": 638,
      "Ġpres": 639,
      "Ġind": 640,
      "Ġcons": 641,
      "Ġmost": 642,
      "Ġsub": 643,
      "ath": 644,
      "Ġmay": 645,
      "ite": 646,
      "ach": 647,
      "ake": 648,
      "Ġcomp": 649,
      "ise": 650,
      "iz": 651,
      "Ġspe": 652,
      "ces": 653,
      "Ġtw": 654,
      "Ġimp": 655,
      "Ġpe": 656,
      "ict": 657,
      "ial": 658,
      "oss": 659,
      "ction": 660,
      "Ġoff": 661,
      ".\"": 662,
      "ip": 663,
      "Ġthose": 664,
      "ens": 665,
      "fter": 666,
      "ang": 667,
      "ied": 668,
      "Ġonly": 669,
      "Ġacc": 670,
      "Ġatt": 671,
      "Ġapp": 672,
      "urn": 673,
      "ward": 674,
      "Ġbr": 675,
      "int": 676,
      "ife": 677,
      "Ġshould": 678,
      "Ġtime": 679,
      "ought": 680,
      "Ġro": 681,
      "Ġmust": 682,
      "Ġagain": 683,
      "cess": 684,
      "uch": 685,
      "Ġpo": 686,
      "Ġwhere": 687,
      "ons": 688,
      "uth": 689,
      "Ġye": 690,
      "Ġbec": 691,
      "Ġknow": 692,
      "ood": 693,
      "ener": 694,
      "ark": 695,
      "Ġover": 696,
      "ory": 697,
      "ents": 698,
      "Ġunder": 699,
      "ced": 700,
      "ike": 701,
      "ian": 702,
      "Ġwhat": 703,
      "ual": 704,
      "ather": 705,
      "oth": 706,
      "Ġown": 707,
      "Ġgr": 708,
      "ack": 709,
      "ved": 710,
      "ject": 711,
      "Ġcould": 712,
      "ays": 713,
      "ĠIn": 714,
      "Ġthen": 715,
      "Ġsc": 716,
      "Ġent": 717,
      "oy": 718,
      "Ġthr": 719,
      "Ġbl": 720,
      "old": 721,
      "ible": 722,
      "Ġfl": 723,
      "ĠThis": 724,
      "Ġfir": 725,
      "og": 726,
      "ild": 727,
      "for": 728,
      "Ġrec": 729,
      "ber": 730,
      "other": 731,
      "Ġrep": 732,
      "ĠSt": 733,
      "Ġbet": 734,
      "ors": 735,
      "Ġform": 736,
      "Ġnat": 737,
      "Ġrel": 738,
      "led": 739,
      "so": 740,
      "Ġmade": 741,
      "llow": 742,
      "Ġem": 743,
      "Ġafter": 744,
      "ates": 745,
      "ble": 746,
      "Ġra": 747,
      "Ġhow": 748,
      "aw": 749,
      "Ġsaid": 750,
      "du": 751,
      "ty": 752,
      "Ġdist": 753,
      "Ġeven": 754,
      "Ġfo": 755,
      "rit": 756,
      ",\"": 757,
      "iff": 758,
      "Ġtwo": 759,
      "Ġchar": 760,
      "Ġbefore": 761,
      "ĠGod": 762,
      "Ġnow": 763,
      "Ġap": 764,
      "ning": 765,
      "Ġthrough": 766,
      "Ġ(": 767,
      "pect": 768,
      "ished": 769,
      "Ġbeing": 770,
      "Ġmen": 771,
      "ase": 772,
      "irit": 773,
      "Ġyour": 774,
      "Ġ2": 775,
      "Ġinst": 776,
      "ily": 777,
      "Ġevery": 778,
      "ren": 779,
      "Ġgra": 780,
      "ower": 781,
      "iss": 782,
      "ause": 783,
      "Ġear": 784,
      "ĠMr": 785,
      "land": 786,
      "ove": 787,
      "Ġwork": 788,
      "Ġmight": 789,
      "Ġpass": 790,
      "Ġreg": 791,
      "ia": 792,
      "Ġgood": 793,
      "Ġlike": 794,
      "Ġfirst": 795,
      "ater": 796,
      "ific": 797,
      "ves": 798,
      "Ġlife": 799,
      "atter": 800,
      "Ġposs": 801,
      "Ġte": 802,
      "âĢĻ": 803,
      "Ġfound": 804,
      "Ġexp": 805,
      "Ġshall": 806,
      "hes": 807,
      "ubl": 808,
      "Ġmuch": 809,
      "ently": 810,
      "ving": 811,
      "rist": 812,
      "ick": 813,
      "Ġhum": 814,
      "Ġseem": 815,
      "med": 816,
      "Ġend": 817,
      "Ġac": 818,
      "ever": 819,
      "Ġpers": 820,
      "Ġfa": 821,
      "Ġconf": 822,
      "igh": 823,
      "ular": 824,
      "row": 825,
      "Ġyet": 826,
      "Ġaff": 827,
      "Ġhand": 828,
      "Ġass": 829,
      "hen": 830,
      "Ġagainst": 831,
      "--": 832,
      "man": 833,
      "Ġsee": 834,
      "Ġmany": 835,
      "Ġcount": 836,
      "Ġev": 837,
      "Ġspirit": 838,
      "Ġprof": 839,
      "rib": 840,
      "ract": 841,
      "Ġdisc": 842,
      "Ġwell": 843,
      "Ġpresent": 844,
      "les": 845,
      "Ġlong": 846,
      "Ġco": 847,
      ".*": 848,
      "vers": 849,
      "Ġbel": 850,
      "ertain": 851,
      "Ġact": 852,
      "eth": 853,
      "own": 854,
      "Ġabout": 855,
      "Ġobs": 856,
      "Ġwithout": 857,
      "vern": 858,
      "Ġappe": 859,
      "Ġdel": 860,
      "lect": 861,
      "ten": 862,
      "ple": 863,
      "Ġmere": 864,
      "Ġpur": 865,
      "Ġinf": 866,
      "ution": 867,
      "ĠK": 868,
      "ph": 869,
      "ined": 870,
      "Ġdid": 871,
      "uring": 872,
      "Ġsec": 873,
      "ittle": 874,
      "less": 875,
      "ople": 876,
      "Ġstr": 877,
      "cept": 878,
      "ures": 879,
      "Ġsupp": 880,
      "ĠV": 881,
      "ained": 882,
      "aint": 883,
      "ady": 884,
      "Ġret": 885,
      "Ġgener": 886,
      "Ġnecess": 887,
      ",*": 888,
      "Ġsame": 889,
      "Ġdiff": 890,
      "Th": 891,
      "ink": 892,
      "Ġgl": 893,
      "Ġext": 894,
      "ĠChrist": 895,
      "Ġsm": 896,
      "cy": 897,
      "gg": 898,
      "ĠY": 899,
      "Ġday": 900,
      "Ġinc": 901,
      "ited": 902,
      "ating": 903,
      "ĠBut": 904,
      "Ġord": 905,
      "Ġthough": 906,
      "Ġlittle": 907,
      "ave": 908,
      "ĠAnd": 909,
      "Ġeff": 910,
      "ared": 911,
      "ublic": 912,
      "ments": 913,
      "und": 914,
      "Ġsur": 915,
      "Ġest": 916,
      "ope": 917,
      "Ġsl": 918,
      "of": 919,
      "Ġref": 920,
      "ix": 921,
      "ities": 922,
      "Ġtru": 923,
      "Ġtra": 924,
      "Ġconsid": 925,
      "Ġhimself": 926,
      "Ġalso": 927,
      "te": 928,
      "Ġwhile": 929,
      "mer": 930,
      "Ġpower": 931,
      "ouse": 932,
      "Ġpeople": 933,
      "uthor": 934,
      "Ġop": 935,
      "Ġinter": 936,
      "ĠEng": 937,
      "Ġset": 938,
      "oun": 939,
      "ween": 940,
      "ret": 941,
      "ft": 942,
      "Ġocc": 943,
      "Ġnew": 944,
      "Ġbo": 945,
      "Ġcall": 946,
      "Ġwhose": 947,
      "Ġadv": 948,
      "Ġlet": 949,
      "Ġ3": 950,
      "ĠU": 951,
      "be": 952,
      "Ġdep": 953,
      "ince": 954,
      "Ġinv": 955,
      "sh": 956,
      "ene": 957,
      "Ġauthor": 958,
      "Ġbetween": 959,
      "ety": 960,
      "Ġserv": 961,
      "Ġdef": 962,
      "vel": 963,
      "ention": 964,
      "Ġworld": 965,
      "Ġcol": 966,
      "Ġfind": 967,
      "Ġcour": 968,
      "als": 969,
      "Ġnever": 970,
      "ative": 971,
      "its": 972,
      "ived": 973,
      "ason": 974,
      "ute": 975,
      "Ġdra": 976,
      "Ġaw": 977,
      "Ġfollow": 978,
      "Ġfar": 979,
      "ont": 980,
      "ug": 981,
      "Ġread": 982,
      "Ġpossess": 983,
      "Ġboth": 984,
      "erm": 985,
      "Ġjust": 986,
      "ail": 987,
      "ense": 988,
      "ĠWe": 989,
      "Ġwar": 990,
      "not": 991,
      "Ġamong": 992,
      "Ġheart": 993,
      "Ġsou": 994,
      "Ġyears": 995,
      "Ġcor": 996,
      "Ġright": 997,
      "ants": 998,
      "ĠWh": 999,
      "aking": 1000,
      "ull": 1001,
      "Ġsay": 1002,
      "Ġdem": 1003,
      "Ġunt": 1004,
      "Ġins": 1005,
      "ner": 1006,
      "Ġtoo": 1007,
      "Ġconst": 1008,
      "Ġpol": 1009,
      "Ġsy": 1010,
      "ters": 1011,
      "ither": 1012,
      "Ġold": 1013,
      "Ġbeg": 1014,
      "Ġoften": 1015,
      "Ġph": 1016,
      "Ġart": 1017,
      "osed": 1018,
      "ern": 1019,
      "ew": 1020,
      "Ġcertain": 1021,
      "Ġhuman": 1022,
      "ended": 1023,
      "Ġmind": 1024,
      "Ġca": 1025,
      "selves": 1026,
      "Ġmake": 1027,
      "air": 1028,
      "riend": 1029,
      "ec": 1030,
      "Ġgiv": 1031,
      "here": 1032,
      "Ġhere": 1033,
      "Ġcar": 1034,
      "hing": 1035,
      "Ġlaw": 1036,
      "imes": 1037,
      "Ġ_": 1038,
      "Ġplace": 1039,
      "ged": 1040,
      "Ġwithin": 1041,
      "oc": 1042,
      "ately": 1043,
      "ility": 1044,
      "xt": 1045,
      "Ġthought": 1046,
      "Ġmor": 1047,
      "Ġ0": 1048,
      "Ġke": 1049,
      "to": 1050,
      "Ġcharact": 1051,
      "ks": 1052,
      "lish": 1053,
      "wh": 1054,
      "osition": 1055,
      "Ġrest": 1056,
      "ands": 1057,
      "Ġcur": 1058,
      "urch": 1059,
      "ains": 1060,
      "ys": 1061,
      "It": 1062,
      "ĠFor": 1063,
      "ĠThey": 1064,
      "Ġsuff": 1065,
      "Ġmatter": 1066,
      "Ġword": 1067,
      "Ġway": 1068,
      "ield": 1069,
      "sequ": 1070,
      "Ġlast": 1071,
      "ier": 1072,
      "Ġpublic": 1073,
      "Ġlar": 1074,
      "Ġprov": 1075,
      "ured": 1076,
      "ient": 1077,
      "Ġdown": 1078,
      "Ġprop": 1079,
      "ament": 1080,
      "Ġadm": 1081,
      "Ġsubject": 1082,
      "ement": 1083,
      "inci": 1084,
      "ened": 1085,
      "Ġwr": 1086,
      "ired": 1087,
      "Ġ4": 1088,
      "Ġple": 1089,
      "Ġtem": 1090,
      "Ġgu": 1091,
      "âĢľ": 1092,
      "erest": 1093,
      "riv": 1094,
      "Ġcountry": 1095,
      "Ġrequ": 1096,
      "ism": 1097,
      "Ġtrue": 1098,
      "Ġmon": 1099,
      "ĠLord": 1100,
      "ange": 1101,
      "In": 1102,
      "su": 1103,
      "ss": 1104,
      "Ġadd": 1105,
      "form": 1106,
      "Ġdet": 1107,
      "eed": 1108,
      "aps": 1109,
      "ised": 1110,
      "ift": 1111,
      "Ġless": 1112,
      "Ġfriend": 1113,
      "Ġcharacter": 1114,
      "Ġ'": 1115,
      "ief": 1116,
      "âĢĿ": 1117,
      "Ġtrans": 1118,
      "Ġlook": 1119,
      "ceed": 1120,
      "Ġnor": 1121,
      "Ġey": 1122,
      "Ġever": 1123,
      "Ġsim": 1124,
      "Ġmin": 1125,
      "Ġobserv": 1126,
      "Ġchild": 1127,
      "Ġtoward": 1128,
      "Ġnature": 1129,
      "Ġdec": 1130,
      "ering": 1131,
      "ude": 1132,
      "ins": 1133,
      "Ġ6": 1134,
      "ances": 1135,
      "Ġprofound": 1136,
      "iew": 1137,
      "aken": 1138,
      "Ġgovern": 1139,
      "urther": 1140,
      "cho": 1141,
      "Ġmar": 1142,
      "ody": 1143,
      "Ġprom": 1144,
      "Ġstill": 1145,
      "Ġstate": 1146,
      "cul": 1147,
      "tle": 1148,
      "ock": 1149,
      "Ġrece": 1150,
      "Ġopp": 1151,
      "Ġ5": 1152,
      "leg": 1153,
      "omm": 1154,
      "Ġhaving": 1155,
      "Ġthree": 1156,
      "Ġsent": 1157,
      "Ġnum": 1158,
      "den": 1159,
      "ĠHis": 1160,
      "Ġfact": 1161,
      "iness": 1162,
      "Ġfew": 1163,
      "Ġ18": 1164,
      "Ġitself": 1165,
      "ided": 1166,
      "Ġyoung": 1167,
      "up": 1168,
      "Ġprev": 1169,
      "ray": 1170,
      "most": 1171,
      "[^": 1172,
      "Ġsmall": 1173,
      "Ġstre": 1174,
      "Ġnear": 1175,
      "Ġvis": 1176,
      "Ġcontin": 1177,
      "Ġinterest": 1178,
      "Ġhigh": 1179,
      "Ġanother": 1180,
      "Ġdesc": 1181,
      "me": 1182,
      "ural": 1183,
      "arr": 1184,
      "ized": 1185,
      "Ġbecause": 1186,
      "Ġdiv": 1187,
      "Ġthink": 1188,
      "aug": 1189,
      "Ġconc": 1190,
      "Ġbre": 1191,
      "ident": 1192,
      "tern": 1193,
      "ines": 1194,
      "Ġperson": 1195,
      "ried": 1196,
      "Ġturn": 1197,
      "Ġprinci": 1198,
      "Ġfam": 1199,
      "Ġmod": 1200,
      "Ġed": 1201,
      "Ġconsider": 1202,
      "orn": 1203,
      "Ġmem": 1204,
      "asure": 1205,
      "Ġfin": 1206,
      "Ġcome": 1207,
      "Ġpoint": 1208,
      "bt": 1209,
      "Ġthemselves": 1210,
      "Ġhowever": 1211,
      "Ġtake": 1212,
      "lu": 1213,
      "Ġlight": 1214,
      "cial": 1215,
      "ality": 1216,
      "ually": 1217,
      "Ġjud": 1218,
      "ably": 1219,
      "ives": 1220,
      "Ġsoul": 1221,
      "ages": 1222,
      "haps": 1223,
      "Ġdisp": 1224,
      "Ġeach": 1225,
      "Ġdire": 1226,
      "Ġsign": 1227,
      "Ġcond": 1228,
      "Ġhon": 1229,
      "Ġarm": 1230,
      "Ġquest": 1231,
      "ale": 1232,
      "Ġregard": 1233,
      "pr": 1234,
      "Ġonce": 1235,
      "Ġlarge": 1236,
      "Ġvar": 1237,
      "Ġmom": 1238,
      "Ġste": 1239,
      "Ġcare": 1240,
      "ians": 1241,
      "Ġcap": 1242,
      "peri": 1243,
      "entle": 1244,
      "fect": 1245,
      "ours": 1246,
      "erve": 1247,
      "ric": 1248,
      "nce": 1249,
      "Ġsucc": 1250,
      "Ġwhole": 1251,
      "oman": 1252,
      "Ġreturn": 1253,
      "Ġestab": 1254,
      "Ġfeel": 1255,
      "Ġcle": 1256,
      "ĠAs": 1257,
      "ĠTo": 1258,
      "uty": 1259,
      "ĠCon": 1260,
      "ination": 1261,
      "Ġrather": 1262,
      "Ġsom": 1263,
      "ell": 1264,
      "Ġnecessary": 1265,
      "ned": 1266,
      "ressed": 1267,
      "Ġcir": 1268,
      "Ġpat": 1269,
      "Ġlead": 1270,
      "Ġsing": 1271,
      "Ġpract": 1272,
      "idence": 1273,
      "Ġsw": 1274,
      "ross": 1275,
      "ev": 1276,
      "get": 1277,
      "Ġwhom": 1278,
      "Ġval": 1279,
      "Ġfore": 1280,
      "Ġkind": 1281,
      "Ġdev": 1282,
      "Ġ|": 1283,
      "Ġuse": 1284,
      "rown": 1285,
      "Ġspeak": 1286,
      "aring": 1287,
      "ĠInd": 1288,
      "Ġill": 1289,
      "Ġdeep": 1290,
      "Ġmerely": 1291,
      "Ġpartic": 1292,
      "aid": 1293,
      "Ġbelie": 1294,
      "Ġback": 1295,
      "owed": 1296,
      "anding": 1297,
      "Ġhead": 1298,
      "ature": 1299,
      "ruct": 1300,
      "Ġmil": 1301,
      "Ġcannot": 1302,
      "Ġhouse": 1303,
      "Ġtruth": 1304,
      "Ġgive": 1305,
      "Ġmer": 1306,
      "lf": 1307,
      "Ġthings": 1308,
      "any": 1309,
      "Ġes": 1310,
      "Ġothers": 1311,
      "Ġlab": 1312,
      "Ġeffect": 1313,
      "Ġproper": 1314,
      "Ġbest": 1315,
      "Ġcommon": 1316,
      "ury": 1317,
      "Ġwater": 1318,
      "medi": 1319,
      "Ġyear": 1320,
      "Ġview": 1321,
      "Ġ7": 1322,
      "aim": 1323,
      "ank": 1324,
      "Ġgeneral": 1325,
      "Ġcame": 1326,
      "Ġ8": 1327,
      "Ġperhaps": 1328,
      "ĠThere": 1329,
      "ways": 1330,
      "amp": 1331,
      "Ġgentle": 1332,
      "Ġel": 1333,
      "men": 1334,
      "Ġreason": 1335,
      "iet": 1336,
      "Ġlove": 1337,
      "Ġdiffere": 1338,
      "ery": 1339,
      "ased": 1340,
      "omp": 1341,
      "Ġleft": 1342,
      "Ġexist": 1343,
      "ee": 1344,
      "Ġaway": 1345,
      "rop": 1346,
      "Ġbu": 1347,
      "cient": 1348,
      "Ġorder": 1349,
      "ched": 1350,
      "Ġhist": 1351,
      "Ġgiven": 1352,
      "ggest": 1353,
      "Ġsuccess": 1354,
      "Ġele": 1355,
      "Ġtre": 1356,
      "Ġut": 1357,
      "ivid": 1358,
      "ling": 1359,
      "Ġsever": 1360,
      "ison": 1361,
      "Ġeng": 1362,
      "Ġcalled": 1363,
      "Ġmet": 1364,
      "Ġnation": 1365,
      "ĠIf": 1366,
      "Ġbene": 1367,
      "alth": 1368,
      "meric": 1369,
      "ze": 1370,
      "Ġput": 1371,
      "Ġexam": 1372,
      "Ġsuggest": 1373,
      "that": 1374,
      "Ġnothing": 1375,
      "Ġname": 1376,
      "Ġmoment": 1377,
      "Ġ9": 1378,
      "Ġduring": 1379,
      "Ġdou": 1380,
      "ides": 1381,
      "ĠUn": 1382,
      "Ġpar": 1383,
      "Ġter": 1384,
      "Ġtherefore": 1385,
      "ex": 1386,
      "Ġneed": 1387,
      "ton": 1388,
      "Ġdeath": 1389,
      "Ġequ": 1390,
      "oh": 1391,
      "bers": 1392,
      "fort": 1393,
      "Ġearth": 1394,
      "ission": 1395,
      "ĠSp": 1396,
      "Ġabs": 1397,
      "by": 1398,
      "Ġleg": 1399,
      "Ġrelig": 1400,
      "ĠAl": 1401,
      "Ġund": 1402,
      "Ġtaken": 1403,
      "ub": 1404,
      "oint": 1405,
      "empt": 1406,
      "Ġprodu": 1407,
      "cum": 1408,
      "ches": 1409,
      "Ġthus": 1410,
      "Ġimmedi": 1411,
      "Ġhapp": 1412,
      "Ġobject": 1413,
      "Ġbody": 1414,
      "Ġland": 1415,
      "dom": 1416,
      "alf": 1417,
      "ĠEnglish": 1418,
      "Ġplac": 1419,
      "Ġheav": 1420,
      "iar": 1421,
      "ob": 1422,
      "Ġfav": 1423,
      "ĠPr": 1424,
      "Ġpolit": 1425,
      "Ġcent": 1426,
      "Ġsat": 1427,
      "ĠKing": 1428,
      "Ġstud": 1429,
      "Ġwrit": 1430,
      "Ġlear": 1431,
      "Ġsoon": 1432,
      "ĠAmeric": 1433,
      "Ġalmost": 1434,
      "And": 1435,
      "Ġperfect": 1436,
      "ĠAr": 1437,
      "Ġseemed": 1438,
      "Ġsince": 1439,
      "Ġdays": 1440,
      "Ġsk": 1441,
      "Ġquestion": 1442,
      "Ġfre": 1443,
      "ony": 1444,
      "aster": 1445,
      "read": 1446,
      "Ġentire": 1447,
      "ĠShe": 1448,
      "Ġunderst": 1449,
      "Ġaccount": 1450,
      "Ġsil": 1451,
      "Ġfaith": 1452,
      "Ġalways": 1453,
      "Ġcomple": 1454,
      "ledge": 1455,
      "Ġoffic": 1456,
      "This": 1457,
      "Ġstrong": 1458,
      "ript": 1459,
      "aj": 1460,
      "itted": 1461,
      "ified": 1462,
      "used": 1463,
      "Ġdecl": 1464,
      "uss": 1465,
      "Ġrespect": 1466,
      "Ġbea": 1467,
      "Ġfort": 1468,
      "Ġswe": 1469,
      "Ġbrought": 1470,
      "Ġcase": 1471,
      "Ġdoes": 1472,
      "Ġdirect": 1473,
      "**": 1474,
      "sw": 1475,
      "Ġimport": 1476,
      "li": 1477,
      "Ġnight": 1478,
      "Ġspec": 1479,
      "Ġking": 1480,
      "ues": 1481,
      "Ġpurp": 1482,
      "ator": 1483,
      "Ġcourse": 1484,
      "Ġpop": 1485,
      "Ġmeet": 1486,
      "Ġself": 1487,
      "ividual": 1488,
      "alk": 1489,
      "Ġmeans": 1490,
      "itions": 1491,
      "clud": 1492,
      "Ġche": 1493,
      "Ġlib": 1494,
      "Ġmis": 1495,
      "Ġseen": 1496,
      "Ġfour": 1497,
      "ĠThese": 1498,
      "itude": 1499,
      "ection": 1500,
      "ĠWhen": 1501,
      "ote": 1502,
      "Ġappear": 1503,
      "ship": 1504,
      "Ġdest": 1505,
      "Ġheld": 1506,
      "Ġresult": 1507,
      "rew": 1508,
      "ĠFr": 1509,
      "ĠAn": 1510,
      "Ġdone": 1511,
      "ĠEngland": 1512,
      "Ġuntil": 1513,
      "ples": 1514,
      "Ġbetter": 1515,
      "ĠHow": 1516,
      "Ġdi": 1517,
      "ĠRe": 1518,
      "Ġindividual": 1519,
      "fully": 1520,
      "chool": 1521,
      "Ġfather": 1522,
      "Ġknown": 1523,
      "ases": 1524,
      "ued": 1525,
      "asion": 1526,
      "stem": 1527,
      "elt": 1528,
      "But": 1529,
      "Ġinflu": 1530,
      "olog": 1531,
      "uc": 1532,
      "Ġmark": 1533,
      "par": 1534,
      "irt": 1535,
      "##": 1536,
      "Ġconv": 1537,
      "ency": 1538,
      "ows": 1539,
      "ĠSc": 1540,
      "Ġenc": 1541,
      "Ġseveral": 1542,
      "ane": 1543,
      "arch": 1544,
      "Ġhard": 1545,
      "Ġbro": 1546,
      "Ġparticular": 1547,
      "Ġseems": 1548,
      "ird": 1549,
      "Ġthing": 1550,
      "Ġ&": 1551,
      "Ġloc": 1552,
      "Ġfall": 1553,
      "ĠChurch": 1554,
      "Ġside": 1555,
      "Ġfra": 1556,
      "atic": 1557,
      "Ġreal": 1558,
      "ached": 1559,
      "Ġhope": 1560,
      "Ġtreat": 1561,
      "rent": 1562,
      "Ġground": 1563,
      "Ġsum": 1564,
      "icult": 1565,
      "Ġhands": 1566,
      "Ġfull": 1567,
      "ĠNew": 1568,
      "Ġopen": 1569,
      "sem": 1570,
      "Ġbecome": 1571,
      "Ġfr": 1572,
      "iment": 1573,
      "ists": 1574,
      "eng": 1575,
      "Ġwhether": 1576,
      "undred": 1577,
      "ius": 1578,
      "ting": 1579,
      "ĠâĢľ": 1580,
      "ciety": 1581,
      "Ġmo": 1582,
      "ax": 1583,
      "ices": 1584,
      "Ġappro": 1585,
      "oura": 1586,
      "Ġwords": 1587,
      "Ġsystem": 1588,
      "Ġcity": 1589,
      "otion": 1590,
      "Ġsole": 1591,
      "ets": 1592,
      "ending": 1593,
      "ape": 1594,
      "ration": 1595,
      "Ġru": 1596,
      "iving": 1597,
      "Ġask": 1598,
      "Ġide": 1599,
      "rench": 1600,
      "Ġtook": 1601,
      "ploy": 1602,
      "Ġcause": 1603,
      "oud": 1604,
      "resent": 1605,
      "orts": 1606,
      "He": 1607,
      "Ġsol": 1608,
      "?\"": 1609,
      "ister": 1610,
      "Ġdoubt": 1611,
      "use": 1612,
      "Ġgrand": 1613,
      "akes": 1614,
      "Ġcr": 1615,
      "Ġhold": 1616,
      "ĠChristian": 1617,
      "Ġmanner": 1618,
      "arm": 1619,
      "Ġnarr": 1620,
      "sp": 1621,
      "Ġpriv": 1622,
      "Ġdifficult": 1623,
      "ision": 1624,
      "ash": 1625,
      "Ġhundred": 1626,
      "ics": 1627,
      "ook": 1628,
      "Ġbur": 1629,
      "Ġsac": 1630,
      "Ġtri": 1631,
      "iod": 1632,
      "Ġir": 1633,
      "Wh": 1634,
      "fact": 1635,
      "Ġindeed": 1636,
      "ught": 1637,
      "Ġeyes": 1638,
      "ER": 1639,
      "ron": 1640,
      "vere": 1641,
      "Ġage": 1642,
      "Ġvol": 1643,
      "Ġcommun": 1644,
      "ts": 1645,
      "gy": 1646,
      "Ġnumber": 1647,
      "ĠAt": 1648,
      "ising": 1649,
      "Ġhome": 1650,
      "icate": 1651,
      "Ġproceed": 1652,
      "Ġcontr": 1653,
      "Ġexpect": 1654,
      "Ġeither": 1655,
      "ression": 1656,
      "Ġair": 1657,
      "oice": 1658,
      "itution": 1659,
      "ef": 1660,
      "Ġmag": 1661,
      "Ġpast": 1662,
      "Ġbook": 1663,
      "Ġfree": 1664,
      "Ġresol": 1665,
      "Ġsecond": 1666,
      "Ġnatural": 1667,
      "Ġcal": 1668,
      "ges": 1669,
      "Ġdom": 1670,
      "enty": 1671,
      "omen": 1672,
      "Ġhalf": 1673,
      "ĠSo": 1674,
      "Ġchildren": 1675,
      "ital": 1676,
      "Ġknowledge": 1677,
      "anger": 1678,
      "though": 1679,
      "Ġport": 1680,
      "Ġri": 1681,
      "overn": 1682,
      "ohn": 1683,
      "Ġdifferent": 1684,
      "inion": 1685,
      "ying": 1686,
      "con": 1687,
      "Ġsit": 1688,
      "iction": 1689,
      "Ġten": 1690,
      "igin": 1691,
      "ready": 1692,
      "Ġbus": 1693,
      "new": 1694,
      ".,": 1695,
      "outh": 1696,
      "'d": 1697,
      "Ġtest": 1698,
      "sequently": 1699,
      "Ġansw": 1700,
      "Ġpolitical": 1701,
      "Ġce": 1702,
      "Ġtown": 1703,
      "Ġbeh": 1704,
      "Ġexperi": 1705,
      "Ġeas": 1706,
      "Ġfurther": 1707,
      "Ġperiod": 1708,
      "lished": 1709,
      "Ġgovernment": 1710,
      "ording": 1711,
      "ĠYet": 1712,
      "iqu": 1713,
      "more": 1714,
      "Ġabove": 1715,
      "ustom": 1716,
      "apt": 1717,
      "br": 1718,
      "with": 1719,
      "aining": 1720,
      "ley": 1721,
      "over": 1722,
      "Ġworth": 1723,
      "ĠPar": 1724,
      "inct": 1725,
      "Ġtimes": 1726,
      "Ġsix": 1727,
      "unt": 1728,
      "Ġwent": 1729,
      "Ġancient": 1730,
      "Ġer": 1731,
      "Ġappl": 1732,
      "ĠPro": 1733,
      "'t": 1734,
      "gr": 1735,
      "Ġremark": 1736,
      "oke": 1737,
      "Ġreceived": 1738,
      "cing": 1739,
      "Ġpoor": 1740,
      "Ġemploy": 1741,
      "Ġhig": 1742,
      "Ġclass": 1743,
      "Ġacqu": 1744,
      "ĠOn": 1745,
      "Ġwant": 1746,
      "Ġwind": 1747,
      "orm": 1748,
      "Ġforce": 1749,
      "ted": 1750,
      "ĠFrench": 1751,
      "Ġused": 1752,
      "Ġbecame": 1753,
      "Ġbegan": 1754,
      "iter": 1755,
      "itary": 1756,
      "Ġschool": 1757,
      "ences": 1758,
      "Ġ[": 1759,
      "Ġcommand": 1760,
      "Ġstri": 1761,
      "Ġser": 1762,
      "Ġcircum": 1763,
      "mp": 1764,
      "Ġcoun": 1765,
      "ication": 1766,
      "Ġprot": 1767,
      "uted": 1768,
      "lling": 1769,
      "Ġwat": 1770,
      "Ġimm": 1771,
      "Ġalready": 1772,
      "ously": 1773,
      "Ġface": 1774,
      "ork": 1775,
      "Ġve": 1776,
      "dden": 1777,
      "Ġestablished": 1778,
      "une": 1779,
      "Ġver": 1780,
      "ls": 1781,
      "Ġsupport": 1782,
      "Ġclear": 1783,
      "ĠIs": 1784,
      "illeg": 1785,
      "por": 1786,
      "Ġexpl": 1787,
      "Ġpurpose": 1788,
      "att": 1789,
      "itable": 1790,
      "Ġsaw": 1791,
      "Ġorigin": 1792,
      "Ġoccasion": 1793,
      "ĠComm": 1794,
      "Ġshort": 1795,
      "Ġfac": 1796,
      "Ġhor": 1797,
      "ils": 1798,
      "Ġmaint": 1799,
      "mn": 1800,
      "Ġreve": 1801,
      "Ġpeace": 1802,
      "Ġthous": 1803,
      "Ġmed": 1804,
      "Ġstand": 1805,
      "Ġfollowing": 1806,
      "ises": 1807,
      "Ġleast": 1808,
      "Ġclaim": 1809,
      "aving": 1810,
      "app": 1811,
      "Ġkeep": 1812,
      "angu": 1813,
      "imate": 1814,
      "ames": 1815,
      "ring": 1816,
      "Ġfelt": 1817,
      "de": 1818,
      "Ġfig": 1819,
      "ĠSh": 1820,
      "Ġwit": 1821,
      "Ġsudden": 1822,
      "ney": 1823,
      "Ġthy": 1824,
      "Ã©": 1825,
      "lled": 1826,
      "ĠQ": 1827,
      "Ġcast": 1828,
      "]:": 1829,
      "Ġdoct": 1830,
      "Ġforth": 1831,
      "Ġnext": 1832,
      "Ġvirt": 1833,
      "day": 1834,
      "usion": 1835,
      "Ġarg": 1836,
      "Ġget": 1837,
      "Ġincre": 1838,
      "Ġduty": 1839,
      "iful": 1840,
      "ize": 1841,
      "!\"": 1842,
      "iously": 1843,
      "ience": 1844,
      "Ġattempt": 1845,
      "thing": 1846,
      "Ġhistory": 1847,
      "Ġenough": 1848,
      "We": 1849,
      "Ġgrace": 1850,
      "Ġmean": 1851,
      "Ġciv": 1852,
      "yond": 1853,
      "Ġgrow": 1854,
      "Ġmother": 1855,
      "Ġbar": 1856,
      "Ġquiet": 1857,
      "ah": 1858,
      "Ġ-": 1859,
      "iled": 1860,
      "illegible": 1861,
      "Ġ17": 1862,
      "Ġalong": 1863,
      "overed": 1864,
      "osop": 1865,
      "Ġexh": 1866,
      "Ġtend": 1867,
      "etimes": 1868,
      "pond": 1869,
      "arent": 1870,
      "Ġwoman": 1871,
      "Ġant": 1872,
      "ger": 1873,
      "Ġgave": 1874,
      "Ġsin": 1875,
      "Ġled": 1876,
      "Ġlay": 1877,
      "iting": 1878,
      "ument": 1879,
      "Ġsense": 1880,
      "ead": 1881,
      "oly": 1882,
      "Ġinfluence": 1883,
      "Ġ;": 1884,
      "ilosop": 1885,
      "Ġmeasure": 1886,
      "gether": 1887,
      "Ġtogether": 1888,
      "Ġsubst": 1889,
      "az": 1890,
      "Ġstreng": 1891,
      "ĠGovern": 1892,
      "Ġdark": 1893,
      "Ġsun": 1894,
      "owers": 1895,
      "ĠThat": 1896,
      "illed": 1897,
      "Ġexc": 1898,
      "bs": 1899,
      "erning": 1900,
      "Ġpassed": 1901,
      "Ġrev": 1902,
      "Ġneg": 1903,
      "Ġsatis": 1904,
      "hest": 1905,
      "ĠBrit": 1906,
      "Ġunc": 1907,
      "Ġrepresent": 1908,
      "augh": 1909,
      "fe": 1910,
      "acy": 1911,
      "Ġstru": 1912,
      "Ġsound": 1913,
      "Ġfamily": 1914,
      "Ġdivine": 1915,
      "Ġpray": 1916,
      "Ġsal": 1917,
      "pon": 1918,
      "aged": 1919,
      "Ġav": 1920,
      "Ġgen": 1921,
      "orth": 1922,
      "Ġterm": 1923,
      "Ġclose": 1924,
      "Ġhath": 1925,
      "oney": 1926,
      "Ġheard": 1927,
      "ining": 1928,
      "lt": 1929,
      "Ġvarious": 1930,
      "ĠStates": 1931,
      "inary": 1932,
      "Ġmorning": 1933,
      "gan": 1934,
      "Ġbelieve": 1935,
      "cience": 1936,
      "duct": 1937,
      "Ġparty": 1938,
      "Ġlim": 1939,
      "Ġvig": 1940,
      "HE": 1941,
      "Ġfire": 1942,
      "urope": 1943,
      "ĠSir": 1944,
      "ann": 1945,
      "Ġbound": 1946,
      "airs": 1947,
      "Ġwis": 1948,
      "Ġemb": 1949,
      "icient": 1950,
      "Ġenem": 1951,
      "ires": 1952,
      "Ġaction": 1953,
      "Ġpot": 1954,
      "cially": 1955,
      "Ġformer": 1956,
      "Ġchurch": 1957,
      "Ġhel": 1958,
      "ĠPh": 1959,
      "gment": 1960,
      "Ġphys": 1961,
      "Ġgreater": 1962,
      "ruction": 1963,
      "Ġann": 1964,
      "str": 1965,
      "ession": 1966,
      "Ġvi": 1967,
      "Ġservice": 1968,
      "ĠDe": 1969,
      "ĠJohn": 1970,
      "erence": 1971,
      "Ġexcept": 1972,
      "ĠOne": 1973,
      "Ġshad": 1974,
      "ribed": 1975,
      "Ġcult": 1976,
      "ogn": 1977,
      "ĠCol": 1978,
      "Ġpri": 1979,
      "Ġmoral": 1980,
      "Ġfeet": 1981,
      "Ġdesp": 1982,
      "Ġcircumst": 1983,
      "ĠBe": 1984,
      "Ġbring": 1985,
      "Ġcourt": 1986,
      "Ġmonth": 1987,
      "Ġtell": 1988,
      "itation": 1989,
      "Ġeye": 1990,
      "Ġanim": 1991,
      "ging": 1992,
      "Ġinit": 1993,
      "Ġcontem": 1994,
      "Ġenter": 1995,
      "Ġattention": 1996,
      "ops": 1997,
      "eneral": 1998,
      "Ġmount": 1999,
      "Ġdesign": 2000,
      "iver": 2001,
      "Ġfriends": 2002,
      "Ġthou": 2003,
      "Ġauthority": 2004,
      ".'": 2005,
      "Ġsitu": 2006,
      "Ġaccept": 2007,
      "Ġbeyond": 2008,
      "Ġpresented": 2009,
      "ĠEurope": 2010,
      "ards": 2011,
      "Ġroom": 2012,
      "Ġchief": 2013,
      "rest": 2014,
      "reg": 2015,
      "Ġletter": 2016,
      "aching": 2017,
      "Ġcreat": 2018,
      "Ġearly": 2019,
      "ume": 2020,
      "Ġcondition": 2021,
      "ON": 2022,
      "Ġquite": 2023,
      "Ġdeg": 2024,
      "ĠAmerican": 2025,
      "ivers": 2026,
      "Ġnoble": 2027,
      "ored": 2028,
      "antly": 2029,
      "owing": 2030,
      "pped": 2031,
      "Ġsens": 2032,
      "erc": 2033,
      "ourse": 2034,
      "Ġnecessity": 2035,
      "ively": 2036,
      "Ġtill": 2037,
      "Ġmus": 2038,
      "Ġprob": 2039,
      "Ġobserved": 2040,
      "Ġoccur": 2041,
      "ially": 2042,
      "Ġdepart": 2043,
      "ĠState": 2044,
      "Ġalone": 2045,
      "Ġblood": 2046,
      "Ġoper": 2047,
      "ething": 2048,
      "culiar": 2049,
      "Ġsociety": 2050,
      "lict": 2051,
      "Ġfear": 2052,
      "cious": 2053,
      "Ġcurrent": 2054,
      "Ġweight": 2055,
      "rupt": 2056,
      "),": 2057,
      "Ġi": 2058,
      "Ġsure": 2059,
      ".âĢĿ": 2060,
      "iety": 2061,
      "Ġprog": 2062,
      "Ġlangu": 2063,
      "Ġwee": 2064,
      "Ġsometimes": 2065,
      "Ġpossible": 2066,
      "Ġpen": 2067,
      "Ġson": 2068,
      "Ġfrequ": 2069,
      "oted": 2070,
      "Ġpeculiar": 2071,
      "Ġtowards": 2072,
      "Ġprec": 2073,
      "Ġdraw": 2074,
      "aves": 2075,
      "uous": 2076,
      "Ġpopul": 2077,
      "urthermore": 2078,
      "Ġaccording": 2079,
      "Ġjour": 2080,
      "Ġpursu": 2081,
      "Ġconduct": 2082,
      "ps": 2083,
      "Ġsold": 2084,
      "Ġdanger": 2085,
      "Ġdeterm": 2086,
      "ats": 2087,
      "Ġmaking": 2088,
      "der": 2089,
      "ĠNo": 2090,
      "lection": 2091,
      "Ġdue": 2092,
      "ethod": 2093,
      "rs": 2094,
      "Ġmove": 2095,
      "ilt": 2096,
      "Ġprep": 2097,
      "Ġthousand": 2098,
      "Ġdesire": 2099,
      "Ġremain": 2100,
      "Ġoffered": 2101,
      "ior": 2102,
      "Ġda": 2103,
      "lig": 2104,
      "Ġimpro": 2105,
      "Ġcivil": 2106,
      "Ġposition": 2107,
      "Ġphilosop": 2108,
      "Ġpress": 2109,
      "Ġfut": 2110,
      "Ġperm": 2111,
      "Ġacross": 2112,
      "isc": 2113,
      "no": 2114,
      "There": 2115,
      "ically": 2116,
      "Ġtold": 2117,
      "ott": 2118,
      "Ġline": 2119,
      "rodu": 2120,
      "bit": 2121,
      "Ġdoth": 2122,
      "Ġsea": 2123,
      "Ġconsidered": 2124,
      "ĠLet": 2125,
      "Ġdelicate": 2126,
      "rang": 2127,
      "Ġpossessed": 2128,
      "ips": 2129,
      "ries": 2130,
      "ected": 2131,
      "ĠDr": 2132,
      "Ġsignific": 2133,
      "Ġbecom": 2134,
      "Ġarri": 2135,
      "formed": 2136,
      "velop": 2137,
      "Ġcru": 2138,
      "Ġperce": 2139,
      "ĠAd": 2140,
      "Ġful": 2141,
      "Ġbra": 2142,
      "_,": 2143,
      "Ġpros": 2144,
      "Ġstat": 2145,
      "ential": 2146,
      "Ġremains": 2147,
      "Ġbusiness": 2148,
      "Ġsays": 2149,
      "Ġtwenty": 2150,
      "Ġfield": 2151,
      "Ġty": 2152,
      "Ġbegin": 2153,
      "emed": 2154,
      "aled": 2155,
      "Ġcapt": 2156,
      "Ġ16": 2157,
      "Ġbri": 2158,
      "Ġfive": 2159,
      "Ġvast": 2160,
      "Ġreport": 2161,
      "Ġbes": 2162,
      "Ġfine": 2163,
      "Ġought": 2164,
      "Ġmater": 2165,
      "ror": 2166,
      "Ġden": 2167,
      "Ġvoice": 2168,
      "Ġeduc": 2169,
      "Ġyield": 2170,
      "Ġreligious": 2171,
      "Ġstrength": 2172,
      "aries": 2173,
      "Ġpay": 2174,
      "king": 2175,
      "ends": 2176,
      "Ġsomething": 2177,
      "ĠLe": 2178,
      "Ġess": 2179,
      "Ġdoctr": 2180,
      "amed": 2181,
      "Ġende": 2182,
      "Ġobt": 2183,
      "urg": 2184,
      "Ġsingle": 2185,
      "Ġbeaut": 2186,
      "ilar": 2187,
      "Ġcat": 2188,
      "Ġrecogn": 2189,
      "ternal": 2190,
      "Ġable": 2191,
      "ellect": 2192,
      "Ġopinion": 2193,
      "Ġunto": 2194,
      "II": 2195,
      "Ġmoney": 2196,
      "ung": 2197,
      "wards": 2198,
      "Ġassert": 2199,
      "Ġutter": 2200,
      "alls": 2201,
      "Ġlibert": 2202,
      "Ġconn": 2203,
      "Ġimag": 2204,
      "Ġcompl": 2205,
      "orrow": 2206,
      "oses": 2207,
      "Ġremained": 2208,
      "son": 2209,
      "Ġdri": 2210,
      "Ġtext": 2211,
      "nal": 2212,
      "pecially": 2213,
      "Ġcomplete": 2214,
      "ken": 2215,
      "Ġmaj": 2216,
      "Ġconsiderable": 2217,
      "Ġknew": 2218,
      "Ġwife": 2219,
      "Ġasc": 2220,
      "ĠWhat": 2221,
      "io": 2222,
      "esty": 2223,
      "ĠOr": 2224,
      "ĠMar": 2225,
      "reme": 2226,
      "acher": 2227,
      "Ġwa": 2228,
      "Ġves": 2229,
      "Ġfuture": 2230,
      "Ġ10": 2231,
      "Ġwhite": 2232,
      "Ġmembers": 2233,
      "anc": 2234,
      "ots": 2235,
      "Ġcomfort": 2236,
      "ingu": 2237,
      "let": 2238,
      "ms": 2239,
      "ounded": 2240,
      "Ġmagn": 2241,
      "Ġcrit": 2242,
      "utes": 2243,
      "Ġearn": 2244,
      "ingly": 2245,
      "rect": 2246,
      "Ġpleas": 2247,
      "Ġpassage": 2248,
      "Ġcases": 2249,
      "Ġwomen": 2250,
      "hip": 2251,
      "Ġboy": 2252,
      "lected": 2253,
      "ral": 2254,
      "Ġesc": 2255,
      "Ġpersons": 2256,
      "ĠFrance": 2257,
      "Ġimmediate": 2258,
      "Ġgrant": 2259,
      "Ġlocal": 2260,
      "ishing": 2261,
      "Ġinqu": 2262,
      "Ġcustom": 2263,
      "wise": 2264,
      "Ġlost": 2265,
      "Ġlatter": 2266,
      "Ġintellect": 2267,
      "Ġleave": 2268,
      "joy": 2269,
      "Ġwond": 2270,
      "Ġsolemn": 2271,
      "Ġrend": 2272,
      "Ġplay": 2273,
      "Ġpost": 2274,
      "cell": 2275,
      "..": 2276,
      "Ġadvant": 2277,
      "iding": 2278,
      "which": 2279,
      "Ġbuild": 2280,
      "Ġmethod": 2281,
      "aper": 2282,
      "enced": 2283,
      "Ġprinciple": 2284,
      "Ġexec": 2285,
      "Ġendeav": 2286,
      "Ġmaster": 2287,
      "ĠCl": 2288,
      "Ġappeared": 2289,
      "ories": 2290,
      "Ġchange": 2291,
      "Ġpresence": 2292,
      "ational": 2293,
      "Ġvessel": 2294,
      "aught": 2295,
      "Ġsuper": 2296,
      "Ġpain": 2297,
      "ĠOf": 2298,
      "Ġtemper": 2299,
      "Ġviol": 2300,
      "Ġwild": 2301,
      "Ġbrother": 2302,
      "utions": 2303,
      "isp": 2304,
      "Ġwood": 2305,
      "well": 2306,
      "Ġfair": 2307,
      "ĠSe": 2308,
      "Ġbenef": 2309,
      "Ġappoint": 2310,
      "Ġappre": 2311,
      "Ġcompe": 2312,
      "Ġplaced": 2313,
      "icated": 2314,
      "Ch": 2315,
      "Ġexperience": 2316,
      "Ġhelp": 2317,
      "ondon": 2318,
      "Ġmid": 2319,
      "Ġstra": 2320,
      "cil": 2321,
      "Ġorgan": 2322,
      "Ġarmy": 2323,
      "ifice": 2324,
      "To": 2325,
      "els": 2326,
      "ĠHer": 2327,
      "ĠHowever": 2328,
      "Ġdevelop": 2329,
      "Ġconsequ": 2330,
      "Ġprocess": 2331,
      "ones": 2332,
      "Ġdemon": 2333,
      "Ġmeas": 2334,
      "Ġlater": 2335,
      "ĠFurthermore": 2336,
      "side": 2337,
      "respond": 2338,
      "Ġhour": 2339,
      "Ġlow": 2340,
      "Ġconce": 2341,
      "Ġimmediately": 2342,
      ".-": 2343,
      "Ġunf": 2344,
      "hold": 2345,
      "inist": 2346,
      "ĠMrs": 2347,
      "Ġpersonal": 2348,
      "ĠYou": 2349,
      "Ġentirely": 2350,
      "Ġfif": 2351,
      "ĠĊ": 2352,
      "imin": 2353,
      "Ġhear": 2354,
      "Ġtrust": 2355,
      "ighb": 2356,
      "sembl": 2357,
      "Ġespecially": 2358,
      "itten": 2359,
      "Ġeight": 2360,
      "prise": 2361,
      "Ġmyself": 2362,
      "Ġmention": 2363,
      "Ġgri": 2364,
      "iers": 2365,
      "Ġoccup": 2366,
      "Ġplan": 2367,
      "Ġinvol": 2368,
      "Ġconcern": 2369,
      "Ġparts": 2370,
      "Ġmilitary": 2371,
      "For": 2372,
      "Ġgre": 2373,
      "ching": 2374,
      "Ġnearly": 2375,
      "Ġsepar": 2376,
      "Ġbless": 2377,
      "Ġlearned": 2378,
      "Ġwitness": 2379,
      "Ġrun": 2380,
      "Ġcultiv": 2381,
      "Ġsecret": 2382,
      "ĠWhile": 2383,
      "Ġbeautiful": 2384,
      "Ġcontinued": 2385,
      "Ġprivate": 2386,
      "Ġlaws": 2387,
      "Ġfellow": 2388,
      "pet": 2389,
      "ancy": 2390,
      "cknow": 2391,
      "Ġleading": 2392,
      "Ġmist": 2393,
      "IN": 2394,
      "chie": 2395,
      "osp": 2396,
      "Ġmanif": 2397,
      "Ġfollowed": 2398,
      "._": 2399,
      "Ġfamil": 2400,
      "Ġdiss": 2401,
      "alt": 2402,
      "Ġscar": 2403,
      "het": 2404,
      "Ġestablish": 2405,
      "sec": 2406,
      "Ġsett": 2407,
      "hy": 2408,
      "Ġep": 2409,
      "Ġcre": 2410,
      "Ġrich": 2411,
      "Ġprinciples": 2412,
      "ĠEx": 2413,
      "Ġrequired": 2414,
      "Ġlands": 2415,
      "Ġcit": 2416,
      "Ġriver": 2417,
      "Ġdetail": 2418,
      "Ġincl": 2419,
      "arp": 2420,
      "Ġliter": 2421,
      "Ġacknow": 2422,
      "Ġpure": 2423,
      "ĠChar": 2424,
      "hood": 2425,
      "Ġmaterial": 2426,
      "Ġgenerally": 2427,
      "olly": 2428,
      "Ġhus": 2429,
      "Ġpoet": 2430,
      "Ġexerc": 2431,
      "ium": 2432,
      "Ġrepl": 2433,
      "Ġearnest": 2434,
      "Ġleng": 2435,
      "Ġpath": 2436,
      "Ġmodern": 2437,
      "Ġsimple": 2438,
      "Ġhealth": 2439,
      "Ġdead": 2440,
      "Ġfeeling": 2441,
      "Ġcommer": 2442,
      "Ġsight": 2443,
      "soci": 2444,
      "cluded": 2445,
      "Ġspiritual": 2446,
      "Ġindust": 2447,
      "Ġprevent": 2448,
      "Ġexpress": 2449,
      "Ġturned": 2450,
      "Ġbed": 2451,
      "ĠAll": 2452,
      "ibility": 2453,
      "opt": 2454,
      "Ġcarried": 2455,
      "As": 2456,
      "formation": 2457,
      "ember": 2458,
      "ask": 2459,
      ",'": 2460,
      "Ġliving": 2461,
      "ĠMiss": 2462,
      "ster": 2463,
      "hab": 2464,
      "Ġtou": 2465,
      "Ġcontempl": 2466,
      "Ġintrodu": 2467,
      "osing": 2468,
      "Ġamb": 2469,
      "ĠHouse": 2470,
      "Ġdr": 2471,
      "Ġpie": 2472,
      "Ġforeign": 2473,
      "ĠWill": 2474,
      "was": 2475,
      "ole": 2476,
      "Ġdear": 2477,
      "Ġevent": 2478,
      "Ġfail": 2479,
      "Ġdemand": 2480,
      "Ġcut": 2481,
      "Ġult": 2482,
      "Ġgold": 2483,
      "Ġdil": 2484,
      "Ġlanguage": 2485,
      "Ġworks": 2486,
      "Ġjudgment": 2487,
      "what": 2488,
      "Ġexistence": 2489,
      "uke": 2490,
      "itting": 2491,
      "Ġneighb": 2492,
      "Ġfurn": 2493,
      "erman": 2494,
      "way": 2495,
      "Ġspect": 2496,
      "Ġdrawn": 2497,
      "ixed": 2498,
      "Ġarrang": 2499,
      "ĠWith": 2500,
      "Ġlate": 2501,
      "eness": 2502,
      "Ġkept": 2503,
      "ĠAm": 2504,
      "Ġcircumstances": 2505,
      "Ġreligion": 2506,
      "Ġregarding": 2507,
      "Ġasked": 2508,
      "Ġenjoy": 2509,
      "Ġstudy": 2510,
      "Ġpret": 2511,
      "Ġinj": 2512,
      "Ġcold": 2513,
      "isl": 2514,
      "ĠBy": 2515,
      "ĠGeneral": 2516,
      "Ġsocial": 2517,
      "Ġdistinct": 2518,
      "raph": 2519,
      "Ġlooked": 2520,
      "Ġimportant": 2521,
      "Ġevening": 2522,
      "lying": 2523,
      "ested": 2524,
      "Ġsingular": 2525,
      "liament": 2526,
      "Ġquar": 2527,
      "Ġoblig": 2528,
      "Ġvisit": 2529,
      "Yet": 2530,
      "Ġconcerning": 2531,
      "ĠLondon": 2532,
      "Ġlaid": 2533,
      "Ġhours": 2534,
      "irm": 2535,
      "Ġaround": 2536,
      "Ġproved": 2537,
      "Ġwalk": 2538,
      "Ġthee": 2539,
      "Ġshow": 2540,
      "Ġspecific": 2541,
      "Ġneither": 2542,
      "Ġround": 2543,
      "Ġred": 2544,
      "mon": 2545,
      "ĠUnited": 2546,
      "Ġ15": 2547,
      "Ġcarry": 2548,
      "Ġtrou": 2549,
      "ns": 2550,
      "anced": 2551,
      "Ġgoing": 2552,
      "aughter": 2553,
      "Ġdiscuss": 2554,
      "Ġlive": 2555,
      "ma": 2556,
      "orough": 2557,
      "Ġstood": 2558,
      "iber": 2559,
      "nes": 2560,
      "ici": 2561,
      "Thus": 2562,
      "Ġmiles": 2563,
      "ortun": 2564,
      "ĠAfter": 2565,
      "ĠGovernment": 2566,
      "Ġstruct": 2567,
      "ization": 2568,
      "iable": 2569,
      "Ġnational": 2570,
      "ĠBritish": 2571,
      "band": 2572,
      "Ġlength": 2573,
      "Ġpra": 2574,
      "iam": 2575,
      "Ġgentleman": 2576,
      "Ġafford": 2577,
      "race": 2578,
      "Ġroad": 2579,
      "ĠPres": 2580,
      "Ġpal": 2581,
      "yal": 2582,
      "Ġign": 2583,
      "Ġthir": 2584,
      "Ġwisdom": 2585,
      "AN": 2586,
      "olution": 2587,
      "When": 2588,
      "Ġliberty": 2589,
      "ergy": 2590,
      "arily": 2591,
      "acity": 2592,
      "Ġfle": 2593,
      "Ġconcl": 2594,
      "Ġnarrator": 2595,
      "Ġvict": 2596,
      "Ġfru": 2597,
      "pid": 2598,
      "Ġreader": 2599,
      "acle": 2600,
      "like": 2601,
      "pir": 2602,
      "bed": 2603,
      "Ġadopt": 2604,
      "Ġchang": 2605,
      "ification": 2606,
      "ests": 2607,
      "Ġjoy": 2608,
      "Ġsimilar": 2609,
      "ills": 2610,
      "Ġcompany": 2611,
      "bly": 2612,
      "Ġdegree": 2613,
      "ĠSuch": 2614,
      "Ġartic": 2615,
      "where": 2616,
      "come": 2617,
      "oved": 2618,
      "hens": 2619,
      "uses": 2620,
      "Ġworthy": 2621,
      "olute": 2622,
      "Ġtrib": 2623,
      "Ġevidence": 2624,
      "AR": 2625,
      "Ġachie": 2626,
      "Ġjourney": 2627,
      "Ġlack": 2628,
      "Ġcompan": 2629,
      "Ġalthough": 2630,
      "iance": 2631,
      "inter": 2632,
      "Ġfund": 2633,
      "ider": 2634,
      "Ġpun": 2635,
      "Ġpleasure": 2636,
      "Ġhar": 2637,
      "aste": 2638,
      "vey": 2639,
      "Ġalt": 2640,
      "ouses": 2641,
      "Ġplain": 2642,
      "Ġenemy": 2643,
      "ability": 2644,
      "Ġmur": 2645,
      "esus": 2646,
      "Ġhy": 2647,
      "Ġwritten": 2648,
      "Ġreturned": 2649,
      "Ġslight": 2650,
      "Ġmatters": 2651,
      "Ġprovided": 2652,
      "riage": 2653,
      "Ġtro": 2654,
      "Ġelse": 2655,
      "Ġweak": 2656,
      "Ġrepe": 2657,
      "Ġblack": 2658,
      "orious": 2659,
      "rict": 2660,
      "Ġconvers": 2661,
      "Ġsweet": 2662,
      "Ġcomb": 2663,
      "Ġcitiz": 2664,
      "Ġherself": 2665,
      "Ġga": 2666,
      "Ġanswer": 2667,
      "Ġappears": 2668,
      "Ġattack": 2669,
      "Ġaffairs": 2670,
      "Ġsacred": 2671,
      "Ġidea": 2672,
      "Ġrecord": 2673,
      "Ġprogress": 2674,
      "Ġsust": 2675,
      "erous": 2676,
      "Ġsle": 2677,
      "Ġbeauty": 2678,
      "Ġvalue": 2679,
      "Ġdispl": 2680,
      "Ġpubl": 2681,
      "Ġgir": 2682,
      "Ġvirtue": 2683,
      "Ġbelong": 2684,
      "but": 2685,
      "ler": 2686,
      "ollow": 2687,
      "OR": 2688,
      "Ġserve": 2689,
      "Ġdoor": 2690,
      "00": 2691,
      "Ġpict": 2692,
      "Ġvill": 2693,
      "Ġsav": 2694,
      "Ġdescribed": 2695,
      "Ġdise": 2696,
      "ites": 2697,
      "itive": 2698,
      "Ġsufficient": 2699,
      "Ġelev": 2700,
      "Ġstep": 2701,
      "Ġreached": 2702,
      "Ġyouth": 2703,
      "isted": 2704,
      "Ġsubtle": 2705,
      "oid": 2706,
      "light": 2707,
      "orous": 2708,
      "Ġinstead": 2709,
      "uties": 2710,
      "Ġdelight": 2711,
      "oured": 2712,
      "Ġready": 2713,
      "aded": 2714,
      "EN": 2715,
      "Ġslow": 2716,
      "sc": 2717,
      "Ġlady": 2718,
      "Ġfoot": 2719,
      "Ġintended": 2720,
      "ina": 2721,
      "Ġsan": 2722,
      "Ġappearance": 2723,
      "ĠEd": 2724,
      "Ġprison": 2725,
      "Ġhop": 2726,
      "Ġinstance": 2727,
      "Ġtrade": 2728,
      "ĠHere": 2729,
      "eral": 2730,
      "ĠTr": 2731,
      "Ġimper": 2732,
      "Ġbreat": 2733,
      "Ġscene": 2734,
      "Ġstrugg": 2735,
      "Ġindividuals": 2736,
      "Ġhighest": 2737,
      "Ġwish": 2738,
      "If": 2739,
      "erved": 2740,
      "fer": 2741,
      "Ġjustice": 2742,
      "Ġsituation": 2743,
      "aul": 2744,
      "ores": 2745,
      "rence": 2746,
      "attle": 2747,
      "Ġmass": 2748,
      "Ġsurr": 2749,
      "Ġparticularly": 2750,
      "pper": 2751,
      "Ġpractice": 2752,
      "ES": 2753,
      "ishop": 2754,
      "Ġarch": 2755,
      "Ġpractical": 2756,
      "Ġmain": 2757,
      "night": 2758,
      "Ġrendered": 2759,
      "Ġheaven": 2760,
      "ellig": 2761,
      "Ġillust": 2762,
      "uff": 2763,
      "resh": 2764,
      "Ġinhab": 2765,
      ",âĢĿ": 2766,
      "Ġrock": 2767,
      "pro": 2768,
      "Ġexhib": 2769,
      "ĠGerman": 2770,
      "rud": 2771,
      "ception": 2772,
      "Ġcross": 2773,
      "Ġfavor": 2774,
      "chan": 2775,
      "urs": 2776,
      "ify": 2777,
      "ittee": 2778,
      "enth": 2779,
      "istance": 2780,
      "Ġlonger": 2781,
      "val": 2782,
      "Ġabsolute": 2783,
      "inent": 2784,
      "Ġopportun": 2785,
      "Ġmonths": 2786,
      "Ġwhy": 2787,
      "Ġsusp": 2788,
      "Ġquick": 2789,
      "Ġsharp": 2790,
      "Ġunivers": 2791,
      "Ġpron": 2792,
      "Ġobserve": 2793,
      "Ġsignificant": 2794,
      "Ġoffice": 2795,
      "Ġdilig": 2796,
      "Ġlist": 2797,
      "Ġcost": 2798,
      "athe": 2799,
      "Ġmort": 2800,
      "Ġamount": 2801,
      "Ġplaces": 2802,
      "Ġstart": 2803,
      "ĠBr": 2804,
      "Ġsevere": 2805,
      "Ġaddress": 2806,
      "Ġdign": 2807,
      "ounds": 2808,
      "Ġfinal": 2809,
      "uments": 2810,
      "Ġfirm": 2811,
      "aff": 2812,
      "Ġthreat": 2813,
      "Ġdisci": 2814,
      "Ġmir": 2815,
      "Ġproperty": 2816,
      "Ġcorrespond": 2817,
      "Ġseason": 2818,
      "ĠRep": 2819,
      "Ġrig": 2820,
      "pel": 2821,
      "ĠMan": 2822,
      "iny": 2823,
      "icious": 2824,
      "Ġrecent": 2825,
      "Ġlies": 2826,
      "Ġallowed": 2827,
      "Ġgot": 2828,
      "Ġadminist": 2829,
      "Ġinitial": 2830,
      "Ġtrad": 2831,
      "Ġmeeting": 2832,
      "verse": 2833,
      "rival": 2834,
      "Ġadmir": 2835,
      "Ġtaking": 2836,
      "Ġshift": 2837,
      "Ġattend": 2838,
      "Ġdistingu": 2839,
      "ĠGree": 2840,
      "Ġsought": 2841,
      "ishment": 2842,
      "Ġexcl": 2843,
      "Ġstates": 2844,
      "Ġconstitution": 2845,
      "Ġwealth": 2846,
      "Ġfavour": 2847,
      "Ġnoted": 2848,
      "ĠEm": 2849,
      "estic": 2850,
      "Ġ12": 2851,
      "ham": 2852,
      "Ġdistant": 2853,
      "izing": 2854,
      "olic": 2855,
      "Ġforms": 2856,
      "dle": 2857,
      "Ġloss": 2858,
      "anks": 2859,
      "ĠOF": 2860,
      "que": 2861,
      "teen": 2862,
      "istic": 2863,
      "umph": 2864,
      "iments": 2865,
      "Ġtable": 2866,
      "Ġanx": 2867,
      "Ġisland": 2868,
      "Ġnone": 2869,
      "epend": 2870,
      "Ġhusband": 2871,
      "Ġhorse": 2872,
      "Ġrapid": 2873,
      "Ġsecure": 2874,
      "Ġundert": 2875,
      "ening": 2876,
      "Ġofficers": 2877,
      "oll": 2878,
      "Ġpet": 2879,
      "Ġarms": 2880,
      "Mr": 2881,
      "Ġaccomp": 2882,
      "Ġexcell": 2883,
      "ĠRoman": 2884,
      "Ġhistor": 2885,
      "Ġbear": 2886,
      "Ġfrequently": 2887,
      "Ġet": 2888,
      "Ġperpet": 2889,
      "ners": 2890,
      "Ġforward": 2891,
      "Ġcharge": 2892,
      "Ġcontro": 2893,
      "herent": 2894,
      "Ġpatient": 2895,
      "You": 2896,
      "Ġimposs": 2897,
      "oor": 2898,
      "Ġbehind": 2899,
      "Ġscarce": 2900,
      "Ġcontrast": 2901,
      "ĠPe": 2902,
      "uck": 2903,
      "Ġreceive": 2904,
      "Ġhost": 2905,
      "Ġbecomes": 2906,
      "inite": 2907,
      "yl": 2908,
      "Ġhumble": 2909,
      "Ġswift": 2910,
      "Ġing": 2911,
      "Ġpronoun": 2912,
      "Ġgreatest": 2913,
      "Ġpowers": 2914,
      "ming": 2915,
      "What": 2916,
      "isters": 2917,
      "Ġprim": 2918,
      "face": 2919,
      "Ġfun": 2920,
      "imately": 2921,
      "Ġfell": 2922,
      "Ġsqu": 2923,
      "rem": 2924,
      "ĠPl": 2925,
      "Ġformed": 2926,
      "hel": 2927,
      "By": 2928,
      "ĠGe": 2929,
      "ĠThus": 2930,
      "Ġfigure": 2931,
      "Ġdeb": 2932,
      "know": 2933,
      "perior": 2934,
      "Ã¦": 2935,
      "ĠLaw": 2936,
      "go": 2937,
      "Ġdistance": 2938,
      "Ġextra": 2939,
      "ales": 2940,
      "Ġwonder": 2941,
      "Ġamongst": 2942,
      "Ġinn": 2943,
      "Ġadvantage": 2944,
      "Ġdemands": 2945,
      "Ġoffer": 2946,
      "na": 2947,
      "under": 2948,
      "Ġpaper": 2949,
      "Ġfat": 2950,
      "Ġur": 2951,
      "Ġsatisfact": 2952,
      "Ġrender": 2953,
      "Ġsour": 2954,
      "Ġcra": 2955,
      "ourt": 2956,
      "ĠCount": 2957,
      "idge": 2958,
      "Ġstrange": 2959,
      "Ġunw": 2960,
      "Ġdaily": 2961,
      "ush": 2962,
      "ĠJesus": 2963,
      "Ġemployed": 2964,
      "Ġexample": 2965,
      "Ġgrou": 2966,
      "Ġacquaint": 2967,
      "com": 2968,
      "fast": 2969,
      "oe": 2970,
      "Ġ.": 2971,
      "Ġdoctrine": 2972,
      "Ġglory": 2973,
      "ĠMaj": 2974,
      "ements": 2975,
      "ĠAb": 2976,
      "Ġheavy": 2977,
      "Ġcoming": 2978,
      "Ġjo": 2979,
      "Ġarrived": 2980,
      "Ġdeal": 2981,
      "Ġaffection": 2982,
      "Ġsuc": 2983,
      "Ġfront": 2984,
      "Ġbeneath": 2985,
      "enry": 2986,
      "ology": 2987,
      "Ġmel": 2988,
      "atever": 2989,
      "Ġeasily": 2990,
      "Ġthird": 2991,
      "Ġprove": 2992,
      "Ġmechan": 2993,
      "ĠItal": 2994,
      "Ġhonour": 2995,
      "Ġpos": 2996,
      "Ġforg": 2997,
      "umed": 2998,
      "ĠCan": 2999,
      "Ġacknowled": 3000,
      "ĠCar": 3001,
      "my": 3002,
      "Ġtruly": 3003,
      "Ġduties": 3004,
      "oms": 3005,
      "ription": 3006,
      "ological": 3007,
      "Ġder": 3008,
      "Ġbal": 3009,
      "Ġassoci": 3010,
      "ashion": 3011,
      "ĠDo": 3012,
      "Ġhigher": 3013,
      "Ġsubjects": 3014,
      "Ġintellig": 3015,
      "Ġharm": 3016,
      "cle": 3017,
      "ĠYork": 3018,
      "Ġanything": 3019,
      "Ġprobably": 3020,
      "rant": 3021,
      "ĠProv": 3022,
      "Ġprincip": 3023,
      "Ġpred": 3024,
      "Ġseek": 3025,
      "Ġshadow": 3026,
      "ensive": 3027,
      "Ġsoil": 3028,
      "ĠFrom": 3029,
      "Ġlabour": 3030,
      "ĠThen": 3031,
      "Ġnations": 3032,
      "Ġunderstanding": 3033,
      "Ġfal": 3034,
      "Ġze": 3035,
      "his": 3036,
      "asc": 3037,
      "Ġgone": 3038,
      "ented": 3039,
      "Ġship": 3040,
      "Ġcamp": 3041,
      "An": 3042,
      "ams": 3043,
      "Ġla": 3044,
      "Ġsettle": 3045,
      "Ġinstruct": 3046,
      "Ġstone": 3047,
      "Ġletters": 3048,
      "That": 3049,
      "Ġmakes": 3050,
      "ox": 3051,
      "icip": 3052,
      "Ġlad": 3053,
      "ĠSpirit": 3054,
      "Ġredu": 3055,
      "Ġmemory": 3056,
      "Ġenduring": 3057,
      "Ġexpected": 3058,
      "Ġmot": 3059,
      "Ġheat": 3060,
      "Ġguard": 3061,
      "ĠFather": 3062,
      "ĠNe": 3063,
      "Ġdon": 3064,
      "Ġserved": 3065,
      "Ġportion": 3066,
      "eter": 3067,
      "Ġallow": 3068,
      "Ġaffect": 3069,
      "Ġfinds": 3070,
      "Ġinstr": 3071,
      "Ġcurious": 3072,
      "Ġlegisl": 3073,
      "Ġfully": 3074,
      "Ġpassion": 3075,
      "cip": 3076,
      "Ġsuperior": 3077,
      "Ġprepared": 3078,
      "Ġhast": 3079,
      "Ġinhabit": 3080,
      "Ġpromise": 3081,
      "Ġwarm": 3082,
      "Ġdisplay": 3083,
      "Ġexpressed": 3084,
      "Ġast": 3085,
      "Ġunderstand": 3086,
      "enance": 3087,
      "Ġhonor": 3088,
      "Ġplant": 3089,
      "Ġsucceed": 3090,
      "Ġcry": 3091,
      "Ġbattle": 3092,
      "Ġevil": 3093,
      "Ġzeal": 3094,
      "ĠMy": 3095,
      "Ġdiscourse": 3096,
      "roy": 3097,
      ".)": 3098,
      "âĢĺ": 3099,
      "ager": 3100,
      "Ġthorough": 3101,
      "Ġoriginal": 3102,
      "Ġtalk": 3103,
      "ĠEar": 3104,
      "esp": 3105,
      "eds": 3106,
      "ograph": 3107,
      "ilst": 3108,
      "wo": 3109,
      "Ġtheat": 3110,
      "ourage": 3111,
      "Ġvener": 3112,
      "Ġsort": 3113,
      "Ġdism": 3114,
      "Ġimpossible": 3115,
      "Ġtriumph": 3116,
      "road": 3117,
      "Ġnav": 3118,
      "Ġengaged": 3119,
      "ĠCor": 3120,
      "Ġnumerous": 3121,
      "Ġdeemed": 3122,
      "Ġbad": 3123,
      "Ġpolic": 3124,
      "Ġenterprise": 3125,
      "Ġperil": 3126,
      "Ġtravel": 3127,
      "Ġstead": 3128,
      "Ġgrad": 3129,
      "Ġearthly": 3130,
      "Ġspoke": 3131,
      "ĠCong": 3132,
      "Ġwriter": 3133,
      "Ġcertainly": 3134,
      "Ġimprove": 3135,
      "cluding": 3136,
      "Ġlabor": 3137,
      "ĠBl": 3138,
      "Ġdied": 3139,
      "ĠQu": 3140,
      "Ġcred": 3141,
      "Ġdread": 3142,
      "Ġbright": 3143,
      "itter": 3144,
      "Ġadvance": 3145,
      "Ġrul": 3146,
      "ĠTheir": 3147,
      "Ġdemonstr": 3148,
      "iant": 3149,
      "Ġmarked": 3150,
      "ĠAp": 3151,
      "Ġmult": 3152,
      "Ġspecial": 3153,
      "ulous": 3154,
      "Ġintellectual": 3155,
      "Ġpowerful": 3156,
      "gin": 3157,
      "Ġefforts": 3158,
      "Ġvent": 3159,
      "ĠIndeed": 3160,
      "Ġeducation": 3161,
      "Ġbroad": 3162,
      "Ġentered": 3163,
      "Ġremarkable": 3164,
      "Ġconditions": 3165,
      "ii": 3166,
      "Ġsymp": 3167,
      "iation": 3168,
      "Ġnarrative": 3169,
      "illing": 3170,
      "Ġevents": 3171,
      "ompl": 3172,
      "Ġequal": 3173,
      "Ġpopular": 3174,
      "sue": 3175,
      "Ġrare": 3176,
      "Ġstation": 3177,
      "Ġsubm": 3178,
      "Ġgrave": 3179,
      "Ġhappy": 3180,
      "isions": 3181,
      "Ġtemp": 3182,
      "Ġnative": 3183,
      "yn": 3184,
      "Ġbrief": 3185,
      "Ġsorrow": 3186,
      "Ġsch": 3187,
      "Ġmach": 3188,
      "Ġ11": 3189,
      "Ġperform": 3190,
      "Ġgrat": 3191,
      "Ġamid": 3192,
      "Ġcapable": 3193,
      "gu": 3194,
      "ĠSouth": 3195,
      "ĠDiv": 3196,
      "Ġholy": 3197,
      "AT": 3198,
      "Ġborn": 3199,
      "Ġ14": 3200,
      "Ġraised": 3201,
      "Ġdevotion": 3202,
      "Ġpreced": 3203,
      "rate": 3204,
      "Ġappointed": 3205,
      "Ġgaze": 3206,
      "Ġid": 3207,
      "omy": 3208,
      "On": 3209,
      "Ġsovere": 3210,
      "Ġlikely": 3211,
      "using": 3212,
      "Ġconsist": 3213,
      "asp": 3214,
      "Ġconsequence": 3215,
      "arrow": 3216,
      "quis": 3217,
      "Ġwise": 3218,
      "Ġextreme": 3219,
      "Ġbreak": 3220,
      "ortion": 3221,
      "Ġfreed": 3222,
      "ĠX": 3223,
      "Ġforces": 3224,
      "ulation": 3225,
      "Ġagree": 3226,
      "Ġexpression": 3227,
      "Ġagre": 3228,
      "ech": 3229,
      "Ġqual": 3230,
      "ĠMay": 3231,
      "arsh": 3232,
      "Ġsentiment": 3233,
      "Ġsym": 3234,
      "Ġmajor": 3235,
      "Ġinterests": 3236,
      "Ġleaving": 3237,
      "Ġcompar": 3238,
      "Ġstory": 3239,
      "umb": 3240,
      "ĠRome": 3241,
      "Ġsomewhat": 3242,
      "ipp": 3243,
      "ension": 3244,
      "Ġsupposed": 3245,
      "Ġcaused": 3246,
      "urd": 3247,
      "Ġdisposition": 3248,
      "rated": 3249,
      "Ġreally": 3250,
      "Ġsettled": 3251,
      "Ġstructure": 3252,
      "Ġcham": 3253,
      "Ġ20": 3254,
      "Ġkingdom": 3255,
      "CH": 3256,
      "Ġresp": 3257,
      "Ġtit": 3258,
      "Ġbeginning": 3259,
      "IS": 3260,
      "Ġtempor": 3261,
      "Ġbooks": 3262,
      "ĠQue": 3263,
      "Ġsacr": 3264,
      "Ġtrees": 3265,
      "ether": 3266,
      "Ġdre": 3267,
      "Ġmal": 3268,
      "ĠCo": 3269,
      "een": 3270,
      "Ġfood": 3271,
      "Ġens": 3272,
      "Ġimportance": 3273,
      "Ġexact": 3274,
      "ental": 3275,
      "Ġfashion": 3276,
      "Ġbelief": 3277,
      "ĠCapt": 3278,
      "ĠNorth": 3279,
      "ronic": 3280,
      "Ġgiving": 3281,
      "Ġded": 3282,
      "Ġindepend": 3283,
      "irst": 3284,
      "Ġnotice": 3285,
      "Ġsafe": 3286,
      "ĠPhil": 3287,
      "agement": 3288,
      "ĠBar": 3289,
      "Ġbod": 3290,
      "Ġtroops": 3291,
      "Ġtender": 3292,
      "AL": 3293,
      "inc": 3294,
      "atives": 3295,
      "ators": 3296,
      "Ġtrave": 3297,
      "Ġrule": 3298,
      "Ġterms": 3299,
      "Ġopportunity": 3300,
      "Ġ13": 3301,
      "ĠPer": 3302,
      "Ġsave": 3303,
      "char": 3304,
      "Ġfast": 3305,
      "ĠParliament": 3306,
      "peror": 3307,
      "Ġwide": 3308,
      "Ġmanifest": 3309,
      "Ġcolon": 3310,
      "Ġadded": 3311,
      "iced": 3312,
      "ĠTHE": 3313,
      "Ġelect": 3314,
      "ĠAmerica": 3315,
      "No": 3316,
      "At": 3317,
      "Ġbran": 3318,
      "ford": 3319,
      "Ġdeliber": 3320,
      "Ġlines": 3321,
      "Ġcrow": 3322,
      "Ġthick": 3323,
      "Ġignor": 3324,
      "Ġsatisf": 3325,
      "Ġweek": 3326,
      "co": 3327,
      "Ġaid": 3328,
      "Ġsubl": 3329,
      "Ġdict": 3330,
      "Ġconsideration": 3331,
      "Ġfacts": 3332,
      "Ġreplied": 3333,
      "af": 3334,
      "Ġrights": 3335,
      "Ġdetermined": 3336,
      "Ġspeaks": 3337,
      "Ġphysical": 3338,
      "Ġgard": 3339,
      "ĠWilliam": 3340,
      "Ġburn": 3341,
      "Ġaccompl": 3342,
      "ĠCath": 3343,
      "Ġrise": 3344,
      "Ġfeat": 3345,
      "ospel": 3346,
      "Ġwo": 3347,
      "Ġago": 3348,
      "set": 3349,
      "Ġinquir": 3350,
      "Ġprofession": 3351,
      "Ġcapital": 3352,
      "Ġcontrib": 3353,
      "Ġbird": 3354,
      "Ġhighly": 3355,
      "Ġdomestic": 3356,
      "ĠWest": 3357,
      "ĠSome": 3358,
      "Ġdifficulty": 3359,
      "Ġge": 3360,
      "Ġhur": 3361,
      "ĠCourt": 3362,
      "Ġfamiliar": 3363,
      "Ġpursuit": 3364,
      "itect": 3365,
      "Ġcalcul": 3366,
      "Ġconstit": 3367,
      "Ġcentury": 3368,
      "Ġperceived": 3369,
      "Ġmagnific": 3370,
      "Ġpassing": 3371,
      "Ġfresh": 3372,
      "Ġourselves": 3373,
      "Ġproposed": 3374,
      "ocr": 3375,
      "asons": 3376,
      "orge": 3377,
      "Ġlower": 3378,
      "They": 3379,
      "Ġconflict": 3380,
      "Ġmut": 3381,
      "Ġinhabitants": 3382,
      "Ġsuffering": 3383,
      "Ġapparent": 3384,
      "Ġthoughts": 3385,
      "Ġspl": 3386,
      "ĠJew": 3387,
      "ĠParis": 3388,
      "Ġlives": 3389,
      "Ġiron": 3390,
      "port": 3391,
      "Ġobservation": 3392,
      "ctions": 3393,
      "Ġmentioned": 3394,
      "St": 3395,
      "atory": 3396,
      "Ġstanding": 3397,
      "ux": 3398,
      "Ġmaintained": 3399,
      "Ġexceed": 3400,
      "Ġprevail": 3401,
      "umin": 3402,
      "Ġsurface": 3403,
      "anish": 3404,
      "icked": 3405,
      "Ġcontemplation": 3406,
      "Ġambition": 3407,
      "Ġcommerce": 3408,
      "Ġsty": 3409,
      "Ġsouls": 3410,
      "Ġcele": 3411,
      "ĠUpon": 3412,
      "inces": 3413,
      "Ġbuilt": 3414,
      "Ġthirty": 3415,
      "Ġdignity": 3416,
      "Ġgod": 3417,
      "Ġfier": 3418,
      "eper": 3419,
      "Ġdaughter": 3420,
      "How": 3421,
      ".]": 3422,
      "Ġrequire": 3423,
      "sequent": 3424,
      "ĠGreat": 3425,
      "ilities": 3426,
      "Ġconstant": 3427,
      "Ġspring": 3428,
      "Ġscience": 3429,
      "rible": 3430,
      "Ġfalse": 3431,
      "ibly": 3432,
      "Ġdoing": 3433,
      "Ġsuffer": 3434,
      "Ġvenerable": 3435,
      "urb": 3436,
      "Ġhabit": 3437,
      "Ġfixed": 3438,
      "ias": 3439,
      "Ġscarcely": 3440,
      "Ġbelieved": 3441,
      "Ġafterwards": 3442,
      "Ġpolicy": 3443,
      "ĠMin": 3444,
      "Ġinvest": 3445,
      "Ġparent": 3446,
      "AP": 3447,
      "Ġinherent": 3448,
      "Ġwhilst": 3449,
      "ĠPrince": 3450,
      "ĠNow": 3451,
      "Ġutterly": 3452,
      "Ġcomes": 3453,
      "Ġbroken": 3454,
      "Ġrelations": 3455,
      "Ġunderstood": 3456,
      "Ġregular": 3457,
      "Ġheight": 3458,
      "Ġhouses": 3459,
      "Ġserious": 3460,
      "Ġthroughout": 3461,
      "Ġwhatever": 3462,
      "Ġexch": 3463,
      "Ġgather": 3464,
      "ĠZ": 3465,
      "Ġtop": 3466,
      "Ġdisease": 3467,
      "Ġminds": 3468,
      "rand": 3469,
      "Ġli": 3470,
      "ufact": 3471,
      "Ġmouth": 3472,
      "igned": 3473,
      "Ġris": 3474,
      "Ġgenius": 3475,
      "Ġvital": 3476,
      "Ġtry": 3477,
      "Ġexper": 3478,
      "Ġpoints": 3479,
      "Ġwrong": 3480,
      "vity": 3481,
      "Ġpaid": 3482,
      "Ġissu": 3483,
      "Ġbread": 3484,
      "ounding": 3485,
      "uine": 3486,
      "ĠGl": 3487,
      "Ġgives": 3488,
      "erver": 3489,
      "utation": 3490,
      "aven": 3491,
      "urally": 3492,
      "ifying": 3493,
      "ĠConst": 3494,
      "Ġsleep": 3495,
      "Ġlived": 3496,
      "uls": 3497,
      "Ġmat": 3498,
      "Ġproduced": 3499,
      "Ġpaint": 3500,
      "Ġfleet": 3501,
      "Ġotherwise": 3502,
      "Ġrob": 3503,
      "uly": 3504,
      "Ġexercise": 3505,
      "Ġhappiness": 3506,
      "ĠScript": 3507,
      "Ġaud": 3508,
      "Ġschol": 3509,
      "ille": 3510,
      "Ġmill": 3511,
      "Ġfruit": 3512,
      "Ġdeeply": 3513,
      "Ġeternal": 3514,
      "Ġequally": 3515,
      "Ġcrowd": 3516,
      ";*": 3517,
      "One": 3518,
      "urity": 3519,
      "ixt": 3520,
      "Ġdiscipl": 3521,
      "ares": 3522,
      "gar": 3523,
      "bled": 3524,
      "Ġquality": 3525,
      "Ġdestroy": 3526,
      "Ġfortune": 3527,
      "Ġsup": 3528,
      "ĠPresident": 3529,
      "Ġfinally": 3530,
      "Ġapplication": 3531,
      "Ġconqu": 3532,
      "fortun": 3533,
      "Ġexped": 3534,
      "known": 3535,
      "ollowing": 3536,
      "Ġprosper": 3537,
      "Ġsilence": 3538,
      "Ġmotion": 3539,
      "ĠNature": 3540,
      "Ġeffort": 3541,
      "Ġgirl": 3542,
      "Ġfigures": 3543,
      "Ġdeclared": 3544,
      "Ġfate": 3545,
      "Ġcrown": 3546,
      "Ġcareful": 3547,
      "ĠSec": 3548,
      "ĠMe": 3549,
      "Ġmission": 3550,
      "Ġpopulace": 3551,
      "ald": 3552,
      "Ġsuggested": 3553,
      "Ġunless": 3554,
      "Ġordinary": 3555,
      "ĠFe": 3556,
      "Ġreach": 3557,
      "Ġresults": 3558,
      "Ġusual": 3559,
      "attered": 3560,
      "Ġlord": 3561,
      "ĠCons": 3562,
      "bles": 3563,
      "Ġroyal": 3564,
      "Ġreading": 3565,
      "Ġdirection": 3566,
      "Ġsympath": 3567,
      "cies": 3568,
      "Ġsubsequent": 3569,
      "Ġfight": 3570,
      "Ġaim": 3571,
      "ĠJud": 3572,
      "Ġsuppl": 3573,
      "umes": 3574,
      "Ġmusic": 3575,
      "house": 3576,
      "Ġhab": 3577,
      "Ġcoast": 3578,
      ").": 3579,
      "ĠOur": 3580,
      "room": 3581,
      "kind": 3582,
      "Ġadj": 3583,
      "Ġfilled": 3584,
      "Ġwalls": 3585,
      "Ġseven": 3586,
      "ashing": 3587,
      "ply": 3588,
      "Ind": 3589,
      "burg": 3590,
      "Ġdog": 3591,
      "Ġperfectly": 3592,
      "Ġmoved": 3593,
      "asing": 3594,
      "Ġprincipal": 3595,
      "Ġhearts": 3596,
      "Ġtrem": 3597,
      "Ġnorth": 3598,
      "oot": 3599,
      "Ġwinter": 3600,
      "Ġsublime": 3601,
      "uable": 3602,
      "Ġpiece": 3603,
      "omin": 3604,
      "Ġquant": 3605,
      "Ġcorrect": 3606,
      "Ġcand": 3607,
      "Ġgift": 3608,
      "Ġinterp": 3609,
      "oard": 3610,
      "Ġextent": 3611,
      "ĠDuke": 3612,
      "Ġstage": 3613,
      "Ġobtained": 3614,
      "Ġsubstance": 3615,
      "ĠRuss": 3616,
      "rog": 3617,
      "Ġhonest": 3618,
      "Ġsaying": 3619,
      "from": 3620,
      "Ġglorious": 3621,
      "Ġcounsel": 3622,
      "Ġcop": 3623,
      "Ġfreedom": 3624,
      "Ġnote": 3625,
      "ĠRev": 3626,
      "Ġstir": 3627,
      "ĠMed": 3628,
      "Ġecon": 3629,
      "ĠIndian": 3630,
      "Ġkeen": 3631,
      "ĠCongress": 3632,
      "apers": 3633,
      "oqu": 3634,
      "Ġnarrow": 3635,
      "Ġtaste": 3636,
      "Ġuseful": 3637,
      "Ġprecise": 3638,
      "Ġlie": 3639,
      "othing": 3640,
      "Ġshown": 3641,
      "right": 3642,
      "ram": 3643,
      "Ġlooking": 3644,
      "Ġfit": 3645,
      "Ġanswered": 3646,
      "Ġindustry": 3647,
      "orses": 3648,
      "elve": 3649,
      "TER": 3650,
      "Ġspectacle": 3651,
      "Ġinformation": 3652,
      "ivered": 3653,
      "Ġcovered": 3654,
      "Ġconversation": 3655,
      "alled": 3656,
      "Ġsoldiers": 3657,
      "Ġconfess": 3658,
      "Ġrose": 3659,
      "Ġmanufact": 3660,
      "min": 3661,
      "eous": 3662,
      "Ġrace": 3663,
      "ĠCaptain": 3664,
      "Ġconfidence": 3665,
      "ĠQueen": 3666,
      ",-": 3667,
      "aches": 3668,
      "Ġwherein": 3669,
      "ugust": 3670,
      "Ġfundament": 3671,
      "ĠCharles": 3672,
      "Ġbas": 3673,
      "Ġfortun": 3674,
      "ption": 3675,
      "Ġcapacity": 3676,
      "Ġglad": 3677,
      "Ġtask": 3678,
      "sembly": 3679,
      "Ġteacher": 3680,
      "ulated": 3681,
      "Ġactions": 3682,
      "uary": 3683,
      "racted": 3684,
      "che": 3685,
      "Ġsad": 3686,
      "Ġpurch": 3687,
      "rel": 3688,
      "Ġmaintain": 3689,
      "iling": 3690,
      "icial": 3691,
      "Ġsick": 3692,
      "Ġsuddenly": 3693,
      "estry": 3694,
      "Ġsummer": 3695,
      "Ġwaters": 3696,
      "ĠMad": 3697,
      "Ġdiscovered": 3698,
      "Ġdistrict": 3699,
      "Ġobst": 3700,
      "ĠSou": 3701,
      "Ġdece": 3702,
      "ĠEven": 3703,
      "Ġpersu": 3704,
      "Ġrefer": 3705,
      "Ġmeaning": 3706,
      "Ġdecided": 3707,
      "head": 3708,
      "Ġtheatre": 3709,
      "imony": 3710,
      "Ġopened": 3711,
      "aced": 3712,
      "ĠNot": 3713,
      "Ġspecies": 3714,
      "Ġaccompan": 3715,
      "Ġgall": 3716,
      "Ġeasy": 3717,
      "Ġprompt": 3718,
      "Ġtax": 3719,
      "osity": 3720,
      "She": 3721,
      "ival": 3722,
      "Ġrespons": 3723,
      "Ġsend": 3724,
      "Ġstrict": 3725,
      "espite": 3726,
      "Ġaddition": 3727,
      "Ġbelow": 3728,
      "Ġcontrary": 3729,
      "Ġarchitect": 3730,
      "Ġcompelled": 3731,
      "Ġenv": 3732,
      "this": 3733,
      "Let": 3734,
      "Ġadvanced": 3735,
      "ĠHenry": 3736,
      "Ġgranted": 3737,
      "itor": 3738,
      "Ġprofess": 3739,
      "These": 3740,
      "ĠCoun": 3741,
      "Ġaut": 3742,
      "esc": 3743,
      "Ġdepend": 3744,
      "ĠCal": 3745,
      "Ġproof": 3746,
      "Ġpreviously": 3747,
      "athered": 3748,
      "ĠConsequently": 3749,
      "ĠLady": 3750,
      "Ġviews": 3751,
      "Ġeste": 3752,
      "Ġspeech": 3753,
      "Ġoccurred": 3754,
      "Ġbill": 3755,
      "Ġbreath": 3756,
      "Ġconven": 3757,
      "ishes": 3758,
      "Ġanticip": 3759,
      "Ġhot": 3760,
      "cts": 3761,
      "Ġstated": 3762,
      "Ġremember": 3763,
      "Ġconviction": 3764,
      "Ġprint": 3765,
      "Ġ66": 3766,
      "ĠDivine": 3767,
      "Ġlegal": 3768,
      "Ġessential": 3769,
      "inions": 3770,
      "ĠNor": 3771,
      "look": 3772,
      "Ġcitizens": 3773,
      "overy": 3774,
      "Ġseeing": 3775,
      "Ġspread": 3776,
      "nat": 3777,
      "Ġterrit": 3778,
      "Ġcelebr": 3779,
      "ivity": 3780,
      "Ġpossession": 3781,
      "vation": 3782,
      "Ġsanct": 3783,
      "THE": 3784,
      "Ġworship": 3785,
      "ander": 3786,
      "Ġstruggle": 3787,
      "Ġnames": 3788,
      "Ġsto": 3789,
      "Ġexcellent": 3790,
      "Ġpresents": 3791,
      "Ġdrawing": 3792,
      "Ġdry": 3793,
      "Ġ:": 3794,
      "ique": 3795,
      "Ġquestions": 3796,
      "Ġgenuine": 3797,
      "iles": 3798,
      "Ġprevious": 3799,
      "ĠComp": 3800,
      "ye": 3801,
      "Ġgroup": 3802,
      "Ġminister": 3803,
      "Ġhardly": 3804,
      "antic": 3805,
      ".**": 3806,
      "Ġapplied": 3807,
      "Ġnaturally": 3808,
      "Ġinteresting": 3809,
      "icity": 3810,
      "Ġassembl": 3811,
      "Ġtap": 3812,
      "eration": 3813,
      "ien": 3814,
      "ogether": 3815,
      "Ġrecomm": 3816,
      "Ġconscience": 3817,
      "Ġaf": 3818,
      "Ġfifty": 3819,
      "you": 3820,
      "oes": 3821,
      "ague": 3822,
      "Ġwatch": 3823,
      "Ġexert": 3824,
      "Ġcondem": 3825,
      "ĠFl": 3826,
      "Ġprospect": 3827,
      "vering": 3828,
      "matic": 3829,
      "Ġpride": 3830,
      "ĠSociety": 3831,
      "Ġbank": 3832,
      "Ġfeelings": 3833,
      "estern": 3834,
      "Ġvan": 3835,
      "Ġstruck": 3836,
      "Ġsouth": 3837,
      "Ġmagnificent": 3838,
      "iast": 3839,
      "vert": 3840,
      "pass": 3841,
      "Ġjudge": 3842,
      "Ġprepar": 3843,
      "Ġsuggests": 3844,
      "oken": 3845,
      "Ġinstit": 3846,
      "usted": 3847,
      "Ġargument": 3848,
      "ables": 3849,
      "Ġcho": 3850,
      "Ġpublished": 3851,
      "Ġstands": 3852,
      "Ġexcess": 3853,
      "Ġincrease": 3854,
      "Ġsilent": 3855,
      "Ġhero": 3856,
      "Ġremoved": 3857,
      "aped": 3858,
      "Ġwriting": 3859,
      "Ġfaithful": 3860,
      "bling": 3861,
      "ĠScot": 3862,
      "standing": 3863,
      "Ġdevoted": 3864,
      "yr": 3865,
      "Ġpronounce": 3866,
      "ĠHim": 3867,
      "edy": 3868,
      "Ġprayer": 3869,
      "Ġinev": 3870,
      "Ġdistinguished": 3871,
      "jud": 3872,
      "ĠEl": 3873,
      "Ġproduce": 3874,
      "Ġcommunity": 3875,
      "gypt": 3876,
      "pected": 3877,
      "bell": 3878,
      "From": 3879,
      "Ġgreatly": 3880,
      "rees": 3881,
      "Ġordered": 3882,
      "Ġsus": 3883,
      "Ġboard": 3884,
      "eal": 3885,
      "Ġtreatment": 3886,
      "Ġcou": 3887,
      "Ġdifference": 3888,
      "Ġattrib": 3889,
      "Ġdelivered": 3890,
      "urches": 3891,
      "eless": 3892,
      "Ġdust": 3893,
      "usal": 3894,
      "Ġspirits": 3895,
      "ĠEuropean": 3896,
      "Ġsource": 3897,
      "Ġrail": 3898,
      "dra": 3899,
      "Ġanimal": 3900,
      "uct": 3901,
      "Ġarrival": 3902,
      "Ġ30": 3903,
      "Ġglo": 3904,
      "Ġmovement": 3905,
      "Ġsuppose": 3906,
      "---": 3907,
      "Ġleaves": 3908,
      "Ġbuilding": 3909,
      "My": 3910,
      "Ġstorm": 3911,
      "Ġmountain": 3912,
      "Ġforced": 3913,
      "bar": 3914,
      "Ġstyle": 3915,
      "Ġvain": 3916,
      "Ġeverything": 3917,
      "Ġgreen": 3918,
      "Ġdirected": 3919,
      "Ġbenefit": 3920,
      "ropri": 3921,
      "Ġparties": 3922,
      "Ġsovereign": 3923,
      "Ġpotent": 3924,
      "Ġwrote": 3925,
      "Ġvolume": 3926,
      "ĠAnt": 3927,
      "Ġpersist": 3928,
      "Ġdimin": 3929,
      "istry": 3930,
      "Ġpopulation": 3931,
      "inal": 3932,
      "Ġrevealed": 3933,
      "esh": 3934,
      "Ġcong": 3935,
      "Ġmeasures": 3936,
      "Ġwrought": 3937,
      "Ġdevelopment": 3938,
      "ĠMary": 3939,
      "Ġkn": 3940,
      "inction": 3941,
      "ĠInst": 3942,
      "off": 3943,
      "Ġones": 3944,
      "His": 3945,
      "Ġinternal": 3946,
      "Ġcloud": 3947,
      "Ġencoura": 3948,
      "Ġhair": 3949,
      "uries": 3950,
      "Ġuniversal": 3951,
      "Ġgovernance": 3952,
      "Ġevident": 3953,
      "Ġvillage": 3954,
      "urance": 3955,
      "wing": 3956,
      "Ġchall": 3957,
      "orther": 3958,
      "iring": 3959,
      "Ġentertain": 3960,
      "Ġimpl": 3961,
      "Ġmarriage": 3962,
      "uge": 3963,
      "Ġamidst": 3964,
      "andon": 3965,
      "ĠâĢĺ": 3966,
      "Ġsuffered": 3967,
      "Ġwholly": 3968,
      "Ġacts": 3969,
      "pire": 3970,
      "Ġgentlemen": 3971,
      "irth": 3972,
      "ey": 3973,
      "Ġusually": 3974,
      "Ġthereby": 3975,
      "vol": 3976,
      "Ġbold": 3977,
      "ĠIm": 3978,
      "Ġhorses": 3979,
      "Ġdress": 3980,
      "Ġbreast": 3981,
      "Ġreign": 3982,
      "Ġescape": 3983,
      "Ġsecured": 3984,
      "Ġcauses": 3985,
      "Ġincreased": 3986,
      "amb": 3987,
      "Ġtal": 3988,
      "Ġmess": 3989,
      "Ġvaluable": 3990,
      "Ġofficial": 3991,
      "ĠHoly": 3992,
      "Ġtwelve": 3993,
      "ĠJames": 3994,
      "Ġnamed": 3995,
      "Ġreality": 3996,
      "Ġreflect": 3997,
      "gged": 3998,
      "ols": 3999,
      "Ġbond": 4000,
      "igation": 4001,
      "they": 4002,
      "Ġdam": 4003,
      "there": 4004,
      "Ġcompre": 4005,
      "Ġskill": 4006,
      "Ġprivile": 4007,
      "ĠIr": 4008,
      "Ġdrink": 4009,
      "ĠProt": 4010,
      "Ġpossesses": 4011,
      "ĠColon": 4012,
      "Ġproportion": 4013,
      "Ġspace": 4014,
      "Ġimmense": 4015,
      "ems": 4016,
      "Ġadopted": 4017,
      "Ġspeaking": 4018,
      "Ġsupply": 4019,
      "Ġphysic": 4020,
      "Ġofficer": 4021,
      "Ġnotes": 4022,
      "thern": 4023,
      "Ġfoundation": 4024,
      "Ġlearn": 4025,
      "Ġsir": 4026,
      "Ġwilling": 4027,
      "mber": 4028,
      "hend": 4029,
      "appe": 4030,
      "wed": 4031,
      "lls": 4032,
      "ĠSen": 4033,
      "Ġcontinue": 4034,
      "Ġ[^": 4035,
      "Ġvigour": 4036,
      "Ġschools": 4037,
      "Ġopposition": 4038,
      "Ġabund": 4039,
      "Ġpleasant": 4040,
      "Ġmerch": 4041,
      "ĠWhere": 4042,
      "Ġsoft": 4043,
      "Ġworking": 4044,
      "Ġdie": 4045,
      "LE": 4046,
      "Ġcorrupt": 4047,
      "ĠCont": 4048,
      "Ġgriev": 4049,
      "Ġentr": 4050,
      "Ġcarefully": 4051,
      "Ġmeant": 4052,
      "Ġfacult": 4053,
      "Ġdesper": 4054,
      "vent": 4055,
      "ĠAg": 4056,
      "ades": 4057,
      "bid": 4058,
      "hension": 4059,
      "aimed": 4060,
      "ault": 4061,
      "Ġtree": 4062,
      "IT": 4063,
      "Ġrequires": 4064,
      "Ġtrial": 4065,
      "Ġcomplex": 4066,
      "Ġcritic": 4067,
      "osite": 4068,
      "Ġsteadfast": 4069,
      "Ġconvey": 4070,
      "ancho": 4071,
      "Ġ19": 4072,
      "Ġreported": 4073,
      "Ġsimply": 4074,
      "Ġsplend": 4075,
      "Ġvisible": 4076,
      "Ġfinding": 4077,
      "Ġconclusion": 4078,
      "orthern": 4079,
      "ĠLou": 4080,
      "Ġsubsequently": 4081,
      "Ġvessels": 4082,
      "Ġtapestry": 4083,
      "Ġinvolved": 4084,
      "Ġspot": 4085,
      "Ġfever": 4086,
      "Ġtide": 4087,
      "Ġideas": 4088,
      "Ġaspect": 4089,
      "Ġtong": 4090,
      "Ġtempt": 4091,
      "Ġdro": 4092,
      "Ġabandon": 4093,
      "Ġstay": 4094,
      "Ġterrible": 4095,
      "cer": 4096,
      "Ġhistorical": 4097,
      "Ġinstruction": 4098,
      "Ġprefer": 4099,
      "Ġdesired": 4100,
      "Ġruin": 4101,
      "ĠMajesty": 4102,
      "Ġtaught": 4103,
      "Ġsatisfaction": 4104,
      "Ġrepeated": 4105,
      "had": 4106,
      "Ġforty": 4107,
      "Ġwrite": 4108,
      "Ġbearing": 4109,
      "oration": 4110,
      "Ġaccompanied": 4111,
      "osen": 4112,
      "then": 4113,
      "Ġapproach": 4114,
      "Ġexamination": 4115,
      "ĠAust": 4116,
      "Ġadministration": 4117,
      "aling": 4118,
      "Ġgathered": 4119,
      "Ġorders": 4120,
      "alog": 4121,
      "inations": 4122,
      "lex": 4123,
      "erable": 4124,
      "och": 4125,
      "ĠSub": 4126,
      "Ġclasses": 4127,
      "Ġlearning": 4128,
      "have": 4129,
      "Ġsister": 4130,
      "Ġferv": 4131,
      "Ġcourage": 4132,
      "Ġincluding": 4133,
      "Ġresolution": 4134,
      "ustice": 4135,
      "rut": 4136,
      "ĠRob": 4137,
      "ushed": 4138,
      "Ġcontent": 4139,
      "Ġissue": 4140,
      "ĠGeorge": 4141,
      "Ġrelief": 4142,
      "Ġfault": 4143,
      "Ġpermitted": 4144,
      "Ġfancy": 4145,
      "Ġfem": 4146,
      "Ġstock": 4147,
      "Ġbodies": 4148,
      "ĠWor": 4149,
      "Ġobjects": 4150,
      "Ġdriven": 4151,
      "Ġsuccessful": 4152,
      "ĠGu": 4153,
      "Ġedifice": 4154,
      "ĠPers": 4155,
      "Ġtor": 4156,
      "Ġregion": 4157,
      "Ġdefend": 4158,
      "Be": 4159,
      "Ġintroduced": 4160,
      "kes": 4161,
      "Ġproceeded": 4162,
      "Ġsumm": 4163,
      "reland": 4164,
      "Ġconnection": 4165,
      "Ġfrag": 4166,
      "ĠProvidence": 4167,
      "Ġgun": 4168,
      "ference": 4169,
      "ĠAlthough": 4170,
      "Ġphilosoph": 4171,
      "Ġtim": 4172,
      "Ġinterv": 4173,
      "Ġinformed": 4174,
      "Ġtot": 4175,
      "Ġspent": 4176,
      "Ġmercy": 4177,
      "ĠUnion": 4178,
      "Ġchance": 4179,
      "Ġinstances": 4180,
      "Ġlament": 4181,
      "Ġtestament": 4182,
      "Ġelements": 4183,
      "Ġretreat": 4184,
      "ĠMon": 4185,
      "Ġforest": 4186,
      "ading": 4187,
      "Ġeloqu": 4188,
      "Ġgrowth": 4189,
      "Ġdirectly": 4190,
      "Ġmine": 4191,
      "Ġtrouble": 4192,
      "Ġdangerous": 4193,
      "Ġbul": 4194,
      "aith": 4195,
      "ode": 4196,
      "Ġallowing": 4197,
      "Ġcried": 4198,
      "Ġcruel": 4199,
      "Ġultimate": 4200,
      "Ġgravity": 4201,
      "Ġdescription": 4202,
      "Ġearl": 4203,
      "Ġpicture": 4204,
      "ĠPaul": 4205,
      "enes": 4206,
      "Ġblessed": 4207,
      "idable": 4208,
      "Ġmountains": 4209,
      "Ġlandsc": 4210,
      "Ġsolely": 4211,
      "Ġlog": 4212,
      "ĠHar": 4213,
      "Ġsubstant": 4214,
      "Ġfoc": 4215,
      "RE": 4216,
      "uer": 4217,
      "Ġintense": 4218,
      "inity": 4219,
      "Ġconcluded": 4220,
      "With": 4221,
      "hus": 4222,
      "...": 4223,
      "Ġenemies": 4224,
      "orne": 4225,
      "body": 4226,
      "Ġactive": 4227,
      "ĠEgypt": 4228,
      "Ġanimals": 4229,
      "Ġregret": 4230,
      "Ġflesh": 4231,
      "alle": 4232,
      "Ġ25": 4233,
      "lo": 4234,
      "ordinary": 4235,
      "After": 4236,
      "ulse": 4237,
      "ext": 4238,
      "Ġgain": 4239,
      "Ġrid": 4240,
      "ĠIndians": 4241,
      "Ġbrill": 4242,
      "equ": 4243,
      "Ġultimately": 4244,
      "itated": 4245,
      "Ġshare": 4246,
      "Ġpossessing": 4247,
      "Ġlarger": 4248,
      "Ġclam": 4249,
      "Ġformidable": 4250,
      "after": 4251,
      "Ġsuggesting": 4252,
      "Ġnotion": 4253,
      "Ġmonarch": 4254,
      "irgin": 4255,
      "ront": 4256,
      "rose": 4257,
      "Ġapart": 4258,
      "Ġdiscussion": 4259,
      "Ġprud": 4260,
      "uing": 4261,
      "Ġdespite": 4262,
      "Ġmeasured": 4263,
      "Ġtum": 4264,
      "ĠRepublic": 4265,
      "while": 4266,
      "Ġstriking": 4267,
      "Ġserves": 4268,
      "Ġpressed": 4269,
      "Ġx": 4270,
      "oral": 4271,
      "Ġinfinite": 4272,
      "Ġphilosophy": 4273,
      "Ġdin": 4274,
      ",--": 4275,
      "ĠGreek": 4276,
      "Al": 4277,
      "Ġcompet": 4278,
      "artial": 4279,
      "ĠDuring": 4280,
      "Ġmember": 4281,
      "otten": 4282,
      "Ġdecree": 4283,
      "Ġshowed": 4284,
      "Ġunfold": 4285,
      "Ġsober": 4286,
      "Ġsword": 4287,
      "Ġchap": 4288,
      "Ġhat": 4289,
      "lege": 4290,
      "Ġproud": 4291,
      "Ġobsc": 4292,
      "run": 4293,
      "oning": 4294,
      "Ġdistinction": 4295,
      "Ġdepth": 4296,
      "Ġprotection": 4297,
      "theless": 4298,
      "ĠThough": 4299,
      "Ġang": 4300,
      "Ġinstrument": 4301,
      "Ġbare": 4302,
      "Ġaddressed": 4303,
      "'ll": 4304,
      "cientific": 4305,
      "uel": 4306,
      "Ġsphere": 4307,
      "Ġcommittee": 4308,
      "Ġsurpr": 4309,
      "ustomed": 4310,
      "aces": 4311,
      "So": 4312,
      "who": 4313,
      "Ġcere": 4314,
      "IC": 4315,
      "Ġstream": 4316,
      "Ġrout": 4317,
      "Ġclergy": 4318,
      "Ġgrim": 4319,
      "Ġsteam": 4320,
      "Ġdismiss": 4321,
      "ĠApost": 4322,
      "Ġmajority": 4323,
      "Ġregarded": 4324,
      "Ġcollect": 4325,
      "Ġmiddle": 4326,
      "Ġbitter": 4327,
      "Ġpatri": 4328,
      "mosp": 4329,
      "Ġsides": 4330,
      "Ġexisting": 4331,
      "Ġaltogether": 4332,
      "Ġresembl": 4333,
      "Ġflour": 4334,
      "Ġhaue": 4335,
      "Ġexecution": 4336,
      "ashington": 4337,
      "Ġknows": 4338,
      "eping": 4339,
      "Ġbord": 4340,
      "Ġremind": 4341,
      "Ġcreature": 4342,
      "Ġwel": 4343,
      "can": 4344,
      "enge": 4345,
      "Ġweeks": 4346,
      "aration": 4347,
      "thren": 4348,
      "Ġresolved": 4349,
      "Ġsize": 4350,
      "ĠSu": 4351,
      "Ġtone": 4352,
      "ĠAugust": 4353,
      "Ġpraise": 4354,
      "Ġaccepted": 4355,
      "Ġdescrib": 4356,
      "Ġglass": 4357,
      "Ġeffects": 4358,
      "hem": 4359,
      "Ġpotential": 4360,
      "Ġtitle": 4361,
      "10": 4362,
      "ump": 4363,
      "Ġtried": 4364,
      "Ġsupported": 4365,
      "ĠWar": 4366,
      "Ġoccupied": 4367,
      "Ġforget": 4368,
      "Ġeager": 4369,
      "Ġquickly": 4370,
      "enn": 4371,
      "ean": 4372,
      "Ġcommission": 4373,
      "Ġengine": 4374,
      "Ġhabits": 4375,
      "fl": 4376,
      "Ġmarket": 4377,
      "Ġdischar": 4378,
      "Ġpropri": 4379,
      "erate": 4380,
      "gement": 4381,
      "Ġinquiry": 4382,
      "were": 4383,
      "ĠSav": 4384,
      "Ġcountenance": 4385,
      "zen": 4386,
      "ĠPort": 4387,
      "ĠEmperor": 4388,
      "rors": 4389,
      "Ġdisapp": 4390,
      "Ġexternal": 4391,
      "ĠDespite": 4392,
      "Ġnovel": 4393,
      "bel": 4394,
      "Ġprice": 4395,
      "ĠSpain": 4396,
      "Ġweather": 4397,
      "Ġerect": 4398,
      "Ġwicked": 4399,
      "Ġvision": 4400,
      "Ġvers": 4401,
      "Ġexchange": 4402,
      "Ġcounter": 4403,
      "Ġchronic": 4404,
      "Ġhosp": 4405,
      "will": 4406,
      "Ġhom": 4407,
      "rection": 4408,
      "Ġshore": 4409,
      "Ġages": 4410,
      "Ġdeeper": 4411,
      "Ġadmitted": 4412,
      "Ġremem": 4413,
      "umn": 4414,
      "Ġenergy": 4415,
      "iour": 4416,
      "Ġabst": 4417,
      "Ġoperation": 4418,
      "ding": 4419,
      "Ġconscious": 4420,
      "ricult": 4421,
      "Ġendeavour": 4422,
      "Ġboat": 4423,
      "Ġbirth": 4424,
      "Ġrising": 4425,
      "Ġprotect": 4426,
      "Ġways": 4427,
      "Ġdebt": 4428,
      "Ġatmosp": 4429,
      "ĠSpanish": 4430,
      "Ġliterature": 4431,
      "Ġmoments": 4432,
      "Ġperman": 4433,
      "Ġtakes": 4434,
      "ĠIreland": 4435,
      "Ġturning": 4436,
      "Ġdiscover": 4437,
      "Ġident": 4438,
      "Ġreject": 4439,
      "ION": 4440,
      "Ġopposite": 4441,
      "Ġaston": 4442,
      "Ġfailed": 4443,
      "Ġreflection": 4444,
      "Ġattended": 4445,
      "Ġproc": 4446,
      "Ġavail": 4447,
      "Ġprocl": 4448,
      "###": 4449,
      "Ġsubs": 4450,
      "Ġchosen": 4451,
      "work": 4452,
      "itate": 4453,
      "Ġtreated": 4454,
      "rough": 4455,
      "Ġsilver": 4456,
      "Ġneeds": 4457,
      "Ġecho": 4458,
      "Ġrecently": 4459,
      "Ġextended": 4460,
      "Ġspoken": 4461,
      "Ġthread": 4462,
      "Ġpromised": 4463,
      "Ġevid": 4464,
      "Ġsurely": 4465,
      "aints": 4466,
      "Ġtempest": 4467,
      "iform": 4468,
      "Ġlest": 4469,
      "Ġpleased": 4470,
      "Ġgrowing": 4471,
      "Ġnews": 4472,
      "quisite": 4473,
      "Ġstandard": 4474,
      "Ġunfortun": 4475,
      "Ġabsence": 4476,
      "Ġunion": 4477,
      "Ġprosperity": 4478,
      "Ġguide": 4479,
      "Ġliterary": 4480,
      "field": 4481,
      "18": 4482,
      "Ġrank": 4483,
      "imp": 4484,
      "acious": 4485,
      "Ġsympathy": 4486,
      "hers": 4487,
      "their": 4488,
      "ria": 4489,
      "Ġachieve": 4490,
      "Ġdistress": 4491,
      "Ġreply": 4492,
      "ĠTur": 4493,
      "Ġnon": 4494,
      "Ġarrest": 4495,
      "Now": 4496,
      "Ġarrangement": 4497,
      "Ġhumanity": 4498,
      "Then": 4499,
      "Ġshared": 4500,
      "Ġdesert": 4501,
      "Ġaccounts": 4502,
      "Ġfallen": 4503,
      "Ġrefused": 4504,
      "rary": 4505,
      "Ġclearly": 4506,
      "Ġfeatures": 4507,
      "Ġcheer": 4508,
      "Ġhes": 4509,
      "Ġsake": 4510,
      "Ġclaims": 4511,
      "Ġladies": 4512,
      "rael": 4513,
      "Ġsurrounding": 4514,
      "Ġindiff": 4515,
      "ae": 4516,
      "Ġseparate": 4517,
      "Ġobliged": 4518,
      "Ġhopes": 4519,
      "oring": 4520,
      "Ġindu": 4521,
      "arer": 4522,
      "cks": 4523,
      "Ġdefence": 4524,
      "Ġblind": 4525,
      "Ġconnected": 4526,
      "Ġreven": 4527,
      "Ġ21": 4528,
      "Ġfundamental": 4529,
      "Ġextraordinary": 4530,
      "Ġrighteous": 4531,
      "Ġaside": 4532,
      "Ġpretty": 4533,
      "reet": 4534,
      "long": 4535,
      "Ġbecoming": 4536,
      "Ġreck": 4537,
      "Ġcontrol": 4538,
      "Ġassured": 4539,
      "Ġsteady": 4540,
      "Ġlandscape": 4541,
      "ĠRich": 4542,
      "Ġgarden": 4543,
      "Ġlimited": 4544,
      "Ġ22": 4545,
      "Ġavoid": 4546,
      "Ġdiscipline": 4547,
      "Ġcelebrated": 4548,
      "nto": 4549,
      "Ġmerit": 4550,
      "oyal": 4551,
      "Ġcultivated": 4552,
      "Ġdrew": 4553,
      "Ġbeast": 4554,
      "Ġsaf": 4555,
      "ĠCatholic": 4556,
      "Ġtransl": 4557,
      ":*": 4558,
      "sy": 4559,
      "Ġafforded": 4560,
      "Ġtheory": 4561,
      "Ġinnoc": 4562,
      "Ġhither": 4563,
      "Ġwall": 4564,
      "Ġpit": 4565,
      "Ġelement": 4566,
      "Ġflowers": 4567,
      "Ġcoll": 4568,
      "ĠGr": 4569,
      "Ġutmost": 4570,
      "Ġwished": 4571,
      "Ġthrow": 4572,
      "ĠLouis": 4573,
      "might": 4574,
      "Ġcalm": 4575,
      "Ġrenew": 4576,
      "Indeed": 4577,
      "omas": 4578,
      "retched": 4579,
      "ourable": 4580,
      "ĠProtest": 4581,
      "Ġmiss": 4582,
      "Ġoffers": 4583,
      "aph": 4584,
      "Ġaccustomed": 4585,
      "Ġappreci": 4586,
      "mith": 4587,
      "rial": 4588,
      "Ġintelligence": 4589,
      "cles": 4590,
      "Ġcredit": 4591,
      "ĠBishop": 4592,
      "action": 4593,
      "Ġopinions": 4594,
      "Ġintric": 4595,
      "aval": 4596,
      "Ġenthus": 4597,
      "Ġindul": 4598,
      "Ġrealm": 4599,
      "ancing": 4600,
      "Ġtears": 4601,
      "Ġdominion": 4602,
      "Ġmad": 4603,
      "Ġminutes": 4604,
      "Ġestablishment": 4605,
      "Ġvigorous": 4606,
      "entions": 4607,
      "_.": 4608,
      "Ġscientific": 4609,
      "Ġ24": 4610,
      "ĠLa": 4611,
      "ĠWashington": 4612,
      "Ġsand": 4613,
      "Ġdelay": 4614,
      "Ġgrew": 4615,
      "encies": 4616,
      "Ġdebate": 4617,
      "Ġexception": 4618,
      "cean": 4619,
      "Ġspecul": 4620,
      "Ġservant": 4621,
      "Ġemer": 4622,
      "ldom": 4623,
      "Ġhang": 4624,
      "ĠIndia": 4625,
      "Ġfierce": 4626,
      "Ġpiety": 4627,
      "Ġease": 4628,
      "ancholy": 4629,
      "Ġrestra": 4630,
      "Ġreaders": 4631,
      "ĠChristians": 4632,
      "iciently": 4633,
      "Ġnumbers": 4634,
      "Ġlevel": 4635,
      "Ġoutside": 4636,
      "Ġfaint": 4637,
      "ĠIrish": 4638,
      "asters": 4639,
      "Ġstreet": 4640,
      "ĠAct": 4641,
      "Ġprior": 4642,
      "ourn": 4643,
      "Ġmental": 4644,
      "ĠGospel": 4645,
      "Ġerror": 4646,
      "Ġappropri": 4647,
      "Ġchanges": 4648,
      "OU": 4649,
      "lands": 4650,
      "Ġeleg": 4651,
      "Ġinstitutions": 4652,
      "Ġneighbour": 4653,
      "irmed": 4654,
      "ĠReg": 4655,
      "Is": 4656,
      "Ġencoun": 4657,
      "Ġconfined": 4658,
      "anqu": 4659,
      "Ġgoods": 4660,
      "ear": 4661,
      "Ġsincere": 4662,
      "Ġbase": 4663,
      "Ġseries": 4664,
      "ĠProf": 4665,
      "Ġobed": 4666,
      "Ġusing": 4667,
      "Ġprince": 4668,
      "ked": 4669,
      "Ġdoll": 4670,
      "spe": 4671,
      "Ġblue": 4672,
      "Ġeat": 4673,
      "ĠJer": 4674,
      "Ġsoldier": 4675,
      "Ġcurrents": 4676,
      "Ġtestimony": 4677,
      "Ġobservations": 4678,
      "Ġcounty": 4679,
      "acc": 4680,
      "Ġrequest": 4681,
      "Ġgar": 4682,
      "Ġmortal": 4683,
      "Ġfarm": 4684,
      "Ġmarch": 4685,
      "Ġquarter": 4686,
      "Ġobserver": 4687,
      "him": 4688,
      "ccles": 4689,
      "Ġwest": 4690,
      "Of": 4691,
      "Ġsong": 4692,
      "lin": 4693,
      "ĠCom": 4694,
      "ĠObs": 4695,
      "uity": 4696,
      "ĠHeaven": 4697,
      "umption": 4698,
      "ĠOh": 4699,
      "Ġagreed": 4700,
      "erent": 4701,
      "Ġappeal": 4702,
      "Ġreward": 4703,
      "born": 4704,
      "Ġcommitted": 4705,
      "Ġdwell": 4706,
      "Eng": 4707,
      "Ġprejud": 4708,
      "Ġrepresented": 4709,
      "Ġsail": 4710,
      "ilty": 4711,
      "Ġmankind": 4712,
      "Ġunknown": 4713,
      "Ġlift": 4714,
      "Ġthin": 4715,
      "Ġwine": 4716,
      "Ġsimpl": 4717,
      "Ġarticle": 4718,
      "Ġworldly": 4719,
      "eren": 4720,
      "Ġmurm": 4721,
      "rid": 4722,
      "avery": 4723,
      "Ġbesides": 4724,
      "Ġobtain": 4725,
      "Ġphilosophical": 4726,
      "Ġdiscern": 4727,
      "Ġdifficulties": 4728,
      "Ġquantity": 4729,
      "Ġdemanded": 4730,
      "Ġinterpret": 4731,
      "Ġpieces": 4732,
      "Ġproceedings": 4733,
      "Ġloved": 4734,
      "Ġannoun": 4735,
      "ller": 4736,
      "ĠCouncil": 4737,
      "ule": 4738,
      "ĠRom": 4739,
      "Ġconstruct": 4740,
      "angers": 4741,
      "Ġdistrib": 4742,
      "Ġlat": 4743,
      "eur": 4744,
      "Ġpriest": 4745,
      "Ġteach": 4746,
      "Ġmanaged": 4747,
      "ĠGre": 4748,
      "Ġlod": 4749,
      "Ġmedical": 4750,
      "Ġchanged": 4751,
      "lar": 4752,
      "Ġtendency": 4753,
      "Ġestate": 4754,
      "Ġ$": 4755,
      "Ġexquisite": 4756,
      "Ġopening": 4757,
      "Ġseat": 4758,
      "Ġalter": 4759,
      "Ġoutward": 4760,
      "Ġdarkness": 4761,
      "inate": 4762,
      "Ġsnow": 4763,
      "ĠCrown": 4764,
      "onsider": 4765,
      "ĠArt": 4766,
      "Ġrecon": 4767,
      "Ġcommit": 4768,
      "Ġexperienced": 4769,
      "Ġeld": 4770,
      "Ġ23": 4771,
      "ĠDav": 4772,
      "ĠDon": 4773,
      "Ġvictory": 4774,
      "ĠAf": 4775,
      "Ġassistance": 4776,
      "ĠII": 4777,
      "clock": 4778,
      "Ġcultivation": 4779,
      "Ġadvoc": 4780,
      "noon": 4781,
      "Ġrelation": 4782,
      "ĠEast": 4783,
      "Ġsurre": 4784,
      "Ġcomposed": 4785,
      "Ġmethods": 4786,
      "oles": 4787,
      "Ġboys": 4788,
      "Ġdiscerning": 4789,
      "ĠEvery": 4790,
      "sal": 4791,
      "Ġsacrifice": 4792,
      "Ġexha": 4793,
      "ulate": 4794,
      "Ġchamber": 4795,
      "Ġmarried": 4796,
      "Ġstreets": 4797,
      "ervation": 4798,
      "Ġinfer": 4799,
      "Ġminute": 4800,
      "Ġships": 4801,
      "ĠBritain": 4802,
      "Ġvariety": 4803,
      "Ġmelancholy": 4804,
      "Ġmerc": 4805,
      "Ġreform": 4806,
      "ĠHigh": 4807,
      "Ġfields": 4808,
      "upon": 4809,
      "ĠPope": 4810,
      "bon": 4811,
      "Ġwhisp": 4812,
      "Ġsolid": 4813,
      "Ġwindow": 4814,
      "Ġextensive": 4815,
      "Ġgained": 4816,
      "rep": 4817,
      "Ġcompanion": 4818,
      "Ġrepublic": 4819,
      "udes": 4820,
      "Ġdiligent": 4821,
      "Ġsteps": 4822,
      "Ġnoting": 4823,
      "ĠRel": 4824,
      "Ġdeparture": 4825,
      "see": 4826,
      "Ġdocum": 4827,
      "piration": 4828,
      "Ġmighty": 4829,
      "ĠItaly": 4830,
      "Ġtongue": 4831,
      "ĠSon": 4832,
      "Ġseldom": 4833,
      "ĠSy": 4834,
      "Ġcities": 4835,
      "erves": 4836,
      "Ġvic": 4837,
      "Ġafflict": 4838,
      "Ġdesperate": 4839,
      "Ġsafety": 4840,
      "Ġimagination": 4841,
      "ĠÂ": 4842,
      "eff": 4843,
      "Ġthrown": 4844,
      "Ġcountries": 4845,
      "Ġpurposes": 4846,
      "Ġproject": 4847,
      "Ġspecim": 4848,
      "Ġinher": 4849,
      "Ġremaining": 4850,
      "umber": 4851,
      "Ġhall": 4852,
      "Ġingen": 4853,
      "Ġcommercial": 4854,
      "Ġclean": 4855,
      "ims": 4856,
      "ications": 4857,
      "Ġparents": 4858,
      "inced": 4859,
      "ata": 4860,
      "oon": 4861,
      "ĠTem": 4862,
      "Ġkilled": 4863,
      "Ġimprovement": 4864,
      "Ġreadily": 4865,
      "Ġod": 4866,
      "Ġintention": 4867,
      "?âĢĿ": 4868,
      "othes": 4869,
      "God": 4870,
      "rious": 4871,
      "Ġwid": 4872,
      "Ġharb": 4873,
      "Ġoffering": 4874,
      "Ġsucceeded": 4875,
      "Ġburden": 4876,
      "Ġplants": 4877,
      "ĠEn": 4878,
      "ecause": 4879,
      "Ġfulf": 4880,
      "Ġimpress": 4881,
      "she": 4882,
      "inet": 4883,
      "bre": 4884,
      "Ġproperly": 4885,
      "Ġawa": 4886,
      "aker": 4887,
      "Ġsearch": 4888,
      "ĠHist": 4889,
      "Ġderived": 4890,
      "Ġtouch": 4891,
      "Ġball": 4892,
      "Ġuniform": 4893,
      "abb": 4894,
      "Ġintr": 4895,
      "ico": 4896,
      "Ġearlier": 4897,
      "Ġability": 4898,
      "Ġfrequent": 4899,
      "Ġpropos": 4900,
      "aign": 4901,
      "Ġfollows": 4902,
      "ĠMor": 4903,
      "do": 4904,
      "cked": 4905,
      "ĠFollowing": 4906,
      "hether": 4907,
      "ĠSee": 4908,
      "Oh": 4909,
      "Ġarticles": 4910,
      "Ġviolent": 4911,
      "Ġimpression": 4912,
      "seen": 4913,
      "ĠChristianity": 4914,
      "jo": 4915,
      "Ġbrethren": 4916,
      "Ġsn": 4917,
      "EL": 4918,
      "Ġtow": 4919,
      "Ġbased": 4920,
      "stone": 4921,
      "Ġgradually": 4922,
      "Ġreports": 4923,
      "Re": 4924,
      "Ġassist": 4925,
      "Ġatmosphere": 4926,
      "Ġrevolution": 4927,
      "Ġaccur": 4928,
      "verted": 4929,
      "Ġjudicious": 4930,
      "Ġprovide": 4931,
      "Ġperformed": 4932,
      "Ġcontract": 4933,
      "cont": 4934,
      "*,": 4935,
      "Ġcool": 4936,
      "Ġhills": 4937,
      "Ġcontained": 4938,
      "ĠIts": 4939,
      "Ġpressure": 4940,
      "Ġcaught": 4941,
      "aked": 4942,
      "Ġresistance": 4943,
      "atively": 4944,
      "arts": 4945,
      "Ġunex": 4946,
      "All": 4947,
      "Ġdisg": 4948,
      "Ġdivers": 4949,
      "Ġflow": 4950,
      "ĠVirgin": 4951,
      "abor": 4952,
      "iture": 4953,
      "Ġdetails": 4954,
      "ĠMore": 4955,
      "Ġscattered": 4956,
      "Ġdream": 4957,
      "achment": 4958,
      "rian": 4959,
      "Ġpictures": 4960,
      "ING": 4961,
      "Ġrapidly": 4962,
      "Ġrecognized": 4963,
      "ciet": 4964,
      "lement": 4965,
      "those": 4966,
      "Ġmodest": 4967,
      "Ġworse": 4968,
      "place": 4969,
      "Ġuncertain": 4970,
      "Ġacquaintance": 4971,
      "Ġactual": 4972,
      "Ġrate": 4973,
      "Ġsuspic": 4974,
      "Ġpapers": 4975,
      "ĠGovernor": 4976,
      "Ġtowns": 4977,
      "olved": 4978,
      "Ġsatisfied": 4979,
      "rie": 4980,
      "Ġsituated": 4981,
      "Ġheads": 4982,
      "acles": 4983,
      "Ġfol": 4984,
      "Ġdivided": 4985,
      "Ġalarm": 4986,
      "Ġstrongly": 4987,
      "Ġdivision": 4988,
      "ĠEp": 4989,
      "Here": 4990,
      "Ġbott": 4991,
      "Ġdispat": 4992,
      "Ġwithdra": 4993,
      "kin": 4994,
      "Ġstones": 4995,
      "iculous": 4996,
      "lor": 4997,
      "Ġperilous": 4998,
      "ipped": 4999,
      "icit": 5000,
      "Ġbirds": 5001,
      "Ġbenevol": 5002,
      "oubt": 5003,
      "Ġgrasp": 5004,
      "bered": 5005,
      "Ġdestruction": 5006,
      "Ġbow": 5007,
      "Ġwriters": 5008,
      "Ġservants": 5009,
      "Ġlips": 5010,
      "Ġpage": 5011,
      "Ġintricate": 5012,
      "ĠOff": 5013,
      ".--": 5014,
      "Ġoccasionally": 5015,
      "Ġgro": 5016,
      "ĠLat": 5017,
      "vest": 5018,
      "Ġreasons": 5019,
      "Ġpause": 5020,
      "Ġrepro": 5021,
      "Ġchurches": 5022,
      "Ġfish": 5023,
      "Ġcompanions": 5024,
      "Ġchoice": 5025,
      "Ġneeded": 5026,
      "Ġdinner": 5027,
      "ĠSpe": 5028,
      "Ġconstantly": 5029,
      "Ġorn": 5030,
      "Ġservices": 5031,
      "Ġdefe": 5032,
      "ĠColonel": 5033,
      "Ġcharacterized": 5034,
      "ignation": 5035,
      "idel": 5036,
      "Ġsubstantial": 5037,
      "Ġtradition": 5038,
      "Ġdespair": 5039,
      "Ġqualities": 5040,
      "Ġprovisions": 5041,
      "Ġmyst": 5042,
      "Ġetc": 5043,
      "Ġeventually": 5044,
      "Ġperfection": 5045,
      "ĠMen": 5046,
      "Ġwounded": 5047,
      "Ġpunishment": 5048,
      "Ġloud": 5049,
      "Ġpup": 5050,
      "Ġagricult": 5051,
      "CHAP": 5052,
      "Ġfatal": 5053,
      "Ġcompletely": 5054,
      "ĠWhy": 5055,
      "Ġministers": 5056,
      "ĠMag": 5057,
      "ĠCity": 5058,
      "Ġarea": 5059,
      "Ġpounds": 5060,
      "Ġupper": 5061,
      "osure": 5062,
      "otes": 5063,
      "ws": 5064,
      "Ġremo": 5065,
      "Ġconcerned": 5066,
      "Ġleads": 5067,
      "iated": 5068,
      "ĠPal": 5069,
      "Ġpermit": 5070,
      "Ġreputation": 5071,
      "ĠEmp": 5072,
      "Ġaffected": 5073,
      "Ġfamilies": 5074,
      "Ġissued": 5075,
      "Ġsufficiently": 5076,
      "iciency": 5077,
      "ĠArch": 5078,
      "Ġstark": 5079,
      "Ġillumin": 5080,
      "Ġfurnished": 5081,
      "ĠCommittee": 5082,
      "Ġdecision": 5083,
      "Ġacknowledged": 5084,
      "Ġreference": 5085,
      "Ġseeking": 5086,
      "orted": 5087,
      "Ġaware": 5088,
      "Ġprovision": 5089,
      "law": 5090,
      "aneously": 5091,
      "ND": 5092,
      "Yes": 5093,
      "Ġhill": 5094,
      "Ġwoven": 5095,
      "Ġapprehension": 5096,
      "ai": 5097,
      "Ġanxious": 5098,
      "oked": 5099,
      "Con": 5100,
      "IL": 5101,
      "Ġknowing": 5102,
      "iquity": 5103,
      "Ġarose": 5104,
      "Ġholding": 5105,
      "Ġstar": 5106,
      "ĠWord": 5107,
      "Ġgenerous": 5108,
      "Ġestim": 5109,
      "Ġcompared": 5110,
      "ĠFort": 5111,
      "Christ": 5112,
      "Ġconsent": 5113,
      "orable": 5114,
      "Ġneglect": 5115,
      "Ġcolour": 5116,
      "iate": 5117,
      "Ġthinking": 5118,
      "Ġvisited": 5119,
      "Ġadvent": 5120,
      "Ġ50": 5121,
      "Ġfur": 5122,
      "Ġaccum": 5123,
      "ett": 5124,
      "Ġcontest": 5125,
      "Ar": 5126,
      "Ġfro": 5127,
      "Ġdrama": 5128,
      "ixture": 5129,
      "how": 5130,
      "Ġscrut": 5131,
      "ĠSat": 5132,
      "Ġthereof": 5133,
      "Ġcalling": 5134,
      "Ġdesigned": 5135,
      "Ġming": 5136,
      "ĠAfric": 5137,
      "Ġnine": 5138,
      "Ġdeclaration": 5139,
      "Ġinex": 5140,
      "estion": 5141,
      "chief": 5142,
      "ĠTherefore": 5143,
      "Ġvs": 5144,
      "pping": 5145,
      "Ġcarrying": 5146,
      "ĠScotland": 5147,
      "five": 5148,
      "Ġfinan": 5149,
      "ĠMany": 5150,
      "when": 5151,
      "Ġcircumstance": 5152,
      "Ġresour": 5153,
      "ĠSund": 5154,
      "Ġseized": 5155,
      "Ġ26": 5156,
      "ardon": 5157,
      "amm": 5158,
      "Ġhence": 5159,
      "ids": 5160,
      "Ġrain": 5161,
      "utable": 5162,
      "Ġauthorities": 5163,
      "Ġsurv": 5164,
      "Ġdesir": 5165,
      "OL": 5166,
      "Ġincluded": 5167,
      "Ġfleeting": 5168,
      "Ġstatement": 5169,
      "Ġsetting": 5170,
      "Ġrad": 5171,
      "Ġrepose": 5172,
      "Ġkne": 5173,
      "Ġagreeable": 5174,
      "Ġmechanism": 5175,
      "Ġcommanded": 5176,
      "whel": 5177,
      "Ġsheer": 5178,
      "Ġconstruction": 5179,
      "Ġ28": 5180,
      "Ġventure": 5181,
      "Ġwon": 5182,
      "Ġtyp": 5183,
      "Ġvirtues": 5184,
      "them": 5185,
      "Ġunp": 5186,
      "Ġ00": 5187,
      "Ġdoctrines": 5188,
      "Ġslave": 5189,
      "Ġspeed": 5190,
      "cclesiast": 5191,
      "Ġreduced": 5192,
      "Ġpreceding": 5193,
      "Ġcharged": 5194,
      "Ġgoes": 5195,
      "Ġhyp": 5196,
      "Ġclamour": 5197,
      "wood": 5198,
      "Ġpassions": 5199,
      "just": 5200,
      "Ġassembled": 5201,
      "Ġaffections": 5202,
      "Ġhid": 5203,
      "arted": 5204,
      "ĠSw": 5205,
      "Ġvoy": 5206,
      "Ġcentral": 5207,
      "Ġvex": 5208,
      "TH": 5209,
      "Ġfunction": 5210,
      "Ġcustoms": 5211,
      "Ġfriendship": 5212,
      "Ġpetition": 5213,
      "withstanding": 5214,
      "ville": 5215,
      "Ġrelent": 5216,
      "erving": 5217,
      "anny": 5218,
      "Ġsettlement": 5219,
      "Ġsustained": 5220,
      "Ġaccident": 5221,
      "Ġdiscovery": 5222,
      "Ġassembly": 5223,
      "tr": 5224,
      "Ġbegins": 5225,
      "Ġinevitable": 5226,
      "Ġinstitution": 5227,
      "Ġyourself": 5228,
      "Ġpronouncements": 5229,
      "Ġprecious": 5230,
      "Ġinstant": 5231,
      "Ġvolumes": 5232,
      "Ġshape": 5233,
      "Ġspeaker": 5234,
      "Ġshows": 5235,
      "Ġweary": 5236,
      "Ġpreserved": 5237,
      "Ġcollection": 5238,
      "arian": 5239,
      "Ġafternoon": 5240,
      "ĠMil": 5241,
      "erson": 5242,
      "henomen": 5243,
      "Ġcorrespondence": 5244,
      "ĠDoct": 5245,
      "rayed": 5246,
      "ois": 5247,
      "Ġadvice": 5248,
      "Ġchiefly": 5249,
      "Ġagg": 5250,
      "Ġ27": 5251,
      "ĠBible": 5252,
      "ĠMex": 5253,
      "Ġpil": 5254,
      "Ġbrave": 5255,
      "ĠLife": 5256,
      "ĠBel": 5257,
      "Ġmyster": 5258,
      "Ġbehold": 5259,
      "Ġconfront": 5260,
      "Ġelevated": 5261,
      "Ġtu": 5262,
      "Ġembrace": 5263,
      "Ġhearing": 5264,
      "Ġinitially": 5265,
      "Ġsecurity": 5266,
      "Ġslowly": 5267,
      "rates": 5268,
      "ĠRiver": 5269,
      "Ġunfortunate": 5270,
      "Ġperceive": 5271,
      "Ġcritical": 5272,
      "Ġclosely": 5273,
      "Ġfing": 5274,
      "Ġmajesty": 5275,
      "Ġensu": 5276,
      "Ġdeliver": 5277,
      "Ġcouncil": 5278,
      "Ġdreadful": 5279,
      "Ġpoetry": 5280,
      "Ġhappened": 5281,
      "Ġproble": 5282,
      "zz": 5283,
      "uting": 5284,
      "ester": 5285,
      "Ġeast": 5286,
      "Ġpointed": 5287,
      "Ġ40": 5288,
      "ĠPen": 5289,
      "ĠEarl": 5290,
      "icable": 5291,
      "inement": 5292,
      "Ġteaching": 5293,
      "asions": 5294,
      "Ġmultitude": 5295,
      "Ġterritory": 5296,
      "Ġachieved": 5297,
      "ĠFirst": 5298,
      "idents": 5299,
      "fulness": 5300,
      "Ġcommend": 5301,
      "ĠSim": 5302,
      "force": 5303,
      "ĠScripture": 5304,
      "Ġsteep": 5305,
      "would": 5306,
      "Ġvalley": 5307,
      "inally": 5308,
      "Ġperpetual": 5309,
      "Ġalas": 5310,
      "Ġsuitable": 5311,
      "Ġroot": 5312,
      "Ġfool": 5313,
      "Ġcuri": 5314,
      "Ġconsult": 5315,
      "ĠMont": 5316,
      "Ġrelentless": 5317,
      "ees": 5318,
      "usive": 5319,
      "ĠMarch": 5320,
      "Ġresulting": 5321,
      "Ġfortunes": 5322,
      "Ġmode": 5323,
      "ĠEs": 5324,
      "Ġbalance": 5325,
      "acon": 5326,
      "Ġkindness": 5327,
      "Ġran": 5328,
      "Ġthrone": 5329,
      "mat": 5330,
      "happ": 5331,
      "Ġexplan": 5332,
      "Ġgrass": 5333,
      "Ġattempted": 5334,
      "Ġrules": 5335,
      "Ġwear": 5336,
      "Ġbranches": 5337,
      "Ġhung": 5338,
      "Ġfounded": 5339,
      "Ġplease": 5340,
      "Ġrevel": 5341,
      "cture": 5342,
      "Ġkeeping": 5343,
      "Ġthoroughly": 5344,
      "otic": 5345,
      "hib": 5346,
      "Ġmonument": 5347,
      "Ġoverwhel": 5348,
      "Ġengagement": 5349,
      "Ġaccord": 5350,
      "inth": 5351,
      "ĠThomas": 5352,
      "ulations": 5353,
      "plom": 5354,
      "AS": 5355,
      "Ġexposed": 5356,
      "Ġformal": 5357,
      "ender": 5358,
      "Ġloyal": 5359,
      "Ġvolunt": 5360,
      "asting": 5361,
      "uit": 5362,
      "Ġsaith": 5363,
      "Ġcharity": 5364,
      "welling": 5365,
      "Ġdisappoint": 5366,
      "Ġvaried": 5367,
      "arious": 5368,
      "Ġviolence": 5369,
      "Ġdictates": 5370,
      "ek": 5371,
      "ĠSecret": 5372,
      "Ġtreaty": 5373,
      "Ġphenomen": 5374,
      "ĠCompany": 5375,
      "hetic": 5376,
      "Ġdouble": 5377,
      "van": 5378,
      "Ġard": 5379,
      "Ġhitherto": 5380,
      "Ġunable": 5381,
      "Ġactually": 5382,
      "Ġoperations": 5383,
      "ari": 5384,
      "Ġharsh": 5385,
      "Ġveget": 5386,
      "olation": 5387,
      "aly": 5388,
      "Ġgrief": 5389,
      "ĠShould": 5390,
      "rous": 5391,
      "Ġstern": 5392,
      "Ġsympt": 5393,
      "Ġpromises": 5394,
      "ada": 5395,
      "Ġexpense": 5396,
      "ĠIsrael": 5397,
      "Ġtyr": 5398,
      "Ġuns": 5399,
      "Ġsalvation": 5400,
      "Ġviewed": 5401,
      "Ġmagist": 5402,
      "Ġarchitecture": 5403,
      "Ġfloor": 5404,
      "ĠâĢĶ": 5405,
      "Ġpersistent": 5406,
      "bert": 5407,
      "ĠOld": 5408,
      "Ġignorance": 5409,
      "arding": 5410,
      "asm": 5411,
      "eding": 5412,
      "Ġideal": 5413,
      "Ġindependent": 5414,
      "Ġcell": 5415,
      "Ġphr": 5416,
      "Ġdisplayed": 5417,
      "ĠPeter": 5418,
      "ealous": 5419,
      "Ġremedy": 5420,
      "Ġdate": 5421,
      "ĠSal": 5422,
      "full": 5423,
      "Ġfifteen": 5424,
      "Ġpages": 5425,
      "Ġforgotten": 5426,
      "Ġlargely": 5427,
      "17": 5428,
      "Ġsavage": 5429,
      "Sh": 5430,
      "Ġadmiration": 5431,
      "Ġlose": 5432,
      "Ġrecol": 5433,
      "Ġprecip": 5434,
      "ĠAlex": 5435,
      "Ġliqu": 5436,
      "Ġcircul": 5437,
      "Ġpale": 5438,
      "enses": 5439,
      "Ġjoined": 5440,
      "Ġminor": 5441,
      "Ġcab": 5442,
      "Ġchair": 5443,
      "Ġcreated": 5444,
      "oul": 5445,
      "Ġclosed": 5446,
      "Ġsentence": 5447,
      "ĠGermany": 5448,
      "oston": 5449,
      "Ġnegot": 5450,
      "Ġtrain": 5451,
      "Ġlend": 5452,
      "Ġinterrupt": 5453,
      "Ġsmile": 5454,
      "ĠRoyal": 5455,
      "Ġcaptain": 5456,
      "Ġstro": 5457,
      "Ġenlight": 5458,
      "Ġcontempor": 5459,
      "astic": 5460,
      "ocks": 5461,
      "Ġdig": 5462,
      "Ġlikewise": 5463,
      "itudes": 5464,
      "Ġprem": 5465,
      "gence": 5466,
      "Ġcreatures": 5467,
      "Ġcover": 5468,
      "Ġjur": 5469,
      "Ġdollars": 5470,
      "Ġrom": 5471,
      "essor": 5472,
      "AM": 5473,
      "Ġtransport": 5474,
      "rained": 5475,
      "12": 5476,
      "aging": 5477,
      "Ġlately": 5478,
      "Ġbanks": 5479,
      "Ġadvantages": 5480,
      "Ġsquare": 5481,
      "ĠWorld": 5482,
      "Ġweakness": 5483,
      "ography": 5484,
      "Ġobedience": 5485,
      "ĠConf": 5486,
      "ĠRobert": 5487,
      "Ġvnto": 5488,
      "Ġsociet": 5489,
      "ette": 5490,
      "Ġprimary": 5491,
      "11": 5492,
      "Ġadmit": 5493,
      "Ġmedic": 5494,
      "Ġresolve": 5495,
      "Ġlux": 5496,
      "Ġdemonst": 5497,
      "Ġsons": 5498,
      "ĠAra": 5499,
      "Ġinfl": 5500,
      "Ġpatience": 5501,
      "pril": 5502,
      "Ġocean": 5503,
      "hon": 5504,
      "Ġ29": 5505,
      "Ġmistake": 5506,
      "Ġcandid": 5507,
      "Ġtemporary": 5508,
      "iest": 5509,
      "Ġchem": 5510,
      "Ġimperfect": 5511,
      "Ġdestroyed": 5512,
      "ĠAmong": 5513,
      "Ġmanners": 5514,
      "Ġresist": 5515,
      "Ġcommunication": 5516,
      "Ġeconom": 5517,
      "four": 5518,
      "Ġelection": 5519,
      "Ġdepos": 5520,
      "Ġclo": 5521,
      "Ġadapt": 5522,
      "Ġinte": 5523,
      "Ġinclined": 5524,
      "cible": 5525,
      "Ġconcept": 5526,
      "Ġwaiting": 5527,
      "ĠScott": 5528,
      "Ġskin": 5529,
      "Ġhousehold": 5530,
      "Ġshot": 5531,
      "Ġseed": 5532,
      "ĠBill": 5533,
      "ĠCH": 5534,
      "Ġgrandeur": 5535,
      "OM": 5536,
      "Ġcrime": 5537,
      "Ġscholar": 5538,
      "Ġsection": 5539,
      "ĠLeg": 5540,
      "atis": 5541,
      "ĠItalian": 5542,
      "anes": 5543,
      "ĠÃ": 5544,
      "Ġabsor": 5545,
      "Ġreceiving": 5546,
      "ĠCast": 5547,
      "Ġapproached": 5548,
      "Ġessence": 5549,
      "Ġframe": 5550,
      "ĠJune": 5551,
      "Ġsurprise": 5552,
      "Ġesteemed": 5553,
      "Ġphysician": 5554,
      "icks": 5555,
      "adem": 5556,
      "Ġbringing": 5557,
      "Ġwait": 5558,
      "Ġrough": 5559,
      "Ġjoin": 5560,
      "Ġcharacteristic": 5561,
      "Ġpersec": 5562,
      "Ġexperiment": 5563,
      "bury": 5564,
      "16": 5565,
      "Ġempire": 5566,
      "Ġrelie": 5567,
      "Ġdisturb": 5568,
      "ov": 5569,
      "anim": 5570,
      "orthy": 5571,
      "ponse": 5572,
      "Ġshr": 5573,
      "Ġshadows": 5574,
      "Ġshores": 5575,
      "Ġrocks": 5576,
      "Ġrunning": 5577,
      "Ġdim": 5578,
      "Ġcher": 5579,
      "15": 5580,
      "Ġbig": 5581,
      "ros": 5582,
      "Ġhoped": 5583,
      "Ġvul": 5584,
      "asant": 5585,
      "Ġbee": 5586,
      "ĠAcc": 5587,
      "ĠMass": 5588,
      "Ġinsc": 5589,
      "Ġbount": 5590,
      "atus": 5591,
      "Ġric": 5592,
      "Ġincident": 5593,
      "Ġsky": 5594,
      "Ġinches": 5595,
      "Ġemotion": 5596,
      "Ġaccomplished": 5597,
      "cludes": 5598,
      "Ġsentiments": 5599,
      "Ġactivity": 5600,
      "ĠMaster": 5601,
      "gel": 5602,
      "Ġreferred": 5603,
      "Ġprofit": 5604,
      "Ġresponse": 5605,
      "Ġfailure": 5606,
      "mar": 5607,
      "met": 5608,
      "ĠDem": 5609,
      "Ġsupreme": 5610,
      "Ġwanted": 5611,
      "Ġbind": 5612,
      "Ġconducted": 5613,
      "icted": 5614,
      "Ġcontrad": 5615,
      "ocratic": 5616,
      "Ġexamine": 5617,
      "Ġfemale": 5618,
      "Ġcontempt": 5619,
      "Ġfinancial": 5620,
      "ĠJuly": 5621,
      "ĠSunday": 5622,
      "Ġcel": 5623,
      "Ġcalls": 5624,
      "Ġceas": 5625,
      "itute": 5626,
      "Ġpartly": 5627,
      "Ġaffair": 5628,
      "Ġarts": 5629,
      "ĠJan": 5630,
      "Ġmoving": 5631,
      "inery": 5632,
      "aine": 5633,
      "ĠJews": 5634,
      "ĠNap": 5635,
      "Ġnorthern": 5636,
      "Ġentit": 5637,
      "Ġsaved": 5638,
      "Ġperpetually": 5639,
      "Ġpill": 5640,
      "Ġgathering": 5641,
      "ĠConstitution": 5642,
      "cent": 5643,
      "Ġdiplom": 5644,
      "IR": 5645,
      "Ġyellow": 5646,
      "Ġdu": 5647,
      "Ġexists": 5648,
      "Ġsed": 5649,
      "Ġemph": 5650,
      "Ġtom": 5651,
      "utch": 5652,
      "Ġtransc": 5653,
      "Ġwalked": 5654,
      "assion": 5655,
      "ĠPol": 5656,
      "ĠDel": 5657,
      "ĠEdward": 5658,
      "uation": 5659,
      "ĠPat": 5660,
      "Ġarguments": 5661,
      "part": 5662,
      "Ġcorner": 5663,
      "ĠCommission": 5664,
      "Well": 5665,
      "ushing": 5666,
      "Ġbroke": 5667,
      "heme": 5668,
      "uten": 5669,
      "Ġsins": 5670,
      "Ġgratitude": 5671,
      "iah": 5672,
      "Ġstraight": 5673,
      "Ġmovements": 5674,
      "oseph": 5675,
      "raid": 5676,
      "utive": 5677,
      "Ġlying": 5678,
      "Ġcord": 5679,
      "Ġnecessarily": 5680,
      "Ġblow": 5681,
      "Ġsway": 5682,
      "Ġflight": 5683,
      "Ġconsequences": 5684,
      "Ġdiligence": 5685,
      "oleon": 5686,
      "Ġunited": 5687,
      "fty": 5688,
      "Ġdwelling": 5689,
      "Ġcertainty": 5690,
      "Ġvote": 5691,
      "aved": 5692,
      "Ġhunt": 5693,
      "Ġcarriage": 5694,
      "Ġcorn": 5695,
      "ishops": 5696,
      "Ġraise": 5697,
      "Ġinstinct": 5698,
      "ĠBur": 5699,
      "Ġvigil": 5700,
      "irect": 5701,
      "ĠHon": 5702,
      "Ġmutual": 5703,
      "Ġdescend": 5704,
      "Ġcenturies": 5705,
      "venant": 5706,
      "Ġstranger": 5707,
      "Ġmidst": 5708,
      "Ġshut": 5709,
      "Ġurged": 5710,
      "arn": 5711,
      "Ġban": 5712,
      "empl": 5713,
      "Ġceaseless": 5714,
      "Ġsigns": 5715,
      "Ġwitnessed": 5716,
      "ED": 5717,
      "Ġattract": 5718,
      "Ġthank": 5719,
      "uthors": 5720,
      "arest": 5721,
      "Ġconfirm": 5722,
      "Ġfart": 5723,
      "Ġabsurd": 5724,
      "Ġinfant": 5725,
      "Ġapply": 5726,
      "Ġcharacters": 5727,
      "Ġtoler": 5728,
      "Ġreb": 5729,
      "ultaneously": 5730,
      "Ġfer": 5731,
      "Ġmaid": 5732,
      "Ġband": 5733,
      "some": 5734,
      "Ġarmed": 5735,
      "Ġcreation": 5736,
      "Ġpa": 5737,
      "Ġserm": 5738,
      "Ġjealous": 5739,
      "Ġopposed": 5740,
      "Ġpassages": 5741,
      "Ġtreas": 5742,
      "Ġclaimed": 5743,
      "Ġpoison": 5744,
      "Ġstop": 5745,
      "Ġprisoners": 5746,
      "Ġinform": 5747,
      "Ġgrounds": 5748,
      "Ġslavery": 5749,
      "pired": 5750,
      "Ġcourts": 5751,
      "Ġbeat": 5752,
      "Ġacid": 5753,
      "Ġcens": 5754,
      "orse": 5755,
      "ĠOct": 5756,
      "III": 5757,
      "cular": 5758,
      "Ġvo": 5759,
      "Ġseemingly": 5760,
      "Ġcommenced": 5761,
      "Ġreview": 5762,
      "Ġcolor": 5763,
      "host": 5764,
      "ĠSam": 5765,
      "Ġfert": 5766,
      "orial": 5767,
      "ĠRed": 5768,
      "Ġremarks": 5769,
      "Ġclimate": 5770,
      "Ġleaders": 5771,
      "Ġrisk": 5772,
      "Ġportra": 5773,
      "Ġcongreg": 5774,
      "gic": 5775,
      "Ġamuse": 5776,
      "nesse": 5777,
      "Ġdawn": 5778,
      "Ġfamous": 5779,
      "Ġcampaign": 5780,
      "Ġsuspicion": 5781,
      "Ġobserving": 5782,
      "Our": 5783,
      "Ġshame": 5784,
      "Ġprobable": 5785,
      "Ġsurvey": 5786,
      "lers": 5787,
      "ĠBer": 5788,
      "ĠHum": 5789,
      "Ġpermanent": 5790,
      "Ġstating": 5791,
      "Ġexpedition": 5792,
      "Ã¨": 5793,
      "Ġsweep": 5794,
      "Ġalongside": 5795,
      "Ġscrutiny": 5796,
      "Ġmoon": 5797,
      "mighty": 5798,
      "Ġsitting": 5799,
      "tered": 5800,
      "Ġwhis": 5801,
      "Ġholds": 5802,
      "Ġdeepest": 5803,
      "ients": 5804,
      "Ġdeveloped": 5805,
      "Ġneck": 5806,
      "Ġattain": 5807,
      "ĠProp": 5808,
      "Ġalle": 5809,
      "Ġpossibly": 5810,
      "Ġprisoner": 5811,
      "Ġwonderful": 5812,
      "Ġclar": 5813,
      "Ġthousands": 5814,
      "Ġcaution": 5815,
      "ĠSept": 5816,
      "Ġdeparted": 5817,
      "Ġnatives": 5818,
      "mas": 5819,
      "ĠBoston": 5820,
      "Ġfab": 5821,
      "ties": 5822,
      "usions": 5823,
      "Ġunden": 5824,
      "Ġconcerns": 5825,
      "ĠNever": 5826,
      "Ġsmaller": 5827,
      "Ġstudent": 5828,
      "comm": 5829,
      "Such": 5830,
      "ifications": 5831,
      "Ġwelcome": 5832,
      "Ġdisappe": 5833,
      "Ġcuriosity": 5834,
      "anse": 5835,
      "ara": 5836,
      "Ġabroad": 5837,
      "oom": 5838,
      "Ġdeny": 5839,
      "Ġfocus": 5840,
      "Ġalleg": 5841,
      "Ġaccess": 5842,
      "ignant": 5843,
      "Ġfoundations": 5844,
      "ĠDep": 5845,
      "ersed": 5846,
      "Ġrarely": 5847,
      "Ġbottom": 5848,
      "ĠGods": 5849,
      "Ġspr": 5850,
      "Ġbrilliant": 5851,
      "Ġfond": 5852,
      "ieties": 5853,
      "Ġattempts": 5854,
      "Ġom": 5855,
      "Ġgetting": 5856,
      "Ġroof": 5857,
      "Ġuncle": 5858,
      "rain": 5859,
      "Ġterror": 5860,
      "ny": 5861,
      "Ġtype": 5862,
      "Ġmisery": 5863,
      "Ġformerly": 5864,
      "Ġcontains": 5865,
      "ĠPre": 5866,
      "Ġpull": 5867,
      "ĠTest": 5868,
      "Ġcircle": 5869,
      "Ġmaterials": 5870,
      "Ġabsolutely": 5871,
      "Ġborne": 5872,
      "agon": 5873,
      "Ġinterior": 5874,
      "Ġears": 5875,
      "Ġble": 5876,
      "Ġcentre": 5877,
      "Ġtribes": 5878,
      "ula": 5879,
      "ĠThose": 5880,
      "ĠSenate": 5881,
      "ĠJack": 5882,
      "cher": 5883,
      "Ġentrance": 5884,
      "Ġmachinery": 5885,
      "Ġignorant": 5886,
      "Ġbore": 5887,
      "Ġbranch": 5888,
      "Ġbarbar": 5889,
      "Ġpalp": 5890,
      "aments": 5891,
      "Ġrespond": 5892,
      "Ġslaves": 5893,
      "Ġattached": 5894,
      "Ġcontaining": 5895,
      "Ġhun": 5896,
      "col": 5897,
      "Ġreaching": 5898,
      "Ġasserted": 5899,
      "Ġpresc": 5900,
      "Ġshowing": 5901,
      ",[^": 5902,
      "Ġprinted": 5903,
      "Ġsev": 5904,
      "ĠSac": 5905,
      "held": 5906,
      "rap": 5907,
      "Ġsurrounded": 5908,
      "Ġmixture": 5909,
      "Ġintimate": 5910,
      "Ġresidence": 5911,
      "Ġscenes": 5912,
      "raction": 5913,
      "Ġfee": 5914,
      "Ġdemonstrated": 5915,
      "Ġwoods": 5916,
      "pled": 5917,
      "estial": 5918,
      "Ġpreparation": 5919,
      "ĠRelig": 5920,
      "Ġrelated": 5921,
      "Ġacquainted": 5922,
      "Ġcease": 5923,
      "Ġfreely": 5924,
      "Ġconsequently": 5925,
      "Ġpatron": 5926,
      "Ġlimits": 5927,
      "ica": 5928,
      "Ġbox": 5929,
      "ĠBecause": 5930,
      "Ġacted": 5931,
      "Ġchapter": 5932,
      "ĠMount": 5933,
      "Ġbeside": 5934,
      "Ġrequis": 5935,
      ",)": 5936,
      "ĠProtestant": 5937,
      "Ġrele": 5938,
      "13": 5939,
      "liction": 5940,
      "Ġspite": 5941,
      "Ġexplained": 5942,
      "Am": 5943,
      "ĠSecretary": 5944,
      "Ġacquired": 5945,
      "Ġwishes": 5946,
      "Ġfurnish": 5947,
      "Ġ31": 5948,
      "Ġcivilization": 5949,
      "acted": 5950,
      "ĠSch": 5951,
      "ulp": 5952,
      "necess": 5953,
      "Ġknight": 5954,
      "ĠEmpire": 5955,
      "Ġgrown": 5956,
      "Ġdetailed": 5957,
      "anch": 5958,
      "ensity": 5959,
      "Ġevidently": 5960,
      "Ġdrop": 5961,
      "Ġguilty": 5962,
      "Ġsuperst": 5963,
      "Ġaver": 5964,
      "Ġconfirmed": 5965,
      "Ġpatter": 5966,
      "Ġascertain": 5967,
      "Ġincreasing": 5968,
      "icacy": 5969,
      "omb": 5970,
      "Ġadmirable": 5971,
      "Ġcausing": 5972,
      "Ġlaug": 5973,
      "Ġverd": 5974,
      "Ġsurpass": 5975,
      "Ġpossibility": 5976,
      "Ġburst": 5977,
      "Ġsuccessfully": 5978,
      "Ġtranqu": 5979,
      "Ġaudience": 5980,
      "Ġanxiety": 5981,
      "Ġreturning": 5982,
      "Ġobserves": 5983,
      "ĠMess": 5984,
      "Ġextremely": 5985,
      "gl": 5986,
      "!âĢĿ": 5987,
      "ĠGood": 5988,
      "Ġunexpected": 5989,
      "course": 5990,
      "adel": 5991,
      "Ġelabor": 5992,
      "ĠTre": 5993,
      "Ġscheme": 5994,
      "idelity": 5995,
      "Ġfinished": 5996,
      "Ġimpulse": 5997,
      "Ġoccasions": 5998,
      "Ġsplendid": 5999,
      "Ġinstruments": 6000,
      "Ġperformance": 6001,
      "While": 6002,
      "ĠFaith": 6003,
      "quiet": 6004,
      "ĠHam": 6005,
      "Ġencounter": 6006,
      "Ġstopped": 6007,
      "ani": 6008,
      "Ġproves": 6009,
      "Ġtruths": 6010,
      "dig": 6011,
      "aud": 6012,
      "ĠAc": 6013,
      "Ġfourth": 6014,
      "Ġundertaking": 6015,
      "racy": 6016,
      "udd": 6017,
      "Ġreveals": 6018,
      "Ġapparently": 6019,
      "such": 6020,
      "ooth": 6021,
      "Ġalike": 6022,
      "Ġjustly": 6023,
      "Ġreverence": 6024,
      "ĠCr": 6025,
      "Ġthro": 6026,
      "Ġrecognition": 6027,
      "Ġburning": 6028,
      "Ġexpectation": 6029,
      ";\"": 6030,
      "ENT": 6031,
      "ommod": 6032,
      "Ġapost": 6033,
      "Ġempt": 6034,
      "cclesiastical": 6035,
      "Ġbelonging": 6036,
      "14": 6037,
      "Ġmilk": 6038,
      "Ġrigid": 6039,
      "Ġrival": 6040,
      "Ġenjoyed": 6041,
      "Ġsuit": 6042,
      "Ġpled": 6043,
      "hester": 6044,
      "oused": 6045,
      "Ġwound": 6046,
      "Ġparticip": 6047,
      "Ġpity": 6048,
      "ĠPet": 6049,
      "Ġexclaimed": 6050,
      "Ġbegun": 6051,
      "Ġtrif": 6052,
      "Ġcoff": 6053,
      "Ġreasonable": 6054,
      "Ġarranged": 6055,
      "Ġlofty": 6056,
      "ĠDev": 6057,
      "Ġflower": 6058,
      "Ġanch": 6059,
      "ober": 6060,
      "ds": 6061,
      "Ġimagine": 6062,
      "Ġcraft": 6063,
      "Ġii": 6064,
      "usalem": 6065,
      "Ġlooks": 6066,
      "Ġhol": 6067,
      "Ġenab": 6068,
      "osis": 6069,
      "rical": 6070,
      "Ġwand": 6071,
      "ha": 6072,
      "Ġedge": 6073,
      "two": 6074,
      "Ġparliament": 6075,
      "has": 6076,
      "Ġring": 6077,
      "Ġblessing": 6078,
      "Ġarise": 6079,
      "hand": 6080,
      "Ġerected": 6081,
      "Ġcrop": 6082,
      "Ġbestowed": 6083,
      "ĠApril": 6084,
      "rue": 6085,
      "Ġassumed": 6086,
      "Ġsixty": 6087,
      "Ġstret": 6088,
      "Ġsalt": 6089,
      "agn": 6090,
      "Ġdeclare": 6091,
      "cest": 6092,
      "Ġburd": 6093,
      "seless": 6094,
      "Ġshel": 6095,
      "Ġrecount": 6096,
      "Ġends": 6097,
      "Ġdecay": 6098,
      "Ġobey": 6099,
      "uming": 6100,
      "Ġpleasing": 6101,
      "ĠLatin": 6102,
      "Ġresources": 6103,
      "ĠNapoleon": 6104,
      "usc": 6105,
      "Ġfil": 6106,
      "abeth": 6107,
      "Ġqueen": 6108,
      "Ġly": 6109,
      "shire": 6110,
      "iveness": 6111,
      "Ġpardon": 6112,
      "Ġafraid": 6113,
      "Ġsen": 6114,
      "Ġvice": 6115,
      "icating": 6116,
      "Ġgovernor": 6117,
      "Ġexisted": 6118,
      "esse": 6119,
      "ads": 6120,
      "Ġintegr": 6121,
      "ĠPhilip": 6122,
      "ensions": 6123,
      "ĠBook": 6124,
      "Ġmanagement": 6125,
      "Ġtumult": 6126,
      "Ġstudents": 6127,
      "ĠMer": 6128,
      "Ġindependence": 6129,
      "Ġdeliberate": 6130,
      "itement": 6131,
      "Ġcler": 6132,
      "even": 6133,
      "ses": 6134,
      "Ġcomparison": 6135,
      "itz": 6136,
      "otton": 6137,
      "Ġproduct": 6138,
      "ulars": 6139,
      "agg": 6140,
      "Ġargued": 6141,
      "US": 6142,
      "Ġendure": 6143,
      "Ġrelative": 6144,
      "Ġsacrific": 6145,
      "ĠEv": 6146,
      "ĠBoard": 6147,
      "Ġpresently": 6148,
      "Ġharmony": 6149,
      "rived": 6150,
      "Ġconvention": 6151,
      "Ġcopy": 6152,
      "Ġdecis": 6153,
      "Ġgest": 6154,
      "ĠFranc": 6155,
      "Ġregions": 6156,
      "Ã¡": 6157,
      "Ġforbid": 6158,
      "ĠGrand": 6159,
      "Ġcalculated": 6160,
      "Ġprovince": 6161,
      "Ġdoe": 6162,
      "Ġexhibited": 6163,
      "Ġsolitary": 6164,
      "Ġgirls": 6165,
      "Ġdramatic": 6166,
      "Ġobv": 6167,
      "Ġtale": 6168,
      "ountered": 6169,
      "Ġsex": 6170,
      "ĠSan": 6171,
      "Ġprayers": 6172,
      "Ġclim": 6173,
      "Ġnotable": 6174,
      "Ġcombined": 6175,
      "Ġchambers": 6176,
      "ĠWho": 6177,
      "Ġprophe": 6178,
      "Ġteachers": 6179,
      "Ġstarted": 6180,
      "Ġassertion": 6181,
      "Ġdur": 6182,
      "ĠSmith": 6183,
      "Ġjun": 6184,
      "Ġcomposition": 6185,
      "Ġconfusion": 6186,
      "izabeth": 6187,
      "Ġtemple": 6188,
      "Ġrevol": 6189,
      "Ġverse": 6190,
      "Ġplayed": 6191,
      "Ġcommunion": 6192,
      "Ġdying": 6193,
      "Ġkinds": 6194,
      "Ġnavig": 6195,
      "Ġlegislative": 6196,
      "Ġfalling": 6197,
      "Ġsummon": 6198,
      "Ġgolden": 6199,
      "Ġdull": 6200,
      "utenant": 6201,
      "Ġfolly": 6202,
      "Ġapt": 6203,
      "Ġstim": 6204,
      "order": 6205,
      "these": 6206,
      "Ġfragile": 6207,
      "erness": 6208,
      "Ġsolution": 6209,
      "iations": 6210,
      "Ġinse": 6211,
      "Ġkey": 6212,
      "IV": 6213,
      "Ġpurchase": 6214,
      "Ġbapt": 6215,
      "Ġox": 6216,
      "ocation": 6217,
      "iasm": 6218,
      "ĠAND": 6219,
      "Ġthoughtful": 6220,
      "time": 6221,
      "Ġdoctor": 6222,
      "Ġpalace": 6223,
      "ĠCommons": 6224,
      "ĠTO": 6225,
      "Ġinjury": 6226,
      "Ġsem": 6227,
      "Ġacknowledge": 6228,
      "Ġtotal": 6229,
      "Ġfaculty": 6230,
      "Ġcriticism": 6231,
      "Ġyielded": 6232,
      "Ġdispute": 6233,
      "Ġencountered": 6234,
      "Ġsurge": 6235,
      "Ġdare": 6236,
      "Ġemployment": 6237,
      "ĠLords": 6238,
      "Ġdepartment": 6239,
      "Ġflu": 6240,
      "Ġdefin": 6241,
      "Ġfarther": 6242,
      "Ġoath": 6243,
      "Ġhee": 6244,
      "Ġmartial": 6245,
      "Ġobjection": 6246,
      "ĠPri": 6247,
      "ĠWal": 6248,
      "incess": 6249,
      "Ġguided": 6250,
      "Ġscale": 6251,
      "Ġentitled": 6252,
      "point": 6253,
      "Not": 6254,
      "Ġauthors": 6255,
      "Ġdedicated": 6256,
      "Ġpreserve": 6257,
      "Ġwritings": 6258,
      "Ġling": 6259,
      "OD": 6260,
      "Ġrum": 6261,
      "Why": 6262,
      "ĠSaviour": 6263,
      "Ġimmort": 6264,
      "Ġgame": 6265,
      "Ġacting": 6266,
      "Ġrefined": 6267,
      "yd": 6268,
      "Ġinterested": 6269,
      "Ġlake": 6270,
      "Ġexactly": 6271,
      "Ġkings": 6272,
      "Ġmasters": 6273,
      "Ġice": 6274,
      "Ġmaintaining": 6275,
      "aunt": 6276,
      "Ġfaces": 6277,
      "Ġreception": 6278,
      "Ġfinest": 6279,
      "Ġassault": 6280,
      "liest": 6281,
      "Ġgate": 6282,
      "fall": 6283,
      "Lord": 6284,
      "Ġwinds": 6285,
      "inese": 6286,
      "urrection": 6287,
      "natural": 6288,
      "ora": 6289,
      "itality": 6290,
      "Ġconsec": 6291,
      "Ġaltern": 6292,
      "ropol": 6293,
      "aneous": 6294,
      "ĠVal": 6295,
      "Ġsymptoms": 6296,
      "Ġconvinced": 6297,
      "bo": 6298,
      "arrison": 6299,
      "Ġexplanation": 6300,
      "Ġrestless": 6301,
      "Ġolder": 6302,
      "Ġproduction": 6303,
      "Ġimpr": 6304,
      "Ġpack": 6305,
      "iron": 6306,
      "Ġtall": 6307,
      "arse": 6308,
      "Ġeducated": 6309,
      "Ġcrimin": 6310,
      "Ġdegrees": 6311,
      "Ġrecorded": 6312,
      "mond": 6313,
      "othe": 6314,
      "Ġhandsome": 6315,
      "Ġadvers": 6316,
      "ĠDavid": 6317,
      "rations": 6318,
      "ĠSchool": 6319,
      "Ġtouched": 6320,
      "Ġdesires": 6321,
      "Ġvac": 6322,
      "Ġrent": 6323,
      "Ġtransm": 6324,
      "Ġadhe": 6325,
      "Ġcontain": 6326,
      "Ġavailable": 6327,
      "ĠEarth": 6328,
      "Ġunus": 6329,
      "hil": 6330,
      "Ġeconomy": 6331,
      "Ġflag": 6332,
      "ĠAlmighty": 6333,
      "Ġdestined": 6334,
      "Ġintroduction": 6335,
      "Ġincon": 6336,
      "tion": 6337,
      "father": 6338,
      "Ġtur": 6339,
      "Ġmanufacture": 6340,
      "Ġpublication": 6341,
      "isher": 6342,
      "Ġabol": 6343,
      "Ġcommence": 6344,
      "Ġnewsp": 6345,
      "ĠRussia": 6346,
      "Ġbrain": 6347,
      "Ġpositive": 6348,
      "Ġministry": 6349,
      "Ġadorn": 6350,
      "Ġsurrender": 6351,
      "Ġagent": 6352,
      "Ġappet": 6353,
      "ĠAdm": 6354,
      "Ġtang": 6355,
      "Ġparish": 6356,
      "Ġmerits": 6357,
      "amation": 6358,
      "ĠLove": 6359,
      "Ġthine": 6360,
      "Ġinner": 6361,
      "Ġconstitutional": 6362,
      "ama": 6363,
      "ĠHall": 6364,
      "ĠUnivers": 6365,
      "Ġorganization": 6366,
      "occ": 6367,
      "iary": 6368,
      "Ġlimit": 6369,
      "Ġimage": 6370,
      "ictions": 6371,
      "bb": 6372,
      "Ġbew": 6373,
      "Ġweighty": 6374,
      "Ġexecuted": 6375,
      "Ġwhence": 6376,
      "versely": 6377,
      "Ġvoyage": 6378,
      "Ġfabric": 6379,
      "Ġfel": 6380,
      "Ġcoal": 6381,
      "Ġlesson": 6382,
      "Ġcolonies": 6383,
      "urious": 6384,
      "Ġresolute": 6385,
      "Ġsuperf": 6386,
      "Ġapproaching": 6387,
      "Ġoil": 6388,
      "ĠTwo": 6389,
      "Ġfill": 6390,
      "Ġcomment": 6391,
      "Ġceased": 6392,
      "ĠMat": 6393,
      "Ġchoose": 6394,
      "Ġengage": 6395,
      "Ġoutl": 6396,
      "Ġmild": 6397,
      "Ġelsewhere": 6398,
      "Ġrigorous": 6399,
      "Ġindicated": 6400,
      "Ġdescent": 6401,
      "Ġash": 6402,
      "Ġshout": 6403,
      "Ġstrike": 6404,
      "Ġextrem": 6405,
      "Ġthanks": 6406,
      "Ġpalpable": 6407,
      "Ġscope": 6408,
      "Ġexamined": 6409,
      "Ġlic": 6410,
      "Ġwestern": 6411,
      "inking": 6412,
      "UR": 6413,
      "ĠTe": 6414,
      "Ġarbit": 6415,
      "Ġbasis": 6416,
      "itors": 6417,
      "Ġhidden": 6418,
      "Ġaccommod": 6419,
      "Ġpenet": 6420,
      "Ġranks": 6421,
      "Ġpainful": 6422,
      "Ġembra": 6423,
      "Ġnur": 6424,
      "Ġdecline": 6425,
      "Ġnotwithstanding": 6426,
      "Ġsubjected": 6427,
      "Ġappar": 6428,
      "Ġcha": 6429,
      "ool": 6430,
      "Ġprevailing": 6431,
      "During": 6432,
      "Ġexpanse": 6433,
      "ints": 6434,
      "Ġrooted": 6435,
      "Ġinnocent": 6436,
      "Ġpurity": 6437,
      "Ġsecuring": 6438,
      "anged": 6439,
      "ĠVirginia": 6440,
      "Ġhind": 6441,
      "teenth": 6442,
      "Ġnerv": 6443,
      "Ġfright": 6444,
      "Ġgeneration": 6445,
      "alty": 6446,
      "otism": 6447,
      "oir": 6448,
      "Ġalive": 6449,
      "Ġrecommend": 6450,
      "Ġexcitement": 6451,
      "Ġprecisely": 6452,
      "Ġsuccession": 6453,
      "Ġcup": 6454,
      "Ġfruits": 6455,
      "Ġ60": 6456,
      "Ġpriests": 6457,
      "Ġcelestial": 6458,
      "Ġlean": 6459,
      "Ġseparated": 6460,
      "Ġmeticulous": 6461,
      "Ġpursued": 6462,
      "unning": 6463,
      "ĠMinister": 6464,
      "Ġpier": 6465,
      "Ġdefense": 6466,
      "Ġplans": 6467,
      "Ġrenewed": 6468,
      "Ġannual": 6469,
      "Ġaccompany": 6470,
      "20": 6471,
      "Ġselect": 6472,
      "Ġsustenance": 6473,
      "ĠJust": 6474,
      "ato": 6475,
      "Ġsimplicity": 6476,
      "Ġcareer": 6477,
      "Ġnoticed": 6478,
      "Ġrestored": 6479,
      "luence": 6480,
      "Ġeu": 6481,
      "Ġbeloved": 6482,
      "ĠIII": 6483,
      "grim": 6484,
      "Ġstub": 6485,
      "Ġdisposed": 6486,
      "ĠPeople": 6487,
      "Ġ32": 6488,
      "ĠRussian": 6489,
      "cons": 6490,
      "ĠPart": 6491,
      "izes": 6492,
      "retion": 6493,
      "Ġassociated": 6494,
      "Ġsmoke": 6495,
      "Ġbuildings": 6496,
      "ĠJoseph": 6497,
      "Ġmurder": 6498,
      "Ġexamples": 6499,
      "Consider": 6500,
      "Ġtwice": 6501,
      "elf": 6502,
      "Ġcrew": 6503,
      "Ġprevented": 6504,
      "oure": 6505,
      "Ġinvite": 6506,
      "Ġmystery": 6507,
      "ĠSince": 6508,
      "Ġislands": 6509,
      "ĠInt": 6510,
      "Ġthreatened": 6511,
      "Ġenthusiasm": 6512,
      "Ġparalle": 6513,
      "Ġinferior": 6514,
      "ĠLib": 6515,
      "ĠInstead": 6516,
      "vas": 6517,
      "Ġcastle": 6518,
      "Ġrefuse": 6519,
      "Ġexplain": 6520,
      "Ġgaz": 6521,
      "Ġtemporal": 6522,
      "Ġworst": 6523,
      "bro": 6524,
      "isd": 6525,
      "iege": 6526,
      "pring": 6527,
      "Ġpainted": 6528,
      "Ġstrate": 6529,
      "Ġbounty": 6530,
      "Ġpious": 6531,
      "Ġwelf": 6532,
      "Ġinstantly": 6533,
      "Ġinvestig": 6534,
      "Ġcattle": 6535,
      "Ġwelfare": 6536,
      "Ġinsist": 6537,
      "Ġsund": 6538,
      "Ġbridge": 6539,
      "Ġtail": 6540,
      "ĠFrank": 6541,
      "Ġwin": 6542,
      "Ġensuing": 6543,
      "Ġtheological": 6544,
      "ovember": 6545,
      "ĠHeb": 6546,
      "eries": 6547,
      "ĠIsland": 6548,
      "rey": 6549,
      "Ġescaped": 6550,
      "ĠSouthern": 6551,
      "Ġliberal": 6552,
      "ĠRes": 6553,
      "Ġspark": 6554,
      "Ġdefect": 6555,
      "ĠIN": 6556,
      "ĠProfessor": 6557,
      "John": 6558,
      "Ġrecords": 6559,
      "Ġsession": 6560,
      "Ġaffliction": 6561,
      "aming": 6562,
      "Ġcolony": 6563,
      "ĠFriend": 6564,
      "Ġextend": 6565,
      "Ġplainly": 6566,
      "Ġhoriz": 6567,
      "Ġgle": 6568,
      "Ġrobust": 6569,
      "Ġcaval": 6570,
      "Ġben": 6571,
      "Ġcivilized": 6572,
      "Ġsubsc": 6573,
      "Ġelevation": 6574,
      "ĠScriptures": 6575,
      "Ġprel": 6576,
      "Ġkiss": 6577,
      "Ġz": 6578,
      "ĠPruss": 6579,
      "Ġtrials": 6580,
      "Ġimmutable": 6581,
      "Ġgoverned": 6582,
      "Ġsurprised": 6583,
      "ĠSubsequently": 6584,
      "inence": 6585,
      "Ġabstract": 6586,
      "istics": 6587,
      "ĠCam": 6588,
      "Ġsheep": 6589,
      "Ġfeature": 6590,
      "Ġglance": 6591,
      "ĠCa": 6592,
      "Ġlust": 6593,
      "back": 6594,
      "Ġwhispered": 6595,
      "Ġsequ": 6596,
      "Ġshock": 6597,
      "ĠGen": 6598,
      "Ġconnect": 6599,
      "Ġintim": 6600,
      "Ġnob": 6601,
      "Ġgent": 6602,
      "General": 6603,
      "nex": 6604,
      "Ġbos": 6605,
      "Ġconclude": 6606,
      "Ġcitizen": 6607,
      "Ġmessage": 6608,
      "esides": 6609,
      "CT": 6610,
      "Ex": 6611,
      "Ġrebell": 6612,
      "olate": 6613,
      "Ġresponsibility": 6614,
      "Ġwants": 6615,
      "ĠChinese": 6616,
      "Ġremembered": 6617,
      "sell": 6618,
      "ederal": 6619,
      "Ġtells": 6620,
      "Ġtar": 6621,
      "Ġsatisfactory": 6622,
      "ĠVen": 6623,
      "ĠOctober": 6624,
      "uated": 6625,
      "itan": 6626,
      "Ġassurance": 6627,
      "Ġenlar": 6628,
      "edly": 6629,
      "ĠRichard": 6630,
      "ĠAss": 6631,
      "Ġgifts": 6632,
      "Ġthence": 6633,
      "alys": 6634,
      "Ġetern": 6635,
      "ifies": 6636,
      "Ġchann": 6637,
      "been": 6638,
      "Ġinclination": 6639,
      "Ġfan": 6640,
      "Ġtrace": 6641,
      "urbed": 6642,
      "Ġpropriet": 6643,
      "Ġconsidering": 6644,
      "Ġreveal": 6645,
      "Ġsensible": 6646,
      "Ġthrew": 6647,
      "Ġsanctuary": 6648,
      "ĠBefore": 6649,
      "Ġegg": 6650,
      "Ġshew": 6651,
      "ĠSea": 6652,
      "Ġundeniable": 6653,
      "Or": 6654,
      "Where": 6655,
      "Ġremove": 6656,
      "Ġincor": 6657,
      "Ġwretched": 6658,
      "ĠMart": 6659,
      "Ad": 6660,
      "Ġprominent": 6661,
      "Ġarrangements": 6662,
      "Ġseverity": 6663,
      "riptions": 6664,
      "Ġ/": 6665,
      "CHAPTER": 6666,
      "Ġprivilege": 6667,
      "Ġworked": 6668,
      "Ġcollected": 6669,
      "Ġchallenge": 6670,
      "Ġirre": 6671,
      "Ġterr": 6672,
      "Ġdestiny": 6673,
      "Ġavo": 6674,
      "burgh": 6675,
      "Some": 6676,
      "Ġstriving": 6677,
      "Ġremarked": 6678,
      "Ġbrown": 6679,
      "Ġafflicted": 6680,
      "ĠSeptember": 6681,
      "Ġ?": 6682,
      "apel": 6683,
      "Ġsor": 6684,
      "Ġfame": 6685,
      "Ġdisquiet": 6686,
      "Ġsket": 6687,
      "Ġmixed": 6688,
      "ĠBo": 6689,
      "Ġunhapp": 6690,
      "Ġrange": 6691,
      "Ġgods": 6692,
      "Ġlocation": 6693,
      "Ġentering": 6694,
      "Ġwaste": 6695,
      "Ġcondemned": 6696,
      "Ġwindows": 6697,
      "Ġprofoundly": 6698,
      "regular": 6699,
      "Ġconceived": 6700,
      "ĠGrace": 6701,
      "Ġshed": 6702,
      "Ġcontinent": 6703,
      "llust": 6704,
      "stand": 6705,
      "Do": 6706,
      "Ġattributed": 6707,
      "key": 6708,
      "cember": 6709,
      "Ġornament": 6710,
      "ĠAssoci": 6711,
      "Ġseeks": 6712,
      "Ġabsent": 6713,
      "Ġremote": 6714,
      "ĠLand": 6715,
      "Ġelegant": 6716,
      "oph": 6717,
      "Ġardu": 6718,
      "Ġdecisive": 6719,
      "Ġpow": 6720,
      "Ġdetermine": 6721,
      "Ġwilderness": 6722,
      "Ġho": 6723,
      "Ġexcited": 6724,
      "Ġsymb": 6725,
      "Ġtoil": 6726,
      "great": 6727,
      "Ġteeth": 6728,
      "Ġstem": 6729,
      "Ġpolished": 6730,
      "ais": 6731,
      "Ġmerchant": 6732,
      "Ġcommonly": 6733,
      "avering": 6734,
      "Ġamend": 6735,
      "abbath": 6736,
      "Ġsooner": 6737,
      "Ġtrying": 6738,
      "Ġcas": 6739,
      "Ġcondemn": 6740,
      "Ġpan": 6741,
      "Ġlot": 6742,
      "ceptible": 6743,
      "Ġconstructed": 6744,
      "Ġnervous": 6745,
      "ailed": 6746,
      "Ġtract": 6747,
      "Ġchamp": 6748,
      "pent": 6749,
      "Ġsouthern": 6750,
      "Ġdescended": 6751,
      "Ġrational": 6752,
      "Ġfervent": 6753,
      "ribe": 6754,
      "Ġdisag": 6755,
      ":-": 6756,
      "Ġloose": 6757,
      "Ġforming": 6758,
      "Ġforever": 6759,
      "ta": 6760,
      "apable": 6761,
      "cession": 6762,
      "Ġrepent": 6763,
      "*.": 6764,
      "Ġarduous": 6765,
      "ĠÂ£": 6766,
      "Ġapprehend": 6767,
      "Ġenlightened": 6768,
      "rier": 6769,
      "Ġesteem": 6770,
      "Ġpreacher": 6771,
      "ateful": 6772,
      "Ġinsuff": 6773,
      "Ġdrive": 6774,
      "vant": 6775,
      "Ġ35": 6776,
      "Ġovercome": 6777,
      "Ġprodig": 6778,
      "tis": 6779,
      "bru": 6780,
      "ĠKingdom": 6781,
      "Ġconsciousness": 6782,
      "Ġflat": 6783,
      "mark": 6784,
      "ĠHad": 6785,
      "Ġmillions": 6786,
      "Sir": 6787,
      "Ġindisp": 6788,
      "Ġintelligent": 6789,
      "Ġabandoned": 6790,
      "Ġflo": 6791,
      "Ġmeetings": 6792,
      "Ġprofessional": 6793,
      "Ġirrit": 6794,
      "chn": 6795,
      "Ġtraining": 6796,
      "Ġwarning": 6797,
      "Ġrespectable": 6798,
      "Ġinward": 6799,
      "Ġmarry": 6800,
      "Ġsubmit": 6801,
      "ĠElizabeth": 6802,
      "'m": 6803,
      "pic": 6804,
      "Ġobligation": 6805,
      "Ġfaction": 6806,
      "Ġwatched": 6807,
      "cket": 6808,
      "Ġbelieving": 6809,
      "ibilities": 6810,
      "ped": 6811,
      "Ġmile": 6812,
      "ĠMac": 6813,
      "going": 6814,
      "Ġener": 6815,
      "Ġassume": 6816,
      "ocracy": 6817,
      "Ġeffective": 6818,
      "Ġepoch": 6819,
      "Ġdraught": 6820,
      "Ġfalls": 6821,
      "ĠHaving": 6822,
      "Ġprosec": 6823,
      "Ġfirmly": 6824,
      "Ġslightly": 6825,
      "Ġmoderate": 6826,
      "Ġnecessities": 6827,
      "Ġprudence": 6828,
      "Ġrecall": 6829,
      "Ġordin": 6830,
      "De": 6831,
      "agger": 6832,
      "Ġbreadth": 6833,
      "aut": 6834,
      "Ġvanity": 6835,
      "Ġrequisite": 6836,
      "onents": 6837,
      "Ġstubborn": 6838,
      "din": 6839,
      "Ġdenied": 6840,
      "Ġcaut": 6841,
      "Pr": 6842,
      "Ġsupplied": 6843,
      "Ġartific": 6844,
      "raham": 6845,
      "Ġcurt": 6846,
      "Ġsmooth": 6847,
      "Ġburied": 6848,
      "Ġaccordingly": 6849,
      "Ġwhereas": 6850,
      "Ġinvestigation": 6851,
      "Ġexceedingly": 6852,
      "Ġstudies": 6853,
      "ĠPo": 6854,
      "Ġdischarge": 6855,
      "Ġspan": 6856,
      "Ġrect": 6857,
      "Ġera": 6858,
      "Ġswept": 6859,
      "Ġgrievous": 6860,
      "Ġpover": 6861,
      "being": 6862,
      "Ġonely": 6863,
      "Ġdemanding": 6864,
      "Ġecclesiastical": 6865,
      "ulent": 6866,
      "Ġjoint": 6867,
      "Ġgroups": 6868,
      "Ġendeavor": 6869,
      "Ġharvest": 6870,
      "Ġfaculties": 6871,
      "ago": 6872,
      "oser": 6873,
      "Ġpreservation": 6874,
      "Ġmand": 6875,
      "vention": 6876,
      "fare": 6877,
      "Ġtouching": 6878,
      "Ġpoverty": 6879,
      "Ġheavenly": 6880,
      "urred": 6881,
      "Ġfriendly": 6882,
      "Ġwarrant": 6883,
      "ensation": 6884,
      "omer": 6885,
      "inn": 6886,
      "Ġroute": 6887,
      "Ġrhy": 6888,
      "Ġbrings": 6889,
      "Ġancest": 6890,
      "ĠReligion": 6891,
      "gels": 6892,
      "Ġyounger": 6893,
      "oking": 6894,
      "Ġartist": 6895,
      "Ġcompleted": 6896,
      "agues": 6897,
      "Ġprovinces": 6898,
      "ĠUnder": 6899,
      "Ġunlike": 6900,
      "Ġindifferent": 6901,
      "Ġclouds": 6902,
      "Ġformation": 6903,
      "iel": 6904,
      "Ġquarters": 6905,
      "ĠMal": 6906,
      "aks": 6907,
      "Ġwhisper": 6908,
      "Ġcow": 6909,
      "Ġmiserable": 6910,
      "ĠMem": 6911,
      "Ġmirror": 6912,
      "Ġgoodness": 6913,
      "ris": 6914,
      "Ġmarks": 6915,
      "Ġ33": 6916,
      "ded": 6917,
      "],": 6918,
      "Ġrivers": 6919,
      "Ġprohib": 6920,
      "engers": 6921,
      "omach": 6922,
      "itie": 6923,
      "Ġascend": 6924,
      "interest": 6925,
      "Ġfairly": 6926,
      "Ġsigh": 6927,
      "Ġvivid": 6928,
      "Ġoverlook": 6929,
      "Ġadditional": 6930,
      "Ġunity": 6931,
      "hensive": 6932,
      "Ġfellowship": 6933,
      "necessary": 6934,
      "Ġweap": 6935,
      "Ġanticipated": 6936,
      "Ġcloth": 6937,
      "Ġencl": 6938,
      "Ġparticulars": 6939,
      "Ġthunder": 6940,
      "omet": 6941,
      "ston": 6942,
      "ĠTruth": 6943,
      "Ġscholars": 6944,
      "anted": 6945,
      "Ġcomfortable": 6946,
      "ĠBen": 6947,
      "ĠDutch": 6948,
      "Ġsimultaneously": 6949,
      "ĠAuthor": 6950,
      "Ġagricultural": 6951,
      "Ġdiam": 6952,
      "Ġsugar": 6953,
      "Ġrevelation": 6954,
      "ĠRec": 6955,
      "oting": 6956,
      "erer": 6957,
      "oric": 6958,
      "Ġcalam": 6959,
      "Ġpayment": 6960,
      "Ġdetermination": 6961,
      "Ġaverage": 6962,
      "Ġenorm": 6963,
      "ĠWestern": 6964,
      "Ġfought": 6965,
      "Ġsundry": 6966,
      "Ġboundless": 6967,
      "ĠApp": 6968,
      "Ġseeds": 6969,
      "Ġprecarious": 6970,
      "Ġrests": 6971,
      "non": 6972,
      "rat": 6973,
      "Ġimproved": 6974,
      "Ġheavily": 6975,
      "enger": 6976,
      "Her": 6977,
      "Ġunwavering": 6978,
      "Ġrust": 6979,
      "Ġtroubles": 6980,
      "Ġstrain": 6981,
      "Ġantiquity": 6982,
      "ĠHistory": 6983,
      "ĠJanuary": 6984,
      "Ġcontinually": 6985,
      "Ġfaced": 6986,
      "Ġbay": 6987,
      "Ġaffirm": 6988,
      "Ã¢": 6989,
      "Ġspecifically": 6990,
      "Ġspo": 6991,
      "bec": 6992,
      "yer": 6993,
      "Ġputting": 6994,
      "Ġdiscont": 6995,
      "lets": 6996,
      "Ġdw": 6997,
      "Ġgospel": 6998,
      "Ġsale": 6999,
      "Ġelaborate": 7000,
      "Ġcharm": 7001,
      "plex": 7002,
      "Ġbishop": 7003,
      "Ġunjust": 7004,
      "Ġstars": 7005,
      "Ġlaugh": 7006,
      "Ġrooms": 7007,
      "Ġquestioned": 7008,
      "Ġbears": 7009,
      "ĠVol": 7010,
      "ĠMo": 7011,
      "Ġbell": 7012,
      "Ġboast": 7013,
      "Ġregiment": 7014,
      "ground": 7015,
      "acob": 7016,
      "ET": 7017,
      "Ġswiftly": 7018,
      "Ġheavens": 7019,
      "Ġemphas": 7020,
      "Ġprepare": 7021,
      "Ġeloquence": 7022,
      "Ġunre": 7023,
      "Ġasking": 7024,
      "Ġreserved": 7025,
      "Ġpolitics": 7026,
      "Ġgrain": 7027,
      "should": 7028,
      "Ġdressed": 7029,
      "Ġdistricts": 7030,
      "ashed": 7031,
      "orter": 7032,
      "book": 7033,
      "Ġheret": 7034,
      "ĠBay": 7035,
      "ĠMadame": 7036,
      "Ġearliest": 7037,
      "itially": 7038,
      "Ġrefuge": 7039,
      "Ġdoubtless": 7040,
      "Ġcontemporary": 7041,
      "Ġpronounced": 7042,
      "ĠAff": 7043,
      "aus": 7044,
      "Ġhurried": 7045,
      "ĠBra": 7046,
      "ĠDisc": 7047,
      "Ġeman": 7048,
      "Ġconced": 7049,
      "Ġturns": 7050,
      "Ġcrossed": 7051,
      "phia": 7052,
      "Ġnour": 7053,
      "Ġinstructions": 7054,
      "wealth": 7055,
      "Ġtemperature": 7056,
      "Ġfavorable": 7057,
      "rows": 7058,
      "Ġvel": 7059,
      "Ġconsists": 7060,
      "Ġfly": 7061,
      "Ġoffices": 7062,
      "Ġtyranny": 7063,
      "Ġhalls": 7064,
      "Ġcorruption": 7065,
      "Ġmarvel": 7066,
      "Ġimpat": 7067,
      "Ġconceive": 7068,
      "Ġdismissed": 7069,
      "Ġmale": 7070,
      "Ġsuspended": 7071,
      "Ġnoise": 7072,
      "ĠBlack": 7073,
      "Ġpurely": 7074,
      "Ġnobility": 7075,
      "Ġtraged": 7076,
      "Ġmurd": 7077,
      "hum": 7078,
      "Ġscorn": 7079,
      "Ġwalking": 7080,
      "Ġirres": 7081,
      "?'": 7082,
      "Ġensure": 7083,
      "Ġmotives": 7084,
      "Ġspecimens": 7085,
      "Ġowing": 7086,
      "oo": 7087,
      "ĠCreat": 7088,
      "Ġwrest": 7089,
      "ĠJerusalem": 7090,
      "Ġsounds": 7091,
      "ĠNovember": 7092,
      "Ġrequiring": 7093,
      "eenth": 7094,
      "aret": 7095,
      "Ġsolemnity": 7096,
      "ĠTra": 7097,
      "Ġconception": 7098,
      "Ġtension": 7099,
      "Ġtea": 7100,
      "ik": 7101,
      "mal": 7102,
      "Ġphrase": 7103,
      "Ġfidelity": 7104,
      "Ġretired": 7105,
      "astern": 7106,
      "Ġarmies": 7107,
      "asse": 7108,
      "Ġveritable": 7109,
      "ulf": 7110,
      "Ġpreparing": 7111,
      "bruary": 7112,
      "va": 7113,
      "Ġdemonstration": 7114,
      "Ġinflict": 7115,
      "ĠJustice": 7116,
      "Ġneglected": 7117,
      "Ġprinces": 7118,
      "Ġerrors": 7119,
      "Ġinvited": 7120,
      "pre": 7121,
      "England": 7122,
      "ildren": 7123,
      "Ġreasoning": 7124,
      "only": 7125,
      "Ġfunctions": 7126,
      "Ġdelightful": 7127,
      "Ġimprison": 7128,
      "ĠStreet": 7129,
      "ĠNat": 7130,
      "arded": 7131,
      "Ġrejo": 7132,
      "ulating": 7133,
      "leness": 7134,
      "assad": 7135,
      "sl": 7136,
      "Ġelected": 7137,
      "Ġfold": 7138,
      "Ġped": 7139,
      "However": 7140,
      "ĠAdd": 7141,
      "Pro": 7142,
      "Ġsanction": 7143,
      "itably": 7144,
      "erity": 7145,
      "ĠCorrespond": 7146,
      "Ġindustrious": 7147,
      "Ġfare": 7148,
      "ĠWhite": 7149,
      "Ġtreasure": 7150,
      "Ġretain": 7151,
      "Ġcy": 7152,
      "Ġcontrovers": 7153,
      "arant": 7154,
      "Ġfasc": 7155,
      "Ġencro": 7156,
      "Ġfeared": 7157,
      "Ġrein": 7158,
      "Ġ36": 7159,
      "Ġcure": 7160,
      "Ġinherit": 7161,
      "Ġpair": 7162,
      "Ġremoval": 7163,
      "itious": 7164,
      "Ġrub": 7165,
      "Ġshelter": 7166,
      "rating": 7167,
      "Ġdoors": 7168,
      "ciences": 7169,
      "Ġrespects": 7170,
      "Ġ---": 7171,
      "Ġdial": 7172,
      "Ġappropriate": 7173,
      "Fr": 7174,
      "Ġelder": 7175,
      "Ġbones": 7176,
      "car": 7177,
      "ĠSecond": 7178,
      "ĠCarol": 7179,
      "Ġannals": 7180,
      "illery": 7181,
      "Ġsof": 7182,
      "Ġburge": 7183,
      "inated": 7184,
      "armed": 7185,
      "Ġcotton": 7186,
      "Ġallows": 7187,
      "Ġcomprehend": 7188,
      "Ġleader": 7189,
      "Ġdeleg": 7190,
      "vag": 7191,
      "Ġbehav": 7192,
      "ĠDan": 7193,
      "wark": 7194,
      "ĠEst": 7195,
      "Ġchose": 7196,
      "Ġburgeoning": 7197,
      "ĠDu": 7198,
      "ĠAng": 7199,
      "Ġbatt": 7200,
      "Ġmedicine": 7201,
      "Ġlabours": 7202,
      "ĠLu": 7203,
      "Ġmistaken": 7204,
      "Ġju": 7205,
      "ĠAfrica": 7206,
      "Ġagreement": 7207,
      "Ġinsult": 7208,
      "ael": 7209,
      "Ġspirited": 7210,
      "esterday": 7211,
      "angel": 7212,
      "Ġcatalog": 7213,
      "ĠTestament": 7214,
      "ositions": 7215,
      "Ġfunds": 7216,
      "Ġlamp": 7217,
      "Ġintegrity": 7218,
      "Ġrestrict": 7219,
      "Ġagents": 7220,
      "ĠLie": 7221,
      "Ġsuggestion": 7222,
      "ĠVer": 7223,
      "ipe": 7224,
      "Ġwarmth": 7225,
      "Ġseated": 7226,
      "Ġthreads": 7227,
      "Ġfathers": 7228,
      "Ġconvenient": 7229,
      "mes": 7230,
      "Ġmistress": 7231,
      "Ġrendering": 7232,
      "Ġdrun": 7233,
      "Ġfled": 7234,
      "Ġsenses": 7235,
      "Ġexcessive": 7236,
      "Ġbosom": 7237,
      "isure": 7238,
      "ascent": 7239,
      "Ġrequested": 7240,
      "ĠRight": 7241,
      "Ġ34": 7242,
      "Ġneat": 7243,
      ".âĢĻ": 7244,
      "Ġdissol": 7245,
      "Ġtelling": 7246,
      "RO": 7247,
      "ĠServ": 7248,
      "uded": 7249,
      "Ġeminent": 7250,
      "ighed": 7251,
      "ua": 7252,
      "Ġrefinement": 7253,
      "Ġguns": 7254,
      "Ġlegislation": 7255,
      "Ġutil": 7256,
      "ĠNational": 7257,
      "Ġfarmer": 7258,
      "Ġextract": 7259,
      "Ġworn": 7260,
      "Ġstore": 7261,
      "Ġpert": 7262,
      "Ġmechanical": 7263,
      "Ab": 7264,
      "reed": 7265,
      "Ġdecor": 7266,
      "ĠMajor": 7267,
      "Ġpleasures": 7268,
      "ky": 7269,
      "Ġserving": 7270,
      "mony": 7271,
      "Ġovert": 7272,
      "Ġproceeding": 7273,
      "Ġacute": 7274,
      "Ġfix": 7275,
      "Sp": 7276,
      "].": 7277,
      "Ġcorpor": 7278,
      "Ġexpans": 7279,
      "Ġmeat": 7280,
      "ĠOx": 7281,
      "Ġstudied": 7282,
      "ĠDecember": 7283,
      "Ġfears": 7284,
      "Ġirregular": 7285,
      "Ġtransfer": 7286,
      "icism": 7287,
      "ĠCommon": 7288,
      "Ġstronger": 7289,
      "pher": 7290,
      "Ġattained": 7291,
      "Ġreluct": 7292,
      "fortune": 7293,
      "ican": 7294,
      "sey": 7295,
      "Ġshield": 7296,
      "Ġdiseases": 7297,
      "Ġdrift": 7298,
      "Ġorganized": 7299,
      "Ġintern": 7300,
      "Ġfighting": 7301,
      "Ġabundant": 7302,
      "Ġvib": 7303,
      "bet": 7304,
      "Ġdomain": 7305,
      "Ġexhibit": 7306,
      "Ġnascent": 7307,
      "Ġkindly": 7308,
      "ST": 7309,
      "Ġended": 7310,
      "Ġperiods": 7311,
      "Ġpreaching": 7312,
      "Ġwrath": 7313,
      "Ġabundance": 7314,
      "ĠAssembly": 7315,
      "Ġpressing": 7316,
      "Ġsturd": 7317,
      "Ġresponsible": 7318,
      "Ġstrictly": 7319,
      "Ġjudges": 7320,
      "than": 7321,
      "Ġsiege": 7322,
      "Ġwithdraw": 7323,
      "Ġimb": 7324,
      "Ġreson": 7325,
      "Ġenabled": 7326,
      "Dr": 7327,
      "about": 7328,
      "Ġhappen": 7329,
      "Ġarrive": 7330,
      "iven": 7331,
      "?*": 7332,
      "Ġassociation": 7333,
      "uset": 7334,
      "Ġthri": 7335,
      "Ġneighbor": 7336,
      "Ġparallel": 7337,
      "Ġnearer": 7338,
      "Ġcommands": 7339,
      "Ġeverywhere": 7340,
      "Ġintent": 7341,
      "lie": 7342,
      "Ġestablishing": 7343,
      "Ġrepresentatives": 7344,
      "ĠNay": 7345,
      "Ġconfer": 7346,
      "byter": 7347,
      "idity": 7348,
      "Ġenable": 7349,
      "Ġbust": 7350,
      "note": 7351,
      "Ġtroubled": 7352,
      "Ġske": 7353,
      "Ġdance": 7354,
      "Ġyards": 7355,
      "Ġtalents": 7356,
      "Ġidle": 7357,
      "Ġmanage": 7358,
      "Ġobscure": 7359,
      "Ġshoulders": 7360,
      "Ġdamp": 7361,
      "Ġbeings": 7362,
      "Ġunm": 7363,
      "Ġtraveller": 7364,
      "Ġproposal": 7365,
      "ĠAtt": 7366,
      "Ġmasses": 7367,
      "Ġpattern": 7368,
      "adelphia": 7369,
      "Ġscript": 7370,
      "Ġprotest": 7371,
      "ĠMexico": 7372,
      "Ġpains": 7373,
      "ĠYe": 7374,
      "ĠChronic": 7375,
      "Ġbot": 7376,
      "Ġundoubt": 7377,
      "Ġdiver": 7378,
      "Ġexercised": 7379,
      "Ġsupplies": 7380,
      "eling": 7381,
      "isdiction": 7382,
      "Ġstout": 7383,
      "Ġbid": 7384,
      "ĠAssociation": 7385,
      "Ġsustain": 7386,
      "Ġpolice": 7387,
      "llen": 7388,
      "CE": 7389,
      "Ġrecommended": 7390,
      "ĠMa": 7391,
      "Ġsignificantly": 7392,
      "Ġdegr": 7393,
      "Ġroads": 7394,
      "Ġconcent": 7395,
      "arc": 7396,
      "Ġbi": 7397,
      "ĠSaint": 7398,
      "Ġlisten": 7399,
      "usetts": 7400,
      "Ġnewly": 7401,
      "Ġculture": 7402,
      "alysis": 7403,
      "ĠInf": 7404,
      "Ġintercourse": 7405,
      "ĠSabbath": 7406,
      "Ġbeasts": 7407,
      "ĠKings": 7408,
      "Ġmingled": 7409,
      "bur": 7410,
      "Ġclothes": 7411,
      "Ġlegit": 7412,
      "Ġprivileges": 7413,
      "Le": 7414,
      "Upon": 7415,
      "Ġdesirable": 7416,
      "Ġsignal": 7417,
      "Un": 7418,
      "Ġmax": 7419,
      "ĠTom": 7420,
      "Ġaccus": 7421,
      "water": 7422,
      "artment": 7423,
      "ĠSoul": 7424,
      "Ġrightly": 7425,
      "ĠPower": 7426,
      "Ġadmire": 7427,
      "Ġrecovered": 7428,
      "Ġfest": 7429,
      "Ġmerchants": 7430,
      "rative": 7431,
      "Ġtemperament": 7432,
      "ĠWil": 7433,
      "itch": 7434,
      "ĠYour": 7435,
      "Ġproblem": 7436,
      "tenance": 7437,
      "Ġasserting": 7438,
      "Ġwanting": 7439,
      "bridge": 7440,
      "ĠMc": 7441,
      "achusetts": 7442,
      "Ġpupils": 7443,
      "onder": 7444,
      "Ġleisure": 7445,
      "Ġcapture": 7446,
      "ĠLy": 7447,
      "Ġquietly": 7448,
      "Ġseparation": 7449,
      "Qu": 7450,
      "Ġax": 7451,
      "Ġbreaking": 7452,
      "uv": 7453,
      "Ġcongregation": 7454,
      "ĠWell": 7455,
      "Ġpoem": 7456,
      "Ġtherein": 7457,
      "ĠNevertheless": 7458,
      "Ġappointment": 7459,
      "Ġstomach": 7460,
      "Ġroots": 7461,
      "Ġrecover": 7462,
      "Ġannounced": 7463,
      "Ġrailroad": 7464,
      "Ġgenerations": 7465,
      "Ġshade": 7466,
      "Ġaccused": 7467,
      "org": 7468,
      "Ġurg": 7469,
      "Ġaltar": 7470,
      "Ġcommander": 7471,
      "gest": 7472,
      "itating": 7473,
      "restrial": 7474,
      "Ġsturdy": 7475,
      "Ġprecision": 7476,
      "Ġfost": 7477,
      "Ġhide": 7478,
      "icer": 7479,
      "ogue": 7480,
      "foreign": 7481,
      "Ġdiminished": 7482,
      "Ġcomprom": 7483,
      "iece": 7484,
      "liness": 7485,
      "ĠJudge": 7486,
      "otions": 7487,
      "Ġindignation": 7488,
      "Ġcontact": 7489,
      "Ġfraught": 7490,
      "lem": 7491,
      "Ġ80": 7492,
      "Ġselected": 7493,
      "Ġgently": 7494,
      "Ġcollege": 7495,
      "ĠOther": 7496,
      "ignt": 7497,
      "!'": 7498,
      "Ġmurmur": 7499,
      "ĠFer": 7500,
      "ousin": 7501,
      "Ġcunning": 7502,
      "ĠJewish": 7503,
      "Ġprejudice": 7504,
      "Ġfortitude": 7505,
      "Ġwaves": 7506,
      "Ġinduced": 7507,
      "Ġportrait": 7508,
      "Ġguarant": 7509,
      "Ġassigned": 7510,
      "ĠDis": 7511,
      "rane": 7512,
      "Furthermore": 7513,
      "kins": 7514,
      "Ġphilosopher": 7515,
      "Ġenjoyment": 7516,
      "Ġyielding": 7517,
      "Ġrespecting": 7518,
      "Ġvary": 7519,
      "Ġconsistent": 7520,
      "Ġconting": 7521,
      "Ġperse": 7522,
      "iverse": 7523,
      "ouring": 7524,
      "Ġlanded": 7525,
      "isible": 7526,
      "Ġconj": 7527,
      "akers": 7528,
      "aping": 7529,
      "Ġwings": 7530,
      "Ġenviron": 7531,
      "Ġascent": 7532,
      "Ġflood": 7533,
      "aughters": 7534,
      "Ġhollow": 7535,
      "Ġlasting": 7536,
      "Ġtalent": 7537,
      "Will": 7538,
      "Ġanger": 7539,
      "Ġinterf": 7540,
      "Ġlegs": 7541,
      "Ġmun": 7542,
      "Ġadequ": 7543,
      "Ġjury": 7544,
      "Ġproposition": 7545,
      "Ġharmon": 7546,
      "Ġwhenever": 7547,
      "Ġnevertheless": 7548,
      "Ġcontinues": 7549,
      "Ġflame": 7550,
      "Ġempty": 7551,
      "Ġbusy": 7552,
      "ĠSl": 7553,
      "Ġreserve": 7554,
      "Ġexhaust": 7555,
      "Ġnaval": 7556,
      "Ġoppress": 7557,
      "Ġune": 7558,
      "Ġpeop": 7559,
      "gs": 7560,
      "Ġfib": 7561,
      "Ġapparatus": 7562,
      "Ġhaz": 7563,
      "Ġbehalf": 7564,
      "Ġceremony": 7565,
      "Ġdeeds": 7566,
      "alted": 7567,
      "uther": 7568,
      "intend": 7569,
      "bri": 7570,
      "Ġfertile": 7571,
      "ĠAnother": 7572,
      "Ġcommitment": 7573,
      "19": 7574,
      "Ġmotive": 7575,
      "Ġkill": 7576,
      "Ġdefinite": 7577,
      "Ġuseless": 7578,
      "Ġvoices": 7579,
      "ĠArab": 7580,
      "ĠRomans": 7581,
      "Ġlacking": 7582,
      "Ġproviding": 7583,
      "Ġcott": 7584,
      "Ġ45": 7585,
      "ĠHel": 7586,
      "ĠDoctor": 7587,
      "Ġselfish": 7588,
      "Ġpersuaded": 7589,
      "bishop": 7590,
      "Ġprudent": 7591,
      "into": 7592,
      "igs": 7593,
      "Ġcareless": 7594,
      "Ġrelationship": 7595,
      "Ġslightest": 7596,
      "Ġcheck": 7597,
      "uminous": 7598,
      "Ġextending": 7599,
      "athed": 7600,
      "Ġoft": 7601,
      "Ġbab": 7602,
      "Ġadvised": 7603,
      "Ġ37": 7604,
      "Ġutility": 7605,
      "ĠEr": 7606,
      "Ġvigor": 7607,
      "Ġvest": 7608,
      "Ġimperial": 7609,
      "ielding": 7610,
      "requ": 7611,
      "ĠBrown": 7612,
      "ules": 7613,
      "Ġconquer": 7614,
      "ĠConsider": 7615,
      "Ã©e": 7616,
      "Ġbulwark": 7617,
      "Ġtechn": 7618,
      "Ġinsisted": 7619,
      "Ġaccomplish": 7620,
      "isan": 7621,
      "ĠGo": 7622,
      "Ġsell": 7623,
      "ĠThrough": 7624,
      "Ġrhet": 7625,
      "Ġfury": 7626,
      "Ġtransition": 7627,
      "Ġdefined": 7628,
      "Ġcombination": 7629,
      "Ġoccurs": 7630,
      "gain": 7631,
      "Ġobser": 7632,
      "ĠCanada": 7633,
      "Ġrepresentative": 7634,
      "Ġplate": 7635,
      "Ġbonds": 7636,
      "Ġcrucible": 7637,
      "Ġbit": 7638,
      "actions": 7639,
      "Ġbloom": 7640,
      "ĠChina": 7641,
      "forced": 7642,
      "Ġcharges": 7643,
      "Ġemperor": 7644,
      "ĠRh": 7645,
      "Ġprolong": 7646,
      "Ġmant": 7647,
      "Ġconveyed": 7648,
      "Ġrailway": 7649,
      "ĠApostle": 7650,
      "Ġdispar": 7651,
      "impse": 7652,
      "ĠEach": 7653,
      "ĠPsal": 7654,
      "Ġattacked": 7655,
      "Ġsources": 7656,
      "Ġphenomena": 7657,
      "Ġeconomic": 7658,
      "Ġthinks": 7659,
      "ĠPur": 7660,
      "Ġbreakfast": 7661,
      "Ġextravag": 7662,
      "Ġimped": 7663,
      "Ġguilt": 7664,
      "igue": 7665,
      "Ġbree": 7666,
      "Ġboats": 7667,
      "OT": 7668,
      "Ġperplex": 7669,
      "olland": 7670,
      "ĠTown": 7671,
      "apse": 7672,
      "Ġpresenting": 7673,
      "ĠHence": 7674,
      "ker": 7675,
      "Ġsurprising": 7676,
      "Ġcard": 7677,
      "Ġsees": 7678,
      "Ġnegro": 7679,
      "Ġseasons": 7680,
      "Ġfollowers": 7681,
      "Ġundertaken": 7682,
      "Ġindifference": 7683,
      "Ġbenefits": 7684,
      "Ġgover": 7685,
      "Ġterrestrial": 7686,
      "ĠCollege": 7687,
      "Ġmissionary": 7688,
      "ĠAlexander": 7689,
      "Ġwages": 7690,
      "Ġsocieties": 7691,
      "Ġprocession": 7692,
      "Following": 7693,
      "Ġgesture": 7694,
      "Ġmillion": 7695,
      "Ġweigh": 7696,
      "Ġexpend": 7697,
      "Ġinspired": 7698,
      "Ġexhausted": 7699,
      "Ġeloquent": 7700,
      "Ġarises": 7701,
      "Ġrevenue": 7702,
      "Ġinfluences": 7703,
      "Ġfeast": 7704,
      "amber": 7705,
      "ĠDay": 7706,
      "Ġmaintenance": 7707,
      "Ġexempl": 7708,
      "erted": 7709,
      "Ġcryst": 7710,
      "Ġflaw": 7711,
      "Ġpilgrim": 7712,
      "ĠMid": 7713,
      "Ġretained": 7714,
      "cast": 7715,
      "Ġsuited": 7716,
      "Ġappetite": 7717,
      "ometimes": 7718,
      "ĠMoses": 7719,
      "Ġ70": 7720,
      "idious": 7721,
      "Ġduly": 7722,
      "rage": 7723,
      "Ġcries": 7724,
      "Ġpreparations": 7725,
      "Ġunusual": 7726,
      "gans": 7727,
      "ĠAnn": 7728,
      "Ġretire": 7729,
      "ĠObserver": 7730,
      "ĠFebruary": 7731,
      "Ġexcuse": 7732,
      "Ġaug": 7733,
      "raft": 7734,
      "ĠBoth": 7735,
      "Ġcavalry": 7736,
      "Ġpropriety": 7737,
      "Ġcaptured": 7738,
      "Ġcoat": 7739,
      "Ġrav": 7740,
      "nces": 7741,
      "Ġeastern": 7742,
      "Ġarist": 7743,
      "ĠLegisl": 7744,
      "lasting": 7745,
      "Ġrestore": 7746,
      "comp": 7747,
      "Ġpursue": 7748,
      "Ġbent": 7749,
      "Ġrepresentation": 7750,
      "Ġfoolish": 7751,
      "Ġlev": 7752,
      "Ġcustomary": 7753,
      "Ġdocument": 7754,
      "Ġseventy": 7755,
      "Ġcomprehensive": 7756,
      "Ġsolace": 7757,
      "Ġscru": 7758,
      "Ġtransform": 7759,
      "Ġsine": 7760,
      "Ġimposed": 7761,
      "wixt": 7762,
      "ĠAtl": 7763,
      "ignty": 7764,
      "Ġstrife": 7765,
      "three": 7766,
      "Ġanalog": 7767,
      "Ġmoist": 7768,
      "Ġwitnesses": 7769,
      "Ġhealthy": 7770,
      "Ġchain": 7771,
      "'ve": 7772,
      "Ġinsufficient": 7773,
      "Ġwarri": 7774,
      "Ġdiplomatic": 7775,
      "Ġheir": 7776,
      "Ġvirtuous": 7777,
      "Ġremed": 7778,
      "Ġsafely": 7779,
      "Ġmarble": 7780,
      "ĠPap": 7781,
      "master": 7782,
      "dis": 7783,
      "asy": 7784,
      "Ġexceeding": 7785,
      "Illust": 7786,
      "mouth": 7787,
      "Ġpursuits": 7788,
      "Ġimagined": 7789,
      "ĠFred": 7790,
      "Ġinvolving": 7791,
      "wor": 7792,
      "ĠPray": 7793,
      "Ġeighteen": 7794,
      "Ġtravers": 7795,
      "Ġconfines": 7796,
      "Hark": 7797,
      "Ġgas": 7798,
      "Sc": 7799,
      "Ġpasses": 7800,
      "ĠMassachusetts": 7801,
      "Ġaven": 7802,
      "orus": 7803,
      "Ġhorror": 7804,
      "Ġlink": 7805,
      "archy": 7806,
      "ĠLake": 7807,
      "Ġwidely": 7808,
      "Ġcorp": 7809,
      "ums": 7810,
      "Ġendured": 7811,
      ",âĢĻ": 7812,
      "Ġadherence": 7813,
      "Ġbetray": 7814,
      "pective": 7815,
      "Ġsatisfy": 7816,
      "imon": 7817,
      "Ġconquest": 7818,
      "Ġturb": 7819,
      "Ġaged": 7820,
      "Ġmetropol": 7821,
      "Ġtreacher": 7822,
      "Ġfount": 7823,
      "ĠGal": 7824,
      "IG": 7825,
      "Ġstories": 7826,
      "Ġresulted": 7827,
      "inging": 7828,
      "rice": 7829,
      "umns": 7830,
      "ĠCur": 7831,
      "Ġsermon": 7832,
      "Ġencouraged": 7833,
      "Ġdirections": 7834,
      "ĠCent": 7835,
      "Ġruins": 7836,
      "ĠPhiladelphia": 7837,
      "Ġplun": 7838,
      "Ġcrucial": 7839,
      "ethe": 7840,
      "Ġyesterday": 7841,
      "Ġedition": 7842,
      "AD": 7843,
      "Ġvulgar": 7844,
      "ĠCastle": 7845,
      "Ġblock": 7846,
      "Reg": 7847,
      "Ġvn": 7848,
      "Ġmans": 7849,
      "ĠDeath": 7850,
      "Ġunhappy": 7851,
      "Ġlovely": 7852,
      "Ġrese": 7853,
      "Ġtemptation": 7854,
      "Ġrejected": 7855,
      "Ġresponded": 7856,
      "Ġcrowded": 7857,
      "ena": 7858,
      "Ġcul": 7859,
      "ĠĠ": 7860,
      "bing": 7861,
      "des": 7862,
      "Ġdifferences": 7863,
      "Ġoriginally": 7864,
      "Ġdefeat": 7865,
      "Ġsinging": 7866,
      "Ġbelonged": 7867,
      "bear": 7868,
      "Ġrighteousness": 7869,
      "Ġshop": 7870,
      "Ġagitation": 7871,
      "ĠFore": 7872,
      "Ġconcealed": 7873,
      "ĠAmericans": 7874,
      "ranean": 7875,
      "Ġbenevolent": 7876,
      "Ġample": 7877,
      "Ġ!": 7878,
      "Ġglobe": 7879,
      "Ġbrothers": 7880,
      "gen": 7881,
      "Ġliberties": 7882,
      "ĠCathol": 7883,
      "Ġ38": 7884,
      "Ġaspir": 7885,
      "Ġearnestly": 7886,
      "morrow": 7887,
      "ariably": 7888,
      "ĠTemple": 7889,
      "Ġexperiments": 7890,
      "Ġpolitic": 7891,
      "Ġloving": 7892,
      "Ġseas": 7893,
      "coming": 7894,
      "ĠTy": 7895,
      "Ġcharming": 7896,
      "Ġbuy": 7897,
      "Ġplea": 7898,
      "Ġfearful": 7899,
      "mo": 7900,
      "Ġperception": 7901,
      "Ġborrow": 7902,
      "50": 7903,
      "ships": 7904,
      "Ġcriminal": 7905,
      "Ġgild": 7906,
      "Ġere": 7907,
      "Ġensuring": 7908,
      "Ġyouthful": 7909,
      "Ġcommanding": 7910,
      "terior": 7911,
      "Ġspend": 7912,
      "ĠDes": 7913,
      "Ġwed": 7914,
      "ĠJohnson": 7915,
      "Ġconceal": 7916,
      "six": 7917,
      "Ġrat": 7918,
      "Ġconfident": 7919,
      "Who": 7920,
      "Ġdangers": 7921,
      "Ġconsumed": 7922,
      "Ġevils": 7923,
      "Ġrude": 7924,
      ".[": 7925,
      "ographical": 7926,
      "Ġinconven": 7927,
      "Ġinquire": 7928,
      "Ġ42": 7929,
      "ĠCap": 7930,
      "Ġresc": 7931,
      "Ġceremon": 7932,
      "bation": 7933,
      "Ġcountrymen": 7934,
      "ipt": 7935,
      "Ġdisgrace": 7936,
      "Ġfingers": 7937,
      "Ġ**": 7938,
      "Ġapprox": 7939,
      "ĠPortug": 7940,
      "ĠBon": 7941,
      "Ġadapted": 7942,
      "Ġtribe": 7943,
      "Ġven": 7944,
      "bitious": 7945,
      "ĠWood": 7946,
      "Ġlover": 7947,
      "acter": 7948,
      "Ġrugged": 7949,
      "Ġcovering": 7950,
      "Ġinstructed": 7951,
      "SE": 7952,
      "uously": 7953,
      "Ġsul": 7954,
      "ĠFinally": 7955,
      "Ġshifts": 7956,
      "Ġelectric": 7957,
      "Ġfrontier": 7958,
      "Ġsprings": 7959,
      "Ġrespective": 7960,
      "ĠCounty": 7961,
      "iner": 7962,
      "Ġjurisdiction": 7963,
      "eder": 7964,
      "Ġdistinctly": 7965,
      "could": 7966,
      "Ġpartial": 7967,
      "Ġunsu": 7968,
      "Ġdevil": 7969,
      "Ġfailing": 7970,
      "ste": 7971,
      "Ġdeed": 7972,
      "cel": 7973,
      "Ġoccasional": 7974,
      "Ġstreams": 7975,
      "ĠStud": 7976,
      "Ġpetty": 7977,
      "Ġclarity": 7978,
      "Ġ39": 7979,
      "Ġnest": 7980,
      "Ġextingu": 7981,
      "Ġdyn": 7982,
      "Ġhonorable": 7983,
      "Ġinjustice": 7984,
      "made": 7985,
      "ĠBapt": 7986,
      "Ġvpon": 7987,
      "gress": 7988,
      "gments": 7989,
      "Ġenormous": 7990,
      "Ġmounted": 7991,
      "Ġbloss": 7992,
      "anges": 7993,
      "Ġbrut": 7994,
      "Ġamusement": 7995,
      "Ġsubmitted": 7996,
      "mind": 7997,
      "inted": 7998,
      "Ġdeem": 7999,
      "Ġtragedy": 8000,
      "ivil": 8001,
      "ĠRevolution": 8002,
      "Ġstructures": 8003,
      "Ġsending": 8004,
      "Ġappearing": 8005,
      "Ġshortly": 8006,
      "press": 8007,
      "Ġlistened": 8008,
      "Ġtort": 8009,
      "Ġoutcome": 8010,
      "Ġcompelling": 8011,
      "Ġpreached": 8012,
      "Ġlively": 8013,
      "Ġmysterious": 8014,
      "eting": 8015,
      "called": 8016,
      "ĠWhether": 8017,
      "Ġrebellion": 8018,
      "Ġwrites": 8019,
      "ĠHebrew": 8020,
      "Ġobvious": 8021,
      "Ġunique": 8022,
      "attering": 8023,
      "Ġ41": 8024,
      "Ġcontents": 8025,
      "25": 8026,
      "Ġillness": 8027,
      "Ġinvariably": 8028,
      "Ġabrupt": 8029,
      "Ġclay": 8030,
      "Ġhomes": 8031,
      "Ġcompels": 8032,
      "Ġangry": 8033,
      "Ġtangible": 8034,
      "Ġsorry": 8035,
      "Ġtent": 8036,
      "Ġhospital": 8037,
      "Ġlessons": 8038,
      "ĠConstant": 8039,
      "Ġlifted": 8040,
      "Ġsilk": 8041,
      "Ġattending": 8042,
      "Ġacceptance": 8043,
      "Ġextends": 8044,
      "ana": 8045,
      "Ġselection": 8046,
      "Ġtempered": 8047,
      "Ġtenderness": 8048,
      "Ġraising": 8049,
      "Ġdisple": 8050,
      "ĠContinent": 8051,
      "Ġcheerful": 8052,
      "Ġprocure": 8053,
      "Ġdistinguish": 8054,
      "Ġareas": 8055,
      "Ġbath": 8056,
      "win": 8057,
      "Ġbegg": 8058,
      "Ġdescribe": 8059,
      "Ġrenow": 8060,
      "Ġmanifested": 8061,
      "Ġpassionate": 8062,
      "Ġidol": 8063,
      "icular": 8064,
      "Ġpunish": 8065,
      "ipping": 8066,
      "Ġnay": 8067,
      "Ġ48": 8068,
      "Ġunseen": 8069,
      "Ġfortunate": 8070,
      "unch": 8071,
      "ĠJul": 8072,
      "Ġshifting": 8073,
      "ĠSun": 8074,
      "Ġtimber": 8075,
      "ĠMoreover": 8076,
      "Ġassess": 8077,
      "ĠLong": 8078,
      "ĠTer": 8079,
      "Ġcert": 8080,
      "uts": 8081,
      "Ġtiss": 8082,
      "Ġbenevolence": 8083,
      "opes": 8084,
      "Ġsteeped": 8085,
      "Ġyields": 8086,
      "good": 8087,
      "ĠConc": 8088,
      "Â°": 8089,
      "Ġorgans": 8090,
      "za": 8091,
      "Ġgates": 8092,
      "dy": 8093,
      "soever": 8094,
      "Ġoverwhelming": 8095,
      "Ġunnecessary": 8096,
      "Ġinclude": 8097,
      "Ġgarrison": 8098,
      "atch": 8099,
      "30": 8100,
      "Ġtransient": 8101,
      "Ġeditor": 8102,
      "Ġpreach": 8103,
      "Ġstrangers": 8104,
      "Ġresting": 8105,
      "inating": 8106,
      "Ġsubmission": 8107,
      "ĠGreeks": 8108,
      "Ġpoets": 8109,
      "renched": 8110,
      "rock": 8111,
      "Ġrestraint": 8112,
      "found": 8113,
      "Ġdistribution": 8114,
      "Ġswall": 8115,
      "Ġwhereby": 8116,
      "ylvan": 8117,
      "Ġpap": 8118,
      "Ġchest": 8119,
      "Ġconcludes": 8120,
      "New": 8121,
      "Ġoccupation": 8122,
      "Ġcolumns": 8123,
      "Ġmetal": 8124,
      "Ġbelongs": 8125,
      "Illustration": 8126,
      "pless": 8127,
      "otted": 8128,
      "Ġmomentary": 8129,
      "Ġhearth": 8130,
      "llers": 8131,
      "ĠSol": 8132,
      "assed": 8133,
      "Ġintervention": 8134,
      "Ġbeneficial": 8135,
      "ĠApostles": 8136,
      "Ġinevitably": 8137,
      "Ġassent": 8138,
      "Ġdesigns": 8139,
      "Ġproceeds": 8140,
      "Ġprevailed": 8141,
      "Ġplat": 8142,
      "era": 8143,
      "Ġsummoned": 8144,
      "Ġstip": 8145,
      "Ġhurt": 8146,
      "Ġdeceased": 8147,
      "umm": 8148,
      "Ġcorps": 8149,
      "Ġverses": 8150,
      "Ġbetwixt": 8151,
      "Ġinduce": 8152,
      "Ġgallant": 8153,
      "Ġpulp": 8154,
      "iue": 8155,
      "Ġhaste": 8156,
      "emption": 8157,
      "ugg": 8158,
      "houses": 8159,
      "ino": 8160,
      "Ġingenuity": 8161,
      "leep": 8162,
      "aned": 8163,
      "Ġrested": 8164,
      "Ġattendance": 8165,
      "ccess": 8166,
      "Ġdiscussed": 8167,
      "ĠBeing": 8168,
      "Ġillustration": 8169,
      "Ġrecognize": 8170,
      "ca": 8171,
      "Ġzealous": 8172,
      "Ġconform": 8173,
      "Ġadventure": 8174,
      "Ġmisfortune": 8175,
      "ails": 8176,
      "Ġdepends": 8177,
      "ĠCru": 8178,
      "ĠTurk": 8179,
      "ban": 8180,
      "ĠThou": 8181,
      "Ġexpressions": 8182,
      "ords": 8183,
      "Ġhostile": 8184,
      "ĠCorn": 8185,
      "Ġdrove": 8186,
      "Ġrear": 8187,
      "ĠJour": 8188,
      "rament": 8189,
      "Ġinterrupted": 8190,
      "Ġprices": 8191,
      "ĠGold": 8192,
      "Ġconspir": 8193,
      "Ġcivic": 8194,
      "Ġinquired": 8195,
      "leys": 8196,
      "Ġheed": 8197,
      "apes": 8198,
      "IST": 8199,
      "never": 8200,
      "Ġdaughters": 8201,
      "ĠSpani": 8202,
      "ĠGreen": 8203,
      "Ġdisciples": 8204,
      "uen": 8205,
      "Ġcomparatively": 8206,
      "Ġcompanies": 8207,
      "icle": 8208,
      "Ġcommod": 8209,
      "ĠChap": 8210,
      "Ġjournal": 8211,
      "Ġyours": 8212,
      "Ġpromising": 8213,
      "Ġnurs": 8214,
      "Ġdozen": 8215,
      "Ġmetaph": 8216,
      "Ġliable": 8217,
      "ĠCamp": 8218,
      "Per": 8219,
      "Ġentertained": 8220,
      "21": 8221,
      "ĠPark": 8222,
      "Ġmorality": 8223,
      "Ġpreferred": 8224,
      "Ġwidow": 8225,
      "Col": 8226,
      "Ġiv": 8227,
      "Ġenvironment": 8228,
      "ĠMark": 8229,
      "Ġmob": 8230,
      "zed": 8231,
      "Ġmedium": 8232,
      "Ġloyalty": 8233,
      "adow": 8234,
      "ĠOnly": 8235,
      "ĠEastern": 8236,
      "Ġoffence": 8237,
      "Ġissues": 8238,
      "semble": 8239,
      "Ġpractically": 8240,
      "Ġstamp": 8241,
      "Ġprize": 8242,
      "rust": 8243,
      "every": 8244,
      "ĠSur": 8245,
      "Ġopportunities": 8246,
      "reek": 8247,
      "may": 8248,
      "Ġfitted": 8249,
      "Ġreaches": 8250,
      "Ġonward": 8251,
      "Ġsport": 8252,
      "Ġplains": 8253,
      "itia": 8254,
      "count": 8255,
      "Ġplacing": 8256,
      "Ġlibrary": 8257,
      "Ġchemical": 8258,
      "Ġcherished": 8259,
      "eer": 8260,
      "Ġambitious": 8261,
      "orical": 8262,
      "Ġmagistrate": 8263,
      "Ġcouple": 8264,
      "Ġdisorder": 8265,
      "Ġmeal": 8266,
      "Ġfrank": 8267,
      "Ġliber": 8268,
      "Ġdogs": 8269,
      "Ġwaited": 8270,
      "Ġmachine": 8271,
      "Ġcontention": 8272,
      "Ġfragments": 8273,
      "ĠImper": 8274,
      "Ġportions": 8275,
      "ĠXX": 8276,
      "Ġguid": 8277,
      "Ġcommendable": 8278,
      "Ġlargest": 8279,
      "worth": 8280,
      "ĠTen": 8281,
      "Ġcorrespondent": 8282,
      "Ġ44": 8283,
      "lest": 8284,
      "ĠSax": 8285,
      "hemer": 8286,
      "Ah": 8287,
      "Ġconfluence": 8288,
      "Ġgracious": 8289,
      "Ġchill": 8290,
      "Ġsystematic": 8291,
      "ieur": 8292,
      "ĠGreece": 8293,
      "inqu": 8294,
      "Your": 8295,
      "ĠGentle": 8296,
      "Ġpolite": 8297,
      "Ġcontinuous": 8298,
      "Ġautumn": 8299,
      "Ġleaf": 8300,
      "Ġcourtes": 8301,
      "Ġwet": 8302,
      "isis": 8303,
      "ĠCorrespondent": 8304,
      "Ġfeels": 8305,
      "must": 8306,
      "Ġdesolate": 8307,
      "ĠAustria": 8308,
      "Ġcatch": 8309,
      "bac": 8310,
      "Ġinch": 8311,
      "Ġpick": 8312,
      "ĠCard": 8313,
      "ĠJap": 8314,
      "Mrs": 8315,
      "Ġshadowed": 8316,
      "Ġblessings": 8317,
      "ĠPerhaps": 8318,
      "Ġacknowledging": 8319,
      "Ġeleven": 8320,
      "Ġartificial": 8321,
      "Ġwore": 8322,
      "Ġsuspect": 8323,
      "iscop": 8324,
      "Ġcomplaint": 8325,
      "Ġmock": 8326,
      "Ġmusical": 8327,
      "Ġfluid": 8328,
      "ĠPeace": 8329,
      "othed": 8330,
      "Ġwealthy": 8331,
      "Ġbewild": 8332,
      "amph": 8333,
      "Ġgran": 8334,
      "Ġinvention": 8335,
      "Ġinheritance": 8336,
      "usively": 8337,
      "encing": 8338,
      "ĠAthe": 8339,
      "version": 8340,
      "ĠJacob": 8341,
      "Ġmodel": 8342,
      "acific": 8343,
      "Ġours": 8344,
      "Ġstores": 8345,
      "Ġfavourable": 8346,
      "raw": 8347,
      "ĠRo": 8348,
      "Ġlit": 8349,
      "Ġjustified": 8350,
      "Ġvine": 8351,
      "Ġexpressing": 8352,
      "Ġcovenant": 8353,
      "Ġvigilance": 8354,
      "cific": 8355,
      "ĠArmy": 8356,
      "Ġcannon": 8357,
      "iana": 8358,
      "Ġdense": 8359,
      "Ġimprovements": 8360,
      "Ġ99": 8361,
      "rants": 8362,
      "Ġveil": 8363,
      "Ġadvancement": 8364,
      "sm": 8365,
      "ola": 8366,
      "Ġtermed": 8367,
      "Ġincomp": 8368,
      "Ġprodigious": 8369,
      "AND": 8370,
      "Ġsolitude": 8371,
      "Ġpractices": 8372,
      "Ġshoulder": 8373,
      "engeance": 8374,
      "Ġnamely": 8375,
      "ighter": 8376,
      "Ġlocated": 8377,
      "Ġowner": 8378,
      "oue": 8379,
      "ulsion": 8380,
      "Ġdiscretion": 8381,
      "uild": 8382,
      "inus": 8383,
      "Ġanchor": 8384,
      "again": 8385,
      "icles": 8386,
      "Ġattempting": 8387,
      "ĠMus": 8388,
      "Ġflock": 8389,
      "resents": 8390,
      "Ġpermission": 8391,
      "Ġinvolves": 8392,
      "Ġsteel": 8393,
      "Ġscul": 8394,
      "Ġproced": 8395,
      "Ġinside": 8396,
      "ĠHolland": 8397,
      "Ġresides": 8398,
      "Ġdiet": 8399,
      "Ġchalleng": 8400,
      "Ġprotracted": 8401,
      "Ġbrig": 8402,
      "quar": 8403,
      "Ġprimitive": 8404,
      "Ġfet": 8405,
      "Ġarriving": 8406,
      "Ġalleged": 8407,
      "Ġtested": 8408,
      "Ġsensation": 8409,
      "Ġcreate": 8410,
      "Ġneut": 8411,
      "ĠUniversity": 8412,
      "Ġconfession": 8413,
      "Ġshoot": 8414,
      "lections": 8415,
      "ĠDist": 8416,
      "ĠDepartment": 8417,
      "Ġdiscord": 8418,
      "Ġpeoples": 8419,
      "Ġtableau": 8420,
      "Ġhatred": 8421,
      "Ġexpenses": 8422,
      "illa": 8423,
      "tery": 8424,
      "ylvania": 8425,
      "Ġconsecrated": 8426,
      "ache": 8427,
      "Ġeffected": 8428,
      "ĠNorthern": 8429,
      "Ġgay": 8430,
      "Ġwing": 8431,
      "Ġobligations": 8432,
      "Ġalliance": 8433,
      "Ġ--": 8434,
      "Ġvert": 8435,
      "Ġsupporting": 8436,
      "Ġsculpt": 8437,
      "ĠHill": 8438,
      "Ġmould": 8439,
      "onday": 8440,
      "istle": 8441,
      "Ġrestoration": 8442,
      "Ġexcellence": 8443,
      "Ġsystems": 8444,
      "Ġaltered": 8445,
      "Ġhumility": 8446,
      "Ġinterpretation": 8447,
      "ĠChronicle": 8448,
      "eight": 8449,
      "Ġpurchased": 8450,
      "Ġuniverse": 8451,
      "ĠWater": 8452,
      "Ġspecimen": 8453,
      "Ġsincer": 8454,
      "Ġencouragement": 8455,
      "ĠChe": 8456,
      "ĠOxford": 8457,
      "Ġmarsh": 8458,
      "Ġartillery": 8459,
      "Ġhorizon": 8460,
      "Ġlamentable": 8461,
      "erty": 8462,
      "Ġcoin": 8463,
      "ĠOhio": 8464,
      "Ġthrust": 8465,
      "Ġsoften": 8466,
      "Ġlesser": 8467,
      "Ġrecovery": 8468,
      "Ġbatter": 8469,
      "Ġtalking": 8470,
      "ulously": 8471,
      "Ġcompel": 8472,
      "pes": 8473,
      "osa": 8474,
      "Ġcloser": 8475,
      "Ġviz": 8476,
      "first": 8477,
      "Ġvillages": 8478,
      "Ġneighbours": 8479,
      "ĠCape": 8480,
      "Ġbark": 8481,
      "Ġadmission": 8482,
      "Ġmour": 8483,
      "Ġnobl": 8484,
      "fold": 8485,
      "22": 8486,
      "Ġrenders": 8487,
      "Ġfashionable": 8488,
      "Ġpatients": 8489,
      "Ġoccasioned": 8490,
      "rone": 8491,
      "Ġguidance": 8492,
      "Ġseriously": 8493,
      "Ġglitter": 8494,
      "erences": 8495,
      "Ġoccupy": 8496,
      "Ġfiery": 8497,
      "ĠOffice": 8498,
      "Ġsaving": 8499,
      "Ġcensure": 8500,
      "ippi": 8501,
      "Ġ43": 8502,
      "Ġstrengthe": 8503,
      "Ġbought": 8504,
      "ĠColumb": 8505,
      "before": 8506,
      "pelled": 8507,
      "isons": 8508,
      "Ġmischief": 8509,
      "Ġgrey": 8510,
      "Ġsupper": 8511,
      "isation": 8512,
      "Ġpocket": 8513,
      "Ġuncons": 8514,
      "without": 8515,
      "Ġfellows": 8516,
      "Ġstaff": 8517,
      "Ġsubord": 8518,
      "Ġtransformation": 8519,
      "Ġsuspected": 8520,
      "Ġwars": 8521,
      "Ġdrown": 8522,
      "Ġmart": 8523,
      "Ġriv": 8524,
      "Ġrage": 8525,
      "Ġnose": 8526,
      "Ġprovides": 8527,
      "Ġcoarse": 8528,
      "Ġpreference": 8529,
      "Ġreaction": 8530,
      "Ġimmortal": 8531,
      "ĠTime": 8532,
      "ĠAre": 8533,
      "andal": 8534,
      "city": 8535,
      "elle": 8536,
      "ym": 8537,
      "ante": 8538,
      "Ġreasoned": 8539,
      "ĠLight": 8540,
      "Ġattachment": 8541,
      "incial": 8542,
      "Ġinterven": 8543,
      "iently": 8544,
      "Ġ46": 8545,
      "Ġgrows": 8546,
      "Ġplanted": 8547,
      "Ġtast": 8548,
      "Ġincons": 8549,
      "Ġbrow": 8550,
      "Ġcautious": 8551,
      "ID": 8552,
      "Ġride": 8553,
      "Ġowners": 8554,
      "urday": 8555,
      "Ġromantic": 8556,
      "azz": 8557,
      "Ġcruelty": 8558,
      "Ġshalt": 8559,
      "Ġsincerity": 8560,
      "Ġgross": 8561,
      "tering": 8562,
      "Ġmatch": 8563,
      "Ġexertion": 8564,
      "ĠIV": 8565,
      "Ġexagger": 8566,
      "-\"": 8567,
      "Ġpresident": 8568,
      "Ġconstitute": 8569,
      "Ġstatesman": 8570,
      "Ġnomin": 8571,
      "Ġcontributed": 8572,
      "ocal": 8573,
      "ĠSher": 8574,
      "Ġsovereignty": 8575,
      "riages": 8576,
      "Ġhereafter": 8577,
      "Ġundoubtedly": 8578,
      "Ġcrisis": 8579,
      "Ġobservers": 8580,
      "Ġangel": 8581,
      "Ġuttered": 8582,
      "Ġ=": 8583,
      "Ġowne": 8584,
      "Ġvap": 8585,
      "Ġobjections": 8586,
      "iating": 8587,
      "Ġeggs": 8588,
      "Ġlaying": 8589,
      "ĠConvention": 8590,
      "ĠHol": 8591,
      "don": 8592,
      "everal": 8593,
      "ĠIsa": 8594,
      "Ġestates": 8595,
      "Ġbounds": 8596,
      "iday": 8597,
      "Ġflourish": 8598,
      "Ġgardens": 8599,
      "Ġwatching": 8600,
      "Ġindispens": 8601,
      "chen": 8602,
      "Ġconject": 8603,
      "Ġincapable": 8604,
      "Ġwooden": 8605,
      "Ġcutting": 8606,
      "Ġmalice": 8607,
      "pection": 8608,
      "Ġrecip": 8609,
      "ĠMel": 8610,
      "Ġadvert": 8611,
      "anth": 8612,
      "ĠAdmir": 8613,
      "English": 8614,
      "quer": 8615,
      "power": 8616,
      "Ġburdens": 8617,
      "Ġrises": 8618,
      "Ġjudicial": 8619,
      "Ġguests": 8620,
      "omed": 8621,
      "Ġren": 8622,
      "Ġpowder": 8623,
      "thur": 8624,
      "Ġcorresponding": 8625,
      "Ġstirred": 8626,
      "Ġprecept": 8627,
      "*'": 8628,
      "rave": 8629,
      "ibus": 8630,
      "ATION": 8631,
      "Ġlecture": 8632,
      "Ġrhyth": 8633,
      "ĠLike": 8634,
      "sub": 8635,
      "Ãª": 8636,
      "Ġscant": 8637,
      "Ġcompassion": 8638,
      "Ġcheap": 8639,
      "Ġperf": 8640,
      "Ġbutter": 8641,
      "Ġprescribed": 8642,
      "Ġpoured": 8643,
      "Ġenforce": 8644,
      "Ġchapel": 8645,
      "eches": 8646,
      "ingham": 8647,
      "ORD": 8648,
      "Ġgoverning": 8649,
      "Ġattitude": 8650,
      "govern": 8651,
      "Ġsettlements": 8652,
      "Ġfeed": 8653,
      "ini": 8654,
      "ĠNothing": 8655,
      "giving": 8656,
      "Ġcousin": 8657,
      "yard": 8658,
      "ĠSer": 8659,
      "Ġreckoning": 8660,
      "Ġfeeble": 8661,
      "Ġmachinations": 8662,
      "Ġadorned": 8663,
      "Ġparad": 8664,
      "west": 8665,
      "Ġartistic": 8666,
      "Ġarrested": 8667,
      "Ġunanim": 8668,
      "suff": 8669,
      "Ġcirculation": 8670,
      "Ġenthusiast": 8671,
      "eu": 8672,
      "sett": 8673,
      "ecess": 8674,
      "rable": 8675,
      "Ġsensibility": 8676,
      "Ġpeasant": 8677,
      "ĠPresbyter": 8678,
      "Ġamiable": 8679,
      "Ġsevent": 8680,
      "Ġperish": 8681,
      "Ġsect": 8682,
      "Ġpace": 8683,
      "ĠTrans": 8684,
      "Ġfarmers": 8685,
      "ĠPhilosop": 8686,
      "Ġemig": 8687,
      "Ġrede": 8688,
      "ioned": 8689,
      "Ġpu": 8690,
      "Ġdared": 8691,
      "ĠChief": 8692,
      "See": 8693,
      "ĠBesides": 8694,
      "Ġconspic": 8695,
      "Though": 8696,
      "23": 8697,
      "Ġseverely": 8698,
      "Ġpositions": 8699,
      "Ġinternational": 8700,
      "estine": 8701,
      "bacco": 8702,
      "Ġconsol": 8703,
      "Ġundertake": 8704,
      "Ġnaked": 8705,
      "ura": 8706,
      "Ġingenious": 8707,
      "ington": 8708,
      "brance": 8709,
      "Ġaccurate": 8710,
      "Ġheathen": 8711,
      "Ġjudged": 8712,
      "Ġhaunt": 8713,
      "Ġsite": 8714,
      "Ġlegitimate": 8715,
      "Ġendless": 8716,
      "Ġclub": 8717,
      "Ġuniversally": 8718,
      "ĠBab": 8719,
      "Ġimpressed": 8720,
      "Ġthirst": 8721,
      "Ġsorts": 8722,
      "Ġhimselfe": 8723,
      "ilton": 8724,
      "llor": 8725,
      "Ġintentions": 8726,
      "Ġmanifold": 8727,
      "uscript": 8728,
      "Ġinspection": 8729,
      "Ġduke": 8730,
      "ĠMich": 8731,
      "ĠMinisters": 8732,
      "Ġcompact": 8733,
      "Ġma": 8734,
      "Ġdepths": 8735,
      "hent": 8736,
      "iffs": 8737,
      "Ġdispatched": 8738,
      "Ġvictim": 8739,
      "Ġdeck": 8740,
      "unction": 8741,
      "iforn": 8742,
      "Ġdropped": 8743,
      "yielding": 8744,
      "Ġaugment": 8745,
      "Ġgloom": 8746,
      "Ġburned": 8747,
      "beit": 8748,
      "Mar": 8749,
      "Ġspare": 8750,
      "Ġyn": 8751,
      "Ġfourteen": 8752,
      "unci": 8753,
      "ĠAsia": 8754,
      "ĠAccording": 8755,
      "Ġhumour": 8756,
      "Ġprofitable": 8757,
      "utor": 8758,
      "onsieur": 8759,
      "Ġdissolved": 8760,
      "Ġrites": 8761,
      "Ġhorn": 8762,
      "ĠFellow": 8763,
      "Ġdemonstrate": 8764,
      "olated": 8765,
      "omination": 8766,
      "AY": 8767,
      "Ġhundreds": 8768,
      "Ġawful": 8769,
      "Ġborders": 8770,
      "Ġfires": 8771,
      "Ġpropose": 8772,
      "ĠMost": 8773,
      "Ġacquis": 8774,
      "Ġafterward": 8775,
      "Ġwholes": 8776,
      "Ġmeditation": 8777,
      "Ġblame": 8778,
      "Ġanimated": 8779,
      "Ġdiscl": 8780,
      "Ġresent": 8781,
      "Ġproducing": 8782,
      "rum": 8783,
      "Ġshifted": 8784,
      "ĠBaron": 8785,
      "Ġnotions": 8786,
      "Ġdishon": 8787,
      "Ġreflected": 8788,
      "Ġclothing": 8789,
      "Ġgilded": 8790,
      "alks": 8791,
      "Ġbull": 8792,
      "Ġconfessed": 8793,
      "resses": 8794,
      "Ġunb": 8795,
      "Ġregards": 8796,
      "Ġdivisions": 8797,
      "Ġcatalogue": 8798,
      "Ġstup": 8799,
      "Ġwives": 8800,
      "your": 8801,
      "Ġlandl": 8802,
      "enery": 8803,
      "Ġraw": 8804,
      "rol": 8805,
      "alm": 8806,
      "Ġplenty": 8807,
      "Ġouter": 8808,
      "Ġrichly": 8809,
      "ĠMur": 8810,
      "Ġconsiderations": 8811,
      "ĠVict": 8812,
      "agine": 8813,
      "Ġsel": 8814,
      "entive": 8815,
      "Ġlaughed": 8816,
      "Ġakin": 8817,
      "Ġconsisted": 8818,
      "itime": 8819,
      "Ġdischarged": 8820,
      "Ġvague": 8821,
      "Ġvengeance": 8822,
      "Ġindustrial": 8823,
      "Ġconver": 8824,
      "Ġpicturesque": 8825,
      "Ġuncon": 8826,
      "Ġarbitrary": 8827,
      "Ġwheat": 8828,
      "ĠRem": 8829,
      "Ġacquire": 8830,
      "Ġrefusal": 8831,
      "Ġ49": 8832,
      "Ġrode": 8833,
      "Ġlimbs": 8834,
      "Ġdependent": 8835,
      "Don": 8836,
      "nsylvania": 8837,
      "ige": 8838,
      "Ġmoreover": 8839,
      "ĠPost": 8840,
      "Ġsixteen": 8841,
      "Ġeighty": 8842,
      "irty": 8843,
      "Ġcapric": 8844,
      "Ġconvenience": 8845,
      "oln": 8846,
      "Ġprophet": 8847,
      "Ġtorment": 8848,
      "Ġdeclaring": 8849,
      "Ġyea": 8850,
      "24": 8851,
      "Ġacadem": 8852,
      "table": 8853,
      "Ġepis": 8854,
      "nings": 8855,
      "ĠMet": 8856,
      "arte": 8857,
      "looking": 8858,
      "Ġregardless": 8859,
      "Ġallegiance": 8860,
      "Ġgradual": 8861,
      "ĠMarg": 8862,
      "Ġsigned": 8863,
      "Ġapproved": 8864,
      "ĠAgain": 8865,
      "Ġnegative": 8866,
      "Ġuncertainty": 8867,
      "Ġeverlasting": 8868,
      "Ġboundaries": 8869,
      "Ġattacks": 8870,
      "oys": 8871,
      "poss": 8872,
      "Ġgreatness": 8873,
      "Ġlacked": 8874,
      "Ġmarched": 8875,
      "question": 8876,
      "board": 8877,
      "Ġintroduce": 8878,
      "Ġ47": 8879,
      "itory": 8880,
      "Ġephemer": 8881,
      "Ġadvancing": 8882,
      "atisfact": 8883,
      "Ġwherever": 8884,
      "Ġrushed": 8885,
      "Ġterritories": 8886,
      "Ġruns": 8887,
      "Ġardent": 8888,
      "Ġrole": 8889,
      "cond": 8890,
      "Ġjew": 8891,
      "Ġteleg": 8892,
      "ĠAtlantic": 8893,
      "aws": 8894,
      "Ġguarded": 8895,
      "hor": 8896,
      "Ġinfirm": 8897,
      "Ġgraceful": 8898,
      "Ġpaused": 8899,
      "ĠEdin": 8900,
      "Ġdisappointment": 8901,
      "ĠImperial": 8902,
      "Ġfavourite": 8903,
      "ĠBank": 8904,
      "Ġ90": 8905,
      "ylon": 8906,
      "Ġdeliberation": 8907,
      "Ġrealized": 8908,
      "Ġopenly": 8909,
      "Cl": 8910,
      "Ġxx": 8911,
      "Ġsulph": 8912,
      "Ġhuge": 8913,
      "Ġwounds": 8914,
      "Ġgrateful": 8915,
      "Ġhell": 8916,
      "Ġinval": 8917,
      "Ġ51": 8918,
      "Ġtrun": 8919,
      "Ġutterance": 8920,
      "mor": 8921,
      "Ġlect": 8922,
      "Foot": 8923,
      "Ġsubsist": 8924,
      "wr": 8925,
      "Ġexperiences": 8926,
      "ĠRef": 8927,
      "aft": 8928,
      "ĠBre": 8929,
      "Ġplaying": 8930,
      "Ġconstitu": 8931,
      "mount": 8932,
      "overe": 8933,
      "Ġcoffee": 8934,
      "Ġincorpor": 8935,
      "duc": 8936,
      "ese": 8937,
      "Ġmantle": 8938,
      "Ġbalm": 8939,
      "issippi": 8940,
      "oned": 8941,
      "Ġimpressions": 8942,
      "ĠFrancis": 8943,
      "Ġsickness": 8944,
      "Ġdefiance": 8945,
      "Ġdescribes": 8946,
      "Ġbishops": 8947,
      "tw": 8948,
      "Ġcomforts": 8949,
      "Ġdecide": 8950,
      "Ġencourage": 8951,
      "ĠStill": 8952,
      "Ġpainting": 8953,
      "Ġsweeping": 8954,
      "Americ": 8955,
      "Ġnu": 8956,
      "ĠHy": 8957,
      "Ġremainder": 8958,
      "Ġsufferings": 8959,
      "Ġinflamm": 8960,
      "Ġnormal": 8961,
      "pread": 8962,
      "Ġdisciplined": 8963,
      "Ġpossessions": 8964,
      "arly": 8965,
      "Ġwisely": 8966,
      "Ġenacted": 8967,
      "Ġillustrated": 8968,
      "Ġopposing": 8969,
      "Ġtranslation": 8970,
      "Ġdelighted": 8971,
      "Ġvicinity": 8972,
      "Ġwillingly": 8973,
      "Ġinconsist": 8974,
      "Ġinterview": 8975,
      "Ġallies": 8976,
      "say": 8977,
      "itations": 8978,
      "ĠFour": 8979,
      "said": 8980,
      "Ġtrack": 8981,
      "Ġheights": 8982,
      "Ġcompr": 8983,
      "ĠImp": 8984,
      "ĠKent": 8985,
      "Ġappreciation": 8986,
      "Ġexercises": 8987,
      "Ġcommencement": 8988,
      "Ġdissolution": 8989,
      "Ġobl": 8990,
      "gn": 8991,
      "ĠCreator": 8992,
      "Ġprocured": 8993,
      "Ġrepresenting": 8994,
      "Ġseam": 8995,
      "Ġjuncture": 8996,
      "Ġavoided": 8997,
      "ĠDen": 8998,
      "Ġstatements": 8999,
      "Ġchronicle": 9000,
      "Ġcombat": 9001,
      "icing": 9002,
      "asses": 9003,
      "Ġpoignant": 9004,
      "Ġneighbourhood": 9005,
      "rels": 9006,
      "Ġvisitors": 9007,
      "ĠFreder": 9008,
      "Ġmonuments": 9009,
      "Ġconverted": 9010,
      "Ġcore": 9011,
      "Ġexertions": 9012,
      "Ġastonishment": 9013,
      "rich": 9014,
      "Ġsore": 9015,
      "eh": 9016,
[...]
