{
  "version": "1.0",
  "truncation": null,
  "padding": null,
  "added_tokens": [
    {
      "id": 0,
      "content": "<|pad|>",
      "single_word": false,
      "lstrip": false,
      "rstrip": false,
      "normalized": false,
      "special": true
    },
    {
      "id": 1,
      "content": "<|unk|>",
      "single_word": false,
      "lstrip": false,
      "rstrip": false,
      "normalized": false,
      "special": true
    },
    {
      "id": 2,
      "content": "<|mask|>",
      "single_word": false,
      "lstrip": false,
      "rstrip": false,
      "normalized": false,
      "special": true
    },
    {
      "id": 3,
      "content": "<|bos|>",
      "single_word": false,
      "lstrip": false,
      "rstrip": false,
      "normalized": false,
      "special": true
    },
    {
      "id": 4,
      "content": "<|eos|>",
      "single_word": false,
      "lstrip": false,
      "rstrip": false,
      "normalized": false,
      "special": true
    },
    {
      "id": 5,
      "content": "<|system|>",
      "single_word": false,
      "lstrip": false,
      "rstrip": false,
      "normalized": false,
      "special": true
    },
    {
      "id": 6,
      "content": "<|user|>",
      "single_word": false,
      "lstrip": false,
      "rstrip": false,
      "normalized": false,
      "special": true
    },
    {
      "id": 7,
      "content": "<|assistant|>",
      "single_word": false,
      "lstrip": false,
      "rstrip": false,
      "normalized": false,
      "special": true
    }
  ],
  "normalizer": null,
  "pre_tokenizer": {
    "type": "ByteLevel",
    "add_prefix_space": false,
    "trim_offsets": true,
    "use_regex": true
  },
  "post_processor": {
    "type": "TemplateProcessing",
    "single": [
      {
        "Sequence": {
          "id": "A",
          "type_id": 0
        }
      }
    ],
    "pair": [
      {
        "Sequence": {
          "id": "A",
          "type_id": 0
        }
      },
      {
        "Sequence": {
          "id": "B",
          "type_id": 1
        }
      }
    ],
    "special_tokens": {}
  },
  "decoder": {
    "type": "ByteLevel",
    "add_prefix_space": true,
    "trim_offsets": true,
    "use_regex": true
  },
  "model": {
    "type": "BPE",
    "dropout": null,
    "unk_token": "<|unk|>",
    "continuing_subword_prefix": null,
    "end_of_word_suffix": null,
    "fuse_unk": false,
    "byte_fallback": false,
    "ignore_merges": false,
    "vocab": {
      "<|pad|>": 0,
      "<|unk|>": 1,
      "<|mask|>": 2,
      "<|bos|>": 3,
      "<|eos|>": 4,
      "<|system|>": 5,
      "<|user|>": 6,
      "<|assistant|>": 7,
      "!": 8,
      "\"": 9,
      "#": 10,
      "$": 11,
      "%": 12,
      "&": 13,
      "'": 14,
      "(": 15,
      ")": 16,
      "*": 17,
      "+": 18,
      ",": 19,
      "-": 20,
      ".": 21,
      "/": 22,
      "0": 23,
      "1": 24,
      "2": 25,
      "3": 26,
      "4": 27,
      "5": 28,
      "6": 29,
      "7": 30,
      "8": 31,
      "9": 32,
      ":": 33,
      ";": 34,
      "<": 35,
      "=": 36,
      ">": 37,
      "?": 38,
      "@": 39,
      "A": 40,
      "B": 41,
      "C": 42,
      "D": 43,
      "E": 44,
      "F": 45,
      "G": 46,
      "H": 47,
      "I": 48,
      "J": 49,
      "K": 50,
      "L": 51,
      "M": 52,
      "N": 53,
      "O": 54,
      "P": 55,
      "Q": 56,
      "R": 57,
      "S": 58,
      "T": 59,
      "U": 60,
      "V": 61,
      "W": 62,
      "X": 63,
      "Y": 64,
      "Z": 65,
      "[": 66,
      "\\": 67,
      "]": 68,
      "^": 69,
      "_": 70,
      "`": 71,
      "a": 72,
      "b": 73,
      "c": 74,
      "d": 75,
      "e": 76,
      "f": 77,
      "g": 78,
      "h": 79,
      "i": 80,
      "j": 81,
      "k": 82,
      "l": 83,
      "m": 84,
      "n": 85,
      "o": 86,
      "p": 87,
      "q": 88,
      "r": 89,
      "s": 90,
      "t": 91,
      "u": 92,
      "v": 93,
      "w": 94,
      "x": 95,
      "y": 96,
      "z": 97,
      "{": 98,
      "|": 99,
      "}": 100,
      "~": 101,
      "¡": 102,
      "¢": 103,
      "£": 104,
      "¤": 105,
      "¥": 106,
      "¦": 107,
      "§": 108,
      "¨": 109,
      "©": 110,
      "ª": 111,
      "«": 112,
      "¬": 113,
      "®": 114,
      "¯": 115,
      "°": 116,
      "±": 117,
      "²": 118,
      "³": 119,
      "´": 120,
      "µ": 121,
      "¶": 122,
      "·": 123,
      "¸": 124,
      "¹": 125,
      "º": 126,
      "»": 127,
      "¼": 128,
      "½": 129,
      "¾": 130,
      "¿": 131,
      "Â": 132,
      "Ã": 133,
      "Ä": 134,
      "Å": 135,
      "Æ": 136,
      "Ç": 137,
      "È": 138,
      "É": 139,
      "Ê": 140,
      "Ë": 141,
      "Ì": 142,
      "Í": 143,
      "Î": 144,
      "Ï": 145,
      "Ð": 146,
      "Ñ": 147,
      "Ò": 148,
      "Ó": 149,
      "Õ": 150,
      "Ö": 151,
      "×": 152,
      "Ø": 153,
      "Ù": 154,
      "Ú": 155,
      "Û": 156,
      "Ü": 157,
      "Ý": 158,
      "à": 159,
      "á": 160,
      "â": 161,
      "ã": 162,
      "ä": 163,
      "å": 164,
      "æ": 165,
      "ç": 166,
      "è": 167,
      "é": 168,
      "ê": 169,
      "ï": 170,
      "ð": 171,
      "ĉ": 172,
      "Ċ": 173,
      "Ġ": 174,
      "Ģ": 175,
      "ģ": 176,
      "Ĥ": 177,
      "ĥ": 178,
      "Ħ": 179,
      "ħ": 180,
      "Ĩ": 181,
      "ĩ": 182,
      "Ī": 183,
      "ī": 184,
      "Ĭ": 185,
      "ĭ": 186,
      "Į": 187,
      "į": 188,
      "İ": 189,
      "ı": 190,
      "Ĳ": 191,
      "ĳ": 192,
      "Ĵ": 193,
      "ĵ": 194,
      "Ķ": 195,
      "ķ": 196,
      "ĸ": 197,
      "Ĺ": 198,
      "ĺ": 199,
      "Ļ": 200,
      "ļ": 201,
      "Ľ": 202,
      "ľ": 203,
      "Ŀ": 204,
      "ŀ": 205,
      "Ł": 206,
      "ł": 207,
      "Ń": 208,
      "Ġt": 209,
      "he": 210,
      "Ġa": 211,
      "in": 212,
      "Ġthe": 213,
      "Ġo": 214,
      "re": 215,
      "Ġw": 216,
      "er": 217,
      "Ġs": 218,
      "nd": 219,
      "on": 220,
      "at": 221,
      "Ġof": 222,
      "is": 223,
      "it": 224,
      "en": 225,
      "Ġb": 226,
      "ed": 227,
      "ou": 228,
      "es": 229,
      "Ġc": 230,
      "Ġf": 231,
      "or": 232,
      "ĠĠ": 233,
      "Ġh": 234,
      "Ġm": 235,
      "ar": 236,
      "Ġp": 237,
      "Ġand": 238,
      "an": 239,
      "Ġto": 240,
      "Ġin": 241,
      "ing": 242,
      "ll": 243,
      "Ġd": 244,
      "as": 245,
      "Ġth": 246,
      "ic": 247,
      "le": 248,
      "om": 249,
      "Ġn": 250,
      "ion": 251,
      "al": 252,
      "Ġbe": 253,
      "Ġl": 254,
      "Ġe": 255,
      "ent": 256,
      "st": 257,
      "ot": 258,
      "se": 259,
      "ve": 260,
      "Ġhe": 261,
      "ut": 262,
      "ce": 263,
      "Ġg": 264,
      "ad": 265,
      "ly": 266,
      "ĠI": 267,
      "ĠĠĠĠ": 268,
      "ow": 269,
      "Ġre": 270,
      "im": 271,
      "Ġwh": 272,
      "ct": 273,
      "ir": 274,
      "id": 275,
      "ur": 276,
      "Ġthat": 277,
      "ĠT": 278,
      "ld": 279,
      "ver": 280,
      "Ġis": 281,
      "ith": 282,
      "ro": 283,
      "Ġit": 284,
      "Ġon": 285,
      "et": 286,
      "gh": 287,
      "Ġu": 288,
      "Ġfor": 289,
      "ay": 290,
      "ch": 291,
      "am": 292,
      "ĠS": 293,
      "the": 294,
      "Ġas": 295,
      "Ġwith": 296,
      "Ġwas": 297,
      "and": 298,
      "ĠA": 299,
      "ri": 300,
      "ĠC": 301,
      "Ġwe": 302,
      "Ġy": 303,
      "ĠM": 304,
      "ter": 305,
      "Ġan": 306,
      "th": 307,
      "ich": 308,
      "Ġhis": 309,
      "ra": 310,
      "all": 311,
      "il": 312,
      "Ġby": 313,
      "Ġst": 314,
      "if": 315,
      "Ġat": 316,
      "ul": 317,
      "ation": 318,
      "Ġnot": 319,
      "ill": 320,
      "ain": 321,
      "us": 322,
      "od": 323,
      "ĠB": 324,
      "pe": 325,
      "Ġ1": 326,
      "ĠH": 327,
      "Ġcon": 328,
      "ght": 329,
      "ol": 330,
      "Ġsu": 331,
      "Ġha": 332,
      "Ġwhich": 333,
      "rom": 334,
      "Ġor": 335,
      "ess": 336,
      "ĠP": 337,
      "qu": 338,
      "our": 339,
      "Ġde": 340,
      "ge": 341,
      "ore": 342,
      "ĠThe": 343,
      "Ġse": 344,
      "um": 345,
      "res": 346,
      "ould": 347,
      "ab": 348,
      "Ġ;": 349,
      "red": 350,
      "Ġv": 351,
      "est": 352,
      "ke": 353,
      "Ġex": 354,
      "Ġsh": 355,
      "em": 356,
      "ac": 357,
      "os": 358,
      "ĠL": 359,
      "her": 360,
      "Ġfrom": 361,
      "ant": 362,
      "li": 363,
      "ist": 364,
      "ĠĠĠĠĠĠĠĠ": 365,
      "ate": 366,
      "ers": 367,
      "ĠW": 368,
      "to": 369,
      "Ġare": 370,
      "'s": 371,
      "Ġhave": 372,
      "ous": 373,
      "Ġhad": 374,
      "Ġthis": 375,
      "ĠE": 376,
      "nt": 377,
      "ĠG": 378,
      "pp": 379,
      "ard": 380,
      "Ġso": 381,
      "Ġcom": 382,
      "ĠD": 383,
      "Ġbut": 384,
      "art": 385,
      "Ġall": 386,
      "Ġyou": 387,
      "Ġ\"": 388,
      "Ġpro": 389,
      "Ġme": 390,
      "ĠF": 391,
      "Ġne": 392,
      "iv": 393,
      "un": 394,
      "ig": 395,
      "pt": 396,
      "ust": 397,
      "ity": 398,
      "Ġr": 399,
      "of": 400,
      "ie": 401,
      "Ġthey": 402,
      "ome": 403,
      "Ġhim": 404,
      "ĠR": 405,
      "Ġch": 406,
      "Ġher": 407,
      "te": 408,
      "ord": 409,
      "ect": 410,
      "Ġtheir": 411,
      "Ġwhe": 412,
      "Ġle": 413,
      "Ġ-": 414,
      "ort": 415,
      "ies": 416,
      "Ġk": 417,
      "Ġwho": 418,
      "ive": 419,
      "ure": 420,
      "Ġwere": 421,
      "Ġal": 422,
      "ast": 423,
      "very": 424,
      "ong": 425,
      "el": 426,
      "ther": 427,
      "Ġup": 428,
      "ight": 429,
      "ĠJ": 430,
      "The": 431,
      "ame": 432,
      "ost": 433,
      "ment": 434,
      "ound": 435,
      "Ġman": 436,
      "op": 437,
      "ĠN": 438,
      "ind": 439,
      "reat": 440,
      "Ġ2": 441,
      "ci": 442,
      "Ġmy": 443,
      "ĠO": 444,
      "Ġthem": 445,
      "Ġone": 446,
      "ak": 447,
      "Ġ(": 448,
      "cc": 449,
      "Ġab": 450,
      "ine": 451,
      "per": 452,
      "Ġsa": 453,
      "Ġbeen": 454,
      "out": 455,
      "ff": 456,
      "ood": 457,
      "ose": 458,
      "ish": 459,
      "ag": 460,
      "Ġno": 461,
      "ance": 462,
      "Ġpl": 463,
      "ry": 464,
      "ond": 465,
      "ence": 466,
      "ud": 467,
      "Ġdo": 468,
      "sel": 469,
      "ne": 470,
      "able": 471,
      "ap": 472,
      "ough": 473,
      "av": 474,
      "Ġthere": 475,
      ".\"": 476,
      "Ġar": 477,
      "one": 478,
      "ions": 479,
      "--": 480,
      "ib": 481,
      "Ġwill": 482,
      "Ġad": 483,
      "Ġfe": 484,
      "Ġshe": 485,
      "ok": 486,
      "ass": 487,
      "are": 488,
      "Ġun": 489,
      "own": 490,
      "ary": 491,
      "be": 492,
      "Ġj": 493,
      "we": 494,
      "ice": 495,
      "Ġother": 496,
      "Ġhas": 497,
      "ide": 498,
      "ated": 499,
      "Ġdis": 500,
      "ru": 501,
      "ally": 502,
      "Ġqu": 503,
      "pl": 504,
      "ace": 505,
      "Ġim": 506,
      "Ġwould": 507,
      "Ġmore": 508,
      "ount": 509,
      "itt": 510,
      "ire": 511,
      "au": 512,
      "Ġper": 513,
      "ck": 514,
      "ans": 515,
      "Ġany": 516,
      "hed": 517,
      "Ġwhen": 518,
      "ia": 519,
      "ime": 520,
      "ree": 521,
      "ert": 522,
      "Ġpart": 523,
      "Ġsome": 524,
      "Ġwor": 525,
      "Ġlo": 526,
      "Ġits": 527,
      "ng": 528,
      "fe": 529,
      "ake": 530,
      "fore": 531,
      "Ġag": 532,
      "Ġen": 533,
      "Ġ3": 534,
      "oll": 535,
      "ĠĠĠ": 536,
      "ade": 537,
      "ars": 538,
      "Ġsp": 539,
      "ĠTh": 540,
      "Ġcan": 541,
      "Ġmay": 542,
      "age": 543,
      "Ġus": 544,
      "Ġout": 545,
      "ĠHe": 546,
      "nder": 547,
      "Ġpr": 548,
      "Ġtw": 549,
      "Ġif": 550,
      "Ġam": 551,
      "ven": 552,
      "Ġpre": 553,
      "Ġthan": 554,
      ",\"": 555,
      "ĠCh": 556,
      "act": 557,
      "Ġinto": 558,
      "Ġvery": 559,
      "Ġour": 560,
      "Ġgreat": 561,
      "ite": 562,
      "cl": 563,
      "ress": 564,
      "ious": 565,
      "fter": 566,
      "Ġob": 567,
      "ue": 568,
      "ĠIt": 569,
      "ings": 570,
      "Ġli": 571,
      "uch": 572,
      "self": 573,
      "Ġsaid": 574,
      "ii": 575,
      "for": 576,
      "wh": 577,
      "ach": 578,
      "Ġ'": 579,
      "de": 580,
      "Ġcl": 581,
      "ays": 582,
      "Ġupon": 583,
      "Ġcont": 584,
      "ub": 585,
      "ved": 586,
      "Ġ_": 587,
      "so": 588,
      "Ġkn": 589,
      "ĠIn": 590,
      "Ġgr": 591,
      "ath": 592,
      "wn": 593,
      "ons": 594,
      "ĠMr": 595,
      "int": 596,
      "ep": 597,
      "ces": 598,
      "ĠV": 599,
      "ack": 600,
      "other": 601,
      "ĠĠĠĠĠĠĠĠĠĠĠĠĠĠĠĠ": 602,
      "Ġye": 603,
      "Ġ:": 604,
      "Ġtime": 605,
      "ber": 606,
      "ical": 607,
      "ign": 608,
      "ens": 609,
      "ren": 610,
      "urn": 611,
      "Ġonly": 612,
      "ition": 613,
      "Ġ4": 614,
      "ip": 615,
      "ĠK": 616,
      "ase": 617,
      "Ġbr": 618,
      "ise": 619,
      "Ġro": 620,
      "Ġtr": 621,
      "ult": 622,
      "Ġsuch": 623,
      "Ġthese": 624,
      "Ġgo": 625,
      "Ġres": 626,
      "ile": 627,
      "Ġwhat": 628,
      "oy": 629,
      "Ġdes": 630,
      "Ġshould": 631,
      "ang": 632,
      "irst": 633,
      "ark": 634,
      "ove": 635,
      "ward": 636,
      "ations": 637,
      "Ġyour": 638,
      "land": 639,
      "les": 640,
      "Ġtwo": 641,
      "Ġrem": 642,
      "Ġbl": 643,
      "ian": 644,
      "Ġpo": 645,
      "ought": 646,
      "Ġcons": 647,
      "Ġafter": 648,
      "ness": 649,
      "ĠSt": 650,
      "Ġcomm": 651,
      "og": 652,
      "Ġpe": 653,
      "pos": 654,
      "Ġ|": 655,
      "Ġacc": 656,
      "sh": 657,
      "Ġmade": 658,
      "ick": 659,
      "ave": 660,
      "ull": 661,
      "man": 662,
      "Ġthen": 663,
      "oth": 664,
      "ener": 665,
      "ory": 666,
      "ful": 667,
      "ced": 668,
      "ft": 669,
      "Ġnow": 670,
      "Ġform": 671,
      "ction": 672,
      "Ġte": 673,
      "Ġmost": 674,
      "ater": 675,
      "Ġcould": 676,
      "Ġap": 677,
      "Ġspe": 678,
      "ict": 679,
      "ple": 680,
      "Ġsub": 681,
      "Ġunder": 682,
      "ject": 683,
      "ph": 684,
      "ife": 685,
      "du": 686,
      "Ġ18": 687,
      "Ġfl": 688,
      "ather": 689,
      "ild": 690,
      "Ġbeing": 691,
      "ied": 692,
      "hes": 693,
      "Ġmuch": 694,
      "Ġagain": 695,
      "old": 696,
      "Ġpres": 697,
      ".,": 698,
      "Ġapp": 699,
      "Ġfirst": 700,
      "Ġthose": 701,
      "erv": 702,
      "iss": 703,
      "ink": 704,
      "Ġover": 705,
      "Ġabout": 706,
      "ittle": 707,
      "Ġhow": 708,
      "Ġlike": 709,
      "Ġ.": 710,
      "rit": 711,
      "Ġoff": 712,
      "aw": 713,
      "Ġmust": 714,
      "ty": 715,
      "Ġri": 716,
      "Ġwhere": 717,
      "Ġ5": 718,
      "hen": 719,
      "led": 720,
      "Ġbefore": 721,
      "ents": 722,
      "Ġgood": 723,
      "iz": 724,
      "Ġsame": 725,
      "ors": 726,
      "Ġthr": 727,
      "end": 728,
      "Ġsc": 729,
      "Ġra": 730,
      "Ġknow": 731,
      "Ġbet": 732,
      "ily": 733,
      "Ġlong": 734,
      "ix": 735,
      "not": 736,
      "Ġwell": 737,
      "Ġshall": 738,
      "com": 739,
      "ial": 740,
      "Ġevery": 741,
      "Ġimp": 742,
      "ower": 743,
      "Ġrep": 744,
      "orn": 745,
      "Ġ6": 746,
      "Ġi": 747,
      "Ġlittle": 748,
      "that": 749,
      "lie": 750,
      "Ġatt": 751,
      "Ġsm": 752,
      "Th": 753,
      "Ġsee": 754,
      "pect": 755,
      "ular": 756,
      "igh": 757,
      "Ġdid": 758,
      "oss": 759,
      "ble": 760,
      "air": 761,
      "eth": 762,
      "Ġdist": 763,
      "cess": 764,
      "Ġhand": 765,
      "Ġown": 766,
      "Ġco": 767,
      "Ġwork": 768,
      "ves": 769,
      "Ġmany": 770,
      "ĠBut": 771,
      "ĠY": 772,
      "with": 773,
      "Ġfound": 774,
      "ady": 775,
      "Ġac": 776,
      "ran": 777,
      "ont": 778,
      "ving": 779,
      "ouse": 780,
      "ĠAnd": 781,
      "Ġent": 782,
      "uth": 783,
      "'t": 784,
      "Ġem": 785,
      "'d": 786,
      "atter": 787,
      "Ġdif": 788,
      "ause": 789,
      "Ġappe": 790,
      "Ġalso": 791,
      "ished": 792,
      "Ġeven": 793,
      "ER": 794,
      "ever": 795,
      "Ġmen": 796,
      "lic": 797,
      "ates": 798,
      "Ġbec": 799,
      "Ġbo": 800,
      "Ġpass": 801,
      "ual": 802,
      "ob": 803,
      "me": 804,
      "Ġcall": 805,
      "ract": 806,
      "Ġday": 807,
      "ail": 808,
      "ĠU": 809,
      "ollow": 810,
      "ible": 811,
      "Ġop": 812,
      "ained": 813,
      "ex": 814,
      "Ġnat": 815,
      "Ġcomp": 816,
      "arge": 817,
      "Ġmight": 818,
      "cri": 819,
      "ret": 820,
      "by": 821,
      "med": 822,
      "its": 823,
      "vers": 824,
      "oh": 825,
      "Ġwithout": 826,
      "And": 827,
      "Ġcount": 828,
      "Ġsupp": 829,
      "ell": 830,
      "00": 831,
      "der": 832,
      "Ġear": 833,
      "Ġgener": 834,
      "ently": 835,
      "ffect": 836,
      "Ġgl": 837,
      "Ġ8": 838,
      "up": 839,
      "ĠGod": 840,
      "Ġsay": 841,
      "gin": 842,
      "fl": 843,
      "und": 844,
      "Ġreg": 845,
      "Ġinst": 846,
      "Ġlet": 847,
      "Ġthrough": 848,
      "ither": 849,
      "tend": 850,
      "Ġnever": 851,
      "ĠĠĠĠĠ": 852,
      "Ġgiv": 853,
      "ec": 854,
      "ĠEng": 855,
      "Ġdown": 856,
      "Ġret": 857,
      "ants": 858,
      "ince": 859,
      "Ġsec": 860,
      "ertain": 861,
      "rist": 862,
      "Ġend": 863,
      "ited": 864,
      "ined": 865,
      "ale": 866,
      "Ġold": 867,
      "Ġpers": 868,
      "Ġinc": 869,
      "less": 870,
      "arm": 871,
      "Ġocc": 872,
      "Ġmake": 873,
      "which": 874,
      "aint": 875,
      "way": 876,
      "Ġtak": 877,
      "Ġcar": 878,
      "erm": 879,
      "cy": 880,
      "Ġhere": 881,
      "ures": 882,
      "imes": 883,
      "ople": 884,
      "ared": 885,
      "Ġrec": 886,
      "Ġlife": 887,
      "ope": 888,
      "Ġlast": 889,
      "Ġfollow": 890,
      "rest": 891,
      "Ġlook": 892,
      "oc": 893,
      "Ġplace": 894,
      "but": 895,
      "Ġev": 896,
      "als": 897,
      "ner": 898,
      "Ġpur": 899,
      "Ġseem": 900,
      "ĠThis": 901,
      "Ġ7": 902,
      "ks": 903,
      "Ġext": 904,
      "ON": 905,
      "ew": 906,
      "cept": 907,
      "In": 908,
      "Ġway": 909,
      "get": 910,
      "Ġthink": 911,
      "mer": 912,
      "ween": 913,
      "ĠLord": 914,
      "ged": 915,
      "Ġact": 916,
      "ried": 917,
      "Ġsur": 918,
      "ins": 919,
      "Ġass": 920,
      "Ġhimself": 921,
      "Ġtoo": 922,
      "Ġpresent": 923,
      "ĠWh": 924,
      "ton": 925,
      "ock": 926,
      "Ġjust": 927,
      "aid": 928,
      "),": 929,
      "was": 930,
      "Ġword": 931,
      "Ġthree": 932,
      "ten": 933,
      "ters": 934,
      "Ġexp": 935,
      "rent": 936,
      "?\"": 937,
      "Ġyears": 938,
      "row": 939,
      "ss": 940,
      "Ġind": 941,
      "Ġnew": 942,
      "over": 943,
      "ug": 944,
      "ider": 945,
      "Ġke": 946,
      "Ġcour": 947,
      "ments": 948,
      "ee": 949,
      "Ġyet": 950,
      "Ġ&": 951,
      "Ġ17": 952,
      "Ġ!": 953,
      "riend": 954,
      "ities": 955,
      "Ġeach": 956,
      "Ġ*": 957,
      "ention": 958,
      "ene": 959,
      "wards": 960,
      "Ġcome": 961,
      "ered": 962,
      "ution": 963,
      "here": 964,
      "io": 965,
      "ived": 966,
      "ating": 967,
      "oun": 968,
      "Ġposs": 969,
      "Ġstill": 970,
      "hing": 971,
      "Ġnor": 972,
      "ody": 973,
      "ety": 974,
      "ute": 975,
      "urch": 976,
      "It": 977,
      "Ġstr": 978,
      "Ġagainst": 979,
      "Ġnum": 980,
      "Ġchar": 981,
      "Ġey": 982,
      "ĠRe": 983,
      "Ġfar": 984,
      "ys": 985,
      "ised": 986,
      "Ġadd": 987,
      "ason": 988,
      "Ġtake": 989,
      "most": 990,
      "Ġright": 991,
      "Ġthought": 992,
      "Ġinter": 993,
      "Ġset": 994,
      "Ġnear": 995,
      "Ġ?": 996,
      "Ġsmall": 997,
      "Ġinte": 998,
      "He": 999,
      "any": 1000,
      "ning": 1001,
      "ohn": 1002,
      "fer": 1003,
      "uring": 1004,
      "----": 1005,
      "su": 1006,
      "lish": 1007,
      "Ġbetween": 1008,
      "Ġpeople": 1009,
      "Ġhead": 1010,
      "ired": 1011,
      "Ġthough": 1012,
      "Ġpub": 1013,
      "ains": 1014,
      "ient": 1015,
      "ened": 1016,
      "pro": 1017,
      "ceed": 1018,
      ".)": 1019,
      "Ġboth": 1020,
      "Ġhaving": 1021,
      "Ġtra": 1022,
      "ool": 1023,
      "bt": 1024,
      "Ġwater": 1025,
      "ĠWe": 1026,
      "Ġcame": 1027,
      "pr": 1028,
      "att": 1029,
      "Ġwhole": 1030,
      "Ġart": 1031,
      "Ġwr": 1032,
      "Ġmar": 1033,
      "men": 1034,
      "ĠCom": 1035,
      "Ġadv": 1036,
      "AN": 1037,
      "Ġca": 1038,
      "ES": 1039,
      "selves": 1040,
      "Ġever": 1041,
      "ĠAn": 1042,
      "Ġwhile": 1043,
      "ier": 1044,
      "Ġcond": 1045,
      "vel": 1046,
      "Ġread": 1047,
      "alf": 1048,
      "Ġgive": 1049,
      "Wh": 1050,
      "II": 1051,
      "form": 1052,
      "ases": 1053,
      "light": 1054,
      "con": 1055,
      "Ġname": 1056,
      "Ġint": 1057,
      "ĠChrist": 1058,
      "Ġfind": 1059,
      "Ġsy": 1060,
      "Ġfew": 1061,
      "Ġple": 1062,
      "Ġmon": 1063,
      "Ġanother": 1064,
      "IN": 1065,
      "Ġcol": 1066,
      "ps": 1067,
      "_,": 1068,
      "Ġlarge": 1069,
      "Ġback": 1070,
      "Ġcalled": 1071,
      "Ġ16": 1072,
      "Ġconf": 1073,
      "ific": 1074,
      "Ġput": 1075,
      "irc": 1076,
      "ways": 1077,
      "fic": 1078,
      "Ġkind": 1079,
      "outh": 1080,
      "br": 1081,
      "ĠAr": 1082,
      "Ġ9": 1083,
      "ines": 1084,
      "ances": 1085,
      "ably": 1086,
      "Ġcertain": 1087,
      "..": 1088,
      "ury": 1089,
      "Ġcor": 1090,
      "Ġdisc": 1091,
      "ately": 1092,
      ".-": 1093,
      "ĠThey": 1094,
      "Ġfriend": 1095,
      "HE": 1096,
      "ours": 1097,
      "Ġpoint": 1098,
      "Ġvar": 1099,
      "âĶ": 1100,
      "Ġless": 1101,
      "Ġheart": 1102,
      "mon": 1103,
      "xt": 1104,
      "Ġuse": 1105,
      "Ġpower": 1106,
      "Ġins": 1107,
      "Ġet": 1108,
      "Ġobs": 1109,
      "Ġest": 1110,
      "Ġcountry": 1111,
      "aking": 1112,
      "Ġrest": 1113,
      "alk": 1114,
      "ric": 1115,
      "Ġ10": 1116,
      "Ġmin": 1117,
      "Ġsl": 1118,
      "Ġrece": 1119,
      "Ġcase": 1120,
      "Ġpar": 1121,
      "ield": 1122,
      "Ġamong": 1123,
      "Ġgiven": 1124,
      "Ġhowever": 1125,
      "ages": 1126,
      "Ġsom": 1127,
      "Ġleft": 1128,
      "aps": 1129,
      "ĠSir": 1130,
      "fect": 1131,
      "Ġarm": 1132,
      "EN": 1133,
      "Ġchild": 1134,
      "Ġsuff": 1135,
      "aster": 1136,
      "Ġmind": 1137,
      "ook": 1138,
      "lect": 1139,
      "Ġworld": 1140,
      "Ġprodu": 1141,
      "par": 1142,
      "AR": 1143,
      "uthor": 1144,
      "ative": 1145,
      "ĠShe": 1146,
      "Ġlight": 1147,
      ".'": 1148,
      "iew": 1149,
      "oman": 1150,
      "ling": 1151,
      "Ġgra": 1152,
      "ĠDe": 1153,
      "Ġ15": 1154,
      "read": 1155,
      "ah": 1156,
      "ĠAs": 1157,
      "Ġph": 1158,
      "uc": 1159,
      "Ġsubject": 1160,
      "ott": 1161,
      "Ġturn": 1162,
      "Ġhouse": 1163,
      "Ġyear": 1164,
      "ows": 1165,
      "But": 1166,
      "gan": 1167,
      "his": 1168,
      "inci": 1169,
      "ery": 1170,
      "from": 1171,
      "ĠJohn": 1172,
      "Ġwhom": 1173,
      "iam": 1174,
      "ern": 1175,
      "Ġes": 1176,
      "aut": 1177,
      "ually": 1178,
      "den": 1179,
      "Ġyoung": 1180,
      "Ġtaken": 1181,
      "Ġland": 1182,
      "Ġadm": 1183,
      "Ġser": 1184,
      "vent": 1185,
      "Ġsim": 1186,
      "Ġdiffe": 1187,
      "<<": 1188,
      "rence": 1189,
      "ĠThere": 1190,
      "Ġsent": 1191,
      "Ġ12": 1192,
      "Ġhigh": 1193,
      "oint": 1194,
      "Ġdra": 1195,
      "Ġaway": 1196,
      "ax": 1197,
      "Ġside": 1198,
      "Ġlaw": 1199,
      "Ġconsider": 1200,
      "Ġfour": 1201,
      "ior": 1202,
      "Ġdet": 1203,
      "Ġdou": 1204,
      "Ġbelie": 1205,
      "Ġfact": 1206,
      "ude": 1207,
      "ird": 1208,
      "ides": 1209,
      "ts": 1210,
      "ully": 1211,
      "oot": 1212,
      "iness": 1213,
      "ĠĠĠĠĠĠ": 1214,
      "Ġgu": 1215,
      "Ġed": 1216,
      "ĠPr": 1217,
      "eng": 1218,
      "Ġbest": 1219,
      "._": 1220,
      "mb": 1221,
      "OR": 1222,
      "ural": 1223,
      "bed": 1224,
      "Ġonce": 1225,
      "ĠQ": 1226,
      "Ġpri": 1227,
      "ĠIf": 1228,
      "ches": 1229,
      "arn": 1230,
      "aj": 1231,
      "Ġlove": 1232,
      "Ġinde": 1233,
      "gether": 1234,
      "ided": 1235,
      "Ġalways": 1236,
      "Ġcontin": 1237,
      "Ġserv": 1238,
      "Ġbu": 1239,
      "Ġnothing": 1240,
      "Ġdire": 1241,
      "ium": 1242,
      ").": 1243,
      "Ġreturn": 1244,
      "Ġking": 1245,
      "ius": 1246,
      "cul": 1247,
      "Ġseen": 1248,
      "Ġtru": 1249,
      "Ġconst": 1250,
      "Ġfam": 1251,
      "Ġcent": 1252,
      "gr": 1253,
      "ives": 1254,
      "port": 1255,
      "Ġhum": 1256,
      "ison": 1257,
      "pend": 1258,
      "ured": 1259,
      "ians": 1260,
      "ief": 1261,
      "ĠMar": 1262,
      "Ġtri": 1263,
      "Ġ19": 1264,
      "gg": 1265,
      "ĠFor": 1266,
      "Ġeffect": 1267,
      "Ġget": 1268,
      "Ġcle": 1269,
      "Ġcirc": 1270,
      "Ġorder": 1271,
      "ames": 1272,
      "rew": 1273,
      "Ġmod": 1274,
      "app": 1275,
      "Ġnecess": 1276,
      "Ġabove": 1277,
      "lig": 1278,
      "Ġii": 1279,
      "Ġmatter": 1280,
      "!\"": 1281,
      "Ġstate": 1282,
      "ote": 1283,
      "Ġplac": 1284,
      "AL": 1285,
      "ased": 1286,
      "ism": 1287,
      "Ġcannot": 1288,
      "Ġthings": 1289,
      "Ġcur": 1290,
      "Ġ[": 1291,
      "Ġgeneral": 1292,
      "Ġhapp": 1293,
      "Ġcr": 1294,
      "ident": 1295,
      "amp": 1296,
      "ondon": 1297,
      "Ġthus": 1298,
      "acter": 1299,
      "Ġwent": 1300,
      "Ġrel": 1301,
      "Ġinv": 1302,
      "ense": 1303,
      "Ġrequ": 1304,
      "Ġdeath": 1305,
      "Ġche": 1306,
      "Ġothers": 1307,
      "ĠNo": 1308,
      "tern": 1309,
      "veral": 1310,
      "ament": 1311,
      "Ġstre": 1312,
      "Ġmem": 1313,
      "Ġopp": 1314,
      "ature": 1315,
      "ĠAl": 1316,
      "ting": 1317,
      "Ġcare": 1318,
      "Ġappear": 1319,
      "Ġperson": 1320,
      "part": 1321,
      "Ġfa": 1322,
      "Ġbecause": 1323,
      "Ch": 1324,
      "ility": 1325,
      "Ġinterest": 1326,
      "ĠDr": 1327,
      "ĠĠĠĠĠĠĠ": 1328,
      "son": 1329,
      "Ġsoon": 1330,
      "Ġref": 1331,
      "lied": 1332,
      "Ġtem": 1333,
      "ĠKing": 1334,
      "ank": 1335,
      "ross": 1336,
      "estion": 1337,
      "Ġ11": 1338,
      "Ġx": 1339,
      "Ġdone": 1340,
      "irit": 1341,
      "no": 1342,
      "Ġhalf": 1343,
      "Ġtherefore": 1344,
      "Ġpat": 1345,
      "Ġvol": 1346,
      "Ġdec": 1347,
      "ĠHis": 1348,
      "now": 1349,
      "pri": 1350,
      "use": 1351,
      "ists": 1352,
      "Ġaff": 1353,
      "ls": 1354,
      "Ġdoes": 1355,
      "Ġnight": 1356,
      "ĠSe": 1357,
      "Ġtrans": 1358,
      "Ġill": 1359,
      "Ġdays": 1360,
      "AT": 1361,
      "Ġthing": 1362,
      "ĠPro": 1363,
      "well": 1364,
      "wor": 1365,
      "Ġhon": 1366,
      "posed": 1367,
      "Ġwar": 1368,
      "ange": 1369,
      "az": 1370,
      "ĠAt": 1371,
      "ĠSo": 1372,
      "Ġask": 1373,
      "Ġel": 1374,
      "Ġtook": 1375,
      "unt": 1376,
      "ĠTo": 1377,
      "Ġfeel": 1378,
      "Ġfore": 1379,
      "itted": 1380,
      "Ġ^": 1381,
      "Ġauthor": 1382,
      "Ġvis": 1383,
      "Ġ14": 1384,
      "owed": 1385,
      "ĠLe": 1386,
      "Ġmo": 1387,
      "Ġequ": 1388,
      "Ġdiv": 1389,
      "Ġpartic": 1390,
      "ley": 1391,
      "Ġthy": 1392,
      "une": 1393,
      "Ġwhose": 1394,
      "Ġtell": 1395,
      "ĠIs": 1396,
      "Ġbody": 1397,
      "Ġcourse": 1398,
      "haps": 1399,
      "ices": 1400,
      "Ġmeans": 1401,
      "Ġwant": 1402,
      "Ġbel": 1403,
      "ording": 1404,
      "Ġused": 1405,
      "cript": 1406,
      "ched": 1407,
      "ĠOn": 1408,
      "que": 1409,
      "Ġproper": 1410,
      "Ġprov": 1411,
      "ĠSp": 1412,
      "new": 1413,
      "Ġcommon": 1414,
      "ination": 1415,
      "Ġspec": 1416,
      "Ġeyes": 1417,
      ",'": 1418,
      "Ġbetter": 1419,
      "right": 1420,
      "Ġsat": 1421,
      "Ġsecond": 1422,
      "ĠInd": 1423,
      "ung": 1424,
      "Ġir": 1425,
      "Ġbre": 1426,
      "have": 1427,
      "Ġoften": 1428,
      "ae": 1429,
      "che": 1430,
      "Ġmil": 1431,
      "Ġrespect": 1432,
      "Ġsk": 1433,
      "ham": 1434,
      "ane": 1435,
      "Ġval": 1436,
      "Ġfather": 1437,
      "apt": 1438,
      "Ġstand": 1439,
      "ape": 1440,
      "Ġsince": 1441,
      "ets": 1442,
      "Ġseveral": 1443,
      "ccess": 1444,
      "Ġmer": 1445,
      "day": 1446,
      "augh": 1447,
      "Ġnumber": 1448,
      "Ġexam": 1449,
      "Ġobject": 1450,
      "Ġduring": 1451,
      "Ġaccount": 1452,
      "Ġopen": 1453,
      "Ġsol": 1454,
      "Mr": 1455,
      "Ġthemselves": 1456,
      "Ġprinci": 1457,
      "sequ": 1458,
      "ĠBe": 1459,
      "thing": 1460,
      "Ġfr": 1461,
      "Ġalmost": 1462,
      "To": 1463,
      "Ġpublic": 1464,
      "rem": 1465,
      "ĠEngland": 1466,
      "ĠEd": 1467,
      "Ġhard": 1468,
      "ressed": 1469,
      "ship": 1470,
      "asion": 1471,
      "Ġeither": 1472,
      "Ġ13": 1473,
      "uss": 1474,
      "asure": 1475,
      "ted": 1476,
      "olog": 1477,
      "ai": 1478,
      "ĠCl": 1479,
      "Ġfre": 1480,
      "Ġnature": 1481,
      "Ġbrought": 1482,
      "Ġmet": 1483,
      "rench": 1484,
      "entle": 1485,
      "alth": 1486,
      "ission": 1487,
      "dom": 1488,
      "tion": 1489,
      "stand": 1490,
      "ĠPh": 1491,
      "Ġrather": 1492,
      "ĠSh": 1493,
      "ron": 1494,
      "Ġans": 1495,
      "Ġsil": 1496,
      "Ġhands": 1497,
      "resent": 1498,
      "Ġreason": 1499,
      "ĠPar": 1500,
      "ĠLondon": 1501,
      "idence": 1502,
      "ĠNew": 1503,
      "val": 1504,
      "used": 1505,
      "aring": 1506,
      "Ġwords": 1507,
      "Ġbro": 1508,
      "ĠSc": 1509,
      "Ġfeet": 1510,
      "ĠEnglish": 1511,
      "Ġtill": 1512,
      "Ġdoubt": 1513,
      "aves": 1514,
      "Ġbook": 1515,
      "Ġcharacter": 1516,
      "Ġknown": 1517,
      "Ġshort": 1518,
      "IS": 1519,
      "Ġwrit": 1520,
      "Ġsaw": 1521,
      "Ġtrue": 1522,
      "Ġimport": 1523,
      "Ġfull": 1524,
      "bers": 1525,
      "ues": 1526,
      "this": 1527,
      "Ġsix": 1528,
      "tended": 1529,
      "Ġunt": 1530,
      "ards": 1531,
      "Ġdifferent": 1532,
      "orm": 1533,
      "Ġcoll": 1534,
      "empt": 1535,
      "Ġsw": 1536,
      "Ġcap": 1537,
      "Ġport": 1538,
      "Ġori": 1539,
      "Ġdi": 1540,
      "Ġthou": 1541,
      "erved": 1542,
      "Ġstrong": 1543,
      "had": 1544,
      "oul": 1545,
      "Ġfall": 1546,
      "Ġview": 1547,
      "This": 1548,
      "Ġson": 1549,
      "ister": 1550,
      "Ġce": 1551,
      "ring": 1552,
      "Ġprof": 1553,
      "fort": 1554,
      "ĠCon": 1555,
      "ges": 1556,
      "pose": 1557,
      "ality": 1558,
      "fact": 1559,
      "ĠX": 1560,
      "Ġprom": 1561,
      "aim": 1562,
      "Ġinfl": 1563,
      "ĠWill": 1564,
      "Ġface": 1565,
      "co": 1566,
      "Ġfollowing": 1567,
      "ster": 1568,
      "ĠThat": 1569,
      "osed": 1570,
      "Ġste": 1571,
      "ued": 1572,
      "vo": 1573,
      "Ġbeaut": 1574,
      "overed": 1575,
      "18": 1576,
      "ience": 1577,
      "oney": 1578,
      "Ġele": 1579,
      "ash": 1580,
      "Ġabs": 1581,
      "iod": 1582,
      "Ġtreat": 1583,
      "Ġground": 1584,
      "Ġwithin": 1585,
      "Ġheav": 1586,
      "Ġpract": 1587,
      "ploy": 1588,
      "Ġkeep": 1589,
      "Ġjud": 1590,
      "Ġconc": 1591,
      "tr": 1592,
      "Ġten": 1593,
      "ĠWhen": 1594,
      "owers": 1595,
      "ĠUn": 1596,
      "wer": 1597,
      "Ġsays": 1598,
      "Ġtre": 1599,
      "Ġsum": 1600,
      "Ġfur": 1601,
      "gy": 1602,
      "Ġair": 1603,
      "bs": 1604,
      "pit": 1605,
      "oe": 1606,
      "ying": 1607,
      "âĶĢ": 1608,
      "elt": 1609,
      "Ġobt": 1610,
      "Ġnext": 1611,
      "Ġgave": 1612,
      "they": 1613,
      "though": 1614,
      "Ġquite": 1615,
      "ĠYou": 1616,
      "Ġmanner": 1617,
      "oment": 1618,
      "ony": 1619,
      "Ġpol": 1620,
      "ann": 1621,
      "Ġmean": 1622,
      "Ġtown": 1623,
      ">>": 1624,
      "IC": 1625,
      "ached": 1626,
      "Ġsing": 1627,
      "oud": 1628,
      "rance": 1629,
      "ready": 1630,
      "Ġ0": 1631,
      "ruct": 1632,
      "nment": 1633,
      "Ġfell": 1634,
      "oly": 1635,
      "ĠĠĠĠĠĠĠĠĠĠĠĠĠĠĠĠĠĠĠĠĠĠĠĠ": 1636,
      "cial": 1637,
      "ficult": 1638,
      "Ġhor": 1639,
      "fully": 1640,
      "iar": 1641,
      "range": 1642,
      "etimes": 1643,
      "Ġdirect": 1644,
      "Ġround": 1645,
      "cient": 1646,
      "uct": 1647,
      "Ġtold": 1648,
      "oura": 1649,
      "ĠNor": 1650,
      "Ġhome": 1651,
      "ession": 1652,
      "Ġprob": 1653,
      "Ġtogether": 1654,
      "Ġwind": 1655,
      "chool": 1656,
      "Ġfree": 1657,
      "were": 1658,
      "Ġremark": 1659,
      "alt": 1660,
      "akes": 1661,
      "Ġheard": 1662,
      "Ġfin": 1663,
      "We": 1664,
      "ĠBrit": 1665,
      "Ġmed": 1666,
      "Ġsuccess": 1667,
      "Ġut": 1668,
      "Ġcases": 1669,
      "Ġ20": 1670,
      "Ġfav": 1671,
      "Ġtimes": 1672,
      "Ġve": 1673,
      "my": 1674,
      "Ġparts": 1675,
      "who": 1676,
      "enty": 1677,
      "undred": 1678,
      "omen": 1679,
      "itions": 1680,
      "iet": 1681,
      "ustr": 1682,
      "irm": 1683,
      "Ġord": 1684,
      "ics": 1685,
      "Ġexper": 1686,
      "their": 1687,
      "reg": 1688,
      "Ġmeet": 1689,
      "Ġwhite": 1690,
      "ford": 1691,
      "arch": 1692,
      "ĠMrs": 1693,
      "Ġitself": 1694,
      "Ġorigin": 1695,
      "meric": 1696,
      "Ġneed": 1697,
      "ized": 1698,
      "rely": 1699,
      "ĠPl": 1700,
      "sp": 1701,
      "Ġleast": 1702,
      "stem": 1703,
      "Ġwhether": 1704,
      "oice": 1705,
      "lished": 1706,
      "Ġbeh": 1707,
      "ĠAd": 1708,
      "Ġter": 1709,
      "you": 1710,
      "let": 1711,
      "inary": 1712,
      "atch": 1713,
      "'ll": 1714,
      "oms": 1715,
      "Ġformer": 1716,
      "Ġparticular": 1717,
      "medi": 1718,
      "Ġindeed": 1719,
      "like": 1720,
      "ciety": 1721,
      "Ġcause": 1722,
      "Ġuntil": 1723,
      "them": 1724,
      "orning": 1725,
      "iter": 1726,
      "Ġpoor": 1727,
      "ething": 1728,
      "Ġanim": 1729,
      "Ġ,": 1730,
      "ek": 1731,
      "Ġbus": 1732,
      "iving": 1733,
      "anger": 1734,
      "Ġcomple": 1735,
      "ĠBy": 1736,
      "owing": 1737,
      "Ġsign": 1738,
      "Ġmis": 1739,
      "Ġblood": 1740,
      "ots": 1741,
      "ection": 1742,
      "ĠFrench": 1743,
      "aining": 1744,
      "Ġpos": 1745,
      "ĠBr": 1746,
      "Ġver": 1747,
      "Ġquestion": 1748,
      "him": 1749,
      "Ġhist": 1750,
      "af": 1751,
      "ified": 1752,
      "Ġmark": 1753,
      "âĶĢâĶĢ": 1754,
      "ledge": 1755,
      "Ġinf": 1756,
      "Ġterm": 1757,
      "CH": 1758,
      "Ġlead": 1759,
      "Ġspirit": 1760,
      "Ġeas": 1761,
      "what": 1762,
      "ising": 1763,
      "Ġwa": 1764,
      "Ġdest": 1765,
      "ishop": 1766,
      "10": 1767,
      "inion": 1768,
      "Ġearth": 1769,
      "ize": 1770,
      "idd": 1771,
      "Ġsuper": 1772,
      "inct": 1773,
      "St": 1774,
      "pre": 1775,
      "ats": 1776,
      "itu": 1777,
      "ey": 1778,
      "UR": 1779,
      "Ġlab": 1780,
      "Ġhope": 1781,
      "ught": 1782,
      "Ġmoment": 1783,
      "pper": 1784,
      "ger": 1785,
      "ength": 1786,
      "reen": 1787,
      "Ġlib": 1788,
      "Ġdev": 1789,
      "rs": 1790,
      "oke": 1791,
      "Ġchief": 1792,
      "Ġenough": 1793,
      "Ġreceived": 1794,
      "Ġdon": 1795,
      "ement": 1796,
      "Ġperhaps": 1797,
      "Ġperfect": 1798,
      "ples": 1799,
      "Ġresult": 1800,
      "Ġgentle": 1801,
      "Ġappro": 1802,
      "IT": 1803,
      "there": 1804,
      "Ġmother": 1805,
      "aving": 1806,
      "duced": 1807,
      "Ġhy": 1808,
      "Ġbelieve": 1809,
      "Ġdr": 1810,
      "ina": 1811,
      "ering": 1812,
      "Ġcircum": 1813,
      "arent": 1814,
      "Ġdifficult": 1815,
      "Ġcal": 1816,
      "mit": 1817,
      "Ġlay": 1818,
      "where": 1819,
      "Ġru": 1820,
      "Ġide": 1821,
      "Ġoccasion": 1822,
      "ume": 1823,
      "ision": 1824,
      "Ġer": 1825,
      "Ġregard": 1826,
      "Ġnecessary": 1827,
      "Ġhold": 1828,
      "ining": 1829,
      "Ġgover": 1830,
      "illed": 1831,
      "Ġsun": 1832,
      "Ġla": 1833,
      ".]": 1834,
      "Ġexcept": 1835,
      "Ġemploy": 1836,
      "Ġfine": 1837,
      "bl": 1838,
      "Ġdef": 1839,
      "cil": 1840,
      "pped": 1841,
      "Ġgot": 1842,
      "Ġspeak": 1843,
      "ĠEx": 1844,
      "Ġstud": 1845,
      "ze": 1846,
      "Ġmonth": 1847,
      "ien": 1848,
      "Ġchurch": 1849,
      "Ġdark": 1850,
      "Ġexist": 1851,
      "Ġbar": 1852,
      "Ġdeg": 1853,
      "rie": 1854,
      "That": 1855,
      "Ġred": 1856,
      "urs": 1857,
      "arl": 1858,
      "Ġaccording": 1859,
      "ilt": 1860,
      "Ġexpl": 1861,
      "Ġaffect": 1862,
      "ney": 1863,
      "Ġhundred": 1864,
      "Ġperiod": 1865,
      "eter": 1866,
      "cing": 1867,
      "As": 1868,
      "ĠWhat": 1869,
      "cell": 1870,
      "Ġtruth": 1871,
      "ones": 1872,
      "Ġchildren": 1873,
      "Ġgoing": 1874,
      "Ġincre": 1875,
      "Ġclose": 1876,
      "ounds": 1877,
      "Ġbecome": 1878,
      "cially": 1879,
      "Ġmus": 1880,
      "ĠGe": 1881,
      "No": 1882,
      "Ġcut": 1883,
      "aper": 1884,
      "Ġeng": 1885,
      "Ġalready": 1886,
      "rect": 1887,
      "ye": 1888,
      "ries": 1889,
      "do": 1890,
      "arr": 1891,
      "iment": 1892,
      "Ġbene": 1893,
      "eneral": 1894,
      "LE": 1895,
      "There": 1896,
      "ĠOr": 1897,
      "ands": 1898,
      "ĠCo": 1899,
      "Ġseems": 1900,
      "Ġseemed": 1901,
      "Ġclass": 1902,
      "Ġreal": 1903,
      "Ġdecl": 1904,
      "Ġthee": 1905,
      "ĠChurch": 1906,
      "Ġdeep": 1907,
      "Ġincl": 1908,
      "Ġexc": 1909,
      "Ġlatter": 1910,
      "ĠAmeric": 1911,
      "irt": 1912,
      "Ġknew": 1913,
      "vol": 1914,
      "stances": 1915,
      "iously": 1916,
      "Ġoffic": 1917,
      "Ġletter": 1918,
      "Ġwoman": 1919,
      "Ġdise": 1920,
      "ĠOF": 1921,
      "Ġrun": 1922,
      "An": 1923,
      "AP": 1924,
      "Ġheld": 1925,
      "Ġline": 1926,
      "ference": 1927,
      "els": 1928,
      "Ġfive": 1929,
      "Ġswe": 1930,
      "ĠAll": 1931,
      "ribut": 1932,
      "Ġhel": 1933,
      "Ġroom": 1934,
      "ĠTHE": 1935,
      "iful": 1936,
      "Ġproceed": 1937,
      "sc": 1938,
      "Ġsea": 1939,
      "face": 1940,
      "You": 1941,
      "erve": 1942,
      "Ġpassed": 1943,
      "ression": 1944,
      "Ġfire": 1945,
      "then": 1946,
      "Ġrelig": 1947,
      "12": 1948,
      "ork": 1949,
      "isc": 1950,
      "wo": 1951,
      "agn": 1952,
      "atic": 1953,
      "ĠHen": 1954,
      "TER": 1955,
      "Ġ=": 1956,
      "Ġund": 1957,
      "16": 1958,
      "lor": 1959,
      "Ġ25": 1960,
      "Ġage": 1961,
      "angu": 1962,
      "cribed": 1963,
      "Ġpay": 1964,
      "Ġfort": 1965,
      "Ġhuman": 1966,
      "17": 1967,
      "Ġaccom": 1968,
      "Ġleg": 1969,
      "Ġfaith": 1970,
      "15": 1971,
      "uck": 1972,
      "rop": 1973,
      "Ġmorning": 1974,
      "Ġfig": 1975,
      "Ġacqu": 1976,
      "Ġtowards": 1977,
      "ected": 1978,
      "For": 1979,
      "uke": 1980,
      "inc": 1981,
      "ember": 1982,
      "Ġlate": 1983,
      "go": 1984,
      "Ġbur": 1985,
      "Ġdut": 1986,
      "Ġmention": 1987,
      "Ġlength": 1988,
      "itude": 1989,
      "Ġclear": 1990,
      "Ġsometimes": 1991,
      "Ġboy": 1992,
      "Ġship": 1993,
      "will": 1994,
      "oured": 1995,
      "Ġann": 1996,
      "Ġblack": 1997,
      "iol": 1998,
      "otion": 1999,
      "more": 2000,
      "Ġlooked": 2001,
      "Ġsomething": 2002,
      "ises": 2003,
      "lo": 2004,
      "Ġcity": 2005,
      "Ġexpect": 2006,
      "Ġgenerally": 2007,
      "Ġalone": 2008,
      "ivers": 2009,
      "inal": 2010,
      "Ġbegin": 2011,
      "str": 2012,
      "ĠHer": 2013,
      "ounded": 2014,
      "Ġasked": 2015,
      "Ġfamily": 2016,
      "gen": 2017,
      "Ġmoney": 2018,
      "por": 2019,
      "On": 2020,
      "Ġprev": 2021,
      "been": 2022,
      "Ġbring": 2023,
      "ead": 2024,
      "Ġmyself": 2025,
      "Ġwood": 2026,
      "hib": 2027,
      "Ġfrequ": 2028,
      "usion": 2029,
      "Ġfair": 2030,
      "Ġoper": 2031,
      "Ġsystem": 2032,
      "Ġentire": 2033,
      "Ġwife": 2034,
      "inter": 2035,
      "wise": 2036,
      "Ġable": 2037,
      "ĠZ": 2038,
      "poss": 2039,
      "yn": 2040,
      "under": 2041,
      "Ġ24": 2042,
      "comm": 2043,
      "sec": 2044,
      "ti": 2045,
      "Ġ22": 2046,
      "bit": 2047,
      "ilar": 2048,
      "Ġpersons": 2049,
      "ĠCol": 2050,
      "eds": 2051,
      "hy": 2052,
      "ĠMan": 2053,
      "ĠWilliam": 2054,
      "Ġsle": 2055,
      "Ġvarious": 2056,
      "position": 2057,
      "Ġpossible": 2058,
      "Ġleave": 2059,
      "Ġpurpose": 2060,
      "Ġnearly": 2061,
      "Ġearly": 2062,
      "ĠChar": 2063,
      "bo": 2064,
      "Ġnatural": 2065,
      "Ġgreater": 2066,
      "ĠHow": 2067,
      "ĠTr": 2068,
      "Ġaw": 2069,
      "Ġfelt": 2070,
      "cious": 2071,
      "tic": 2072,
      "Ġdear": 2073,
      "na": 2074,
      "Ġhear": 2075,
      "Ġsuffic": 2076,
      "min": 2077,
      "Ġalong": 2078,
      "Ġwall": 2079,
      "aughter": 2080,
      "Ġsac": 2081,
      "pecially": 2082,
      "lf": 2083,
      "itten": 2084,
      "Ġarri": 2085,
      "raph": 2086,
      "Ġconsequ": 2087,
      "Ġaction": 2088,
      "would": 2089,
      "Ġlim": 2090,
      "idge": 2091,
      "Ġimmedi": 2092,
      "ixed": 2093,
      "Ġ30": 2094,
      "iting": 2095,
      "Ġpriv": 2096,
      "ken": 2097,
      "tered": 2098,
      "attle": 2099,
      "Ġ23": 2100,
      "cont": 2101,
      "14": 2102,
      "Ġdoor": 2103,
      "ole": 2104,
      "Ġfurther": 2105,
      "mn": 2106,
      "Ġbecame": 2107,
      "Ġmor": 2108,
      "erc": 2109,
      "Ġcommand": 2110,
      "Ġmount": 2111,
      "Ġopinion": 2112,
      "ils": 2113,
      "ator": 2114,
      "ales": 2115,
      "Ġwit": 2116,
      "EL": 2117,
      "amm": 2118,
      "Ġgir": 2119,
      "yl": 2120,
      "bur": 2121,
      "Ġlive": 2122,
      "ev": 2123,
      "ences": 2124,
      "ĠMay": 2125,
      "ument": 2126,
      "Ġplaced": 2127,
      "Ġpost": 2128,
      "Ġmaking": 2129,
      "Ġought": 2130,
      "ĠMiss": 2131,
      "Ġwond": 2132,
      "ords": 2133,
      "When": 2134,
      "13": 2135,
      "idered": 2136,
      "Ġpray": 2137,
      "What": 2138,
      "ested": 2139,
      "she": 2140,
      "OL": 2141,
      "formed": 2142,
      "Ġpie": 2143,
      "Ġthous": 2144,
      "Ġkept": 2145,
      "lled": 2146,
      "Ġplay": 2147,
      "reet": 2148,
      "semb": 2149,
      "Ġeff": 2150,
      "can": 2151,
      "Ġprot": 2152,
      "Ġdead": 2153,
      "uous": 2154,
      "Ġbegan": 2155,
      "ĠGr": 2156,
      "ĠThese": 2157,
      "US": 2158,
      "Ġsatis": 2159,
      "Ġfear": 2160,
      "Ġworth": 2161,
      "Ġforce": 2162,
      "IL": 2163,
      "oor": 2164,
      "ION": 2165,
      "Ġpast": 2166,
      "Ġpain": 2167,
      "Ġeye": 2168,
      "She": 2169,
      "cend": 2170,
      "Ġstri": 2171,
      "orge": 2172,
      "orts": 2173,
      "Ġlow": 2174,
      "Ġshow": 2175,
      "Ġbuild": 2176,
      "Ġpen": 2177,
      "esty": 2178,
      "erman": 2179,
      "Ġbra": 2180,
      "Ġlearn": 2181,
      "Ġlost": 2182,
      "Ġtwenty": 2183,
      "Ġcarried": 2184,
      "Ġbrother": 2185,
      "ĠAb": 2186,
      "anged": 2187,
      "Ġinflu": 2188,
      "when": 2189,
      "Ġdem": 2190,
      "Ġspecies": 2191,
      "ĠĠĠĠĠĠĠĠĠĠĠĠĠĠĠĠĠĠĠĠĠĠĠĠĠĠĠĠĠĠĠĠ": 2192,
      "Ġschool": 2193,
      "pid": 2194,
      "stance": 2195,
      "nal": 2196,
      "ĠThen": 2197,
      "Ġsense": 2198,
      "pan": 2199,
      "ral": 2200,
      "Ġestab": 2201,
      "cle": 2202,
      "Ġbes": 2203,
      "amed": 2204,
      "ms": 2205,
      "Ġrepresent": 2206,
      "ĠBl": 2207,
      "ata": 2208,
      "--------": 2209,
      "Ġturned": 2210,
      "deg": 2211,
      "Ġgold": 2212,
      "At": 2213,
      "ED": 2214,
      "ethod": 2215,
      "antly": 2216,
      "Ġfoot": 2217,
      "If": 2218,
      "hab": 2219,
      "airs": 2220,
      "ĠFrance": 2221,
      "ires": 2222,
      "ler": 2223,
      "Ġappears": 2224,
      "vere": 2225,
      "pond": 2226,
      "Ġfriends": 2227,
      "Ġobserv": 2228,
      "urope": 2229,
      "Ġpossess": 2230,
      "rary": 2231,
      "Ġenem": 2232,
      "ourt": 2233,
      "Ġsure": 2234,
      "Ġpop": 2235,
      "omas": 2236,
      "Ġstra": 2237,
      "uted": 2238,
      "Ġpeace": 2239,
      "acy": 2240,
      "ox": 2241,
      "Ġdied": 2242,
      "ĠSee": 2243,
      "Ġhath": 2244,
      "Ġ28": 2245,
      "Ġty": 2246,
      "inn": 2247,
      "eb": 2248,
      "ulation": 2249,
      "Ġ26": 2250,
      "Ġwish": 2251,
      "Ġanswer": 2252,
      "Ġsold": 2253,
      "king": 2254,
      "iety": 2255,
      "Ġscar": 2256,
      "ational": 2257,
      "Ġsus": 2258,
      "aul": 2259,
      "Ġcommun": 2260,
      "some": 2261,
      "Ġcold": 2262,
      "aff": 2263,
      "Ġvoice": 2264,
      "uly": 2265,
      "cons": 2266,
      "20": 2267,
      "Ġprobably": 2268,
      "Ġfif": 2269,
      "Ġstat": 2270,
      "Ġhour": 2271,
      "Ġformed": 2272,
      "Ġwalk": 2273,
      "Ġhelp": 2274,
      "19": 2275,
      "ivid": 2276,
      "Ġacid": 2277,
      "mp": 2278,
      "ĠPe": 2279,
      "ĠEs": 2280,
      "wing": 2281,
      "ald": 2282,
      "Ġhig": 2283,
      "bour": 2284,
      "gu": 2285,
      "Ġ27": 2286,
      "Ġconn": 2287,
      "Ġbad": 2288,
      "âĢ": 2289,
      "rupt": 2290,
      "aste": 2291,
      "ĠMy": 2292,
      "Ġattempt": 2293,
      "Ġconv": 2294,
      "ĠWith": 2295,
      "stit": 2296,
      "cent": 2297,
      "uses": 2298,
      "Ġsoul": 2299,
      "kn": 2300,
      "Ġhistory": 2301,
      "Ġcast": 2302,
      "oved": 2303,
      "Ġgen": 2304,
      "Ġquant": 2305,
      "iction": 2306,
      "Ġcoun": 2307,
      "Ġknowledge": 2308,
      "utes": 2309,
      "ops": 2310,
      "ouses": 2311,
      "Ġdeterm": 2312,
      "Ġconcl": 2313,
      "ĠHouse": 2314,
      "THE": 2315,
      "Ġmiles": 2316,
      "ĠBritish": 2317,
      "AS": 2318,
      "Ġsud": 2319,
      "Ġsitu": 2320,
      "Ġsal": 2321,
      "Ġlady": 2322,
      "erous": 2323,
      "iff": 2324,
      "AM": 2325,
      "Ġimpro": 2326,
      "Ġworks": 2327,
      "ĠII": 2328,
      "Ġdri": 2329,
      "ĠChristian": 2330,
      "Ġservice": 2331,
      "Ġdeli": 2332,
      "rying": 2333,
      "Ġden": 2334,
      "ruction": 2335,
      "yond": 2336,
      "ND": 2337,
      "head": 2338,
      "Ġunto": 2339,
      "ear": 2340,
      "iddle": 2341,
      "Ġattention": 2342,
      "Ġplant": 2343,
      "ĠHenry": 2344,
      "after": 2345,
      "RE": 2346,
      "Ġriver": 2347,
      "ingu": 2348,
      "Ġforth": 2349,
      "Ġintro": 2350,
      "istr": 2351,
      "iled": 2352,
      "bes": 2353,
      "Ġdoct": 2354,
      "Ġves": 2355,
      "Ġsepar": 2356,
      "Ġtalk": 2357,
      "appe": 2358,
      "upon": 2359,
      "set": 2360,
      "cience": 2361,
      "ills": 2362,
      "Ġcourt": 2363,
      "ING": 2364,
      "Ġeight": 2365,
      "Ġbelong": 2366,
      "pal": 2367,
      "Ġwhy": 2368,
      "spe": 2369,
      "ams": 2370,
      "ency": 2371,
      "itting": 2372,
      "Ġcontinued": 2373,
      "acc": 2374,
      "iver": 2375,
      "Ġlie": 2376,
      "Ġbed": 2377,
      "des": 2378,
      "Ġcomplete": 2379,
      "Ġstood": 2380,
      "ĠPer": 2381,
      "roy": 2382,
      "Ġalthough": 2383,
      "Ġquar": 2384,
      "long": 2385,
      "ĠLet": 2386,
      "11": 2387,
      "uded": 2388,
      "Ġoccur": 2389,
      "ĠCor": 2390,
      "Ġespecially": 2391,
      "Ġbusiness": 2392,
      "house": 2393,
      "aries": 2394,
      "ĠOne": 2395,
      "nor": 2396,
      "cription": 2397,
      "With": 2398,
      "Ġlord": 2399,
      "Ġpict": 2400,
      "aught": 2401,
      "Ġdanger": 2402,
      "Ġneg": 2403,
      "Ġlater": 2404,
      "Ġdisease": 2405,
      "ferred": 2406,
      "come": 2407,
      "ĠComm": 2408,
      "has": 2409,
      "ift": 2410,
      "ĠAm": 2411,
      "Ġconduct": 2412,
      "Ġgone": 2413,
      "Ġappeared": 2414,
      "Ġsudden": 2415,
      "Ġsens": 2416,
      "aken": 2417,
      "Ġcolour": 2418,
      "ĠMaj": 2419,
      "arden": 2420,
      "âĶĤ": 2421,
      "ively": 2422,
      "Ġ29": 2423,
      "ĠBar": 2424,
      "Ġfail": 2425,
      "ĠMed": 2426,
      "ha": 2427,
      "They": 2428,
      "ointed": 2429,
      "fend": 2430,
      "Ġposition": 2431,
      "Of": 2432,
      "Ġimportant": 2433,
      "Ġunderstand": 2434,
      "umb": 2435,
      "ites": 2436,
      "uff": 2437,
      "Ġafterwards": 2438,
      "Ġlangu": 2439,
      "Ġsecret": 2440,
      "orrow": 2441,
      "ĠQu": 2442,
      "Ġoccup": 2443,
      "Ġthird": 2444,
      "ĠGover": 2445,
      "Ġhours": 2446,
      "Ġchange": 2447,
      "Ġsimilar": 2448,
      "aged": 2449,
      "ror": 2450,
      "Ġancient": 2451,
      "velop": 2452,
      "Ġfac": 2453,
      "side": 2454,
      "band": 2455,
      "opt": 2456,
      "ĠAug": 2457,
      "Ġdep": 2458,
      "Ġslight": 2459,
      "phe": 2460,
      "culiar": 2461,
      "joy": 2462,
      "liament": 2463,
      "riage": 2464,
      "Ġthousand": 2465,
      "Ġobtained": 2466,
      "Ġelse": 2467,
      "Ġfat": 2468,
      "Ġsupport": 2469,
      "Ġvill": 2470,
      "itary": 2471,
      "Ġwomen": 2472,
      "Ġfavour": 2473,
      "Ġherself": 2474,
      "gment": 2475,
      "'m": 2476,
      "ĠEurope": 2477,
      "Ġsett": 2478,
      "Ġlaid": 2479,
      "Ġroad": 2480,
      "Ġmaster": 2481,
      "resh": 2482,
      "Ġcondition": 2483,
      "rey": 2484,
      "anc": 2485,
      "ital": 2486,
      "reme": 2487,
      "Ġmove": 2488,
      "iii": 2489,
      "Ġhorse": 2490,
      "eg": 2491,
      "Ġwritten": 2492,
      "Ġreally": 2493,
      "Ġamount": 2494,
      "cal": 2495,
      "Ġrock": 2496,
      "Ġda": 2497,
      "ests": 2498,
      "ĠLady": 2499,
      "Ġconsidered": 2500,
      "Ġimag": 2501,
      "Ġexcl": 2502,
      "oes": 2503,
      "gl": 2504,
      "ĠColl": 2505,
      "RO": 2506,
      "Ġlonger": 2507,
      "Ġtrou": 2508,
      "Ġstreng": 2509,
      "Ġtlie": 2510,
      "Ġneither": 2511,
      "Ġparty": 2512,
      "ask": 2513,
      "ov": 2514,
      "Ġattack": 2515,
      "Ġplan": 2516,
      "ns": 2517,
      "Ġbeautiful": 2518,
      "Ġobserved": 2519,
      "imate": 2520,
      "Ġsurface": 2521,
      "Ġarms": 2522,
      "ĠOf": 2523,
      "teen": 2524,
      "Ġmater": 2525,
      "may": 2526,
      "Ġcompl": 2527,
      "Ġidea": 2528,
      "gress": 2529,
      "Ġbran": 2530,
      "Ġadvant": 2531,
      "Ġplaces": 2532,
      "ĠRob": 2533,
      "000": 2534,
      "So": 2535,
      "than": 2536,
      "formation": 2537,
      "ging": 2538,
      "ush": 2539,
      "ĠAct": 2540,
      "Ġlar": 2541,
      "add": 2542,
      "atever": 2543,
      "Ġder": 2544,
      "iers": 2545,
      "oted": 2546,
      "Ġfield": 2547,
      "Ġproduced": 2548,
      "Ġfront": 2549,
      "TH": 2550,
      "portion": 2551,
      "Ġsend": 2552,
      "Ġcreat": 2553,
      "pers": 2554,
      "ivil": 2555,
      "great": 2556,
      "Ġanything": 2557,
      "Ġtaking": 2558,
      "ĠCar": 2559,
      "Ġadded": 2560,
      "Ġrepe": 2561,
      "Ġartic": 2562,
      "Ġconsiderable": 2563,
      "Ġcapt": 2564,
      "ouch": 2565,
      "Ġpret": 2566,
      "Ġsort": 2567,
      "ux": 2568,
      "Ġbehind": 2569,
      "Ġfollowed": 2570,
      "Ġvessel": 2571,
      "Ġcross": 2572,
      "Ġdesign": 2573,
      "Ġfru": 2574,
      "Ġdegree": 2575,
      "Ġready": 2576,
      "30": 2577,
      "Ġplain": 2578,
      "Ġsight": 2579,
      "ĠGree": 2580,
      "Ar": 2581,
      "Ġpaper": 2582,
      "ĠCan": 2583,
      "Ġvalue": 2584,
      "Ġoppos": 2585,
      "Ã©": 2586,
      "Ġinj": 2587,
      "night": 2588,
      "Ġnone": 2589,
      "Ġlist": 2590,
      "Ġsuc": 2591,
      "ĠJames": 2592,
      "Ġsir": 2593,
      "Ġbeyond": 2594,
      "Ġgrow": 2595,
      "Ġhonour": 2596,
      "Ġreturned": 2597,
      "Ġsin": 2598,
      "Ġforms": 2599,
      "Ġtho": 2600,
      "Ġsound": 2601,
      "Ġesc": 2602,
      "omin": 2603,
      "Ġmist": 2604,
      "Ġenc": 2605,
      "aly": 2606,
      "Ġemb": 2607,
      "Ġleaves": 2608,
      "pet": 2609,
      "lex": 2610,
      "Ġremain": 2611,
      "gar": 2612,
      "orough": 2613,
      "how": 2614,
      "Ġhealth": 2615,
      "lin": 2616,
      "ograph": 2617,
      "Ġneigh": 2618,
      "Ġmonths": 2619,
      "isted": 2620,
      "Ġlower": 2621,
      "possible": 2622,
      "Ġthick": 2623,
      "Ġbecom": 2624,
      "Ġarmy": 2625,
      "AC": 2626,
      "Ġconce": 2627,
      "Ġliving": 2628,
      "athe": 2629,
      "hood": 2630,
      "tee": 2631,
      "race": 2632,
      "ĠWest": 2633,
      "enn": 2634,
      "Ġappearance": 2635,
      "ustom": 2636,
      "ĠGerman": 2637,
      "Ġduty": 2638,
      "ibus": 2639,
      "Ġbear": 2640,
      "Ġpal": 2641,
      "into": 2642,
      "pany": 2643,
      "Ġcop": 2644,
      "Ġprevent": 2645,
      "Ġinfluence": 2646,
      "ĠFran": 2647,
      "car": 2648,
      "aching": 2649,
      "Ġ/": 2650,
      "uture": 2651,
      "Ġled": 2652,
      "Ġsqu": 2653,
      "eness": 2654,
      "Ġtemper": 2655,
      "Ġviol": 2656,
      "Ġstart": 2657,
      "ividual": 2658,
      "Ġvisit": 2659,
      "50": 2660,
      "Ġwild": 2661,
      "Ġcoming": 2662,
      "Ġprocess": 2663,
      "ogn": 2664,
      "Ġpeculiar": 2665,
      "ĠQue": 2666,
      "lands": 2667,
      "Ġdue": 2668,
      "Ġstru": 2669,
      "dis": 2670,
      "pic": 2671,
      "Ġpra": 2672,
      "Ġself": 2673,
      "respond": 2674,
      "My": 2675,
      "should": 2676,
      "Ġpleas": 2677,
      "Ġtit": 2678,
      "Ġequal": 2679,
      "Ġprep": 2680,
      "Ġevening": 2681,
      "ories": 2682,
      "cer": 2683,
      "iments": 2684,
      "ancy": 2685,
      "time": 2686,
      "ĠNow": 2687,
      "Ġdeal": 2688,
      "ĠThomas": 2689,
      "Ġhus": 2690,
      "Ġimmediately": 2691,
      "ored": 2692,
      "Ġdistance": 2693,
      "ma": 2694,
      "Ġresol": 2695,
      "Ġmethod": 2696,
      "Ġjo": 2697,
      "Ġscarce": 2698,
      "Ġexpress": 2699,
      "Ġmass": 2700,
      "ilos": 2701,
      "ospit": 2702,
      "bon": 2703,
      "mitted": 2704,
      "Ġattend": 2705,
      "Ġur": 2706,
      "Ġgovernment": 2707,
      "Ġsugg": 2708,
      "off": 2709,
      "irty": 2710,
      "Ġgirl": 2711,
      "cr": 2712,
      "Ġcertainly": 2713,
      "ously": 2714,
      "ĠGu": 2715,
      "Al": 2716,
      "ingly": 2717,
      "ology": 2718,
      "Ġquick": 2719,
      "ĠCapt": 2720,
      "Ġdie": 2721,
      "Ġtable": 2722,
      "ĠFl": 2723,
      "Ġportion": 2724,
      "Ġmentioned": 2725,
      "Ġrich": 2726,
      "pass": 2727,
      "ĠGeorge": 2728,
      "lected": 2729,
      "rough": 2730,
      "body": 2731,
      "Ġwonder": 2732,
      "ĠNot": 2733,
      "olic": 2734,
      "Ġexec": 2735,
      "Ġtrust": 2736,
      "ĠMe": 2737,
      "vey": 2738,
      "iles": 2739,
      "Ġdistinct": 2740,
      ",-": 2741,
      "_.": 2742,
      "Ġorgan": 2743,
      "aded": 2744,
      "Ġsingle": 2745,
      "iding": 2746,
      "Ġcomb": 2747,
      "Ġnotice": 2748,
      "Ġsufficient": 2749,
      "reed": 2750,
      "ray": 2751,
      "mber": 2752,
      "ENT": 2753,
      "Ġtend": 2754,
      "Ġtest": 2755,
      "Ġpress": 2756,
      "Be": 2757,
      "Ġgrand": 2758,
      "ET": 2759,
      "Ġmakes": 2760,
      "ĠĠĠĠĠĠĠĠĠ": 2761,
      "Ġaround": 2762,
      "icated": 2763,
      "Ġstep": 2764,
      "oo": 2765,
      "ĠCharles": 2766,
      "ĠFrom": 2767,
      "Ġvirt": 2768,
      "Ġinqu": 2769,
      "Ġhair": 2770,
      "Ġsoft": 2771,
      "anced": 2772,
      "Ġgives": 2773,
      "char": 2774,
      "ĠYork": 2775,
      "Ġexcell": 2776,
      "Ġdepart": 2777,
      "Ġemployed": 2778,
      "lies": 2779,
      "atis": 2780,
      "enth": 2781,
      "rel": 2782,
      "ainted": 2783,
      "Ġgreen": 2784,
      "Ġpet": 2785,
      "OM": 2786,
      "known": 2787,
      "ui": 2788,
      "ishes": 2789,
      "ped": 2790,
      "Ġheat": 2791,
      "Ġfood": 2792,
      "Ġarch": 2793,
      "Ġpun": 2794,
      "24": 2795,
      "Ġforward": 2796,
      "wered": 2797,
      "Ġintell": 2798,
      "Ġtrees": 2799,
      "Ġplants": 2800,
      "Ġmur": 2801,
      "ĠDo": 2802,
      "ourse": 2803,
      "Ġentirely": 2804,
      "Ġfurn": 2805,
      "soci": 2806,
      "Ġcircumstances": 2807,
      "shire": 2808,
      "oyal": 2809,
      "ĠScot": 2810,
      "said": 2811,
      "25": 2812,
      "Ġphys": 2813,
      "Ġsweet": 2814,
      "ify": 2815,
      "ege": 2816,
      "ille": 2817,
      "Ġheaven": 2818,
      "Ġexhib": 2819,
      "Ġft": 2820,
      "llow": 2821,
      "sub": 2822,
      "Ġdaughter": 2823,
      "habit": 2824,
      "amb": 2825,
      "ternal": 2826,
      "Ġauthority": 2827,
      "Ġclaim": 2828,
      "een": 2829,
      "ĠHist": 2830,
      "ĠChe": 2831,
      "road": 2832,
      "certain": 2833,
      "rict": 2834,
      "ĠAfter": 2835,
      "Ġmouth": 2836,
      "Ġrequired": 2837,
      "bet": 2838,
      "Ġpoet": 2839,
      "'ve": 2840,
      "Ġgrace": 2841,
      "ification": 2842,
      "rees": 2843,
      "Ġdepend": 2844,
      "Ġiron": 2845,
      "Ġaf": 2846,
      "ilosop": 2847,
      "Ġprison": 2848,
      "ica": 2849,
      "Ġid": 2850,
      "Ġdel": 2851,
      "itable": 2852,
      "By": 2853,
      "Ġbelow": 2854,
      "ĠCount": 2855,
      "Ġdro": 2856,
      "Ġextra": 2857,
      "Ġpot": 2858,
      "Ġquantity": 2859,
      "Ġfrequently": 2860,
      "Ġpaid": 2861,
      "rid": 2862,
      "lling": 2863,
      "ening": 2864,
      "Ġdesire": 2865,
      "ĠSociety": 2866,
      "Ġobli": 2867,
      "Ġenjoy": 2868,
      "Ġreport": 2869,
      "Ġtro": 2870,
      "Ġfol": 2871,
      "ned": 2872,
      "OT": 2873,
      "ĠJune": 2874,
      "ĠHar": 2875,
      "Ġweak": 2876,
      "room": 2877,
      "Ġadopt": 2878,
      "aled": 2879,
      "Ġenter": 2880,
      "po": 2881,
      "sy": 2882,
      "Ġdim": 2883,
      "Ġhot": 2884,
      "othing": 2885,
      "hold": 2886,
      "Ġ184": 2887,
      "Ġusual": 2888,
      "Oh": 2889,
      "sion": 2890,
      "Ġago": 2891,
      "Ġreplied": 2892,
      "Ġarg": 2893,
      "thern": 2894,
      "Then": 2895,
      "âĢķ": 2896,
      "Ġdescribed": 2897,
      "ĠCourt": 2898,
      "Ġmagn": 2899,
      "ublic": 2900,
      "ores": 2901,
      "Ġsucceed": 2902,
      "Ġcost": 2903,
      "Ġbit": 2904,
      "Ġoffice": 2905,
      "la": 2906,
      "Ġpleasure": 2907,
      "ĠGeneral": 2908,
      "Ġsize": 2909,
      "Ġhappy": 2910,
      "Ġdistingu": 2911,
      "Ġweek": 2912,
      "col": 2913,
      "place": 2914,
      "Ġnoble": 2915,
      "anted": 2916,
      "mo": 2917,
      "ere": 2918,
      "Ġeasily": 2919,
      "Ġnorth": 2920,
      "Ġsuppose": 2921,
      "Ġpure": 2922,
      "Ġconstit": 2923,
      "pir": 2924,
      "Ġaccept": 2925,
      "vi": 2926,
      "ĠNorth": 2927,
      "Ġpolit": 2928,
      "ander": 2929,
      "ream": 2930,
      "ids": 2931,
      "istance": 2932,
      "Ġstrength": 2933,
      "Ġgreatest": 2934,
      "Ġwarm": 2935,
      "oses": 2936,
      "ĠBo": 2937,
      "Ġang": 2938,
      "alled": 2939,
      "Ġmaj": 2940,
      "inted": 2941,
      "ca": 2942,
      "Ġsimple": 2943,
      "Ġbless": 2944,
      "Ġjoy": 2945,
      "III": 2946,
      "Ġletters": 2947,
      "Ġmaterial": 2948,
      "Ġcompany": 2949,
      "ĠGreat": 2950,
      "Ġevidence": 2951,
      "Ġoriginal": 2952,
      "Ġexact": 2953,
      "yr": 2954,
      "dered": 2955,
      "Ġsupposed": 2956,
      "Ġsole": 2957,
      "Ġcult": 2958,
      "Ġcomes": 2959,
      "sol": 2960,
      "Eng": 2961,
      "Ġiv": 2962,
      "Ġbreak": 2963,
      "ili": 2964,
      "ĠMon": 2965,
      "Ġbound": 2966,
      "ĠParis": 2967,
      "ortun": 2968,
      "Ġbird": 2969,
      "about": 2970,
      "Ġstone": 2971,
      "Ġlad": 2972,
      "ically": 2973,
      "Ġ40": 2974,
      "uments": 2975,
      "ishing": 2976,
      "28": 2977,
      "ĠJuly": 2978,
      "ĠEm": 2979,
      "Ġcry": 2980,
      "jo": 2981,
      "Ġtop": 2982,
      "Ġhast": 2983,
      "nce": 2984,
      "iling": 2985,
      "ĠGl": 2986,
      "Ġcorn": 2987,
      "26": 2988,
      "Ġbeg": 2989,
      "together": 2990,
      "field": 2991,
      "Ġlanguage": 2992,
      "arrow": 2993,
      "ĠSouth": 2994,
      "Ġrapid": 2995,
      "ĠEsq": 2996,
      "ĠSec": 2997,
      "How": 2998,
      "ech": 2999,
      "pel": 3000,
      "Ġindividual": 3001,
      "ĠRoman": 3002,
      "itor": 3003,
      "Ġreligion": 3004,
      "ĠAND": 3005,
      "ĠQueen": 3006,
      "27": 3007,
      "only": 3008,
      "aces": 3009,
      "Ġmerely": 3010,
      "Ġdevelop": 3011,
      "Ġextreme": 3012,
      "ication": 3013,
      "Ġcovered": 3014,
      "Ġfuture": 3015,
      "atory": 3016,
      "Ġreceive": 3017,
      "Ġhur": 3018,
      "worth": 3019,
      "inent": 3020,
      "23": 3021,
      "ĠHere": 3022,
      "rief": 3023,
      "being": 3024,
      "Ġstory": 3025,
      "ĠSome": 3026,
      "ĠRich": 3027,
      "ules": 3028,
      "ias": 3029,
      "arp": 3030,
      "Ġapplic": 3031,
      "look": 3032,
      "anks": 3033,
      "just": 3034,
      "cles": 3035,
      "ulph": 3036,
      "Ġbright": 3037,
      "elve": 3038,
      "Ġhop": 3039,
      "Sh": 3040,
      "Ġmiddle": 3041,
      "ades": 3042,
      "Ġinstead": 3043,
      "Ġpatient": 3044,
      "Ġrelie": 3045,
      "Ġ21": 3046,
      "ĠSte": 3047,
      "ĠAp": 3048,
      "Ġpublished": 3049,
      "Ġdesp": 3050,
      "Ġdelight": 3051,
      "Ġgiving": 3052,
      "His": 3053,
      "Ġiii": 3054,
      "ris": 3055,
      "ĠâĶĤ": 3056,
      "Ġbott": 3057,
      "reland": 3058,
      "Ġstrange": 3059,
      "llustr": 3060,
      "Ġproduce": 3061,
      "much": 3062,
      "Ġwide": 3063,
      "eav": 3064,
      "Ġgentleman": 3065,
      "ett": 3066,
      "IV": 3067,
      "Ġentered": 3068,
      "ffic": 3069,
      "ik": 3070,
      "bar": 3071,
      "Ġz": 3072,
      "Ġforg": 3073,
      "yal": 3074,
      "work": 3075,
      "Ġign": 3076,
      "ergy": 3077,
      "ĠMad": 3078,
      "see": 3079,
      "ĠPS": 3080,
      "pril": 3081,
      "Ġlooking": 3082,
      "Ġweight": 3083,
      "Is": 3084,
      "Ġusually": 3085,
      "Ġallowed": 3086,
      "Ġflowers": 3087,
      "Ġsleep": 3088,
      "ctions": 3089,
      "Ġ\\": 3090,
      "Ġenemy": 3091,
      "iu": 3092,
      "Ġanswered": 3093,
      "Ġfun": 3094,
      "ĠRev": 3095,
      "Ġinstance": 3096,
      "hers": 3097,
      "Ġmaint": 3098,
      "ables": 3099,
      "umber": 3100,
      "Ġglad": 3101,
      "yle": 3102,
      "irth": 3103,
      "Ġraised": 3104,
      "again": 3105,
      "Ġgod": 3106,
      "ula": 3107,
      "Ġ186": 3108,
      "these": 3109,
      "Ġnumerous": 3110,
      "ilst": 3111,
      "ĠRome": 3112,
      "kind": 3113,
      "Ġhusband": 3114,
      "Ġanimal": 3115,
      "fit": 3116,
      "Ġfeeling": 3117,
      "sm": 3118,
      "Ġlines": 3119,
      "**": 3120,
      "ĠJes": 3121,
      "29": 3122,
      "Ġ{": 3123,
      "Ġcharge": 3124,
      "Ġseven": 3125,
      "Ġmembers": 3126,
      "Ġquiet": 3127,
      "Ġdry": 3128,
      "Ġinches": 3129,
      "ensive": 3130,
      "Ġfal": 3131,
      "Ġwhatever": 3132,
      "dra": 3133,
      "eral": 3134,
      "Ġgall": 3135,
      "Ġfast": 3136,
      "Ġcentury": 3137,
      "ĠJan": 3138,
      "Ġpractice": 3139,
      "Ġjour": 3140,
      "never": 3141,
      "Ġliter": 3142,
      "Ġbooks": 3143,
      "itation": 3144,
      "Ġfo": 3145,
      "ĠAmerican": 3146,
      "Ġdraw": 3147,
      "pon": 3148,
      "Or": 3149,
      "atin": 3150,
      "ails": 3151,
      "Ġfellow": 3152,
      "ston": 3153,
      "ĠCr": 3154,
      "Ġwat": 3155,
      "Ġpresence": 3156,
      "All": 3157,
      "ouncil": 3158,
      "Ġslow": 3159,
      "nat": 3160,
      "ny": 3161,
      "bury": 3162,
      "Ġali": 3163,
      "Ġloss": 3164,
      "Ġsomewhat": 3165,
      "ĠOct": 3166,
      "Ġextent": 3167,
      "Ġordinary": 3168,
      "Ġsou": 3169,
      "rig": 3170,
      "Ġav": 3171,
      "made": 3172,
      "ture": 3173,
      "From": 3174,
      "ĠAnt": 3175,
      "Ġmine": 3176,
      "ĠCH": 3177,
      "nes": 3178,
      "lly": 3179,
      "Ġbreat": 3180,
      "order": 3181,
      "De": 3182,
      "itive": 3183,
      "Ġsouth": 3184,
      "count": 3185,
      "Ġnote": 3186,
      "ourage": 3187,
      "ext": 3188,
      "Ġpassage": 3189,
      "Ġexerc": 3190,
      "erty": 3191,
      "Ġess": 3192,
      "occ": 3193,
      "Ġprivate": 3194,
      "Ġ185": 3195,
      "21": 3196,
      "ĠAg": 3197,
      "ibly": 3198,
      "Ġeduc": 3199,
      "such": 3200,
      "Ġcivil": 3201,
      "rine": 3202,
      "Ex": 3203,
      "Ġforeign": 3204,
      "Ġ34": 3205,
      "orses": 3206,
      "Ġmere": 3207,
      "Ġadvantage": 3208,
      "Ġ36": 3209,
      "Com": 3210,
      "Ġvict": 3211,
      "Ġ33": 3212,
      "Ġaddition": 3213,
      "Ġkingdom": 3214,
      "Ġcomfort": 3215,
      "ems": 3216,
      "ĠWor": 3217,
      "stood": 3218,
      "ĠDuke": 3219,
      "Ġfit": 3220,
      "Ġbod": 3221,
      "Ġfem": 3222,
      "two": 3223,
      "Now": 3224,
      "inite": 3225,
      "ni": 3226,
      "Ġapplied": 3227,
      "Ġxx": 3228,
      "hest": 3229,
      "Ġevil": 3230,
      "ĠMary": 3231,
      "Ġ35": 3232,
      "Ġmid": 3233,
      "aped": 3234,
      "Ġfirm": 3235,
      "Ġnames": 3236,
      "ST": 3237,
      "APTER": 3238,
      "Ġrose": 3239,
      "arily": 3240,
      ".;": 3241,
      "Ġsurpr": 3242,
      "Ġproportion": 3243,
      "omy": 3244,
      "Ġmot": 3245,
      "umed": 3246,
      "Ġexperience": 3247,
      "Ġcried": 3248,
      "rif": 3249,
      "ĠLa": 3250,
      "Ġlaws": 3251,
      "Ġfra": 3252,
      "Ġfresh": 3253,
      "Ġaut": 3254,
      "ĠSm": 3255,
      "isters": 3256,
      "Ġmain": 3257,
      "Ġune": 3258,
      "Ġfamil": 3259,
      "wood": 3260,
      "'re": 3261,
      "âĶĢâĶĢâĶĢâĶĢ": 3262,
      "Ġtree": 3263,
      "gypt": 3264,
      "Ġglass": 3265,
      "commend": 3266,
      "Ġprove": 3267,
      "ĠRobert": 3268,
      "stant": 3269,
      "iced": 3270,
      "Yes": 3271,
      "Ġbeauty": 3272,
      "Ġproperty": 3273,
      "ari": 3274,
      "Ġprincipal": 3275,
      "ĠSy": 3276,
      "Ġrule": 3277,
      "SS": 3278,
      "Ġdoing": 3279,
      "verse": 3280,
      "aa": 3281,
      "Ġcru": 3282,
      "ĠSw": 3283,
      "Ġmeeting": 3284,
      "ĠSept": 3285,
      "lt": 3286,
      "Ġagree": 3287,
      "could": 3288,
      "Ġdrawn": 3289,
      "Ġpoints": 3290,
      "Ġupper": 3291,
      "Ġsaying": 3292,
      "Ġpretty": 3293,
      "Ġdestroy": 3294,
      "Ġbroad": 3295,
      "Ġlearned": 3296,
      "Ġvent": 3297,
      "eks": 3298,
      "Ġeasy": 3299,
      "Ġwatch": 3300,
      "Ġsociety": 3301,
      "Ġmotion": 3302,
      "Ġyellow": 3303,
      "fered": 3304,
      "before": 3305,
      "ĠCaptain": 3306,
      "Ġacross": 3307,
      "Ġrend": 3308,
      "Ġdirection": 3309,
      "Ġ...": 3310,
      "eed": 3311,
      "onel": 3312,
      "ager": 3313,
      "Ġtrade": 3314,
      "Ġscarcely": 3315,
      "ati": 3316,
      "Sir": 3317,
      "Ġchap": 3318,
      "Ġparticularly": 3319,
      "ĠDav": 3320,
      "ĠAugust": 3321,
      "Ġreign": 3322,
      "fess": 3323,
      "ourable": 3324,
      "Ġsilver": 3325,
      "Ġcarry": 3326,
      "apers": 3327,
      "peror": 3328,
      "Ġreached": 3329,
      "Ġallow": 3330,
      "Ġconvers": 3331,
      "Ġgrad": 3332,
      "ability": 3333,
      "Ġexample": 3334,
      "ĠSu": 3335,
      "Ġrise": 3336,
      "Ġyouth": 3337,
      "Ġcrown": 3338,
      "Ġcorrespond": 3339,
      "CT": 3340,
      "ĠMin": 3341,
      "Ġfruit": 3342,
      "Ġpiece": 3343,
      "Ġinn": 3344,
      "inner": 3345,
      "ibility": 3346,
      "ented": 3347,
      "Ġhouses": 3348,
      "Ġopened": 3349,
      "erted": 3350,
      "Ġshown": 3351,
      "tt": 3352,
      "Ġanx": 3353,
      "Ġhardly": 3354,
      "Ġapparent": 3355,
      "Ġmeasure": 3356,
      "ĠBur": 3357,
      "anges": 3358,
      "Ġbeginning": 3359,
      "Ġconsequence": 3360,
      "ĠGovernment": 3361,
      "ceived": 3362,
      "Ġimpossible": 3363,
      "uding": 3364,
      "Ġremember": 3365,
      "Ġstay": 3366,
      "Ġ50": 3367,
      "icked": 3368,
      "mpt": 3369,
      "Ġdog": 3370,
      "present": 3371,
      "Ġstated": 3372,
      "ĠPhil": 3373,
      "Ġspecial": 3374,
      "John": 3375,
      "Ġsupply": 3376,
      "Ġmort": 3377,
      "bid": 3378,
      "ishment": 3379,
      "Ġdisp": 3380,
      "iant": 3381,
      "Ġlabour": 3382,
      "Ġnative": 3383,
      "ĠIreland": 3384,
      "Ġdefend": 3385,
      "ply": 3386,
      "Ġmodern": 3387,
      "Ġprogress": 3388,
      "Ġendeav": 3389,
      "Ġinteresting": 3390,
      "Well": 3391,
      "aced": 3392,
      "Ġproved": 3393,
      "oi": 3394,
      "poses": 3395,
      "Ġbattle": 3396,
      "Ġanimals": 3397,
      "cies": 3398,
      "Ġ37": 3399,
      "ufact": 3400,
      "atus": 3401,
      "Ġconsist": 3402,
      "Ã¦": 3403,
      "bran": 3404,
      "Ġpros": 3405,
      "ĠEarl": 3406,
      "Ġheight": 3407,
      "inte": 3408,
      "Ġspring": 3409,
      "Ġlived": 3410,
      "ips": 3411,
      "duce": 3412,
      "ĠWell": 3413,
      "Ġhabit": 3414,
      "Ġbase": 3415,
      "mod": 3416,
      "mar": 3417,
      "ipp": 3418,
      "ĠLaw": 3419,
      "Ġdemand": 3420,
      "Ġox": 3421,
      "Ġbuilt": 3422,
      "Ġdifficulty": 3423,
      "utions": 3424,
      "Ġsn": 3425,
      "uns": 3426,
      "Ġremains": 3427,
      "ria": 3428,
      "Ġunless": 3429,
      "aven": 3430,
      "jud": 3431,
      "Ġnation": 3432,
      "22": 3433,
      "Ġcat": 3434,
      "lls": 3435,
      "ially": 3436,
      "IR": 3437,
      "Ġimper": 3438,
      "Ġcra": 3439,
      "Ġtot": 3440,
      "ĠJew": 3441,
      "ĠAmerica": 3442,
      "lebr": 3443,
      "bert": 3444,
      "Ġfixed": 3445,
      "Ġnon": 3446,
      "Ġarrived": 3447,
      "ĠFather": 3448,
      "Ġdistrict": 3449,
      "Ġheavy": 3450,
      "Ġfilled": 3451,
      "ĠIm": 3452,
      "Ġcell": 3453,
      "bu": 3454,
      "ĠThus": 3455,
      "Ġfle": 3456,
      "Ġburn": 3457,
      "Ġwrong": 3458,
      "Ġeat": 3459,
      "isions": 3460,
      "Ġremoved": 3461,
      "Ġremarkable": 3462,
      "Ġappre": 3463,
      "habitants": 3464,
      "Ġintended": 3465,
      "ĠPrince": 3466,
      "ĠNe": 3467,
      "vert": 3468,
      "ĠRep": 3469,
      "duction": 3470,
      "OU": 3471,
      "lar": 3472,
      "those": 3473,
      "olute": 3474,
      "ĠPaul": 3475,
      "Ġsides": 3476,
      "Ġremained": 3477,
      "ĠWar": 3478,
      "Ġ38": 3479,
      "Ġsto": 3480,
      "Ġcred": 3481,
      "Ġborn": 3482,
      "Ġwrote": 3483,
      "Ġspace": 3484,
      "standing": 3485,
      "cur": 3486,
      "ĠIII": 3487,
      "Ġblue": 3488,
      "ailed": 3489,
      "Ġdu": 3490,
      "sur": 3491,
      "ĠMarch": 3492,
      "Ġaud": 3493,
      "Ġprepared": 3494,
      "Ġdrink": 3495,
      "Ġwon": 3496,
      "ĠMajesty": 3497,
      "ĠStates": 3498,
      "Ġproof": 3499,
      "Ġprice": 3500,
      "ĠCal": 3501,
      "Ġjustice": 3502,
      "Ġexceed": 3503,
      "Ġprinciple": 3504,
      "Ġfarm": 3505,
      "ĠStreet": 3506,
      "ato": 3507,
      "Ġrev": 3508,
      "olly": 3509,
      "Ġbroken": 3510,
      "leg": 3511,
      "asons": 3512,
      "atur": 3513,
      "Ġofficers": 3514,
      "Ġpursu": 3515,
      "Ġseason": 3516,
      "Ġexistence": 3517,
      "might": 3518,
      "rowd": 3519,
      "Ġho": 3520,
      "Ġregular": 3521,
      "Ġexcellent": 3522,
      "ĠRoyal": 3523,
      "dro": 3524,
      "Ġspecim": 3525,
      "every": 3526,
      "Ġelect": 3527,
      "IG": 3528,
      "Ġpreced": 3529,
      "Ġterms": 3530,
      "ĠPres": 3531,
      "Ġrecogn": 3532,
      "Ġadmir": 3533,
      "Ġwalls": 3534,
      "ĠBishop": 3535,
      "Ġimportance": 3536,
      "Ġappointed": 3537,
      "Ġdress": 3538,
      "Ġconcern": 3539,
      "ih": 3540,
      "AND": 3541,
      "Ġcorrect": 3542,
      "vered": 3543,
      "water": 3544,
      "Ġsubjects": 3545,
      "Ġ183": 3546,
      "emed": 3547,
      "Ġuseful": 3548,
      "Ġbecomes": 3549,
      "ĠPort": 3550,
      "iently": 3551,
      "Ġ187": 3552,
      "Ġvain": 3553,
      "Ġfigure": 3554,
      "Ġsafe": 3555,
      "Ġtreatment": 3556,
      "Ġopportun": 3557,
      "ception": 3558,
      "mission": 3559,
      "Ġstudy": 3560,
      "ĠEdward": 3561,
      "Ġsatisfact": 3562,
      "while": 3563,
      "ĠBer": 3564,
      "inces": 3565,
      "Ġcoast": 3566,
      "Ġspread": 3567,
      "Ġhar": 3568,
      "Ġmag": 3569,
      "Ġmarried": 3570,
      "lement": 3571,
      "ĠApril": 3572,
      "Ġhigher": 3573,
      "uable": 3574,
      "ĠState": 3575,
      "va": 3576,
      "Ġgrou": 3577,
      "Ġreligious": 3578,
      "Ġcompan": 3579,
      "Ġholy": 3580,
      "bey": 3581,
      "Ġtitle": 3582,
      "Ġlikely": 3583,
      "found": 3584,
      "Ġexpected": 3585,
      "Ġtwelve": 3586,
      "PS": 3587,
      "Ġfully": 3588,
      "Ġtu": 3589,
      "ulated": 3590,
      "Will": 3591,
      "Ġfight": 3592,
      "orne": 3593,
      "quis": 3594,
      "Ġtried": 3595,
      "Ġbread": 3596,
      "Ġwitness": 3597,
      "Ġdom": 3598,
      "Ġsuperior": 3599,
      "Ġthirty": 3600,
      "oph": 3601,
      "through": 3602,
      "Ġguard": 3603,
      "Ġtakes": 3604,
      "ĠIndia": 3605,
      "Ġspoke": 3606,
      "ague": 3607,
      "AD": 3608,
      "play": 3609,
      "racted": 3610,
      "Ġwinter": 3611,
      "Ġqual": 3612,
      "Ġjudgment": 3613,
      "ĠCouncil": 3614,
      "amber": 3615,
      "Ġ<<": 3616,
      "Ġtender": 3617,
      "hand": 3618,
      "rous": 3619,
      "Nor": 3620,
      "four": 3621,
      "Ġillustr": 3622,
      "Ġsituation": 3623,
      "sue": 3624,
      "ara": 3625,
      "Ġfalse": 3626,
      "Pro": 3627,
      "orded": 3628,
      "hel": 3629,
      "Ġbas": 3630,
      "Ġtaste": 3631,
      "Ġge": 3632,
      "Ġequally": 3633,
      "Ġfil": 3634,
      "ospital": 3635,
      "bell": 3636,
      "Ġcamp": 3637,
      "fa": 3638,
      "Ġcontrary": 3639,
      "Ġprinciples": 3640,
      "ĠMor": 3641,
      "ta": 3642,
      "Ġrace": 3643,
      "40": 3644,
      "ological": 3645,
      "alog": 3646,
      "Ġdiscovered": 3647,
      "ump": 3648,
      "Ġbuilding": 3649,
      "Ġsick": 3650,
      "Ġtouch": 3651,
      "oon": 3652,
      "rate": 3653,
      "Ġprepar": 3654,
      "without": 3655,
      "Ġunivers": 3656,
      "igned": 3657,
      "Ġsubs": 3658,
      "ule": 3659,
      "gra": 3660,
      "Ġmeas": 3661,
      "ĠIr": 3662,
      "Ġ39": 3663,
      "Ġestablish": 3664,
      "Ġsuddenly": 3665,
      "istic": 3666,
      "ĠAf": 3667,
      "Ġsoil": 3668,
      "ĠEgypt": 3669,
      "ption": 3670,
      "ike": 3671,
      "Ġmad": 3672,
      "Illustr": 3673,
      "Ġcrit": 3674,
      "lend": 3675,
      "Ġgreatly": 3676,
      "aimed": 3677,
      "law": 3678,
      "Ġarrange": 3679,
      "Ġinformation": 3680,
      "Ġimm": 3681,
      "cts": 3682,
      "even": 3683,
      "first": 3684,
      "Ġneighbour": 3685,
      "vation": 3686,
      "Ġcover": 3687,
      "Ġtbe": 3688,
      "dif": 3689,
      "ĠTur": 3690,
      "Ġmatters": 3691,
      "oubt": 3692,
      "Pr": 3693,
      "bing": 3694,
      "ĠPers": 3695,
      "XX": 3696,
      "ension": 3697,
      "Ġresults": 3698,
      "ĠRuss": 3699,
      "Ġdifference": 3700,
      "ĠWhy": 3701,
      "Ġsave": 3702,
      "Ġnerv": 3703,
      "EM": 3704,
      "Ġhost": 3705,
      "cks": 3706,
      "Ġsolution": 3707,
      "Ġgarden": 3708,
      "Ġdiscuss": 3709,
      "Ġcre": 3710,
      "60": 3711,
      "Dr": 3712,
      "Ġhorses": 3713,
      "fi": 3714,
      "ĠVol": 3715,
      "ĠSam": 3716,
      "Ġpossession": 3717,
      "rill": 3718,
      "uary": 3719,
      "Ġyield": 3720,
      "Ġotherwise": 3721,
      "Ġsurr": 3722,
      "Ġchance": 3723,
      "UM": 3724,
      "ĠOh": 3725,
      "vell": 3726,
      "ĠPo": 3727,
      "ĠJe": 3728,
      "Ġnarrow": 3729,
      "ĠIN": 3730,
      "Ġmel": 3731,
      "Ġincreased": 3732,
      "cis": 3733,
      "Ġpresented": 3734,
      "Ġvariety": 3735,
      "Ġvolume": 3736,
      "Ġabsolute": 3737,
      "Ġpassing": 3738,
      "Ġphilosop": 3739,
      "Ġcauses": 3740,
      "Ġcompar": 3741,
      "Lord": 3742,
      "ĠFeb": 3743,
      "Ġrecommend": 3744,
      "Ġboard": 3745,
      "Ġsister": 3746,
      "ĠGreek": 3747,
      "Ġminute": 3748,
      "good": 3749,
      "Ġdetermined": 3750,
      "stone": 3751,
      "Ġincrease": 3752,
      "ares": 3753,
      "Ġpowers": 3754,
      "Ġmult": 3755,
      "ini": 3756,
      "Ġtrouble": 3757,
      "Ġglory": 3758,
      "Ġsand": 3759,
      "ĠSur": 3760,
      "ordinary": 3761,
      "unk": 3762,
      "astle": 3763,
      ".*": 3764,
      "Ġperfectly": 3765,
      "Ġoperation": 3766,
      "Ġmut": 3767,
      "ashion": 3768,
      "Ġbig": 3769,
      "Ġsatisf": 3770,
      "estions": 3771,
      "ĠJesus": 3772,
      "ios": 3773,
      "Ġdescend": 3774,
      "ĠParliament": 3775,
      "Ġmoral": 3776,
      "Ġlarger": 3777,
      "ading": 3778,
      "Ġsummer": 3779,
      "Ġstock": 3780,
      "osing": 3781,
      "fortun": 3782,
      "Ġbow": 3783,
      "your": 3784,
      "iring": 3785,
      "Ġmill": 3786,
      "Ġextend": 3787,
      "Ġopposite": 3788,
      "happ": 3789,
      "must": 3790,
      "arsh": 3791,
      "uit": 3792,
      "Ġavo": 3793,
      "Ġones": 3794,
      "ĠTe": 3795,
      "Ġinstr": 3796,
      "Ġspot": 3797,
      "Ġcelebr": 3798,
      "Ġpicture": 3799,
      "Ġdescription": 3800,
      "iform": 3801,
      "requ": 3802,
      "ĠJud": 3803,
      "supp": 3804,
      "Ġfro": 3805,
      "tions": 3806,
      "ĠÂ": 3807,
      "Le": 3808,
      "Ġbishop": 3809,
      "Ġestablished": 3810,
      "Ġminutes": 3811,
      "ĠReg": 3812,
      "OO": 3813,
      "don": 3814,
      "ators": 3815,
      "cause": 3816,
      "ĠPeter": 3817,
      "UL": 3818,
      "These": 3819,
      "Ġobliged": 3820,
      "ĠMa": 3821,
      "ĠEn": 3822,
      "Ġroyal": 3823,
      "Ġwise": 3824,
      "Ġisland": 3825,
      "ĠRichard": 3826,
      "Ġwrite": 3827,
      "Ġsour": 3828,
      "Ġscene": 3829,
      ".=": 3830,
      "mittee": 3831,
      "cor": 3832,
      "asing": 3833,
      "Ġjudge": 3834,
      "Ġignor": 3835,
      "Ġerect": 3836,
      "umn": 3837,
      "serv": 3838,
      "Ġsan": 3839,
      "ĠDon": 3840,
      "nest": 3841,
      "Illustration": 3842,
      "Ġpath": 3843,
      "bre": 3844,
      "ĠSpan": 3845,
      "era": 3846,
      "same": 3847,
      "Ġperform": 3848,
      "Ġgrave": 3849,
      "Ġwhilst": 3850,
      "Ġorders": 3851,
      "Ġutter": 3852,
      "ĠCath": 3853,
      "ĠArch": 3854,
      "umes": 3855,
      "Ġthoughts": 3856,
      "know": 3857,
      "ua": 3858,
      "chief": 3859,
      "umph": 3860,
      "icate": 3861,
      "Ġfacts": 3862,
      "ERS": 3863,
      "Ph": 3864,
      "ID": 3865,
      "ĠPal": 3866,
      "tra": 3867,
      "met": 3868,
      "Ġcontr": 3869,
      "Ġdread": 3870,
      "Ġmusic": 3871,
      "lesh": 3872,
      "Ġprim": 3873,
      "itch": 3874,
      "Ġeffects": 3875,
      "bles": 3876,
      "ĠPart": 3877,
      "oid": 3878,
      "ental": 3879,
      "ential": 3880,
      "kes": 3881,
      "ĠAc": 3882,
      "Ġspir": 3883,
      "Ġbank": 3884,
      "ĠĊ": 3885,
      "aker": 3886,
      "Ġlocal": 3887,
      "lying": 3888,
      "Ġdelic": 3889,
      "ushed": 3890,
      "udes": 3891,
      "ana": 3892,
      "Ġpurch": 3893,
      "Ġstyle": 3894,
      "Ġamongst": 3895,
      "edy": 3896,
      "ĠAv": 3897,
      "Let": 3898,
      "Ġcontro": 3899,
      "ctor": 3900,
      "Ġwis": 3901,
      "ĠHall": 3902,
      "ival": 3903,
      "Ġrequire": 3904,
      "Ġrender": 3905,
      "Ġthin": 3906,
      "Ġmarked": 3907,
      "Ġconnected": 3908,
      "44": 3909,
      "Ġcultiv": 3910,
      "Se": 3911,
      "Ġseries": 3912,
      "Ġskin": 3913,
      "ked": 3914,
      "Ġcentre": 3915,
      "Ġvillage": 3916,
      "Ġstanding": 3917,
      "Ġoffered": 3918,
      "Ġworthy": 3919,
      "ĠScotland": 3920,
      "Ġdil": 3921,
      "Ġourselves": 3922,
      "Ġcapital": 3923,
      "inity": 3924,
      "Ġleaving": 3925,
      "Ġsuffer": 3926,
      "Ġwine": 3927,
      "Ġstates": 3928,
      "Ġexpression": 3929,
      "Ġaffection": 3930,
      "ĠUnited": 3931,
      "Not": 3932,
      "zz": 3933,
      "mptoms": 3934,
      "ĠOx": 3935,
      "Ġ45": 3936,
      "Ġwanted": 3937,
      "See": 3938,
      "ĠRo": 3939,
      "irs": 3940,
      "Ġbodies": 3941,
      "Ġharm": 3942,
      "Un": 3943,
      "Ġmal": 3944,
      "Ġmeant": 3945,
      "Ġoffer": 3946,
      "ĠPri": 3947,
      "uel": 3948,
      "Ġtransl": 3949,
      "Ġliqu": 3950,
      "lier": 3951,
      "ama": 3952,
      "ĠHon": 3953,
      "Ġdate": 3954,
      ",)": 3955,
      "ĠJer": 3956,
      "Ġcurious": 3957,
      "iy": 3958,
      "Ad": 3959,
      "Ġdivine": 3960,
      "Ġgrat": 3961,
      "uge": 3962,
      "Ġtroops": 3963,
      "ĠHistory": 3964,
      "many": 3965,
      "Ġrepeated": 3966,
      "Ġcrowd": 3967,
      "Ġlives": 3968,
      "Ġchiefly": 3969,
      "IA": 3970,
      "oles": 3971,
      "ners": 3972,
      "Ġfollows": 3973,
      "Ġtry": 3974,
      "orious": 3975,
      "idently": 3976,
      "Ġserve": 3977,
      "Ġbesides": 3978,
      "ode": 3979,
      "Ġimprove": 3980,
      "Ġinhabitants": 3981,
      "Ġliberty": 3982,
      "Ġdescri": 3983,
      "cond": 3984,
      "ributed": 3985,
      "Ġot": 3986,
      "utation": 3987,
      "God": 3988,
      "arer": 3989,
      "ese": 3990,
      "ĠTheir": 3991,
      "Ġfool": 3992,
      "Ġseeing": 3993,
      "ounced": 3994,
      "Ġgro": 3995,
      "zen": 3996,
      "aph": 3997,
      "Ġvessels": 3998,
      "Ġmode": 3999,
      "Ġcaused": 4000,
      "ĠEast": 4001,
      "Ġadmitted": 4002,
      "Ġtong": 4003,
      "pected": 4004,
      "Re": 4005,
      "Ġpi": 4006,
      "Ġinfer": 4007,
      "Ġpul": 4008,
      "Ġobjects": 4009,
      "ferent": 4010,
      "Ġran": 4011,
      "Con": 4012,
      "Ġetc": 4013,
      "Ġnamed": 4014,
      "Ġapart": 4015,
      "oken": 4016,
      "Ġrevol": 4017,
      "Ġintroduced": 4018,
      "Ġball": 4019,
      "ĠWal": 4020,
      "Ġships": 4021,
      "Ġod": 4022,
      "Ġwid": 4023,
      "ij": 4024,
      "Ġwriting": 4025,
      "Christ": 4026,
      "raid": 4027,
      "Ġfing": 4028,
      "Ġpieces": 4029,
      "Ġsch": 4030,
      "80": 4031,
      "Ġbill": 4032,
      "ĠCam": 4033,
      "==": 4034,
      "ĠPat": 4035,
      "ĠOld": 4036,
      "ĠIV": 4037,
      "Ġhat": 4038,
      "vis": 4039,
      "Ġbrown": 4040,
      "Ġvast": 4041,
      "Ġcontaining": 4042,
      "Ġpersonal": 4043,
      "ĠLou": 4044,
      "ĠSch": 4045,
      "Ġtor": 4046,
      "last": 4047,
      "Ġpale": 4048,
      "oa": 4049,
      "bro": 4050,
      "Ġknows": 4051,
      "panied": 4052,
      "Ġdivided": 4053,
      "bly": 4054,
      "fs": 4055,
      "ĠHigh": 4056,
      "Ġapplication": 4057,
      "Ġparent": 4058,
      "rible": 4059,
      "rant": 4060,
      "Ġdouble": 4061,
      "Ġobtain": 4062,
      "liz": 4063,
      "Ġspeaking": 4064,
      "ĠST": 4065,
      "Ġprovided": 4066,
      "Ġflower": 4067,
      "Ġnecessity": 4068,
      "enced": 4069,
      "GE": 4070,
      "cknow": 4071,
      "Ġdecided": 4072,
      "ulous": 4073,
      "Ġcontains": 4074,
      "ĠDiv": 4075,
      "Why": 4076,
      "ĠAcc": 4077,
      "sent": 4078,
      "mark": 4079,
      "Ġmarriage": 4080,
      "Ġadmin": 4081,
      "Ġhappened": 4082,
      "Ġcustom": 4083,
      "Ġpolitical": 4084,
      "Ġcloud": 4085,
      "Ġtext": 4086,
      "rose": 4087,
      "little": 4088,
      "erning": 4089,
      "Ġdistinguished": 4090,
      "One": 4091,
      "After": 4092,
      "Her": 4093,
      "Ġshew": 4094,
      "ora": 4095,
      "ĠWhere": 4096,
      "Ġhighest": 4097,
      "Ġ43": 4098,
      "Ġsit": 4099,
      "Ġmeaning": 4100,
      "ĠPet": 4101,
      "Ġopportunity": 4102,
      "Ġcou": 4103,
      "aval": 4104,
      "dist": 4105,
      "Ġreve": 4106,
      "bered": 4107,
      "Ġcharm": 4108,
      "Ġassoci": 4109,
      "Ġrate": 4110,
      "Ġ180": 4111,
      "Ġflat": 4112,
      "note": 4113,
      "eal": 4114,
      "Ġdaily": 4115,
      "fessor": 4116,
      "Ġeverything": 4117,
      "ccles": 4118,
      "Ġ100": 4119,
      "Ġdwell": 4120,
      "mos": 4121,
      "rec": 4122,
      "urally": 4123,
      "Ġboys": 4124,
      "Ġbeneath": 4125,
      "Ġrid": 4126,
      "Ġproposed": 4127,
      "astic": 4128,
      "asts": 4129,
      "AY": 4130,
      "Ġgoes": 4131,
      "Ġaid": 4132,
      "Ġthroughout": 4133,
      "Ġcit": 4134,
      "Ġacknow": 4135,
      "Ġattended": 4136,
      "Ġbranches": 4137,
      "ĠBook": 4138,
      "Ġengaged": 4139,
      "oration": 4140,
      "iny": 4141,
      "Ġwindow": 4142,
      "Ġma": 4143,
      "Ġexped": 4144,
      "burgh": 4145,
      "Ġordered": 4146,
      "Ġdeclared": 4147,
      "necess": 4148,
      "Ġfever": 4149,
      "ĠAlex": 4150,
      "Ġconditions": 4151,
      "ĠMac": 4152,
      "Ġoil": 4153,
      "ĠLife": 4154,
      "Ġcand": 4155,
      "Ġep": 4156,
      "ds": 4157,
      "Ġadopted": 4158,
      "acity": 4159,
      "ĠDes": 4160,
      "Ġmix": 4161,
      "''": 4162,
      "48": 4163,
      "Ġant": 4164,
      "ĠĠĠĠĠĠĠĠĠĠĠĠ": 4165,
      "ĠSal": 4166,
      "Ġhighly": 4167,
      "Ġconqu": 4168,
      "Ġstage": 4169,
      "avi": 4170,
      "urb": 4171,
      "Ġwest": 4172,
      "Where": 4173,
      "Ġtli": 4174,
      "itect": 4175,
      "Ġsad": 4176,
      "atures": 4177,
      "Ġpopular": 4178,
      "Ġquarter": 4179,
      "ization": 4180,
      "aches": 4181,
      "alian": 4182,
      "erable": 4183,
      "clock": 4184,
      "ĠMess": 4185,
      "45": 4186,
      "Ġpred": 4187,
      "Ġfifty": 4188,
      "Ġprofession": 4189,
      "Ġmoved": 4190,
      "Ġsubstance": 4191,
      "Ġscience": 4192,
      "ram": 4193,
      "Ġ60": 4194,
      "ober": 4195,
      "Ġintellig": 4196,
      "Ġreach": 4197,
      "alley": 4198,
      "Ġrank": 4199,
      "Ġwriter": 4200,
      "hether": 4201,
      "lim": 4202,
      "othes": 4203,
      "wr": 4204,
      "Ġvaluable": 4205,
      "IST": 4206,
      "Ġreference": 4207,
      "press": 4208,
      "ĠDec": 4209,
      "ulf": 4210,
      "Ġ+": 4211,
      "Sc": 4212,
      "ĠIndian": 4213,
      "otten": 4214,
      "ino": 4215,
      "Ġsong": 4216,
      "ĠWil": 4217,
      "Ġstruck": 4218,
      "CHAPTER": 4219,
      "^^": 4220,
      "ĠLib": 4221,
      "ĠCollege": 4222,
      "hip": 4223,
      "ldom": 4224,
      "ĠSuch": 4225,
      "Ġneck": 4226,
      "inate": 4227,
      "Ġmedical": 4228,
      "ĠMil": 4229,
      "Ġforty": 4230,
      "estern": 4231,
      "Ġbirth": 4232,
      "bridge": 4233,
      "ras": 4234,
      "pping": 4235,
      "Ed": 4236,
      "Ġmanif": 4237,
      "ĠJust": 4238,
      "Ġtub": 4239,
      "Ġspr": 4240,
      "icular": 4241,
      "Ġconsideration": 4242,
      "Ġhistor": 4243,
      "Ind": 4244,
      "ĠCompany": 4245,
      "icted": 4246,
      "Ġbottom": 4247,
      "enance": 4248,
      "Ġanti": 4249,
      "called": 4250,
      "Ġunf": 4251,
      "Ġconcerning": 4252,
      "Mar": 4253,
      "ths": 4254,
      "Ġalter": 4255,
      "Ġlies": 4256,
      "Ġhung": 4257,
      "pur": 4258,
      "Ġinstruct": 4259,
      "iry": 4260,
      "ington": 4261,
      "Ġserious": 4262,
      "Ġvirtue": 4263,
      ".[": 4264,
      "ĠSon": 4265,
      "Ġ31": 4266,
      "Ġunderstood": 4267,
      "Ġpassion": 4268,
      "equ": 4269,
      "Ġevent": 4270,
      "Ġsulph": 4271,
      "Ġreading": 4272,
      "Ġaltogether": 4273,
      "Ġstruct": 4274,
      "Ġresemb": 4275,
      "Ġ47": 4276,
      "Ġmountain": 4277,
      "oper": 4278,
      "Ġlaugh": 4279,
      "Ġthrown": 4280,
      "Ġlands": 4281,
      "Ġclean": 4282,
      "âĢķâĢķ": 4283,
      "tis": 4284,
      "udd": 4285,
      "ustri": 4286,
      "using": 4287,
      "Ġque": 4288,
      "Ġnations": 4289,
      "Ġdam": 4290,
      "ads": 4291,
      "Ġjourney": 4292,
      "asc": 4293,
      "mir": 4294,
      "ceive": 4295,
      "Ġcontained": 4296,
      "Ġflu": 4297,
      "acher": 4298,
      "rab": 4299,
      "tw": 4300,
      "ĠRom": 4301,
      "geon": 4302,
      "ims": 4303,
      "ocks": 4304,
      "Ġkne": 4305,
      "Ġbelieved": 4306,
      "Ġvig": 4307,
      "Ġtreated": 4308,
      "mist": 4309,
      "47": 4310,
      "ĠAfric": 4311,
      "ĠMag": 4312,
      "anging": 4313,
      "rer": 4314,
      "Ġpa": 4315,
      "Ġles": 4316,
      "down": 4317,
      "ĠYet": 4318,
      "irgin": 4319,
      "Ġtears": 4320,
      "Ġinvest": 4321,
      "ĠĠĠĠĠĠĠĠĠĠĠĠĠĠĠ": 4322,
      "Ġweather": 4323,
      "Ġmilitary": 4324,
      "Ġprofess": 4325,
      "ration": 4326,
      "mas": 4327,
      "ATION": 4328,
      "urches": 4329,
      "Ġvers": 4330,
      "Ġheads": 4331,
      "Ġaddress": 4332,
      "33": 4333,
      "aked": 4334,
      "Ġti": 4335,
      "Ġinstit": 4336,
      "Ġpleased": 4337,
      "ĠOur": 4338,
      "lection": 4339,
      "iah": 4340,
      "Ġcho": 4341,
      "Ġmanufact": 4342,
      "ville": 4343,
      "Ġvan": 4344,
      "Ġnumbers": 4345,
      "oned": 4346,
      "Ġforget": 4347,
      "pire": 4348,
      "verted": 4349,
      "Ġhither": 4350,
      "Ġprec": 4351,
      "Ġsteam": 4352,
      "Ġescape": 4353,
      "Ġglo": 4354,
      "49": 4355,
      "ba": 4356,
      "CE": 4357,
      "eries": 4358,
      "Ġsharp": 4359,
      "antic": 4360,
      "Ġspeech": 4361,
      "?'": 4362,
      "Ġyourself": 4363,
      "Ġ''": 4364,
      "Ġmach": 4365,
      "Ġaccompl": 4366,
      "Ġsalt": 4367,
      "Ġabund": 4368,
      "rank": 4369,
      "Ġmess": 4370,
      "ĠHoly": 4371,
      "Ġrad": 4372,
      "sal": 4373,
      "atives": 4374,
      "ARD": 4375,
      "Ġremem": 4376,
      "ico": 4377,
      "Ġprince": 4378,
      "Ġweeks": 4379,
      "heart": 4380,
      "Ġbold": 4381,
      "Cl": 4382,
      "pelled": 4383,
      "Ġdoctrine": 4384,
      "ym": 4385,
      "Ġseat": 4386,
      "Ġrendered": 4387,
      "back": 4388,
      "Ġdign": 4389,
      "ingham": 4390,
      "empl": 4391,
      "adv": 4392,
      "Ġfortune": 4393,
      "Am": 4394,
      "Do": 4395,
      "46": 4396,
      "iqu": 4397,
      "Ġwealth": 4398,
      "Ġopening": 4399,
      "chan": 4400,
      "Ġchair": 4401,
      "Ġkinds": 4402,
      "Ġ189": 4403,
      "ĠTom": 4404,
      "rated": 4405,
      "Ġ179": 4406,
      "Ġtal": 4407,
      "Ġdig": 4408,
      "aints": 4409,
      "arly": 4410,
      "Ġstraight": 4411,
      "ieut": 4412,
      "Pl": 4413,
      "Ġrepro": 4414,
      "Ġplease": 4415,
      "ĠĠĠĠĠĠĠĠĠĠĠĠĠ": 4416,
      "Ġeast": 4417,
      "shall": 4418,
      "vious": 4419,
      "Ġkilled": 4420,
      "Ġil": 4421,
      "Ġ46": 4422,
      "Ġshowed": 4423,
      "Ġexpressed": 4424,
      "orum": 4425,
      "Ġfish": 4426,
      "Ġdistant": 4427,
      "ĠCont": 4428,
      "Ġsucceeded": 4429,
      "overy": 4430,
      "Ġcere": 4431,
      "Ġ48": 4432,
      "Ġdiam": 4433,
      "ĠSpe": 4434,
      "Ġassemb": 4435,
      "Ġconfess": 4436,
      "Ġstation": 4437,
      "orous": 4438,
      "uries": 4439,
      "Ġee": 4440,
      "Ġamb": 4441,
      "isk": 4442,
      "Ġeducation": 4443,
      "inions": 4444,
      "iation": 4445,
      "Ġofficer": 4446,
      "Ġhero": 4447,
      "OS": 4448,
      "Ġdinner": 4449,
      "ĠSpain": 4450,
      "omer": 4451,
      "Ġprinted": 4452,
      "pat": 4453,
      "rael": 4454,
      "course": 4455,
      "Ġhill": 4456,
      "noon": 4457,
      "Ġlikewise": 4458,
      "ura": 4459,
      "Ġboat": 4460,
      "Ġstrict": 4461,
      "Ġservant": 4462,
      "acle": 4463,
      "also": 4464,
      "Ġlips": 4465,
      "Ġshore": 4466,
      "pher": 4467,
      "fast": 4468,
      "Ġreader": 4469,
      "ĠĠĠĠĠĠĠĠĠĠĠ": 4470,
      "large": 4471,
      "Ġserved": 4472,
      "ols": 4473,
      "Ġtoward": 4474,
      "pes": 4475,
      "Ġmountains": 4476,
      "Ġhence": 4477,
      "utch": 4478,
      "Ġstreet": 4479,
      "ĠEl": 4480,
      "Ġflesh": 4481,
      "ĠGood": 4482,
      "urd": 4483,
      "acters": 4484,
      "Ġindepend": 4485,
      ");": 4486,
      "Ġregarded": 4487,
      "follow": 4488,
      "OW": 4489,
      "Ġworking": 4490,
      "ĠHim": 4491,
      "ĠWood": 4492,
      "change": 4493,
      "35": 4494,
      "Ġthorough": 4495,
      "Ġsacred": 4496,
      "rim": 4497,
      "ste": 4498,
      "five": 4499,
      "common": 4500,
      "Ġcounty": 4501,
      "Ġnine": 4502,
      "ĠArt": 4503,
      "came": 4504,
      "sl": 4505,
      "Ġmemory": 4506,
      "Ġlear": 4507,
      "wick": 4508,
      "hor": 4509,
      "ĠTra": 4510,
      "Ġthro": 4511,
      "ospel": 4512,
      "Ġpounds": 4513,
      "Ġduties": 4514,
      "Ġ(_": 4515,
      "Ġformerly": 4516,
      "Ġproc": 4517,
      "ros": 4518,
      "Ġded": 4519,
      "Ġ190": 4520,
      "ĠHam": 4521,
      "AB": 4522,
      "enes": 4523,
      "Ġcalcul": 4524,
      "Ġafraid": 4525,
      "hend": 4526,
      "Ġinstances": 4527,
      "Ġcomposed": 4528,
      "Ġ188": 4529,
      "Ġeld": 4530,
      "Ġsilence": 4531,
      "Ġfill": 4532,
      "Ġoccupied": 4533,
      "ĠIrish": 4534,
      "cher": 4535,
      "Ġsevent": 4536,
      "Ġdiscover": 4537,
      "ĠDan": 4538,
      "vy": 4539,
      "Ġarticle": 4540,
      "Ġbirds": 4541,
      "ĠCa": 4542,
      "Ġsymp": 4543,
      "bel": 4544,
      "ĠDavid": 4545,
      "ĠProv": 4546,
      "Ġprevious": 4547,
      "ĠSmith": 4548,
      "Ġcountries": 4549,
      "Ġhall": 4550,
      "against": 4551,
      "Ġfer": 4552,
      "Ġpp": 4553,
      "Ġsons": 4554,
      "Ġgentlemen": 4555,
      "ĠLatin": 4556,
      "Ġexamination": 4557,
      "terior": 4558,
      "rd": 4559,
      "uls": 4560,
      "itled": 4561,
      "Ġsevere": 4562,
      "Ġaffairs": 4563,
      "icy": 4564,
      "Ġadvanced": 4565,
      "Ġ49": 4566,
      "Ġdirected": 4567,
      "Ġpage": 4568,
      "father": 4569,
      "nex": 4570,
      "Ġobst": 4571,
      "mal": 4572,
      "Ġsake": 4573,
      "cut": 4574,
      "IM": 4575,
      "Ġcloth": 4576,
      "iel": 4577,
      "Ġfrequent": 4578,
      "pi": 4579,
      "ulate": 4580,
      "Ġcommer": 4581,
      "ĠUnivers": 4582,
      "En": 4583,
      "ority": 4584,
      "Ġdesired": 4585,
      "did": 4586,
      "Ġforest": 4587,
      "Ġdepos": 4588,
      "Ġaffected": 4589,
      "Ġcopy": 4590,
      "three": 4591,
      "var": 4592,
      "Ġlat": 4593,
      "Ġpowerful": 4594,
      "ties": 4595,
      "Ġyes": 4596,
      "37": 4597,
      "Ġearnest": 4598,
      "Ġrain": 4599,
      "Ġoutside": 4600,
      "Ġsplend": 4601,
      "omach": 4602,
      "uer": 4603,
      "Ġsor": 4604,
      "ĠBritain": 4605,
      "himself": 4606,
      "Ġdidn": 4607,
      "ĠMont": 4608,
      "ĠSpirit": 4609,
      "Ġreply": 4610,
      ",--": 4611,
      "Ġcontinue": 4612,
      "retched": 4613,
      "Ġevents": 4614,
      "usted": 4615,
      "icle": 4616,
      "Ġsolemn": 4617,
      "sk": 4618,
      "Ġrepresented": 4619,
      "Ġthinking": 4620,
      "Ġ<": 4621,
      "sell": 4622,
      "Ġorn": 4623,
      "Ġgradually": 4624,
      "Ġprophe": 4625,
      "Ġchanged": 4626,
      "Ġsimply": 4627,
      "Ġcollect": 4628,
      "36": 4629,
      "Ġtone": 4630,
      "....": 4631,
      "Ġassist": 4632,
      "ette": 4633,
      "stitution": 4634,
      "Ġnews": 4635,
      "ometimes": 4636,
      "ivity": 4637,
      "Ġstorm": 4638,
      "Ġshows": 4639,
      "Ġfreed": 4640,
      "Ġpictures": 4641,
      "Ġstream": 4642,
      "Here": 4643,
      "Ġattached": 4644,
      "Ġshare": 4645,
      "itz": 4646,
      "bra": 4647,
      "erate": 4648,
      "Ġexactly": 4649,
      "rences": 4650,
      "Ġsymptoms": 4651,
      "action": 4652,
      "ĠCons": 4653,
      "ĠMart": 4654,
      "Ġshape": 4655,
      "Ġrelation": 4656,
      "iance": 4657,
      "umin": 4658,
      "di": 4659,
      "lia": 4660,
      "Ġadvance": 4661,
      "Ġfault": 4662,
      "Ġfeelings": 4663,
      "Ġdrew": 4664,
      "Ġcapable": 4665,
      "ait": 4666,
      "Ġwished": 4667,
      "Ġhappiness": 4668,
      "Ġexcess": 4669,
      "thought": 4670,
      "Ġax": 4671,
      "icks": 4672,
      "pres": 4673,
      "ĠIts": 4674,
      "sim": 4675,
      "Ġconstitution": 4676,
      "38": 4677,
      "Ġinvol": 4678,
      "Ġreferred": 4679,
      "ĠBill": 4680,
      "Ġdimin": 4681,
      "mi": 4682,
      "ĠItaly": 4683,
      "ĠPre": 4684,
      "ena": 4685,
      "Ġcool": 4686,
      "Ġsail": 4687,
      "Ġcurrent": 4688,
      "Ġsoldiers": 4689,
      "Ġmir": 4690,
      "ea": 4691,
      "Ġsuffered": 4692,
      "ĠMer": 4693,
      "Ġcarefully": 4694,
      "Ġpurposes": 4695,
      "Ġspoken": 4696,
      "Ġwait": 4697,
      "Ġsolid": 4698,
      "Ġtongue": 4699,
      "Ġways": 4700,
      "Ġloved": 4701,
      "mes": 4702,
      "pens": 4703,
      "Ġpull": 4704,
      "Who": 4705,
      "London": 4706,
      "Per": 4707,
      "oseph": 4708,
      "verage": 4709,
      "pret": 4710,
      "book": 4711,
      "ada": 4712,
      "Ġconstant": 4713,
      "Ġquickly": 4714,
      "Ġviews": 4715,
      "ĠEvery": 4716,
      "Ġgetting": 4717,
      "inds": 4718,
      "Ġconven": 4719,
      "eper": 4720,
      "Ġobserve": 4721,
      "Ġsli": 4722,
      "Ġteeth": 4723,
      "Ġfi": 4724,
      "ĠCat": 4725,
      "Ġtaught": 4726,
      "ician": 4727,
      "Ġdelivered": 4728,
      "oft": 4729,
      "agement": 4730,
      "Ġgas": 4731,
      "Ġparish": 4732,
      "astern": 4733,
      "Ġbranch": 4734,
      "Ġpointed": 4735,
      "Ġquality": 4736,
      "Ġfashion": 4737,
      "appear": 4738,
      "Ġadmit": 4739,
      "Ġsquare": 4740,
      "Ġissu": 4741,
      "power": 4742,
      "mond": 4743,
      "Ġpromise": 4744,
      "ĠJour": 4745,
      "Ġseek": 4746,
      "Ġnaturally": 4747,
      "Ġfemale": 4748,
      "Col": 4749,
      "aviour": 4750,
      "hum": 4751,
      "ovember": 4752,
      "Ġvi": 4753,
      "othe": 4754,
      "eding": 4755,
      "Ġtum": 4756,
      "Ġparties": 4757,
      "ho": 4758,
      "anim": 4759,
      "Ġpleasant": 4760,
      "Ġtruly": 4761,
      "ĠApp": 4762,
      "Ġshad": 4763,
      "ĠCommittee": 4764,
      "Ġsorrow": 4765,
      "Ġcelebrated": 4766,
      "Ġseparate": 4767,
      "Ġcommit": 4768,
      "UT": 4769,
      "Ġtrad": 4770,
      "Ġmerch": 4771,
      "osen": 4772,
      "plic": 4773,
      "Ġcollection": 4774,
      "Ġactive": 4775,
      "charge": 4776,
      "ĠWhite": 4777,
      "ĠOff": 4778,
      "ĠMem": 4779,
      "Ġclasses": 4780,
      "abeth": 4781,
      "ĠWas": 4782,
      "ĠRed": 4783,
      "Ġsubsequ": 4784,
      "Ġexercise": 4785,
      "Ġworse": 4786,
      "tem": 4787,
      "ĠAnn": 4788,
      "omb": 4789,
      "Ġerr": 4790,
      "Ġedition": 4791,
      "Ġpractical": 4792,
      "Ġhonest": 4793,
      "Ġslowly": 4794,
      "*'": 4795,
      "olit": 4796,
      "Ġoccurred": 4797,
      "Ġmedic": 4798,
      "Ġsecure": 4799,
      "osis": 4800,
      "Ġrelief": 4801,
      "Ġconversation": 4802,
      "ĠAng": 4803,
      "uf": 4804,
      "cked": 4805,
      "Ġreduced": 4806,
      "ĠMal": 4807,
      "put": 4808,
      "Ġproject": 4809,
      "Ġbeat": 4810,
      "Ġnet": 4811,
      "LI": 4812,
      "39": 4813,
      "Ġworship": 4814,
      "Ġhearts": 4815,
      "ĠHy": 4816,
      "gel": 4817,
      "Ġtemperature": 4818,
      "ardens": 4819,
      "Ġgrant": 4820,
      "irect": 4821,
      "ais": 4822,
      "Ġmas": 4823,
      "inction": 4824,
      "Ġib": 4825,
      "between": 4826,
      "isl": 4827,
      ",,": 4828,
      "Ġpor": 4829,
      "Ġalt": 4830,
      "Ġtrial": 4831,
      "bits": 4832,
      "ĠScript": 4833,
      "70": 4834,
      "Ġdrawing": 4835,
      "gs": 4836,
      "Ġfond": 4837,
      "ground": 4838,
      "Ġstands": 4839,
      "Ġwaters": 4840,
      "ĠTwo": 4841,
      "ĠEven": 4842,
      "Ġextremely": 4843,
      "Ġinch": 4844,
      "point": 4845,
      "Foot": 4846,
      "Ġpossessed": 4847,
      "Ġrefer": 4848,
      "Ġlying": 4849,
      "Ġladies": 4850,
      "ĠMo": 4851,
      "Ġfee": 4852,
      "ertained": 4853,
      "Ġpride": 4854,
      "',": 4855,
      "Ġrail": 4856,
      "Ġthreat": 4857,
      "aug": 4858,
      "Ġia": 4859,
      "Ġgrass": 4860,
      "cember": 4861,
      "anch": 4862,
      "Ġnit": 4863,
      "Ġleading": 4864,
      "orted": 4865,
      "ĠMen": 4866,
      "Ġenemies": 4867,
      "Ġprayer": 4868,
      "Ġwel": 4869,
      "Ġconvey": 4870,
      "Ġminds": 4871,
      "Ġactually": 4872,
      "Ġshut": 4873,
      "Ġveget": 4874,
      "Ġmilk": 4875,
      "Ġpron": 4876,
      "Ġfloor": 4877,
      "alys": 4878,
      "Ġfounded": 4879,
      "Ġideas": 4880,
      "ĠEp": 4881,
      "Ġgranted": 4882,
      "Ġsitting": 4883,
      "Ġdesir": 4884,
      "Ġchanges": 4885,
      "Ġsettled": 4886,
      "ĠJack": 4887,
      "regular": 4888,
      "Ġbox": 4889,
      "Mrs": 4890,
      "Ġvel": 4891,
      "Ġbreath": 4892,
      "ĠBra": 4893,
      "pie": 4894,
      "Ġtax": 4895,
      "ĠAss": 4896,
      "line": 4897,
      "Ġcup": 4898,
      "oral": 4899,
      "gments": 4900,
      "Ġevident": 4901,
      "Ġgrowth": 4902,
      "Ġbitter": 4903,
      "bus": 4904,
      "Ġseldom": 4905,
      "Ġabsence": 4906,
      "Ġnoticed": 4907,
      "Ġnational": 4908,
      "ĠNature": 4909,
      "Ġlif": 4910,
      "Ġlately": 4911,
      "Ġstar": 4912,
      "withstanding": 4913,
      "Ġsmile": 4914,
      "och": 4915,
      "Ġaccompanied": 4916,
      "Ġdissol": 4917,
      "Ġze": 4918,
      "arth": 4919,
      "NE": 4920,
      "Ġrunning": 4921,
      "racts": 4922,
      "Ġfigures": 4923,
      "Ġpartly": 4924,
      "ĠColonel": 4925,
      "ilities": 4926,
      "65": 4927,
      "Ġ55": 4928,
      "May": 4929,
      "ĠGra": 4930,
      "Ġderived": 4931,
      "Ġarticles": 4932,
      "Ġring": 4933,
      "Ġspirits": 4934,
      "Ġsteps": 4935,
      "Ġstrugg": 4936,
      "iven": 4937,
      "Ġremarks": 4938,
      "âķ": 4939,
      "Ġissue": 4940,
      "Ġdisci": 4941,
      "country": 4942,
      "rum": 4943,
      "bled": 4944,
      "Ġagreed": 4945,
      "Ġcro": 4946,
      "aved": 4947,
      "Ġrare": 4948,
      "New": 4949,
      "eous": 4950,
      "Ġsingular": 4951,
      "estic": 4952,
      "Ġservants": 4953,
      "ming": 4954,
      "view": 4955,
      "asions": 4956,
      "ĠVen": 4957,
      "Ġvic": 4958,
      "Ġmoon": 4959,
      "Ġfallen": 4960,
      "apel": 4961,
      "unday": 4962,
      "ĠLouis": 4963,
      "ĠProt": 4964,
      "Ġcompletely": 4965,
      "belie": 4966,
      "mus": 4967,
      "Ġclosed": 4968,
      "cipit": 4969,
      "Ġextraordinary": 4970,
      "Ġclearly": 4971,
      "Ġfourth": 4972,
      "bor": 4973,
      "ault": 4974,
      "Ġegg": 4975,
      "having": 4976,
      "Ġplate": 4977,
      "ĠEliz": 4978,
      "Ġ#": 4979,
      "Ġ]": 4980,
      "Ġspiritual": 4981,
      "Ġhills": 4982,
      "tain": 4983,
      "war": 4984,
      "itors": 4985,
      "ĠIsrael": 4986,
      "ĠMaster": 4987,
      "Ġevidently": 4988,
      "Ġminister": 4989,
      "Ġsufficiently": 4990,
      "Ġrecent": 4991,
      "Ġsword": 4992,
      "Ab": 4993,
      "Ġundert": 4994,
      "Ġimmediate": 4995,
      "fall": 4996,
      "Ġfamiliar": 4997,
      "Ġbenefit": 4998,
      "Ġquestions": 4999,
      "interest": 5000,
      "xx": 5001,
      "chester": 5002,
      "ancing": 5003,
      "Ġtail": 5004,
      "Ġlevel": 5005,
      "Ġven": 5006,
      "Ġpersu": 5007,
      "rh": 5008,
      "Ġconfidence": 5009,
      "gans": 5010,
      "Footnote": 5011,
      "ials": 5012,
      "elf": 5013,
      "Ġconsists": 5014,
      "Ġrocks": 5015,
      "Ġnotes": 5016,
      "Ġmember": 5017,
      "Ġperformed": 5018,
      "arest": 5019,
      "Ġseed": 5020,
      "acon": 5021,
      "Ġpow": 5022,
      "Ġproud": 5023,
      "Ġgroup": 5024,
      "Ġtheory": 5025,
      "ORD": 5026,
      "Qu": 5027,
      "igation": 5028,
      "Ġwriters": 5029,
      "Ġextrem": 5030,
      "otes": 5031,
      "Ġacts": 5032,
      "theless": 5033,
      "ELL": 5034,
      "inet": 5035,
      "years": 5036,
      "aud": 5037,
      "Ġau": 5038,
      "Ġspent": 5039,
      "Ġarr": 5040,
      "Ġdisplay": 5041,
      "wall": 5042,
      "OD": 5043,
      "lle": 5044,
      "Ġjoint": 5045,
      "Ġpraise": 5046,
      "itate": 5047,
      "Ġbrief": 5048,
      "Ġpressure": 5049,
      "rue": 5050,
      "ref": 5051,
      "Ġwisdom": 5052,
      "ardon": 5053,
      "Ġprobable": 5054,
      "people": 5055,
      "case": 5056,
      "Ġstop": 5057,
      "Ġsearch": 5058,
      "Ġinflamm": 5059,
      "ieties": 5060,
      "Ġcontain": 5061,
      "Ġspeed": 5062,
      "ĠYes": 5063,
      "hens": 5064,
      "ĠTem": 5065,
      "ĠPope": 5066,
      "ĠOctober": 5067,
      "Ġforced": 5068,
      "ints": 5069,
      "AV": 5070,
      "Ġsmaller": 5071,
      "ean": 5072,
      "bishop": 5073,
      "Ġbroke": 5074,
      "onies": 5075,
      "Ġdream": 5076,
      "Ġaccur": 5077,
      "Ġbrain": 5078,
      "mat": 5079,
      "Ġtim": 5080,
      "Some": 5081,
      "Ġrelations": 5082,
      "iti": 5083,
      "others": 5084,
      "lla": 5085,
      "Ġroof": 5086,
      "sey": 5087,
      "Ã¡": 5088,
      "Ġestate": 5089,
      "66": 5090,
      "Ġq": 5091,
      "olk": 5092,
      "Ġfib": 5093,
      "Ġviz": 5094,
      "Ġ**": 5095,
      "Ġsav": 5096,
      "Ġmaid": 5097,
      "Ġsilent": 5098,
      "hon": 5099,
      "Ġlooks": 5100,
      "think": 5101,
      "Ġpapers": 5102,
      "Ġgrew": 5103,
      "ĠWho": 5104,
      "ilty": 5105,
      "Ġshot": 5106,
      "ĠBen": 5107,
      "Ġrising": 5108,
      "Ġreadily": 5109,
      "/.": 5110,
      "Ġmercy": 5111,
      "Ġgar": 5112,
      "Ġgrown": 5113,
      "Ġcaught": 5114,
      "Ġassert": 5115,
      "Ġcouncil": 5116,
      "angers": 5117,
      "Ġbreast": 5118,
      "Ġproperly": 5119,
      "Ġrub": 5120,
      "atively": 5121,
      "Ġble": 5122,
      "Ġexposed": 5123,
      "ANT": 5124,
      "Ġreven": 5125,
      "Ġtriumph": 5126,
      "Ġcab": 5127,
      "Ġsche": 5128,
      "Ġsed": 5129,
      "Ġsought": 5130,
      "Ġdangerous": 5131,
      "Ġsection": 5132,
      "stead": 5133,
      "Ġmiss": 5134,
      "Ġdirectly": 5135,
      "Ġproceeded": 5136,
      "ĠBel": 5137,
      "Ġapparently": 5138,
      "Ġbare": 5139,
      "Ġexclaimed": 5140,
      "Ġfund": 5141,
      "ĠFirst": 5142,
      "say": 5143,
      "dem": 5144,
      "Ġov": 5145,
      "Ġsnow": 5146,
      "Ġcondem": 5147,
      "turn": 5148,
      "ĠOxford": 5149,
      "Ġlose": 5150,
      "Ġsocial": 5151,
      "Ġtrain": 5152,
      "ĠBlack": 5153,
      "Ġexternal": 5154,
      "Ġfate": 5155,
      "Ġhom": 5156,
      "31": 5157,
      "Ġdoth": 5158,
      "Ġsup": 5159,
      "Ġaccident": 5160,
      "ses": 5161,
      "Ġtype": 5162,
      "Ġwalked": 5163,
      "Ġped": 5164,
      "Ġband": 5165,
      "Ġlod": 5166,
      "ching": 5167,
      "Ġdivision": 5168,
      "----------------": 5169,
      "aments": 5170,
      "Ġclergy": 5171,
      "Ġwholly": 5172,
      "Ġeager": 5173,
      "mouth": 5174,
      "Ġfarther": 5175,
      "ĠĠĠĠĠĠĠĠĠĠ": 5176,
      "75": 5177,
      "Ġdebt": 5178,
      "burg": 5179,
      "rection": 5180,
      "Ġgoods": 5181,
      "Ġinformed": 5182,
      "Ġcruel": 5183,
      "imony": 5184,
      "uv": 5185,
      "Ġ178": 5186,
      "Ġdestroyed": 5187,
      "ruary": 5188,
      "Ġages": 5189,
      "Ġunknown": 5190,
      "ĠLy": 5191,
      "aunt": 5192,
      "Ge": 5193,
      "Ġtwice": 5194,
      "Ġbal": 5195,
      "Ġwear": 5196,
      "aret": 5197,
      "enant": 5198,
      "istration": 5199,
      "child": 5200,
      "ita": 5201,
      "Ġkill": 5202,
      "useum": 5203,
      "Ġbearing": 5204,
      "Ġtou": 5205,
      "itis": 5206,
      "Ġconscious": 5207,
      "Ġmixed": 5208,
      "ricult": 5209,
      "Ġhopes": 5210,
      "Ġsen": 5211,
      "Ġdeb": 5212,
      "pton": 5213,
      "dr": 5214,
      "ifying": 5215,
      "IES": 5216,
      "Ġstructure": 5217,
      "osa": 5218,
      "Ġban": 5219,
      "Ġinform": 5220,
      "Ġears": 5221,
      "Ġmembran": 5222,
      "ded": 5223,
      "'.": 5224,
      "cientific": 5225,
      "flu": 5226,
      "Ġjoined": 5227,
      "Ġinferior": 5228,
      "Ġpaint": 5229,
      "Br": 5230,
      "Ġstopped": 5231,
      "coh": 5232,
      "Ġcharacters": 5233,
      "Ġfinally": 5234,
      "Ġfier": 5235,
      "inced": 5236,
      "Ġappoint": 5237,
      "tery": 5238,
      "Ġ..": 5239,
      "Ġgrowing": 5240,
      "Ġinstrument": 5241,
      "Ġhydro": 5242,
      "fr": 5243,
      "iU": 5244,
      "ounding": 5245,
      "iis": 5246,
      "general": 5247,
      "Ġpair": 5248,
      "rog": 5249,
      "Ġlot": 5250,
      "Ġfancy": 5251,
      "ĠPark": 5252,
      "Ġactual": 5253,
      "Ġfatal": 5254,
      "pons": 5255,
      "iture": 5256,
      "...": 5257,
      "Ġstarted": 5258,
      "Ġfaithful": 5259,
      "43": 5260,
      "ĠSub": 5261,
      "ĠCommission": 5262,
      "Ġblind": 5263,
      "Ġspect": 5264,
      "pent": 5265,
      "Ġthank": 5266,
      "kins": 5267,
      "Ġanxious": 5268,
      "Ġentitled": 5269,
      "athy": 5270,
      "William": 5271,
      "ona": 5272,
      "Ġrough": 5273,
      "Ġoun": 5274,
      "Ġkeeping": 5275,
      "mical": 5276,
      "ulars": 5277,
      "hus": 5278,
      "aling": 5279,
      "alem": 5280,
      "ĠSim": 5281,
      "ĠEmperor": 5282,
      "among": 5283,
      "attered": 5284,
      "ĠSpanish": 5285,
      "Bl": 5286,
      "Ġgaz": 5287,
      "Ġwhence": 5288,
      "IX": 5289,
      "Ġprivile": 5290,
      "Ġrob": 5291,
      "asp": 5292,
      "ĠProfessor": 5293,
      "Ġdefence": 5294,
      "Ġmale": 5295,
      "Ġtempor": 5296,
      "Ġfamous": 5297,
      "Ġtur": 5298,
      "retary": 5299,
      "mense": 5300,
      "another": 5301,
      "ero": 5302,
      "Ġchapter": 5303,
      "esc": 5304,
      "SE": 5305,
      "Ġargument": 5306,
      "Ġgenius": 5307,
      "Ġslightly": 5308,
      "make": 5309,
      "iast": 5310,
      "urity": 5311,
      "Ġrefused": 5312,
      "Ġmeasures": 5313,
      "Ġcalm": 5314,
      "Ġcarbon": 5315,
      "rifice": 5316,
      "Ġrese": 5317,
      "vest": 5318,
      "Ġturning": 5319,
      "otton": 5320,
      "Ġstones": 5321,
      "Ġends": 5322,
      "Ġzeal": 5323,
      "Ġopinions": 5324,
      "itated": 5325,
      "ĠVer": 5326,
      "Ġviolent": 5327,
      "ĠJanuary": 5328,
      "Ġconclusion": 5329,
      "Ġextended": 5330,
      "Ġassistance": 5331,
      "ĠSeptember": 5332,
      "avy": 5333,
      "ients": 5334,
      "gest": 5335,
      "Ġspecimens": 5336,
      "Ġsmo": 5337,
      "Ġbones": 5338,
      "Ġadj": 5339,
      "opp": 5340,
      "Ġroot": 5341,
      "Ġafford": 5342,
      "Ġaware": 5343,
      "Ġinse": 5344,
      "ĠMedical": 5345,
      "Ġcarrying": 5346,
      "Ġsky": 5347,
      "Ġsaf": 5348,
      "appeared": 5349,
      "key": 5350,
      "Ġthrone": 5351,
      "Tr": 5352,
      "irmed": 5353,
      "Ġjoin": 5354,
      "ĠNov": 5355,
      "ĠDis": 5356,
      "Ġexception": 5357,
      "necessary": 5358,
      "ĠTrans": 5359,
      "Ġinnoc": 5360,
      "Ġ$": 5361,
      "Ġcircumstance": 5362,
      "Ġsatisfied": 5363,
      "Ġintention": 5364,
      "England": 5365,
      "aft": 5366,
      "Ġwhis": 5367,
      "Ġedge": 5368,
      "Ġreasons": 5369,
      "Ġwicked": 5370,
      "Ġqueen": 5371,
      "Ġthereof": 5372,
      "Ġinstant": 5373,
      "phere": 5374,
      "held": 5375,
      "VI": 5376,
      "tor": 5377,
      "Ġstomach": 5378,
      "Ġstatement": 5379,
      "Ġoccasionally": 5380,
      "gon": 5381,
      "Ġcontent": 5382,
      "hall": 5383,
      "van": 5384,
      "Ġpopulation": 5385,
      "athered": 5386,
      "59": 5387,
      "life": 5388,
      "Ġstriking": 5389,
      "Ġpreserved": 5390,
      "however": 5391,
      "OP": 5392,
      "friend": 5393,
      "Ġextensive": 5394,
      "ĠNap": 5395,
      "Ġpriest": 5396,
      "ĠGreen": 5397,
      "Ġwilling": 5398,
      "Ġcheer": 5399,
      "ĠInt": 5400,
      "Ġacquaint": 5401,
      "acles": 5402,
      "miss": 5403,
      "ĠMat": 5404,
      "name": 5405,
      "Ġstrongly": 5406,
      "rian": 5407,
      "Ġmarket": 5408,
      "Ġae": 5409,
      "uthors": 5410,
      "illy": 5411,
      "Ġbelonging": 5412,
      "Ġafternoon": 5413,
      "Ġcompet": 5414,
      "half": 5415,
      "Ġfix": 5416,
      "ĠGermany": 5417,
      "Ġpreceding": 5418,
      "Ġremo": 5419,
      "Ġgun": 5420,
      "Ġpossibly": 5421,
      "Ġident": 5422,
      "Ġfaint": 5423,
      "teenth": 5424,
      "Ġaston": 5425,
      "bi": 5426,
      "ĠSS": 5427,
      "OC": 5428,
      "ĠMany": 5429,
      "Ġresolved": 5430,
      "Ġcam": 5431,
      "Ġpoison": 5432,
      "ĠJoseph": 5433,
      "58": 5434,
      "Ġgain": 5435,
      "Ġcommonly": 5436,
      "ĠSto": 5437,
      "je": 5438,
      "ĠJews": 5439,
      "Ġcrim": 5440,
      "Ġprop": 5441,
      "Ġsource": 5442,
      "illa": 5443,
      "Ġsuggested": 5444,
      "!'": 5445,
      "Ġexplained": 5446,
      "Ġcourage": 5447,
      "Ġdisapp": 5448,
      "Ġdiff": 5449,
      "Ġowing": 5450,
      "Ġforming": 5451,
      "Ġrapidly": 5452,
      "Ġben": 5453,
      "Ġthrow": 5454,
      "Ġcommission": 5455,
      "ĠSchool": 5456,
      "wa": 5457,
      "Ġobservations": 5458,
      "erk": 5459,
      "Ġtowns": 5460,
      "Par": 5461,
      "Ġlegs": 5462,
      "ĠCatholic": 5463,
      "oked": 5464,
      "Ġfinished": 5465,
      "Ġloud": 5466,
      "Ġerror": 5467,
      "ĠSan": 5468,
      "Ġfly": 5469,
      "inch": 5470,
      "atum": 5471,
      "Ġdevelopment": 5472,
      "Ġfinding": 5473,
      "English": 5474,
      "Ġtempt": 5475,
      "small": 5476,
      "ements": 5477,
      "OND": 5478,
      "ĠLove": 5479,
      "Ġpropri": 5480,
      "inations": 5481,
      "ĠMore": 5482,
      "Ġpour": 5483,
      "stra": 5484,
      "Ġregret": 5485,
      "Ġacquainted": 5486,
      "Ġarc": 5487,
      "Ġinterests": 5488,
      "Ġintellect": 5489,
      "âķĲ": 5490,
      "Ġperpet": 5491,
      "Ġhitherto": 5492,
      "OG": 5493,
      "adem": 5494,
      "Ġmission": 5495,
      "cket": 5496,
      "Ġfame": 5497,
      "41": 5498,
      "inburgh": 5499,
      "abled": 5500,
      "Ġrent": 5501,
      "Ġfreedom": 5502,
      "ĠNovember": 5503,
      "Ġobservation": 5504,
      "iden": 5505,
      "Ġraise": 5506,
      "low": 5507,
      "six": 5508,
      "Ġdre": 5509,
      "Ġcryst": 5510,
      "gain": 5511,
      "Ġpreviously": 5512,
      "aria": 5513,
      "Ġtea": 5514,
      "aths": 5515,
      "itto": 5516,
      "Ġstro": 5517,
      "Ġcord": 5518,
      "ĠFe": 5519,
      "ĠRes": 5520,
      "mind": 5521,
      "wers": 5522,
      "ĠLieut": 5523,
      "Ġclosely": 5524,
      "Ġcommitted": 5525,
      "Ġsovere": 5526,
      "42": 5527,
      "Ġkiss": 5528,
      "Ġpack": 5529,
      "Ġunited": 5530,
      "jected": 5531,
      "Ġgate": 5532,
      "pring": 5533,
      "68": 5534,
      "ĠFig": 5535,
      "Ġuniform": 5536,
      "ef": 5537,
      "Ġ70": 5538,
      "Ġwaiting": 5539,
      "Ġholding": 5540,
      "struct": 5541,
      "asant": 5542,
      "Ġbull": 5543,
      "Ġindul": 5544,
      "Ġspite": 5545,
      "Ġsex": 5546,
      "32": 5547,
      "cean": 5548,
      "Ġconfined": 5549,
      "Ġuncle": 5550,
      "Ġmighty": 5551,
      "Ġapply": 5552,
      "host": 5553,
      "Ġpan": 5554,
      "Ġpromised": 5555,
      "Ġarchitect": 5556,
      "Ġavoid": 5557,
      "umption": 5558,
      "Ġincluding": 5559,
      "Ġcredit": 5560,
      "effect": 5561,
      "mis": 5562,
      "Ġconnection": 5563,
      "Ġqui": 5564,
      "Thus": 5565,
      "Ġthence": 5566,
      "morrow": 5567,
      "ĠItalian": 5568,
      "Ġdece": 5569,
      "ounce": 5570,
      "Ġunfortun": 5571,
      "Ġtotal": 5572,
      "reason": 5573,
      "Ġforces": 5574,
      "ĠHor": 5575,
      "ĠScott": 5576,
      "ĠBell": 5577,
      "Ġempt": 5578,
      "Ġfluid": 5579,
      "henomen": 5580,
      "Ġsurely": 5581,
      "took": 5582,
      "Ġcaptain": 5583,
      "Ġchlor": 5584,
      "seen": 5585,
      "ĠLu": 5586,
      "Ġcareful": 5587,
      "Ġhandsome": 5588,
      "atio": 5589,
      "Ġdare": 5590,
      "tle": 5591,
      "Ġreaders": 5592,
      "UN": 5593,
      "Ġaside": 5594,
      "76": 5595,
      "circ": 5596,
      "Ġassured": 5597,
      "div": 5598,
      "Ġarrival": 5599,
      "fig": 5600,
      "gener": 5601,
      "Ġsheep": 5602,
      "ĠVI": 5603,
      "Ġexamined": 5604,
      "Ġstreets": 5605,
      "Ġsuspic": 5606,
      "placed": 5607,
      "Ġprotection": 5608,
      "Ġbul": 5609,
      "Fig": 5610,
      "atre": 5611,
      "Ġdefe": 5612,
      "Ġgirls": 5613,
      "cs": 5614,
      "Sp": 5615,
      "Ġapproach": 5616,
      "Ġwonderful": 5617,
      "Ġdoctor": 5618,
      "ĠFrancis": 5619,
      "ael": 5620,
      "Char": 5621,
      "Ġexecution": 5622,
      "each": 5623,
      "thren": 5624,
      "Ġmerit": 5625,
      "ĠPresident": 5626,
      "Ġexert": 5627,
      "Ġconstantly": 5628,
      "Ġcreature": 5629,
      "Ġrespecting": 5630,
      "Ġll": 5631,
      "ĠBu": 5632,
      "ĠEr": 5633,
      "non": 5634,
      "Ġwound": 5635,
      "Ġsi": 5636,
      "anation": 5637,
      "fam": 5638,
      "imp": 5639,
      "Ġvo": 5640,
      "Ġstir": 5641,
      "Ġnovel": 5642,
      "ellow": 5643,
      "Hen": 5644,
      "ulations": 5645,
      "Ġchoice": 5646,
      "Ġentrance": 5647,
      "quar": 5648,
      "Ġsmooth": 5649,
      "Ġlin": 5650,
      "born": 5651,
      "Ġirrit": 5652,
      "Ġessential": 5653,
      "cular": 5654,
      "acious": 5655,
      "liest": 5656,
      "Ġadvice": 5657,
      "incess": 5658,
      "General": 5659,
      "eping": 5660,
      "Ġpolicy": 5661,
      "rical": 5662,
      "Ġbone": 5663,
      "tri": 5664,
      "Ġsuccessful": 5665,
      "Ġrecoll": 5666,
      "writ": 5667,
      "det": 5668,
      "AG": 5669,
      "Ġ32": 5670,
      "ĠMajor": 5671,
      "disc": 5672,
      "ago": 5673,
      "Ġfifteen": 5674,
      "esides": 5675,
      "Ġregion": 5676,
      "Ġtall": 5677,
      "ums": 5678,
      "izing": 5679,
      "edly": 5680,
      "allel": 5681,
      "Ġbore": 5682,
      "icles": 5683,
      "ĠDecember": 5684,
      "55": 5685,
      "ography": 5686,
      "RI": 5687,
      "Ġbelief": 5688,
      "trans": 5689,
      "Ġrecord": 5690,
      "Ġsugar": 5691,
      "Ġconsequently": 5692,
      "Ġwounded": 5693,
      "ĠUniversity": 5694,
      "77": 5695,
      "Ġdisg": 5696,
      "ĠGen": 5697,
      "going": 5698,
      "Ġcum": 5699,
      "Ġadapt": 5700,
      "Ġburst": 5701,
      "whole": 5702,
      "ocr": 5703,
      "contin": 5704,
      "Ġexperien": 5705,
      "ĠGo": 5706,
      "Ġhearing": 5707,
      "Ġsatisfaction": 5708,
      "Ġmanifest": 5709,
      "Ġbeside": 5710,
      "Ġsupplied": 5711,
      "natural": 5712,
      "because": 5713,
      "Ġblow": 5714,
      "state": 5715,
      "Ġrights": 5716,
      "sels": 5717,
      "cd": 5718,
      "Ġdarkness": 5719,
      "inder": 5720,
      "cap": 5721,
      "ĠWater": 5722,
      "Ġow": 5723,
      "iency": 5724,
      "Ġdemon": 5725,
      "Ġcollected": 5726,
      "Ġtemple": 5727,
      "Ġmovement": 5728,
      "Ġaverage": 5729,
      "Ġroots": 5730,
      "Ġcattle": 5731,
      "ĠCity": 5732,
      "Ġconcerned": 5733,
      "Ġ80": 5734,
      "Ġ58": 5735,
      "ĠSunday": 5736,
      "Ġsituated": 5737,
      "inth": 5738,
      "Ġparliament": 5739,
      "Ġult": 5740,
      "Ġloose": 5741,
      ".),": 5742,
      "ĠMessrs": 5743,
      "61": 5744,
      "ĠFr": 5745,
      "inus": 5746,
      "64": 5747,
      "Don": 5748,
      "Ġdust": 5749,
      "Ġaband": 5750,
      "Ġswell": 5751,
      "Ġascend": 5752,
      "Ġhid": 5753,
      "Ġhabits": 5754,
      "EST": 5755,
      "sex": 5756,
      "Ġarranged": 5757,
      "Ġpit": 5758,
      "Ġimpression": 5759,
      "ĠTO": 5760,
      "Ġexplain": 5761,
      "Ġchosen": 5762,
      "63": 5763,
      "Ġlearning": 5764,
      "posing": 5765,
      "Ġdevoted": 5766,
      "Ġsafety": 5767,
      "ĠHeaven": 5768,
      "Ġbrill": 5769,
      "ĠChristians": 5770,
      "Ġmankind": 5771,
      "take": 5772,
      "Ġ00": 5773,
      "ĠMus": 5774,
      "Ġterrible": 5775,
      "ĠRE": 5776,
      "Ġsouls": 5777,
      "Ġchurches": 5778,
      "Ġcorner": 5779,
      "mount": 5780,
      "Ġconsent": 5781,
      "ĠAfrica": 5782,
      "Ġeste": 5783,
      "Ġaddressed": 5784,
      "ĠMark": 5785,
      "Ġendeavour": 5786,
      "Ġhes": 5787,
      "aine": 5788,
      "happy": 5789,
      "Ġfailed": 5790,
      "Ġvisited": 5791,
      "plete": 5792,
      "ĠStr": 5793,
      "too": 5794,
      "Ġleaf": 5795,
      "ky": 5796,
      "ĠSea": 5797,
      "Ġprotect": 5798,
      "Ġabsor": 5799,
      "Ġreck": 5800,
      "both": 5801,
      "Ġskill": 5802,
      "Ġknight": 5803,
      "---": 5804,
      "Ġengine": 5805,
      "rupted": 5806,
      "wich": 5807,
      "erson": 5808,
      "arts": 5809,
      "thur": 5810,
      "ustry": 5811,
      "etch": 5812,
      "consider": 5813,
      "Ġbrave": 5814,
      "ĠMount": 5815,
      "ĠDep": 5816,
      "Ġlic": 5817,
      "Ġbell": 5818,
      "Ġentertain": 5819,
      "ĠInc": 5820,
      "ĠJac": 5821,
      "ĠElizabeth": 5822,
      "Ġsorry": 5823,
      "Ġmat": 5824,
      "yer": 5825,
      "Ġeleg": 5826,
      "Ġgained": 5827,
      "Ġgrey": 5828,
      "ache": 5829,
      "taken": 5830,
      "Ġapost": 5831,
      "ĠServ": 5832,
      "--\"": 5833,
      "Ġfright": 5834,
      "win": 5835,
      "Ġreward": 5836,
      "Ġshoot": 5837,
      "Ġfurnished": 5838,
      "Ġflour": 5839,
      "Ġgame": 5840,
      "ĠNat": 5841,
      "Ġnarr": 5842,
      "ficial": 5843,
      "Ġ?\"": 5844,
      "aning": 5845,
      "Ġbehold": 5846,
      "62": 5847,
      "Ġpill": 5848,
      "ht": 5849,
      "ding": 5850,
      "Ġrequest": 5851,
      "Ġefforts": 5852,
      "Ġpity": 5853,
      "Ġdelay": 5854,
      "fin": 5855,
      "Ġ>>": 5856,
      "Ġju": 5857,
      "ĠFred": 5858,
      "Ġatmos": 5859,
      "Ġcow": 5860,
      "Ġprovince": 5861,
      "69": 5862,
      "Ġrules": 5863,
      "Ġknowing": 5864,
      "gate": 5865,
      "rait": 5866,
      "thus": 5867,
      "Ġeccles": 5868,
      "year": 5869,
      "Ġinternal": 5870,
      "oqu": 5871,
      "pen": 5872,
      "piration": 5873,
      "Ġworked": 5874,
      "Ġmargin": 5875,
      "Ġconsult": 5876,
      "Ġsurprise": 5877,
      "ĠSol": 5878,
      "Med": 5879,
      "57": 5880,
      "riff": 5881,
      "ĠLong": 5882,
      "Our": 5883,
      "Ġprefer": 5884,
      "Ġsuit": 5885,
      "Ġexperiment": 5886,
      "Ġtl": 5887,
      "ĠYour": 5888,
      "Ġschools": 5889,
      "Ġprospect": 5890,
      "ESS": 5891,
      "Ġ59": 5892,
      "criptions": 5893,
      "Ġoperations": 5894,
      "mem": 5895,
      "Brit": 5896,
      "otted": 5897,
      "ĠCur": 5898,
      "67": 5899,
      "Ġshowing": 5900,
      "Ġruin": 5901,
      "ipt": 5902,
      "Ġdiseases": 5903,
      "Ġarrangement": 5904,
      "Ġtask": 5905,
      "Ġdesert": 5906,
      "Ġimagine": 5907,
      "ĠCent": 5908,
      "Ġfairly": 5909,
      "ĠCastle": 5910,
      "Ġcalls": 5911,
      "Ġcoal": 5912,
      "Ġcontribut": 5913,
      "ĠXX": 5914,
      "Ġunable": 5915,
      "Ġlit": 5916,
      "Ġsaved": 5917,
      "Ġclim": 5918,
      "lance": 5919,
      "still": 5920,
      "Ġdegrees": 5921,
      "rep": 5922,
      "Ġdull": 5923,
      "ĠPen": 5924,
      "Ġ!\"": 5925,
      "Ġvalley": 5926,
      "Ġseparated": 5927,
      "Ġrecently": 5928,
      "ĠVict": 5929,
      "Ġwings": 5930,
      "Ġcav": 5931,
      "fee": 5932,
      "Ġservices": 5933,
      "ĠLand": 5934,
      "Ġeffort": 5935,
      "Ġabsolutely": 5936,
      "BER": 5937,
      "Ġearlier": 5938,
      "Ġhi": 5939,
      "Ġul": 5940,
      "Ġaa": 5941,
      "While": 5942,
      "Ġexperiments": 5943,
      "Ġtells": 5944,
      "Ġparents": 5945,
      "ĠJul": 5946,
      "lis": 5947,
      "uris": 5948,
      "Ġpup": 5949,
      "entions": 5950,
      "Ġburied": 5951,
      "âķĲâķĲ": 5952,
      "usive": 5953,
      "Ġoccurs": 5954,
      "Ġcompared": 5955,
      "Ġren": 5956,
      "ker": 5957,
      "Ġfortun": 5958,
      "Ġvisible": 5959,
      "Ġloc": 5960,
      "Ġflow": 5961,
      "far": 5962,
      "alysis": 5963,
      "gent": 5964,
      "Ġdeeply": 5965,
      "OUR": 5966,
      "34": 5967,
      "respect": 5968,
      "King": 5969,
      "Ġimmense": 5970,
      "greg": 5971,
      "Ġcontinu": 5972,
      "Ġdignity": 5973,
      "Ġomn": 5974,
      "Ġblessed": 5975,
      "ĠIndians": 5976,
      "Ġdeliver": 5977,
      "Ġguilty": 5978,
      "Ġceremon": 5979,
      "world": 5980,
      "Ġmidst": 5981,
      "Ġdistress": 5982,
      "tin": 5983,
      "Ġduke": 5984,
      "ĠFrank": 5985,
      "raction": 5986,
      "Ġphysical": 5987,
      "Ġlect": 5988,
      "ĠTre": 5989,
      "Ġiu": 5990,
      "asy": 5991,
      "Ġcitiz": 5992,
      "Ġdriven": 5993,
      "Ġwo": 5994,
      "tering": 5995,
      "seless": 5996,
      "ĠPhilip": 5997,
      "Ġpu": 5998,
      "orders": 5999,
      "Ġnatives": 6000,
      "iable": 6001,
      "aver": 6002,
      "uts": 6003,
      "Ġunion": 6004,
      "Ġsupported": 6005,
      "Ġframe": 6006,
      "Ġpages": 6007,
      "Ġrelative": 6008,
      "ĠFore": 6009,
      "Ġhappen": 6010,
      "care": 6011,
      "Ġcompre": 6012,
      "question": 6013,
      "Ġoccasions": 6014,
      "Ġperman": 6015,
      "Ġcities": 6016,
      "subject": 6017,
      "ioned": 6018,
      "ĠDev": 6019,
      "Ġdelicate": 6020,
      "Ġdisposed": 6021,
      "Ġstranger": 6022,
      "aks": 6023,
      "ensions": 6024,
      "Ġhumble": 6025,
      "oyage": 6026,
      "Ġremaining": 6027,
      "vity": 6028,
      "Ġmarch": 6029,
      "bably": 6030,
      "igns": 6031,
      "lets": 6032,
      "asted": 6033,
      "Ġprisoner": 6034,
      "Ġobed": 6035,
      "iche": 6036,
      "kin": 6037,
      "Ġalive": 6038,
      "force": 6039,
      "Ġschol": 6040,
      "Ġshame": 6041,
      "conf": 6042,
      "nothing": 6043,
      "Ġease": 6044,
      "rain": 6045,
      "Ġremarked": 6046,
      "Ġbuildings": 6047,
      "Ġadvent": 6048,
      "Ġempire": 6049,
      "ourn": 6050,
      "Ġast": 6051,
      "uce": 6052,
      ".^": 6053,
      "ships": 6054,
      "Ġwoods": 6055,
      "OH": 6056,
      "post": 6057,
      "Ġutmost": 6058,
      "Ġflo": 6059,
      "Ġmerc": 6060,
      "pered": 6061,
      "ĠFer": 6062,
      "Ġchamber": 6063,
      "Ġfamilies": 6064,
      "Ġexpense": 6065,
      "Ġcircle": 6066,
      "ĠHill": 6067,
      "enses": 6068,
      "aughed": 6069,
      "Ġdestruction": 6070,
      "matter": 6071,
      "Ġtube": 6072,
      "Ġbecoming": 6073,
      "Ġinfinite": 6074,
      "ĠBay": 6075,
      "Ġfreely": 6076,
      "rows": 6077,
      "Ġcoat": 6078,
      "ĠFebruary": 6079,
      "Yet": 6080,
      "Ġlake": 6081,
      "Ġgolden": 6082,
      "Ġactions": 6083,
      "za": 6084,
      "Ġgenus": 6085,
      "Your": 6086,
      "pended": 6087,
      "Ġecon": 6088,
      "give": 6089,
      "Ġcastle": 6090,
      "Ġsentence": 6091,
      "away": 6092,
      "Ġfeatures": 6093,
      "Ġtiss": 6094,
      "Can": 6095,
      "oom": 6096,
      "looking": 6097,
      "Ġsuffering": 6098,
      "yet": 6099,
      "ĠThose": 6100,
      "Ġdur": 6101,
      "Ġbanks": 6102,
      "Ġorgans": 6103,
      "hi": 6104,
      "Ġmanners": 6105,
      "Ġmile": 6106,
      "eration": 6107,
      "exam": 6108,
      "Ġexcited": 6109,
      "Ġacknowled": 6110,
      "Ġlimited": 6111,
      "Ġcreated": 6112,
      "Ġthoroughly": 6113,
      "Ġfleet": 6114,
      "Ġthrew": 6115,
      "Ġseized": 6116,
      "ĠĠĠĠĠĠĠĠĠĠĠĠĠĠĠĠĠĠĠĠĠĠĠĠĠĠĠĠĠĠĠĠĠĠĠĠĠĠĠĠ": 6117,
      "Ġliquid": 6118,
      "Ġreflect": 6119,
      "Ġice": 6120,
      "cel": 6121,
      "Ġcontract": 6122,
      "Ġuniversal": 6123,
      "rific": 6124,
      "Ġabroad": 6125,
      "Ġtravel": 6126,
      "ĠCong": 6127,
      "TON": 6128,
      "Ġacute": 6129,
      "rub": 6130,
      "Ġwet": 6131,
      "Ġdetails": 6132,
      "Ġwants": 6133,
      "Ġhunt": 6134,
      "ĠVal": 6135,
      "arded": 6136,
      "ĠCap": 6137,
      "oria": 6138,
      "Ġexhibited": 6139,
      "Ġtrying": 6140,
      "tical": 6141,
      "andy": 6142,
      "Ġdiscovery": 6143,
      "iana": 6144,
      "ĠFort": 6145,
      "DE": 6146,
      ";\"": 6147,
      "ĠTri": 6148,
      "Ġcust": 6149,
      "Ġoblig": 6150,
      "ĠTH": 6151,
      "Ġ--": 6152,
      "aneous": 6153,
      "Ġdoc": 6154,
      "cohol": 6155,
      "onn": 6156,
      "ĠCorn": 6157,
      "Ġmechan": 6158,
      "Ġsod": 6159,
      "Ġarise": 6160,
      "olland": 6161,
      "Ġscale": 6162,
      "Ġliterature": 6163,
      "Ġteach": 6164,
      "ustomed": 6165,
      "ealous": 6166,
      "ĠJo": 6167,
      "omet": 6168,
      "Ġposter": 6169,
      "Ġkings": 6170,
      "cester": 6171,
      "import": 6172,
      "ĠEv": 6173,
      "usalem": 6174,
      "Ġdifficulties": 6175,
      "Ġerected": 6176,
      "ousin": 6177,
      "Ġwin": 6178,
      "orable": 6179,
      "lem": 6180,
      "arse": 6181,
      "iate": 6182,
      "Ġdistinction": 6183,
      "Ġeternal": 6184,
      "EW": 6185,
      "sa": 6186,
      "given": 6187,
      "Ġrig": 6188,
      "return": 6189,
      "onds": 6190,
      "Ġrenew": 6191,
      "Ġhorn": 6192,
      "Ġsoldier": 6193,
      "Ġsurrounded": 6194,
      "Ġexha": 6195,
      "ĠSil": 6196,
      "Ġcolours": 6197,
      "ĠHol": 6198,
      "Ġsplendid": 6199,
      "Ġrom": 6200,
      "spect": 6201,
      "Ġbag": 6202,
      "Ġinvent": 6203,
      "comp": 6204,
      "Ġinfant": 6205,
      "Ġwindows": 6206,
      "Ġglorious": 6207,
      "Ġfoundation": 6208,
      "!-": 6209,
      "Ġproduction": 6210,
      "agon": 6211,
      "ĠĠĠĠĠĠĠĠĠĠĠĠĠĠ": 6212,
      "ushing": 6213,
      "Ġlux": 6214,
      "Ġqualities": 6215,
      "Ġacted": 6216,
      "Ġyards": 6217,
      "icism": 6218,
      "Ġpalace": 6219,
      "Ġeffic": 6220,
      "Ġvarieties": 6221,
      "Ġprejud": 6222,
      "Ġmyst": 6223,
      "ĠWall": 6224,
      "Ġsust": 6225,
      "PH": 6226,
      "omething": 6227,
      "ĠAlexander": 6228,
      "Ġterrit": 6229,
      "nds": 6230,
      "Ġissued": 6231,
      "Ġcommanded": 6232,
      "Ġflight": 6233,
      "inese": 6234,
      "unction": 6235,
      "icious": 6236,
      "Ġapt": 6237,
      "ĠVirgin": 6238,
      "Ġshel": 6239,
      "fle": 6240,
      "worthy": 6241,
      "\"'": 6242,
      "Ġhoped": 6243,
      "Ġsacrifice": 6244,
      "Ġthanks": 6245,
      "Ġcommence": 6246,
      "ĠLords": 6247,
      "Ġsale": 6248,
      "Ġdiffer": 6249,
      "aux": 6250,
      "Ġrange": 6251,
      "Ġmaterials": 6252,
      "cia": 6253,
      "orter": 6254,
      "Ġcarriage": 6255,
      "ĠJournal": 6256,
      "therefore": 6257,
      "Ġcontempt": 6258,
      "Ġprecipit": 6259,
      "Ġputting": 6260,
      "miral": 6261,
      "ĠAuthor": 6262,
      "uty": 6263,
      "Ġrul": 6264,
      "Ġrecon": 6265,
      "Ġfields": 6266,
      ".--": 6267,
      "pa": 6268,
      "iege": 6269,
      "Ġprecise": 6270,
      ":-": 6271,
      "Ġornament": 6272,
      "Ġestim": 6273,
      "Ġmagnific": 6274,
      "Ġirregular": 6275,
      "Ġtrace": 6276,
      "EE": 6277,
      "onder": 6278,
      "Ġrespons": 6279,
      "abb": 6280,
      "Ġconfirm": 6281,
      "Ġmistake": 6282,
      "ICAL": 6283,
      "alia": 6284,
      "Ġopposition": 6285,
      "Ġcolor": 6286,
      "Ġcure": 6287,
      "Ġremove": 6288,
      "Ġrequires": 6289,
      "asses": 6290,
      "iot": 6291,
      "abor": 6292,
      "Ġgods": 6293,
      "fo": 6294,
      "ĠCy": 6295,
      "da": 6296,
      "times": 6297,
      "Ġannual": 6298,
      "Ġtrave": 6299,
      "author": 6300,
      "ĠSl": 6301,
      "ĠThou": 6302,
      "Ġgrief": 6303,
      "Ġaccepted": 6304,
      "Ġaim": 6305,
      "Ġmajority": 6306,
      "Ġshout": 6307,
      "ocal": 6308,
      "icians": 6309,
      "leep": 6310,
      "live": 6311,
      "ĠArab": 6312,
      "ĠAthen": 6313,
      "either": 6314,
      "ĠTest": 6315,
      "unch": 6316,
      "Ġmild": 6317,
      "Ġneighbourhood": 6318,
      "Ġprem": 6319,
      "minster": 6320,
      "ĠOri": 6321,
      "Ġcrime": 6322,
      "themselves": 6323,
      "Ġsink": 6324,
      "houses": 6325,
      "Ġphot": 6326,
      "Ġliable": 6327,
      "Ġaccord": 6328,
      "Ġinclined": 6329,
      "ĠHad": 6330,
      "Ġdying": 6331,
      "Ġinterior": 6332,
      "Ġincon": 6333,
      "Ġhyp": 6334,
      "Ġforgotten": 6335,
      "Ġformation": 6336,
      "quer": 6337,
      "ĠSecretary": 6338,
      "Ġconscience": 6339,
      "Ġric": 6340,
      "Ġdefect": 6341,
      "ĠDay": 6342,
      "90": 6343,
      "*.": 6344,
      "success": 6345,
      "ĠMur": 6346,
      "princi": 6347,
      "ĠEuropean": 6348,
      "Ġpil": 6349,
      "Ġfalling": 6350,
      "ĠBoard": 6351,
      "ĠMel": 6352,
      "ĠKe": 6353,
      "Ġpermitted": 6354,
      "Ġinner": 6355,
      "Ġmurder": 6356,
      "Ġnervous": 6357,
      "Ġaccordingly": 6358,
      "whom": 6359,
      "ailing": 6360,
      "vals": 6361,
      "Ġretreat": 6362,
      "Ġthinks": 6363,
      "Ġpainted": 6364,
      "istry": 6365,
      "Ġalarm": 6366,
      "ĠLP": 6367,
      "Ġphenomen": 6368,
      "ĠSer": 6369,
      "arks": 6370,
      "Ġlaughed": 6371,
      "itc": 6372,
      "Ġbapt": 6373,
      "ifications": 6374,
      "Ġgather": 6375,
      "Ġremembered": 6376,
      "Ġmixture": 6377,
      "master": 6378,
      "Ġfold": 6379,
      "osom": 6380,
      "Ġdisposition": 6381,
      "ante": 6382,
      "Ġere": 6383,
      "Ġclothes": 6384,
      "Ġsooner": 6385,
      "aming": 6386,
      "erves": 6387,
      "Ġamid": 6388,
      "Ġindif": 6389,
      "Ġtravell": 6390,
      "arc": 6391,
      "Ġworst": 6392,
      "Ġappeal": 6393,
      "Ġaccounts": 6394,
      "fulness": 6395,
      "Ġscientific": 6396,
      "Ġagreeable": 6397,
      "Ġacquired": 6398,
      "aratus": 6399,
      "Ġgrie": 6400,
      "ĠProtest": 6401,
      "78": 6402,
      "ĠHeb": 6403,
      "Ġmental": 6404,
      "Ġlung": 6405,
      "ĠAN": 6406,
      "onia": 6407,
      "always": 6408,
      "Ġburning": 6409,
      "character": 6410,
      "ĠEdinburgh": 6411,
      "ĠEll": 6412,
      "KS": 6413,
      "ĠAmong": 6414,
      "ĠBrown": 6415,
      "ĠPol": 6416,
      "Ġbi": 6417,
      "ĠHospital": 6418,
      "mother": 6419,
      "Ġcalling": 6420,
      "._,": 6421,
      "usions": 6422,
      "idenote": 6423,
      "qual": 6424,
      "Ġfinal": 6425,
      "orial": 6426,
      "Sidenote": 6427,
      "Ġantiqu": 6428,
      "ĠDel": 6429,
      "Ġcatch": 6430,
      "Ġignorant": 6431,
      "Ġtoler": 6432,
      "ocked": 6433,
      "account": 6434,
      "strong": 6435,
      "RY": 6436,
      "Ġcomposition": 6437,
      "Ġunderstanding": 6438,
      "Ġai": 6439,
      "Ġplates": 6440,
      "Ġpasses": 6441,
      "num": 6442,
      "Ġbringing": 6443,
      "Ġabst": 6444,
      "ĠDE": 6445,
      "ĠDutch": 6446,
      "Ġsigns": 6447,
      "ĠTown": 6448,
      "Ġtendency": 6449,
      "satis": 6450,
      "onic": 6451,
      "pool": 6452,
      "Ġdivers": 6453,
      "ĠĠĠĠĠĠĠĠĠĠĠĠĠĠĠĠĠ": 6454,
      "ĠGall": 6455,
      "Ġlest": 6456,
      "erick": 6457,
      "Ġvac": 6458,
      "Ġgathered": 6459,
      "Ġdepri": 6460,
      "sw": 6461,
      "Ġshadow": 6462,
      "Ġbis": 6463,
      "Ġouter": 6464,
      "ique": 6465,
      "Ġobey": 6466,
      "Ġarrest": 6467,
      "ĠWhile": 6468,
      "ĠSecond": 6469,
      "chie": 6470,
      "Such": 6471,
      "Ġ||": 6472,
      "hard": 6473,
      "Ġaspect": 6474,
      "Ġcart": 6475,
      "ĠFa": 6476,
      "Ġpains": 6477,
      "Ġgrounds": 6478,
      "Ġmarry": 6479,
      "Ġaltern": 6480,
      "Ġmoist": 6481,
      "usual": 6482,
      "prov": 6483,
      "ĠRem": 6484,
      "Ġprint": 6485,
      "things": 6486,
      "Ġresidence": 6487,
      "avour": 6488,
      "cip": 6489,
      "Ġgovern": 6490,
      "istered": 6491,
      "Ġmaintain": 6492,
      "Ġcountenance": 6493,
      "Ġdepth": 6494,
      "Ġnecessarily": 6495,
      "Ġmonarch": 6496,
      "Ġexisting": 6497,
      "Ġaged": 6498,
      "Ġobjection": 6499,
      "Ġenergy": 6500,
      "hem": 6501,
      "ART": 6502,
      "ĠIsland": 6503,
      "ĠBible": 6504,
      "ĠDor": 6505,
      "Ġimpress": 6506,
      "IF": 6507,
      "inding": 6508,
      "Ġinside": 6509,
      "Ġpunishment": 6510,
      "Ġconstruct": 6511,
      "cest": 6512,
      "Miss": 6513,
      "Which": 6514,
      "Ġsins": 6515,
      "Ġbridge": 6516,
      "ola": 6517,
      "whose": 6518,
      "Ġ>": 6519,
      "END": 6520,
      "isting": 6521,
      "street": 6522,
      "ĠDun": 6523,
      "ateful": 6524,
      "Ġprosper": 6525,
      "Ġcharged": 6526,
      "llor": 6527,
      "Ġcounter": 6528,
      "Ġvols": 6529,
      "ĠGold": 6530,
      "borough": 6531,
      "Ġspecimen": 6532,
      "Ġauthors": 6533,
      "Ġsanct": 6534,
      "days": 6535,
      "ban": 6536,
      "oln": 6537,
      "Ġ:-": 6538,
      "Ġspeaks": 6539,
      "idents": 6540,
      "gn": 6541,
      "Ġfavourite": 6542,
      "Ġmarks": 6543,
      "Ġfulf": 6544,
      "quare": 6545,
      "Man": 6546,
      "Ġnice": 6547,
      "Ġcopper": 6548,
      "Ġchron": 6549,
      "Ġ)": 6550,
      "suffic": 6551,
      "Ġadvantages": 6552,
      "ugg": 6553,
      "Ġstandard": 6554,
      "Ġingen": 6555,
      "ublin": 6556,
      "Ġbent": 6557,
      "Ġslaves": 6558,
      "Ġwi": 6559,
      "cre": 6560,
      "ications": 6561,
      "ulgar": 6562,
      "ARY": 6563,
      "ĠWorld": 6564,
      "Tis": 6565,
      "Ġdeveloped": 6566,
      "coll": 6567,
      "stre": 6568,
      "inated": 6569,
      "Ġcy": 6570,
      "Ġguns": 6571,
      "Ġmetal": 6572,
      "Ġmeat": 6573,
      "Ġwishes": 6574,
      "positions": 6575,
      "Ġfir": 6576,
      "Ġstars": 6577,
      "Ġguess": 6578,
      "rt": 6579,
      "Ġcells": 6580,
      "Ġremedy": 6581,
      "Ġimpr": 6582,
      "Ġarose": 6583,
      "ĠFriend": 6584,
      "Ġbab": 6585,
      "tained": 6586,
      "ida": 6587,
      "Ġcommenced": 6588,
      "real": 6589,
      "orus": 6590,
      "Ġrelated": 6591,
      "Ġvary": 6592,
      "Ġmuc": 6593,
      "Ġnose": 6594,
      "Ġxv": 6595,
      "rap": 6596,
      "Ġcontrol": 6597,
      "ALL": 6598,
      "aration": 6599,
      "88": 6600,
      "ĠAssoci": 6601,
      "Ġoriginally": 6602,
      "ĠSax": 6603,
      "Ġguide": 6604,
      "Ġmuscles": 6605,
      "aturday": 6606,
      "Ġfingers": 6607,
      "ilton": 6608,
      "56": 6609,
      "Ġwing": 6610,
      "74": 6611,
      "Ġelement": 6612,
      "ĠUnder": 6613,
      "Ġsurprised": 6614,
      "achment": 6615,
      "Ġthine": 6616,
      "Ġlovely": 6617,
      "Ġsuitable": 6618,
      "blem": 6619,
      "pract": 6620,
      "Ġmoving": 6621,
      "Ġnamely": 6622,
      "ĠÎ": 6623,
      "Ġupwards": 6624,
      "Ġdischarge": 6625,
      "Ġchest": 6626,
      "ĠCrown": 6627,
      "hist": 6628,
      "Ġdiameter": 6629,
      "ĠPost": 6630,
      "Ġthereby": 6631,
      "Ġviolence": 6632,
      "Ġpap": 6633,
      "Ah": 6634,
      "cn": 6635,
      "full": 6636,
      "ashed": 6637,
      "proper": 6638,
      "Ġrarely": 6639,
      "ĠDuring": 6640,
      "Ġpardon": 6641,
      "Ġelements": 6642,
      "ĠJohnson": 6643,
      "OUS": 6644,
      "posal": 6645,
      "Ġslave": 6646,
      "ĠSen": 6647,
      "osh": 6648,
      "Ġintim": 6649,
      "ĠWales": 6650,
      "ligion": 6651,
      "ĠMet": 6652,
      "Ġexplanation": 6653,
      "Ġhol": 6654,
      "Ġdevil": 6655,
      "Ġceased": 6656,
      "Ġabdom": 6657,
      "French": 6658,
      "sing": 6659,
      "Ġborne": 6660,
      "ĠEst": 6661,
      "Ġrect": 6662,
      "Ġobvious": 6663,
      "person": 6664,
      "Ġimage": 6665,
      "nation": 6666,
      "Ġdish": 6667,
      "INE": 6668,
      "ĠBed": 6669,
      "ĠPhys": 6670,
      "ĠBro": 6671,
      "Ġcompanion": 6672,
      "Ġconj": 6673,
      "Ġfan": 6674,
      "Ġpresents": 6675,
      "Ġassumed": 6676,
      "Ġhoriz": 6677,
      "log": 6678,
      "ĠGrand": 6679,
      "young": 6680,
      "yard": 6681,
      "Ġhurt": 6682,
      "Ġnearer": 6683,
      "ĠAdd": 6684,
      "raw": 6685,
      "ĠRh": 6686,
      "Ġministers": 6687,
      "Ġdiscussion": 6688,
      "Ġwaste": 6689,
      "urg": 6690,
      "Rob": 6691,
      "ĠDeath": 6692,
      "itement": 6693,
      "Ġcorrupt": 6694,
      "cation": 6695,
      "Ġexpedition": 6696,
      "orig": 6697,
      "former": 6698,
      "Te": 6699,
      "Ġpriests": 6700,
      "Ġproceedings": 6701,
      "Ġmyster": 6702,
      "ĠDi": 6703,
      "tending": 6704,
      "TS": 6705,
      "Co": 6706,
      "Ġphr": 6707,
      "incl": 6708,
      "Ġstim": 6709,
      "Ġcompelled": 6710,
      "ulating": 6711,
      "Ġadditional": 6712,
      "during": 6713,
      "Ġnorthern": 6714,
      "Ġcir": 6715,
      "ĠMill": 6716,
      "affect": 6717,
      "Americ": 6718,
      "ĠRiver": 6719,
      "Henry": 6720,
      "Ġnoise": 6721,
      "Ġdomin": 6722,
      "Ġbegun": 6723,
      "cho": 6724,
      "Ġfavourable": 6725,
      "dig": 6726,
      "Ġprocl": 6727,
      "ĠHence": 6728,
      "othed": 6729,
      "ĠYe": 6730,
      "olate": 6731,
      "Ġinjury": 6732,
      "Ġimagination": 6733,
      "Ġmedicine": 6734,
      "Me": 6735,
      "Ġspo": 6736,
      "organ": 6737,
      "Ġcert": 6738,
      "Ġjealous": 6739,
      "Ġyours": 6740,
      "Ġplaint": 6741,
      "Ġtalking": 6742,
      "Ġvii": 6743,
      "Ġindividuals": 6744,
      "eight": 6745,
      "ĠOffice": 6746,
      "unning": 6747,
      "Ġreported": 6748,
      "Ġwand": 6749,
      "nding": 6750,
      "Ġlegal": 6751,
      "udent": 6752,
      "Ġengra": 6753,
      "Ġinduced": 6754,
      "stitute": 6755,
      "sea": 6756,
      "ĠHel": 6757,
      "ĠGentle": 6758,
      "ugh": 6759,
      "Ġnotwithstanding": 6760,
      "Ġresolution": 6761,
      "urance": 6762,
      "tes": 6763,
      "ĠGovernor": 6764,
      "ĠBab": 6765,
      "Ġsell": 6766,
      "Ġdozen": 6767,
      "Ġcentral": 6768,
      "urious": 6769,
      "ĠTime": 6770,
      "Ġinflammation": 6771,
      "Ġenable": 6772,
      "Ġconstruction": 6773,
      "high": 6774,
      "Ġexisted": 6775,
      "sure": 6776,
      "Ġhang": 6777,
      "Ġvolunt": 6778,
      "Ġhealthy": 6779,
      "Ġlime": 6780,
      "Ġprisoners": 6781,
      "oys": 6782,
      "Ġscheme": 6783,
      "Ġescaped": 6784,
      "Ġimperfect": 6785,
      "ĠTy": 6786,
      "Ġcontri": 6787,
      "second": 6788,
      "amen": 6789,
      "Ġverse": 6790,
      "board": 6791,
      "Ġinquiry": 6792,
      "Ġbrethren": 6793,
      "white": 6794,
      "Ġfriendship": 6795,
      "Ġexamples": 6796,
      "mor": 6797,
      "Ġenabled": 6798,
      "ĠCape": 6799,
      "Ġtomb": 6800,
      "oring": 6801,
      "Ġavail": 6802,
      "lay": 6803,
      "Ġencl": 6804,
      "uity": 6805,
      "Ġparallel": 6806,
      "pus": 6807,
      "Ġeminent": 6808,
      "Ġ42": 6809,
      "=,": 6810,
      "cure": 6811,
      "Ġbeds": 6812,
      "Ġfalls": 6813,
      "achers": 6814,
      "axim": 6815,
      "Ġindustry": 6816,
      "annel": 6817,
      "Ġworn": 6818,
      "ĠAh": 6819,
      "quire": 6820,
      "ĠCommons": 6821,
      "rad": 6822,
      "Ġaffl": 6823,
      "Ġvictory": 6824,
      "iastical": 6825,
      "Ġrestored": 6826,
      "ĠCamp": 6827,
      "iest": 6828,
      "Ġdoors": 6829,
      "terday": 6830,
      "79": 6831,
      "Ġrecorded": 6832,
      "Ġenorm": 6833,
      "ignation": 6834,
      "Ġhide": 6835,
      "Ġarts": 6836,
      "ILL": 6837,
      "Ġpassages": 6838,
      "ĠMuseum": 6839,
      "Ġcommunication": 6840,
      "rick": 6841,
      "Ġauthorities": 6842,
      "Ġmaintained": 6843,
      "Ġappropri": 6844,
      "Ġruns": 6845,
      "exper": 6846,
      "ĠMS": 6847,
      "amps": 6848,
      "IAN": 6849,
      "Ġeggs": 6850,
      "arian": 6851,
      "urther": 6852,
      "ĠChap": 6853,
      "Ġconvinced": 6854,
      "Ġhospital": 6855,
      "72": 6856,
      "ĠVIII": 6857,
      "eting": 6858,
      "Ġimprovement": 6859,
      "Ġsorts": 6860,
      "ĠApost": 6861,
      "ĠChristianity": 6862,
      "icro": 6863,
      "Ġrooms": 6864,
      "iae": 6865,
      "ĠSou": 6866,
      "Ġpoetry": 6867,
      "vated": 6868,
      "apan": 6869,
      "ifies": 6870,
      "Ġgift": 6871,
      "whether": 6872,
      "Ġappreci": 6873,
      "Ġempty": 6874,
      "Ġabsurd": 6875,
      "alle": 6876,
      "Ġestablishment": 6877,
      "eling": 6878,
      "coming": 6879,
      "Ġshade": 6880,
      "obs": 6881,
      "Ġattract": 6882,
      "iner": 6883,
      "UB": 6884,
      "ali": 6885,
      "Ġwithdra": 6886,
      "ĠUnion": 6887,
      "Ġignorance": 6888,
      "ĠBank": 6889,
      "Ġgent": 6890,
      "uine": 6891,
      "Fl": 6892,
      "Ġcard": 6893,
      "Ġtribes": 6894,
      "oir": 6895,
      "Ġcontact": 6896,
      "].": 6897,
      "above": 6898,
      "brought": 6899,
      "igs": 6900,
      "offee": 6901,
      "Ġcontempl": 6902,
      "ĠKings": 6903,
      "treat": 6904,
      "ĠBet": 6905,
      "Ġrighteous": 6906,
      "Ġparticulars": 6907,
      "osph": 6908,
      "oking": 6909,
      "Ġprofit": 6910,
      "Ġinterested": 6911,
      "Ġ44": 6912,
      "Ġly": 6913,
      "ĠKent": 6914,
      "ĠEmp": 6915,
      "Ġprecious": 6916,
      "illing": 6917,
      "idel": 6918,
      "Ġmurm": 6919,
      "Ġclo": 6920,
      "Ġsixty": 6921,
      "aws": 6922,
      "Ġ69": 6923,
      "uble": 6924,
      "Ġmethods": 6925,
      "Ġindependent": 6926,
      "Ġ68": 6927,
      "Ġartific": 6928,
      "Ġnerves": 6929,
      "Ġtestimony": 6930,
      "Ġreputation": 6931,
      "Ġvision": 6932,
      "Ġseeds": 6933,
      "Ġsensible": 6934,
      "wind": 6935,
      "Ġexecuted": 6936,
      "ĠWalter": 6937,
      "ĠChron": 6938,
      "ĠÃ": 6939,
      "ĠPass": 6940,
      "54": 6941,
      "Ġsubsequent": 6942,
      "Ġhit": 6943,
      "Ġatmosphere": 6944,
      "Ġretired": 6945,
      "number": 6946,
      "Ġbears": 6947,
      "Ġdrive": 6948,
      "incoln": 6949,
      "ĠRussian": 6950,
      "Ġcommittee": 6951,
      "Ġtrem": 6952,
      "Ġliterary": 6953,
      "Ġ}": 6954,
      "aus": 6955,
      "Ġintelligence": 6956,
      "ducing": 6957,
      "ĠCO": 6958,
      "Ġattempted": 6959,
      "ĠRussia": 6960,
      "ISH": 6961,
      "Ġpatri": 6962,
      "public": 6963,
      "Ġmajesty": 6964,
      "ancholy": 6965,
      "ĠLat": 6966,
      "ao": 6967,
      "istle": 6968,
      "Ġalike": 6969,
      "assad": 6970,
      "ĠGarden": 6971,
      "umm": 6972,
      "Ġdrop": 6973,
      "Ġtower": 6974,
      "Ġfaces": 6975,
      "ĠMah": 6976,
      "Ġbuy": 6977,
      "arrison": 6978,
      "Ġsuccession": 6979,
      "conscious": 6980,
      "Ġprovisions": 6981,
      "Ġglance": 6982,
      "ĠThough": 6983,
      "Ġseated": 6984,
      "rup": 6985,
      "Ġdomestic": 6986,
      "ONT": 6987,
      "bat": 6988,
      "Ġdemanded": 6989,
      "ĠPortug": 6990,
      "Ġquoted": 6991,
      "ws": 6992,
      "Ġbark": 6993,
      "Ġkindly": 6994,
      "ĠAnne": 6995,
      "ĠLo": 6996,
      "Ġantic": 6997,
      "bot": 6998,
      "ani": 6999,
      "agger": 7000,
      "71": 7001,
      "ĠRec": 7002,
      "ĠJerusalem": 7003,
      "Ġplayed": 7004,
      "Ġacquaintance": 7005,
      "pture": 7006,
      "cult": 7007,
      "ĠPop": 7008,
      "ĠAre": 7009,
      "Ġwelcome": 7010,
      "52": 7011,
      "Ġsecurity": 7012,
      "Ġpayment": 7013,
      "ĠPur": 7014,
      "went": 7015,
      "thy": 7016,
      "Ġislands": 7017,
      "ĠSE": 7018,
      "Ġtremb": 7019,
      "Ġimproved": 7020,
      "Ġmoderate": 7021,
      "Ġusing": 7022,
      "heat": 7023,
      "Ġbrilliant": 7024,
      "nn": 7025,
      "build": 7026,
      "ĠTreat": 7027,
      "ĠPerhaps": 7028,
      "Ġbutter": 7029,
      "Ġsuggest": 7030,
      "ĠHowever": 7031,
      "Ġoh": 7032,
      "Ġexperienced": 7033,
      "Ġwalking": 7034,
      "ala": 7035,
      "berg": 7036,
      "Ġcompleted": 7037,
      "Ġdemonstr": 7038,
      "Ġwhereas": 7039,
      "ĠMc": 7040,
      "phen": 7041,
      "isation": 7042,
      "Î½": 7043,
      "Ġinterpret": 7044,
      "Ġbay": 7045,
      "super": 7046,
      "Ġaffair": 7047,
      "isen": 7048,
      "Ġyon": 7049,
      "charged": 7050,
      "RAN": 7051,
      "Ġrivers": 7052,
      "umns": 7053,
      "prom": 7054,
      "uy": 7055,
      "Their": 7056,
      "passed": 7057,
      "Ġpetition": 7058,
      "Ġconfusion": 7059,
      "51": 7060,
      "Ġgran": 7061,
      "Ġconcluded": 7062,
      "exp": 7063,
      "ĠChild": 7064,
      "rines": 7065,
      "Ġkindness": 7066,
      "ĠChinese": 7067,
      "ĠâĢ": 7068,
      "Ġnut": 7069,
      "Ġnod": 7070,
      "MAN": 7071,
      "Ġangry": 7072,
      "Ġphilosophy": 7073,
      "nature": 7074,
      "Ġcontents": 7075,
      "Ġsecured": 7076,
      "Ġrecommended": 7077,
      "Ġeffected": 7078,
      "Ġgay": 7079,
      "illery": 7080,
      "arned": 7081,
      "Ġsmoke": 7082,
      "overnment": 7083,
      "ĠMich": 7084,
      "Ġneglect": 7085,
      "Ġemployment": 7086,
      "ĠArthur": 7087,
      "Ġinten": 7088,
      "appro": 7089,
      "bours": 7090,
      "Ġcas": 7091,
      "says": 7092,
      "rag": 7093,
      "ĠConstant": 7094,
      "Ġbegins": 7095,
      "Ġsettle": 7096,
      "Ġbath": 7097,
      "ĠAR": 7098,
      "foot": 7099,
      "ĠDen": 7100,
      "means": 7101,
      "Ġpressed": 7102,
      "Ġproceeding": 7103,
      "Ġ;\"": 7104,
      "Ġ41": 7105,
      "Ġdeny": 7106,
      "Ġamuse": 7107,
      "mentioned": 7108,
      "ira": 7109,
      "Ġ200": 7110,
      "ĠChina": 7111,
      "ĠIndeed": 7112,
      "ĠGer": 7113,
      "Ġvolumes": 7114,
      "Ġtribe": 7115,
      "Ġenthus": 7116,
      "Ġartist": 7117,
      "Ġhollow": 7118,
      "cu": 7119,
      "Ġprayers": 7120,
      "onday": 7121,
      "Ġopposed": 7122,
      "'^": 7123,
      "Ġtran": 7124,
      "Ġshook": 7125,
      "Ġportions": 7126,
      "AIN": 7127,
      "QU": 7128,
      "Ġarea": 7129,
      "Ġmanufacture": 7130,
      "Ġtale": 7131,
      "almost": 7132,
      "ĠDoctor": 7133,
      "Ġplanted": 7134,
      "ĠHolland": 7135,
      "upp": 7136,
      "tow": 7137,
      "perfect": 7138,
      "ĠTim": 7139,
      "Ġdoll": 7140,
      "CO": 7141,
      "Ġpersec": 7142,
      "actions": 7143,
      "Ġincluded": 7144,
      "rers": 7145,
      "Ġconducted": 7146,
      "Ġpatron": 7147,
      "aughters": 7148,
      "Ġutterly": 7149,
      "Ġammon": 7150,
      "Ġbought": 7151,
      "-\"": 7152,
      "ĠBa": 7153,
      "Ġcommerce": 7154,
      "iac": 7155,
      "iosity": 7156,
      "commun": 7157,
      "ulus": 7158,
      "Ġtouched": 7159,
      "Ġquod": 7160,
      "garet": 7161,
      "mun": 7162,
      "Ġpowder": 7163,
      "osition": 7164,
      "Ġdressed": 7165,
      "irl": 7166,
      "Ġacting": 7167,
      "Ġaccomplished": 7168,
      "Ġ90": 7169,
      "Ġmistress": 7170,
      "ulse": 7171,
      "Ġclaims": 7172,
      "Ġfacult": 7173,
      "Ġther": 7174,
      "Ġlegisl": 7175,
      "PE": 7176,
      "Ġlof": 7177,
      "ifts": 7178,
      "sen": 7179,
      "ĠRog": 7180,
      "Ġcott": 7181,
      "Aug": 7182,
      "Ġshoulder": 7183,
      "Ġwed": 7184,
      "hedral": 7185,
      "Ġshop": 7186,
      "Ġproduct": 7187,
      "Ġsigh": 7188,
      "third": 7189,
      "ĠFour": 7190,
      "ĠOther": 7191,
      "Ġtreaty": 7192,
      "once": 7193,
      "Ġfest": 7194,
      "Ġna": 7195,
      "Ġemperor": 7196,
      "Ġunex": 7197,
      "Pe": 7198,
      "Ġalcohol": 7199,
      "Ġelectric": 7200,
      "ĠBaron": 7201,
      "sil": 7202,
      "igne": 7203,
      "Ġspecific": 7204,
      "Ġsilk": 7205,
      "Ġsetting": 7206,
      "Ġuncertain": 7207,
      "Ġreceiving": 7208,
      "ribution": 7209,
      "rier": 7210,
      "Ġsulphur": 7211,
      "Ġpreserve": 7212,
      "Ġlack": 7213,
      "Ġtin": 7214,
      "Ġpainful": 7215,
      "armed": 7216,
      "Ġtransport": 7217,
      "anded": 7218,
      "Ġattacked": 7219,
      "Gr": 7220,
      "Sec": 7221,
      "forth": 7222,
      "istence": 7223,
      "ĠMex": 7224,
      "Ġprevented": 7225,
      "Ġbatt": 7226,
      "Ġmart": 7227,
      "Ġregards": 7228,
      "empor": 7229,
      "53": 7230,
      "Ġpound": 7231,
      "Ġincreasing": 7232,
      "Ġpatients": 7233,
      "ĠHead": 7234,
      "Ġcrossed": 7235,
      "eenth": 7236,
      "ĠĠĠĠĠĠĠĠĠĠĠĠĠĠĠĠĠĠĠ": 7237,
      "73": 7238,
      "Ġpick": 7239,
      "Ġdistricts": 7240,
      "ĠThy": 7241,
      "Ġdirections": 7242,
      "Ġquarters": 7243,
      "Ġwritings": 7244,
      "Ġexists": 7245,
      "different": 7246,
      "Ġshell": 7247,
      "gels": 7248,
      "inf": 7249,
      "nexion": 7250,
      "ĠAnother": 7251,
      "Ġscri": 7252,
      "izes": 7253,
      "west": 7254,
      "prove": 7255,
      "Ġbat": 7256,
      "Ġafore": 7257,
      "Ġhut": 7258,
      "Ġaltar": 7259,
      "Ġconfirmed": 7260,
      "Ġaccustomed": 7261,
      "Ġsympathy": 7262,
      "ĠOffic": 7263,
      "CTION": 7264,
      "Ġoft": 7265,
      "Ġshalt": 7266,
      "best": 7267,
      "several": 7268,
      "olis": 7269,
      "rews": 7270,
      "Ġspecul": 7271,
      "Ġalle": 7272,
      "church": 7273,
      "Ġrays": 7274,
      "URE": 7275,
      "vention": 7276,
      "inson": 7277,
      "oting": 7278,
      "Ġquantities": 7279,
      "Ġstore": 7280,
      "Ġdespair": 7281,
      "Ġenjoyed": 7282,
      "town": 7283,
      "Ġvice": 7284,
      "Ġpocket": 7285,
      "Ġstern": 7286,
      "Ġrespects": 7287,
      "ĠSk": 7288,
      "Ġadapted": 7289,
      "irk": 7290,
      "since": 7291,
      "Ġrelating": 7292,
      "duct": 7293,
      "Ġinstruction": 7294,
      "ede": 7295,
      "Ġrefuse": 7296,
      "antage": 7297,
      "ĠProf": 7298,
      "ĠGal": 7299,
      "Ġdreadful": 7300,
      "owned": 7301,
      "Ġshortly": 7302,
      "Ġdefendant": 7303,
      "ji": 7304,
      "iscop": 7305,
      "Ġclay": 7306,
      "Ġreality": 7307,
      "AK": 7308,
      "Ġclouds": 7309,
      "iron": 7310,
      "plex": 7311,
      "Ġwatched": 7312,
      "tha": 7313,
      "ĠPeople": 7314,
      "alks": 7315,
      "Ġstrike": 7316,
      "Ġneeded": 7317,
      "ĠSar": 7318,
      "Ġsatisfactory": 7319,
      "erving": 7320,
      "Thomas": 7321,
      "ervation": 7322,
      "Ġbarbar": 7323,
      "cannot": 7324,
      "Ġmembrane": 7325,
      "ĠSus": 7326,
      "Ġstem": 7327,
      "Ġol": 7328,
      "ĠDick": 7329,
      "agree": 7330,
      "ĠMadame": 7331,
      "ustrious": 7332,
      "Ġcharacteristic": 7333,
      "pline": 7334,
      "Ġamend": 7335,
      "Ġnaked": 7336,
      "Ġinstantly": 7337,
      "ĠBre": 7338,
      "burn": 7339,
      "Church": 7340,
      "Ġplenty": 7341,
      "ĠGre": 7342,
      "TO": 7343,
      "ĠDou": 7344,
      "Ġsumm": 7345,
      "object": 7346,
      "Ġcombined": 7347,
      "ĠThree": 7348,
      "Ġou": 7349,
      "ĠDivine": 7350,
      "aur": 7351,
      "Ġprompt": 7352,
      "Bar": 7353,
      "Ġdict": 7354,
      "urbed": 7355,
      "Ġclimate": 7356,
      "Ġarmed": 7357,
      "asse": 7358,
      "Ġreturning": 7359,
      "Ġconsisting": 7360,
      "ĠĠĠĠĠĠĠĠĠĠĠĠĠĠĠĠĠĠ": 7361,
      "^,": 7362,
      "iary": 7363,
      "plicity": 7364,
      "Ġgardens": 7365,
      "ĠSat": 7366,
      "Ġdoubtless": 7367,
      "Ġchapel": 7368,
      "woman": 7369,
      "otic": 7370,
      "'*": 7371,
      "ĠScripture": 7372,
      "itchen": 7373,
      "left": 7374,
      "ĠĠĠĠĠĠĠĠĠĠĠĠĠĠĠĠĠĠĠĠĠĠĠĠĠĠĠĠĠ": 7375,
      "Ġcomparison": 7376,
      "Ġmachine": 7377,
      "Ġrou": 7378,
      "James": 7379,
      "Ġyounger": 7380,
      "Ġdefinite": 7381,
      "ĠDer": 7382,
      "Ġunfortunate": 7383,
      "oli": 7384,
      "Ġcreatures": 7385,
      "Ġangle": 7386,
      "Enter": 7387,
      "Ġenlar": 7388,
      "Ġsurv": 7389,
      "Ġended": 7390,
      "Ġrude": 7391,
      "_;": 7392,
      "ĠIS": 7393,
      "Ġattain": 7394,
      "ofe": 7395,
      "Ġfled": 7396,
      "asures": 7397,
      "Ġwore": 7398,
      "Î±": 7399,
      "Ġgenerous": 7400,
      "Ġdisturb": 7401,
      "Ġthousands": 7402,
      "Ġweakness": 7403,
      "Ġrejo": 7404,
      "ĠPR": 7405,
      "Ant": 7406,
      "Ġexamine": 7407,
      "ĠUpon": 7408,
      "Ġgre": 7409,
      "enger": 7410,
      "Ġpurchase": 7411,
      "Ġwli": 7412,
      "uting": 7413,
      "estab": 7414,
      "Ġstead": 7415,
      "rich": 7416,
      "Ġnoted": 7417,
      "Ġdeclare": 7418,
      "akers": 7419,
      "geons": 7420,
      "ĠDu": 7421,
      "ĠBesides": 7422,
      "olas": 7423,
      "Ġfinger": 7424,
      "Ġterror": 7425,
      "hington": 7426,
      "Ġwherein": 7427,
      "ĠNich": 7428,
      "Ġoffend": 7429,
      "ano": 7430,
      "ĠCome": 7431,
      "Ġelsewhere": 7432,
      "Ġsovereign": 7433,
      "tu": 7434,
      "Ġpresently": 7435,
      "Ġanterior": 7436,
      "Ġmould": 7437,
      "Ġwretched": 7438,
      "dent": 7439,
      "====": 7440,
      "ĠCambridge": 7441,
      "ser": 7442,
      "according": 7443,
      "doubt": 7444,
      "Ġfifth": 7445,
      "ĠDem": 7446,
      "Ġshoulders": 7447,
      "Ġearliest": 7448,
      "mble": 7449,
      "within": 7450,
      "ĠSaviour": 7451,
      "vin": 7452,
      "Ġnotion": 7453,
      "Ġlibrary": 7454,
      "alls": 7455,
      "Ġpermanent": 7456,
      "love": 7457,
      "Ġintroduction": 7458,
      "Ġgovernor": 7459,
      "Ġneeds": 7460,
      "hire": 7461,
      "Ġcenturies": 7462,
      "Ġafforded": 7463,
      "death": 7464,
      "Ġpenet": 7465,
      "ĠDid": 7466,
      "Ġxxx": 7467,
      "ĠCHAPTER": 7468,
      "Ġbusy": 7469,
      "often": 7470,
      "Ġstruggle": 7471,
      "Ġgrain": 7472,
      "ĠAust": 7473,
      "ruit": 7474,
      "ga": 7475,
      "perhaps": 7476,
      "Ġwidow": 7477,
      "Ġreasonable": 7478,
      "Ġoffence": 7479,
      "Ġcens": 7480,
      "ector": 7481,
      "Ġdropped": 7482,
      "gged": 7483,
      "done": 7484,
      "Äģ": 7485,
      "beaut": 7486,
      "isher": 7487,
      "Ġrow": 7488,
      "Ġadministration": 7489,
      "Gl": 7490,
      "Ġbosom": 7491,
      "Ġprincip": 7492,
      "making": 7493,
      "tre": 7494,
      "Ġheir": 7495,
      "LES": 7496,
      "Ġrecovered": 7497,
      "inger": 7498,
      "ACE": 7499,
      "rather": 7500,
      "dest": 7501,
      "Ġfert": 7502,
      "Ġcalculated": 7503,
      "Ġasc": 7504,
      "ĠDublin": 7505,
      "ĠEdition": 7506,
      "Ġentering": 7507,
      "ĠVII": 7508,
      "TE": 7509,
      "cases": 7510,
      "Ġbreakfast": 7511,
      "render": 7512,
      "Ġolder": 7513,
      "ĠDar": 7514,
      "eps": 7515,
      "etic": 7516,
      "ĠCard": 7517,
      "Ġwaited": 7518,
      "Ġbot": 7519,
      "Ġwanting": 7520,
      "Ġsolic": 7521,
      "Ġwhenever": 7522,
      "Ġrecover": 7523,
      "Ġundoubt": 7524,
      "*,": 7525,
      "Ġfinds": 7526,
      "Ġridic": 7527,
      "Ġsentiment": 7528,
      "Ġaffections": 7529,
      "parent": 7530,
      "lord": 7531,
      "ĠOrder": 7532,
      "ees": 7533,
      "Cor": 7534,
      "Good": 7535,
      "Ġfierce": 7536,
      "Vol": 7537,
      "Ġfruits": 7538,
      "Ġvoyage": 7539,
      "ĠNever": 7540,
      "Ġascertain": 7541,
      "Ġprinces": 7542,
      "Ġoi": 7543,
      "Ġtradition": 7544,
      "vate": 7545,
      "retch": 7546,
      "Ġexceedingly": 7547,
      "Ġlargest": 7548,
      "Ġocean": 7549,
      "Ġ150": 7550,
      "Ġconceive": 7551,
      "SC": 7552,
      "ĠRomans": 7553,
      "Ġcompass": 7554,
      "Ġspl": 7555,
      "tro": 7556,
      "Ġrevolution": 7557,
      "unct": 7558,
      "Ġsounds": 7559,
      "urse": 7560,
      "ĠBon": 7561,
      "Ġlabours": 7562,
      "ĠAccording": 7563,
      "Ġlust": 7564,
      "Ġquietly": 7565,
      "Ġthroat": 7566,
      "allow": 7567,
      "Ġfriendly": 7568,
      "Ġconsequences": 7569,
      "Ġ160": 7570,
      "ĠTer": 7571,
      "alis": 7572,
      "uther": 7573,
      "ĠJacob": 7574,
      "dy": 7575,
      "ima": 7576,
      "Ġsettlement": 7577,
      "ĠInf": 7578,
      "Ġdecision": 7579,
      "Ġlabor": 7580,
      "Ġflame": 7581,
      "late": 7582,
      "hat": 7583,
      "Charles": 7584,
      "Ġuter": 7585,
      "Ġnost": 7586,
      "ĠTw": 7587,
      "chlor": 7588,
      "Ġprices": 7589,
      "Ġcandid": 7590,
      "Ne": 7591,
      "Ġfitted": 7592,
      "Ġlimits": 7593,
      "Ġburnt": 7594,
      "Ġpreparation": 7595,
      "ĠWorks": 7596,
      "Ġpoem": 7597,
      "reement": 7598,
      "Ġ170": 7599,
      "looked": 7600,
      "ĠBot": 7601,
      "Ġinnocent": 7602,
      "Ġencourage": 7603,
      "Ġdetermine": 7604,
      "Ġvest": 7605,
      "ighed": 7606,
      "agues": 7607,
      "ĠPlace": 7608,
      "udence": 7609,
      "pub": 7610,
      "adel": 7611,
      "manner": 7612,
      "Ġearl": 7613,
      "Ġpolice": 7614,
      "ĠRose": 7615,
      "],": 7616,
      "Come": 7617,
      "Es": 7618,
      "resses": 7619,
      "ĠAmb": 7620,
      "amin": 7621,
      "ĠNational": 7622,
      "Ġslender": 7623,
      "aign": 7624,
      "ENTS": 7625,
      "Ġaccess": 7626,
      "Ġflag": 7627,
      "Ġstick": 7628,
      "itudes": 7629,
      "Ġconsiderably": 7630,
      "Ġapparatus": 7631,
      "eman": 7632,
      "zes": 7633,
      "Ġtelling": 7634,
      "ĠBoth": 7635,
      "ancellor": 7636,
      "ipped": 7637,
      "Thou": 7638,
      "Ġbelonged": 7639,
      "iit": 7640,
      "better": 7641,
      "piece": 7642,
      "Ġoath": 7643,
      "Hist": 7644,
      "Im": 7645,
      "idity": 7646,
      "Ġcollege": 7647,
      "Ġperfection": 7648,
      "Ġdesirable": 7649,
      "Ġchoose": 7650,
      "acqu": 7651,
      "Ã¢": 7652,
      "ĠAssociation": 7653,
      "open": 7654,
      "Ġturns": 7655,
      "hich": 7656,
      "urred": 7657,
      "Ġmasters": 7658,
      "Ġsalvation": 7659,
      "Ġperceive": 7660,
      "Ġtalked": 7661,
      "bow": 7662,
      "Ġlisten": 7663,
      "ATE": 7664,
      "grat": 7665,
      "bal": 7666,
      "sed": 7667,
      "Ġprize": 7668,
      "prise": 7669,
      "oston": 7670,
      "perate": 7671,
      "Ġunhappy": 7672,
      "Ġdecay": 7673,
      "lon": 7674,
      "olation": 7675,
      "Ġjustly": 7676,
      "Ġcutting": 7677,
      "Ġadmiration": 7678,
      "ĠMoses": 7679,
      "Ġwrites": 7680,
      "Ġmiserable": 7681,
      "Ġconviction": 7682,
      "Ġhistorical": 7683,
      "Ġelection": 7684,
      "Ġix": 7685,
      "Ġdeparture": 7686,
      "din": 7687,
      "Ġtn": 7688,
      "ĠSaturday": 7689,
      "Ġluck": 7690,
      "ygen": 7691,
      "Ġofficial": 7692,
      "Î¿": 7693,
      "shaped": 7694,
      "Ġprosec": 7695,
      "Ġneat": 7696,
      "Ġhospit": 7697,
      "Ġhate": 7698,
      "Ġteaching": 7699,
      "Ġcoloured": 7700,
      "itus": 7701,
      "Ġproducing": 7702,
      "Ġboats": 7703,
      "udden": 7704,
      "^'": 7705,
      "Ġing": 7706,
      ",*": 7707,
      "OV": 7708,
      "ÏĦ": 7709,
      "Ġresistance": 7710,
      "Ġcitizens": 7711,
      "ĠâĢ¦": 7712,
      "olf": 7713,
      "Ġfed": 7714,
      "cribe": 7715,
      "ka": 7716,
      "jus": 7717,
      "Ġsteel": 7718,
      "unc": 7719,
      "aceous": 7720,
      "Ġgle": 7721,
      "ĠLeg": 7722,
      "VII": 7723,
      "weet": 7724,
      "Ġroll": 7725,
      "ferences": 7726,
      "dec": 7727,
      "Ġpursued": 7728,
      "ecause": 7729,
      "Ġhuge": 7730,
      "hands": 7731,
      "arms": 7732,
      "Ġflood": 7733,
      "Ġwinds": 7734,
      "oments": 7735,
      "oleon": 7736,
      "Ġcousin": 7737,
      "volution": 7738,
      "amation": 7739,
      "Ġanxiety": 7740,
      "zo": 7741,
      "uscript": 7742,
      "yng": 7743,
      "Ġtent": 7744,
      "Ġcouple": 7745,
      "hess": 7746,
      "Ġinfect": 7747,
      "Ġpurple": 7748,
      "Ġoffices": 7749,
      "Ġuseless": 7750,
      "ĠCle": 7751,
      "Ġextract": 7752,
      "Ġbetray": 7753,
      "Ġconvenient": 7754,
      "human": 7755,
      "Ġexcitement": 7756,
      "Ġcha": 7757,
      "Ġagricult": 7758,
      "OHN": 7759,
      "ĠIsa": 7760,
      "leton": 7761,
      "Ġplainly": 7762,
      "does": 7763,
      "bad": 7764,
      "Ġurged": 7765,
      "Ġta": 7766,
      "Ġinher": 7767,
      "adder": 7768,
      "Ġhal": 7769,
      "Ġplans": 7770,
      "Ġexcuse": 7771,
      "Ġcolumn": 7772,
      "Ġtherein": 7773,
      "ulent": 7774,
      "Ġsever": 7775,
      "Ġintense": 7776,
      "Ġfought": 7777,
      "Ġcultivated": 7778,
      "Ġdetail": 7779,
      "Ġdescribe": 7780,
      "ĠHo": 7781,
      "pired": 7782,
      "oused": 7783,
      "ĠSupp": 7784,
      "George": 7785,
      "AU": 7786,
      "castle": 7787,
      "eless": 7788,
      "near": 7789,
      "ĠAL": 7790,
      "Ġventure": 7791,
      "Ste": 7792,
      "Ġimpart": 7793,
      "89": 7794,
      "round": 7795,
      "eded": 7796,
      "ĠMartin": 7797,
      "ĠDra": 7798,
      "uation": 7799,
      "Ġanticip": 7800,
      "ĠTemple": 7801,
      "ĠFle": 7802,
      "Ġfeed": 7803,
      "Ġnevertheless": 7804,
      "Ġselected": 7805,
      "Ġrele": 7806,
      "Ġcapacity": 7807,
      "Ġsentiments": 7808,
      "Ġpier": 7809,
      "ults": 7810,
      "Ġcontrad": 7811,
      "Ġconsidering": 7812,
      "Ġremote": 7813,
      "Ġlargely": 7814,
      "ighth": 7815,
      "ĠHaving": 7816,
      "Ġdistinguish": 7817,
      "uated": 7818,
      "blood": 7819,
      "heard": 7820,
      "Ġcanal": 7821,
      "Ġmovements": 7822,
      "till": 7823,
      "Ġhonor": 7824,
      "Ġprovide": 7825,
      "Ġhole": 7826,
      "icus": 7827,
      "Ġlament": 7828,
      "Ġscenes": 7829,
      "city": 7830,
      "ĠTurk": 7831,
      "Ġurine": 7832,
      "represent": 7833,
      "^.": 7834,
      "Ġcompanions": 7835,
      "Ġpermit": 7836,
      "Ġcotton": 7837,
      "Car": 7838,
      "Ġwaa": 7839,
      "Ġ51": 7840,
      "Ġleads": 7841,
      "covered": 7842,
      "words": 7843,
      "Ġviii": 7844,
      "suff": 7845,
      "Ġcounsel": 7846,
      "top": 7847,
      "eties": 7848,
      "Ġscattered": 7849,
      "ĠLincoln": 7850,
      "Ġancest": 7851,
      "yes": 7852,
      "Ġenormous": 7853,
      "Ġef": 7854,
      "compl": 7855,
      "Ġthread": 7856,
      "Ġbrings": 7857,
      "Ġfel": 7858,
      "anting": 7859,
      "rend": 7860,
      "alogue": 7861,
      "particular": 7862,
      "Ġchain": 7863,
      "Ġsees": 7864,
      "ĠRight": 7865,
      "Ġcontinually": 7866,
      "few": 7867,
      "Jan": 7868,
      "Ġsyn": 7869,
      "Ġnob": 7870,
      "Ġmagnificent": 7871,
      "Ġincom": 7872,
      "Ġdated": 7873,
      "Ġec": 7874,
      "Ġaccompany": 7875,
      "Dig": 7876,
      "Ġdeed": 7877,
      "Oct": 7878,
      "ĠSac": 7879,
      "gend": 7880,
      "Ġtons": 7881,
      "uming": 7882,
      "Ġsubstances": 7883,
      "green": 7884,
      "Ġbelongs": 7885,
      "oping": 7886,
      "Ġhell": 7887,
      "Sm": 7888,
      "picuous": 7889,
      "phy": 7890,
      "Ġ54": 7891,
      "Ġwestern": 7892,
      "Ġpublication": 7893,
      "Ġdistinctly": 7894,
      "Ġtired": 7895,
      "vag": 7896,
      "Ġgently": 7897,
      "Ġremoval": 7898,
      "iveness": 7899,
      "ieur": 7900,
      "inous": 7901,
      "Ġencoura": 7902,
      "ĠBuck": 7903,
      "rors": 7904,
      "lab": 7905,
      "Ġinstinct": 7906,
      "ĠAdmiral": 7907,
      "employ": 7908,
      "Ġplaintiff": 7909,
      "han": 7910,
      "Ġdogs": 7911,
      "istrict": 7912,
      "ĠCross": 7913,
      "Ġprovision": 7914,
      "Ġsouthern": 7915,
      "bear": 7916,
      "ĠÂ©": 7917,
      "Ġwouldn": 7918,
      "Ġsiege": 7919,
      "Ġcourts": 7920,
      "Ġsmiled": 7921,
      "rene": 7922,
      "ado": 7923,
      "Ġmelancholy": 7924,
      "ocation": 7925,
      "struction": 7926,
      "Ġswift": 7927,
      "Bo": 7928,
      "ĠAdam": 7929,
      "encies": 7930,
      "Ġbreaking": 7931,
      "grow": 7932,
      "ĠJapan": 7933,
      "Ġattribut": 7934,
      "rat": 7935,
      "Ġanch": 7936,
      "Ġcouldn": 7937,
      "ĠMP": 7938,
      "Ġton": 7939,
      "engers": 7940,
      "org": 7941,
      "Ġveins": 7942,
      "ava": 7943,
      "Ġregions": 7944,
      "wit": 7945,
      "Che": 7946,
      "close": 7947,
      "door": 7948,
      "Ġlover": 7949,
      "ĠChief": 7950,
      "Ġcomment": 7951,
      "diction": 7952,
      "Ġham": 7953,
      "LAND": 7954,
      "ĠFam": 7955,
      "Ġride": 7956,
      "Ġfinest": 7957,
      "children": 7958,
      "ĠMass": 7959,
      "Ġpassions": 7960,
      "alm": 7961,
      "ĠĠĠĠĠĠĠĠĠĠĠĠĠĠĠĠĠĠĠĠ": 7962,
      "Rich": 7963,
      "Ġeloqu": 7964,
      "ĠMother": 7965,
      "Ġactivity": 7966,
      "viously": 7967,
      "Ġlog": 7968,
      "inence": 7969,
      "ĠAgain": 7970,
      "Ġfoolish": 7971,
      "Ġcyl": 7972,
      "Ġmisery": 7973,
      "Ġcrop": 7974,
      "Ġperceived": 7975,
      "CHAP": 7976,
      "quisite": 7977,
      "Ġabundant": 7978,
      "iat": 7979,
      "Ġkeen": 7980,
      "Mon": 7981,
      "Ġmistaken": 7982,
      "Ġrequis": 7983,
      "Ġrecords": 7984,
      "Ġchemical": 7985,
      "ĠGospel": 7986,
      "flict": 7987,
      "ĠGar": 7988,
      "imately": 7989,
      "istics": 7990,
      "zy": 7991,
      "omed": 7992,
      "BR": 7993,
      "Ġserm": 7994,
      "Ġhind": 7995,
      "OF": 7996,
      "mil": 7997,
      "ĠSun": 7998,
      "got": 7999,
      "99": 8000,
      "Ġbee": 8001,
      "iverpool": 8002,
      "Ġfeather": 8003,
      "Ġaltered": 8004,
      "Ġextremity": 8005,
      "ĠTrade": 8006,
      "Ġconnect": 8007,
      "Ġdram": 8008,
      "works": 8009,
      "poration": 8010,
      "Ġconverted": 8011,
      "ders": 8012,
      "ĠĠĠĠĠĠĠĠĠĠĠĠĠĠĠĠĠĠĠĠĠĠĠĠĠĠĠĠ": 8013,
      "ĠCommon": 8014,
      "Ġadds": 8015,
      "Ġstronger": 8016,
      "stru": 8017,
      "Ġvener": 8018,
      "Ġperf": 8019,
      "Ġholds": 8020,
      "Ġconclude": 8021,
      "SON": 8022,
      "oma": 8023,
      "ensity": 8024,
      "Ġpartial": 8025,
      "Ġcommunity": 8026,
      "ĠBefore": 8027,
      "Ġdepends": 8028,
      "ĠPot": 8029,
      "Ġobedience": 8030,
      "Ġcolumns": 8031,
      "Ġtissue": 8032,
      "Ġlights": 8033,
      "Ġinvestig": 8034,
      "Ġmasses": 8035,
      "lessly": 8036,
      "Ġnerve": 8037,
      "Ġcorresponding": 8038,
      "ĠMod": 8039,
      "offic": 8040,
      "Ġweap": 8041,
      "ĠPap": 8042,
      "Ġkey": 8043,
      "Ġmedium": 8044,
      "Ġretire": 8045,
      "Ġelder": 8046,
      "Ġfeast": 8047,
      "NOT": 8048,
      "OB": 8049,
      "Ġcheck": 8050,
      "Ġnurs": 8051,
      "ĠPle": 8052,
      "ĠPublic": 8053,
      "past": 8054,
      "Ġounces": 8055,
      "Ġagent": 8056,
      "liver": 8057,
      "Ġrot": 8058,
      "Ġaug": 8059,
      "IGH": 8060,
      "Ġawful": 8061,
      "Ġmagistr": 8062,
      "everal": 8063,
      "ĠJones": 8064,
      "ieu": 8065,
      "Ġanalog": 8066,
      "Ġvaried": 8067,
      "vet": 8068,
      "Ġrear": 8069,
      "Ġwaves": 8070,
      "Ġcher": 8071,
      "Ġautumn": 8072,
      "Ġrisk": 8073,
      "Ġdrops": 8074,
      "UE": 8075,
      "word": 8076,
      "Ġeleven": 8077,
      "Ġintest": 8078,
      "Are": 8079,
      "ele": 8080,
      "court": 8081,
      "ciences": 8082,
      "Ġdried": 8083,
      "Ġretained": 8084,
      "except": 8085,
      "mediately": 8086,
      "ITH": 8087,
      "Spe": 8088,
      "Ġtreasure": 8089,
      "ques": 8090,
      "ĠNothing": 8091,
      "Another": 8092,
      "ORY": 8093,
      "ĠWork": 8094,
      "Ġcovering": 8095,
      "ĠJustice": 8096,
      "ensis": 8097,
      "Ġabsent": 8098,
      "Ġemer": 8099,
      "Ġ*'": 8100,
      "cum": 8101,
      "Ġincident": 8102,
      "Ġgospel": 8103,
      "Two": 8104,
      "Ġelegant": 8105,
      "Ġmarble": 8106,
      "aned": 8107,
      "Was": 8108,
      "Ġpositive": 8109,
      "pop": 8110,
      "Ġtroubles": 8111,
      "âģ": 8112,
      "ĠFair": 8113,
      "Ġanger": 8114,
      "Ġregiment": 8115,
      "ĠLight": 8116,
      "Ġbree": 8117,
      "vas": 8118,
      "istent": 8119,
      "retion": 8120,
      "cast": 8121,
      "ois": 8122,
      "ĠEt": 8123,
      "version": 8124,
      "bb": 8125,
      "Ġpref": 8126,
      "hal": 8127,
      "Ġordin": 8128,
      "Ġelected": 8129,
      "Ġstudied": 8130,
      "dict": 8131,
      "Ġdenied": 8132,
      "Ġreform": 8133,
      "ummer": 8134,
      "soon": 8135,
      "Ġbid": 8136,
      "Ġliver": 8137,
      "Coll": 8138,
      "Ġtide": 8139,
      "Ġstuff": 8140,
      "gone": 8141,
      "olia": 8142,
      "_)": 8143,
      "lers": 8144,
      "Ġnu": 8145,
      "Ġcareer": 8146,
      "olution": 8147,
      "Ġcavity": 8148,
      "fluence": 8149,
      "Ġshed": 8150,
      "Ġtranslation": 8151,
      "Ġmultitude": 8152,
      "Ġamaz": 8153,
      "Ġsmell": 8154,
      "VIII": 8155,
      "ollen": 8156,
      "leness": 8157,
      "Ġpatience": 8158,
      "Ġattained": 8159,
      "wart": 8160,
      "Ġintellectual": 8161,
      "following": 8162,
      "Just": 8163,
      "Ġretain": 8164,
      "Ġresist": 8165,
      "Ġwooden": 8166,
      "ĠFar": 8167,
      "oni": 8168,
      "Ġliber": 8169,
      "amount": 8170,
      "ping": 8171,
      "Ġpleasing": 8172,
      "artment": 8173,
      "Ġlimbs": 8174,
      "ĠEle": 8175,
      "Ġmm": 8176,
      "Ġfet": 8177,
      "Ġinstruments": 8178,
      "ĠDom": 8179,
      "fed": 8180,
      "Ġnewsp": 8181,
      "zed": 8182,
      "ifully": 8183,
      "iber": 8184,
      "something": 8185,
      "Ġ65": 8186,
      "ĠWestminster": 8187,
      "Sy": 8188,
      "Ġblessing": 8189,
      "TR": 8190,
      "Ġassume": 8191,
      "Ġlan": 8192,
      "Ġstudents": 8193,
      "dam": 8194,
      "inging": 8195,
      "Ġlungs": 8196,
      "ources": 8197,
      "Ġattempts": 8198,
      "apes": 8199,
      "illes": 8200,
      "hension": 8201,
      "Ġcuriosity": 8202,
      "Ġdeliber": 8203,
      "otions": 8204,
      "ĠSaint": 8205,
      "Ġbasis": 8206,
      "Ġruins": 8207,
      "urely": 8208,
      "Ġincons": 8209,
      "Ġfurnish": 8210,
      "eur": 8211,
      "Ġrage": 8212,
      "Ġwrought": 8213,
      "short": 8214,
      "inery": 8215,
      "Ġmillions": 8216,
      "oped": 8217,
      "Ġvirtues": 8218,
      "Ġyesterday": 8219,
      "Ġlig": 8220,
      "Ġnormal": 8221,
      "Ġweary": 8222,
      "Ġspare": 8223,
      "Ġproduces": 8224,
      "Ġdefic": 8225,
      "Ġgrains": 8226,
      "ĠSand": 8227,
      "tell": 8228,
      "coloured": 8229,
      "Ġom": 8230,
      "ader": 8231,
      "Ac": 8232,
      "Ġapproaching": 8233,
      "Ġvulgar": 8234,
      "Ġstories": 8235,
      "ipes": 8236,
      "thr": 8237,
      "ĠLittle": 8238,
      "Ġprofound": 8239,
      "ĠMost": 8240,
      "pot": 8241,
      "Ġintr": 8242,
      "Ġhonourable": 8243,
      "Ġmerchant": 8244,
      "Capt": 8245,
      "Ġassembled": 8246,
      "ĠHave": 8247,
      "Ġbeloved": 8248,
      "ĠTurn": 8249,
      "Ġowner": 8250,
      "Ġcomparatively": 8251,
      "ĠVan": 8252,
      "Ġlofty": 8253,
      "Ġfare": 8254,
      "soever": 8255,
      "West": 8256,
      "fif": 8257,
      "Ġcree": 8258,
      "HI": 8259,
      "Ġcease": 8260,
      "iries": 8261,
      "Ġtorn": 8262,
      "Ġsore": 8263,
      "ĠĠĠĠĠĠĠĠĠĠĠĠĠĠĠĠĠĠĠĠĠĠĠĠĠĠ": 8264,
      "elle": 8265,
      "Ġcirculation": 8266,
      "Ġcolon": 8267,
      "find": 8268,
      "ĠCommissioners": 8269,
      "Ġfirmly": 8270,
      "ĠLanc": 8271,
      "Ġsacrific": 8272,
      "ĠHaw": 8273,
      "school": 8274,
      "Ġsenses": 8275,
      "ĠĠĠĠĠĠĠĠĠĠĠĠĠĠĠĠĠĠĠĠĠ": 8276,
      "Ġrival": 8277,
      "riages": 8278,
      "ĠGrace": 8279,
      "Ġdance": 8280,
      "Ġtiie": 8281,
      "Ġprepare": 8282,
      "Ġfathers": 8283,
      "Ġdecom": 8284,
      "fts": 8285,
      "La": 8286,
      "aylor": 8287,
      "mediate": 8288,
      "Ġsuspicion": 8289,
      "Ġbron": 8290,
      "Ġlion": 8291,
      "ĠMons": 8292,
      "posure": 8293,
      "ĠGil": 8294,
      "Ġdoubtful": 8295,
      "cra": 8296,
      "def": 8297,
      "Ġgenuine": 8298,
      "ĠEN": 8299,
      "Ġadvoc": 8300,
      "Ġoutward": 8301,
      "Ġjudges": 8302,
      "lain": 8303,
      "Ġwire": 8304,
      "Ġboiling": 8305,
      "circum": 8306,
      "ĠKingdom": 8307,
      "Ġscorn": 8308,
      "Ġproperties": 8309,
      "ĠBas": 8310,
      "/'": 8311,
      "Ġdesigned": 8312,
      "Ġbloom": 8313,
      "Ġdrove": 8314,
      "ĠAsia": 8315,
      "Ġwheel": 8316,
      "Ġfears": 8317,
      "Ġthir": 8318,
      "vii": 8319,
      "cus": 8320,
      "ĠGreeks": 8321,
      "Acc": 8322,
      "Âł": 8323,
      "Ġnav": 8324,
      "nut": 8325,
      "Ġ56": 8326,
      "ilis": 8327,
      "twenty": 8328,
      "hur": 8329,
      "Ġlifted": 8330,
      "Ġliberal": 8331,
      "Ġhurried": 8332,
      "Ġgoodness": 8333,
      "Ġbehalf": 8334,
      "98": 8335,
      "difficult": 8336,
      "Ġcommercial": 8337,
      "Ġknees": 8338,
      "Ġcultivation": 8339,
      "Ġremainder": 8340,
      "direct": 8341,
      "Ġ53": 8342,
      "black": 8343,
      "Ġadorn": 8344,
      "Ġsteep": 8345,
      "ĠLake": 8346,
      "arte": 8347,
      "Ġgratitude": 8348,
      "Ã¨": 8349,
      "Ġjuris": 8350,
      "ĠĠĠĠĠĠĠĠĠĠĠĠĠĠĠĠĠĠĠĠĠĠĠĠĠĠĠĠĠĠ": 8351,
      "ĠĠĠĠĠĠĠĠĠĠĠĠĠĠĠĠĠĠĠĠĠĠĠĠĠĠĠĠĠĠĠ": 8352,
      "hibition": 8353,
      "ben": 8354,
      "Ġcompound": 8355,
      "comfort": 8356,
      "Did": 8357,
      "Ġneglected": 8358,
      "Ġengage": 8359,
      "Ġisn": 8360,
      "Ġphysician": 8361,
      "aired": 8362,
      "Ġfunctions": 8363,
      "ĠActs": 8364,
      "ĠBart": 8365,
      "comes": 8366,
      "Ġposterior": 8367,
      "ĠThom": 8368,
      "Ġaccum": 8369,
      "Ġspend": 8370,
      "Ġrepent": 8371,
      "ayer": 8372,
      "Ġpulse": 8373,
      "wen": 8374,
      "ĠYoung": 8375,
      "azine": 8376,
      "Ġmu": 8377,
      "Ġinvited": 8378,
      "Ġcopies": 8379,
      "ĠFOR": 8380,
      "bri": 8381,
      "Ġtha": 8382,
      "avalry": 8383,
      "Ġendeavoured": 8384,
      "Ġdaughters": 8385,
      "Ġinduce": 8386,
      "Ġextending": 8387,
      "Ġmi": 8388,
      "Ġgates": 8389,
      "iger": 8390,
      "elly": 8391,
      "Ġconsisted": 8392,
      "Ġihe": 8393,
      "uced": 8394,
      "Lady": 8395,
      "Ġgeneration": 8396,
      "ographical": 8397,
      "venant": 8398,
      "quet": 8399,
      "ĠObs": 8400,
      "hind": 8401,
      "conn": 8402,
      "Ġidle": 8403,
      "ĠLetter": 8404,
      "Ġrailway": 8405,
      "requently": 8406,
      "Ġpipe": 8407,
      "Ġnom": 8408,
      "Ġphenomena": 8409,
      "mg": 8410,
      "Des": 8411,
      "Ġtermed": 8412,
      "occasion": 8413,
      "ĠSamuel": 8414,
      "Ġdeparted": 8415,
      "amped": 8416,
      "Ġfavor": 8417,
      "Ġbond": 8418,
      "amph": 8419,
      "ĠProtestant": 8420,
      "Ġ64": 8421,
      "del": 8422,
      "utor": 8423,
      "parts": 8424,
      "ghter": 8425,
      "ĠFlore": 8426,
      "IE": 8427,
      "Ġenlarged": 8428,
      "Ġindis": 8429,
      "Ġscul": 8430,
      "aU": 8431,
      "folk": 8432,
      "Though": 8433,
      "Ġdiet": 8434,
      "ĠCro": 8435,
      "Ġshining": 8436,
      "Ġcreation": 8437,
      "herent": 8438,
      "vous": 8439,
      "ĠAbout": 8440,
      "British": 8441,
      "pless": 8442,
      "lit": 8443,
      "icating": 8444,
      "Ġcontrast": 8445,
      "spirit": 8446,
      "Ġhappens": 8447,
      "Ġdeck": 8448,
      "Ġsite": 8449,
      "dev": 8450,
      "Ġgrows": 8451,
      "Ġimprison": 8452,
      "Ġstrain": 8453,
      "Ġcondemned": 8454,
      "Ġming": 8455,
      "Ġ57": 8456,
      "changed": 8457,
      "Ġerrors": 8458,
      "Ġtemp": 8459,
      "Ġmortal": 8460,
      "ĠEss": 8461,
      "Ġsubmit": 8462,
      "Ġbri": 8463,
      "liness": 8464,
      "Ġvir": 8465,
      "uds": 8466,
      "ĠHard": 8467,
      "unter": 8468,
      "ĠKnight": 8469,
      "Ġprevailed": 8470,
      "Ġborder": 8471,
      "Ġperformance": 8472,
      "Ġcomplex": 8473,
      "Ġ120": 8474,
      "nde": 8475,
      "possess": 8476,
      "ĠĠĠĠĠĠĠĠĠĠĠĠĠĠĠĠĠĠĠĠĠĠĠ": 8477,
      "Ġmoments": 8478,
      "ĠWashington": 8479,
      "ĠDuc": 8480,
      "Ġvit": 8481,
      "Ġvap": 8482,
      "Ġ75": 8483,
      "Ġambition": 8484,
      "table": 8485,
      "Cr": 8486,
      "free": 8487,
      "Ġmanagement": 8488,
      "ĠGreece": 8489,
      "sometimes": 8490,
      "Ġdevotion": 8491,
      "class": 8492,
      "Ġindicated": 8493,
      "Ġconnexion": 8494,
      "Ġprovinces": 8495,
      "Ġterritory": 8496,
      "Go": 8497,
      "Ġappointment": 8498,
      "Ġeastern": 8499,
      "Ġfailure": 8500,
      "fortune": 8501,
      "ĠOnly": 8502,
      "Har": 8503,
      "Ġassigned": 8504,
      "Ġ52": 8505,
      "bene": 8506,
      "Ġmoreover": 8507,
      "Ġnay": 8508,
      "edge": 8509,
      "ciation": 8510,
      "Ġcharity": 8511,
      "Ġalk": 8512,
      "inks": 8513,
      "ĠĠĠĠĠĠĠĠĠĠĠĠĠĠĠĠĠĠĠĠĠĠĠĠĠ": 8514,
      "Ġmischief": 8515,
      "lan": 8516,
      "Ġshock": 8517,
      "Ġaccommod": 8518,
      "ĠSince": 8519,
      "Ġoe": 8520,
      "sus": 8521,
      "Ġliked": 8522,
      "Ġcheap": 8523,
      "ĠEach": 8524,
      "Ġphrase": 8525,
      "money": 8526,
      "ĠBull": 8527,
      "Ġblame": 8528,
      "ĠĠĠĠĠĠĠĠĠĠĠĠĠĠĠĠĠĠĠĠĠĠĠĠĠĠĠ": 8529,
      "Ġimmort": 8530,
      "Ġgross": 8531,
      "ĠDur": 8532,
      "Ġhaue": 8533,
      "'-": 8534,
      "tm": 8535,
      "opes": 8536,
      "acted": 8537,
      "Ġdilig": 8538,
      "Ġartificial": 8539,
      "ĠHay": 8540,
      "perial": 8541,
      "incre": 8542,
      "Ġinsects": 8543,
      "Ġlimit": 8544,
      "Ġarising": 8545,
      "Ġcommend": 8546,
      "ĠLew": 8547,
      "Ġcu": 8548,
      "Ġrespective": 8549,
      "hill": 8550,
      "Ġconsec": 8551,
      "Ġsaith": 8552,
      "Ġaunt": 8553,
      "Ver": 8554,
      "Ġgracious": 8555,
      "Ġfunction": 8556,
      "tree": 8557,
      "ixt": 8558,
      "hent": 8559,
      "ĠArmy": 8560,
      "Ġbatter": 8561,
      "Every": 8562,
      "Ġthunder": 8563,
      "Ġgroups": 8564,
      "Ġrode": 8565,
      "ĠFlor": 8566,
      "Christian": 8567,
      "Ġsupper": 8568,
      "pson": 8569,
      "ĠHand": 8570,
      "har": 8571,
      "ĠHind": 8572,
      "dise": 8573,
      "Ġvine": 8574,
      "mund": 8575,
      "Ġadmirable": 8576,
      "RIC": 8577,
      "Ġfighting": 8578,
      "ĠId": 8579,
      "sac": 8580,
      "Ġinvolved": 8581,
      "anus": 8582,
      "Ġborrow": 8583,
      "ĠEnd": 8584,
      "Ġreview": 8585,
      "Ġprotest": 8586,
      "early": 8587,
      "Ġfeeble": 8588,
      "try": 8589,
      "portions": 8590,
      "intend": 8591,
      "ĠScotch": 8592,
      "Ġseal": 8593,
      "Ġarguments": 8594,
      "Chap": 8595,
      "Ġtb": 8596,
      "Ġbrothers": 8597,
      "gow": 8598,
      "Ġuses": 8599,
      "osity": 8600,
      "Ġbalance": 8601,
      "rage": 8602,
      "Ġdepartment": 8603,
      "cat": 8604,
      "Ġdisorder": 8605,
      "Ġhumanity": 8606,
      "ĠCountry": 8607,
      "Ġsavage": 8608,
      "Ġeighteen": 8609,
      "Ġentertained": 8610,
      "Ġperiods": 8611,
      "Ġdescended": 8612,
      "Ġstraw": 8613,
      "period": 8614,
      "enny": 8615,
      "Ġstudent": 8616,
      "Ġexchange": 8617,
      "riday": 8618,
      "Ġwatching": 8619,
      "ĠStill": 8620,
      "Ġmessage": 8621,
      "Ġannounced": 8622,
      "Ġlowest": 8623,
      "mans": 8624,
      "sight": 8625,
      "quite": 8626,
      ",[": 8627,
      "Ġsigned": 8628,
      "Ġful": 8629,
      "Ġoccasioned": 8630,
      "enough": 8631,
      "Ġwarrant": 8632,
      "Ġconcent": 8633,
      "ĠTestament": 8634,
      "Hy": 8635,
      "Ġplaying": 8636,
      "ĠEarth": 8637,
      "sufficient": 8638,
      "until": 8639,
      "Ġrepair": 8640,
      "Ġboil": 8641,
      "ĠAustr": 8642,
      "Ġmerits": 8643,
      "Ġfourteen": 8644,
      "Ġremed": 8645,
      "Ġsinging": 8646,
      "Ġlords": 8647,
      ".).": 8648,
      "Ġample": 8649,
      "ĠReport": 8650,
      "Ġmounted": 8651,
      "sign": 8652,
      "ĠTor": 8653,
      "Ġpronounced": 8654,
      "rea": 8655,
      "Ġbishops": 8656,
      "Ġintervals": 8657,
      "PL": 8658,
      "Ġimagined": 8659,
      "ĠĠĠĠĠĠĠĠĠĠĠĠĠĠĠĠĠĠĠĠĠĠ": 8660,
      "ĠCOM": 8661,
      "ĠCarl": 8662,
      "Ġsuspect": 8663,
      "ĠPoor": 8664,
      "pse": 8665,
      "Ġattacks": 8666,
      "ĠLow": 8667,
      "gentle": 8668,
      "ĠWed": 8669,
      "spring": 8670,
      "especially": 8671,
      "Ġdisappeared": 8672,
      "Ġfellows": 8673,
      "ĠLamb": 8674,
      "ĠHum": 8675,
      "Ġhousehold": 8676,
      "esley": 8677,
      "Ġwages": 8678,
      "olved": 8679,
      "isms": 8680,
      "Ġinstitution": 8681,
      "ĠON": 8682,
      "appearance": 8683,
      "Ġnobody": 8684,
      "Ġrestra": 8685,
      "Ġhay": 8686,
      "gi": 8687,
      "Thy": 8688,
      "Ġstiff": 8689,
      "bas": 8690,
      "ĠHa": 8691,
      "ĠWestern": 8692,
      "Ġvote": 8693,
      "Ġprey": 8694,
      "Ġlanded": 8695,
      "Ġforbid": 8696,
      "Ġcolony": 8697,
      "Rev": 8698,
      "Cont": 8699,
      "ptic": 8700,
      "ademy": 8701,
      "Ġeverywhere": 8702,
      "Ġconceived": 8703,
      "expl": 8704,
      "Gen": 8705,
      "Ġcoffee": 8706,
      "Gu": 8707,
      "Ġnearest": 8708,
      "Ġsending": 8709,
      "Ġtotally": 8710,
      "Ġintend": 8711,
      "Ġcharming": 8712,
      "isons": 8713,
      "Ġace": 8714,
      "Ġtables": 8715,
      "cession": 8716,
      "Ġmystery": 8717,
      "Ġcongreg": 8718,
      "Ġarrive": 8719,
      "Ġgallant": 8720,
      "Ġsurvey": 8721,
      "Before": 8722,
      "Ġcrowded": 8723,
      "Ġdoctrines": 8724,
      "Ġadmire": 8725,
      "Ġfeature": 8726,
      "ĠBath": 8727,
      "Ġnest": 8728,
      "ĠCounty": 8729,
      "Ġbeings": 8730,
      "dale": 8731,
      "Ġwashed": 8732,
      "Ġability": 8733,
      "Ġcharges": 8734,
      "Among": 8735,
      "gence": 8736,
      "Ġselect": 8737,
      "Ġprior": 8738,
      "Ġacknowledged": 8739,
      "akspe": 8740,
      "Ġpurchased": 8741,
      "Ġape": 8742,
      "ĠOR": 8743,
      "Ġtar": 8744,
      "iations": 8745,
      "omic": 8746,
      "Ġvegetable": 8747,
      "Ġcombination": 8748,
      "Ġflying": 8749,
      "Ġremind": 8750,
      "ĠField": 8751,
      "idi": 8752,
      "Ġspots": 8753,
      "Ġpulled": 8754,
      "eches": 8755,
      "Ġinserted": 8756,
      "Ġtalents": 8757,
      "Ġbeast": 8758,
      "itself": 8759,
      "ointment": 8760,
      "Ġpist": 8761,
      "ĠMinister": 8762,
      "Av": 8763,
      "faction": 8764,
      "ĠAra": 8765,
      "Ġrepeat": 8766,
      "Ġsafely": 8767,
      "Great": 8768,
      "lime": 8769,
      "pow": 8770,
      "Ġsaints": 8771,
      "ila": 8772,
      "ĠMargaret": 8773,
      "Ġcontinues": 8774,
      "Ġconve": 8775,
      "Ġrises": 8776,
      "Ġnegro": 8777,
      "Ġinterrupted": 8778,
      "Ġmutual": 8779,
      "Ġdeemed": 8780,
      "Ġhorror": 8781,
      "ignant": 8782,
      "oche": 8783,
      "Ġsummon": 8784,
      "Ġseve": 8785,
      "Ġpainting": 8786,
      "Ġroads": 8787,
      "ĠWat": 8788,
      "Ġtouching": 8789,
      "Ġsteady": 8790,
      "Ġos": 8791,
      "feet": 8792,
      "ĠPruss": 8793,
      "ella": 8794,
      "ĠLuc": 8795,
      "Robert": 8796,
      "Ġbottle": 8797,
      "generally": 8798,
      "Maj": 8799,
      "AW": 8800,
      "Ġembra": 8801,
      "Ġconstructed": 8802,
      "prot": 8803,
      "Ġabundance": 8804,
      "Ġdru": 8805,
      "umberland": 8806,
      "Ġfolly": 8807,
      "ictions": 8808,
      "Ġgi": 8809,
      "Ġtort": 8810,
      "ĠMarsh": 8811,
      "Ġah": 8812,
      "ĠChristmas": 8813,
      "Ġreports": 8814,
      "Ġguilt": 8815,
      "ĠGerm": 8816,
      "Ġdesigns": 8817,
      "Ġinvari": 8818,
      "Ġrust": 8819,
      "Ġbride": 8820,
      "ĠHome": 8821,
      "Ġstudies": 8822,
      "ĠRoad": 8823,
      "bable": 8824,
      "ĠPrice": 8825,
      "chn": 8826,
      "Ġcli": 8827,
      "?-": 8828,
      "faces": 8829,
      "although": 8830,
      "Ġrevel": 8831,
      "Ġ61": 8832,
      "inge": 8833,
      "ĠAccount": 8834,
      "appears": 8835,
      "iards": 8836,
      "iated": 8837,
      "joining": 8838,
      "trees": 8839,
      "Ġinconven": 8840,
      "abs": 8841,
      "Ġaffirm": 8842,
      "France": 8843,
      "Ġdesires": 8844,
      "Ġadding": 8845,
      "unn": 8846,
      "acco": 8847,
      "iasm": 8848,
      "illings": 8849,
      "liter": 8850,
      "Ġ78": 8851,
      "ĠIllustr": 8852,
      "ĠStat": 8853,
      "Ġkid": 8854,
      "olla": 8855,
      "ĠPrincess": 8856,
      "Ġtear": 8857,
      "Ġfeared": 8858,
      "ĠOb": 8859,
      "Ġstatute": 8860,
      "Ġni": 8861,
      "uh": 8862,
      "keep": 8863,
      "Ġinsol": 8864,
      "Ġje": 8865,
      "Ġapproached": 8866,
      "âĶĢâĶĢâĶĢâĶĢâĶĢâĶĢâĶĢâĶĢ": 8867,
      "fied": 8868,
      "imus": 8869,
      "indeed": 8870,
      "Ġensu": 8871,
      "Ġsymb": 8872,
      "ĠSwed": 8873,
      "Ġtranslated": 8874,
      "Ġlistened": 8875,
      "Again": 8876,
      "glass": 8877,
      "Ġconveyed": 8878,
      "pay": 8879,
      "ĠCond": 8880,
      "Ġstrictly": 8881,
      "hamed": 8882,
      "iolet": 8883,
      "Ġslightest": 8884,
      "ceptible": 8885,
      "Ġeldest": 8886,
      "rol": 8887,
      "enter": 8888,
      "Ġ168": 8889,
      "Pres": 8890,
      "ĠMonday": 8891,
      "Ġobscure": 8892,
      "Ġpractised": 8893,
      "list": 8894,
      "Ġpropriet": 8895,
      "Ġ300": 8896,
      "Ġknife": 8897,
      "ĠMichael": 8898,
      "Ġinstructions": 8899,
      "lif": 8900,
      "Ġasking": 8901,
      "Ġbreadth": 8902,
      "Ġprocure": 8903,
      "Ġprivilege": 8904,
      "Ġsupplies": 8905,
      "Ġprominent": 8906,
      "ĠFrederick": 8907,
      "occup": 8908,
      "Ġ`": 8909,
      "Ġmeal": 8910,
      "ĠAld": 8911,
      "Ġante": 8912,
      "Ġportrait": 8913,
      "Ġram": 8914,
      "ĠMort": 8915,
      "Ġ63": 8916,
      "Ġflatter": 8917,
      "ĠWin": 8918,
      "Ġcrew": 8919,
      "PER": 8920,
      "Ġacres": 8921,
      "Ġmatch": 8922,
      "Ġassociated": 8923,
      "ito": 8924,
      "ĠRet": 8925,
      "uk": 8926,
      "lation": 8927,
      "ĠGib": 8928,
      "Ġreturns": 8929,
      "Phil": 8930,
      "ĠEmpire": 8931,
      "Ġabandoned": 8932,
      "Ġesteem": 8933,
      "Ġoxygen": 8934,
      "ĠLike": 8935,
      "acent": 8936,
      "Ġcomprehend": 8937,
      "ĠAsh": 8938,
      "Ġhidden": 8939,
      "Ġincor": 8940,
      "Ġclerk": 8941,
      "Ġconceal": 8942,
      "Ġpretend": 8943,
      "Ġsolitary": 8944,
      "sole": 8945,
      "Ġcircular": 8946,
      "urrection": 8947,
      "Ġalluded": 8948,
      "Ġie": 8949,
      "ĠLieutenant": 8950,
      "usively": 8951,
      "Ġain": 8952,
      "pled": 8953,
      "Ġdecor": 8954,
      "GH": 8955,
      "inea": 8956,
      "Ġ67": 8957,
      "proved": 8958,
      "Ġ79": 8959,
      "ĠLetters": 8960,
      "Ġgray": 8961,
      "told": 8962,
      "Ġorganic": 8963,
      "Ġinhab": 8964,
      "Ġdawn": 8965,
      "dri": 8966,
      "Ġpractically": 8967,
      "utt": 8968,
      "arum": 8969,
      "ONS": 8970,
      "Ġrecollect": 8971,
      "Ġtraining": 8972,
      "Ġprecisely": 8973,
      "Ġunusual": 8974,
      "rons": 8975,
      "VER": 8976,
      "ĠStan": 8977,
      "Ġweigh": 8978,
      "AST": 8979,
      "Ġcoarse": 8980,
      "ici": 8981,
      "âĤ": 8982,
      "hundred": 8983,
      "Ġheated": 8984,
      "raits": 8985,
      "Ġdense": 8986,
      "Ġdiscipline": 8987,
      "Ġgang": 8988,
      "Ġkitchen": 8989,
      "aging": 8990,
      "Ġhereafter": 8991,
      "Ġpatent": 8992,
      "Ġtied": 8993,
      "Ġwave": 8994,
      "Ġascertained": 8995,
      "Ġlively": 8996,
      "mann": 8997,
      "Ġoffering": 8998,
      "Ġmicro": 8999,
      "Ġbetw": 9000,
      "Ġdismiss": 9001,
      "Ġcook": 9002,
      "Ġtight": 9003,
      "anda": 9004,
      "Ġslain": 9005,
      "Ġdisplayed": 9006,
      "Î¹": 9007,
      "Ġraising": 9008,
      "ĠBeing": 9009,
      "ample": 9010,
      "ĠFin": 9011,
      "wife": 9012,
      "Ġattributed": 9013,
      "Ġassure": 9014,
      "length": 9015,
      "Ġwheat": 9016,
      "wed": 9017,
      "adies": 9018,
      "erity": 9019,
      "ogue": 9020,
      "ei": 9021,
      "Ġjury": 9022,
      "Ġmes": 9023,
      "Ġrelieved": 9024,
      "Ġangels": 9025,
      "py": 9026,
      "ĠPower": 9027,
      "Ġ'*": 9028,
      "Ġshr": 9029,
      "ĠFox": 9030,
      "Ġoblong": 9031,
      "BS": 9032,
      "odes": 9033,
      "bation": 9034,
      "Ġsixteen": 9035,
      "Ġber": 9036,
      "Ġhumour": 9037,
      "ĠStephen": 9038,
      "Ġpreferred": 9039,
      "ĠBoston": 9040,
      "ineas": 9041,
      "Ġfount": 9042,
      "exc": 9043,
      "received": 9044,
      "itud": 9045,
      "Ġseas": 9046,
      "Ġidol": 9047,
      "rot": 9048,
      "Ġstout": 9049,
      "Ġimpl": 9050,
      "Ġlamp": 9051,
      "Ġours": 9052,
      "andal": 9053,
      "Ġloyal": 9054,
      "angle": 9055,
      "Ġappet": 9056,
      "uan": 9057,
      "Ġprincipally": 9058,
      "Ġpoured": 9059,
      "Ġ169": 9060,
      "Ġtrunk": 9061,
      "ĠSix": 9062,
      "-,": 9063,
      "Ġdelightful": 9064,
      "Ġtheatre": 9065,
      "AGE": 9066,
      "cop": 9067,
      "ĠPoet": 9068,
      "important": 9069,
      "ambers": 9070,
      "Ġwives": 9071,
      "Ġobser": 9072,
      "Ġyard": 9073,
      "Ġpossibility": 9074,
      "wild": 9075,
      "ĠOut": 9076,
      "already": 9077,
      "Ġangel": 9078,
      "Ġsignal": 9079,
      "ĠReview": 9080,
      "eyes": 9081,
      "ether": 9082,
      "aze": 9083,
      "aping": 9084,
      "ĠCast": 9085,
      "inqu": 9086,
      "Ġtemporary": 9087,
      "Ġverses": 9088,
      "neys": 9089,
      "ĠLab": 9090,
      "itur": 9091,
      "ipping": 9092,
      "Ġundoubtedly": 9093,
      "reck": 9094,
      "ounter": 9095,
      "alling": 9096,
      "ĠMis": 9097,
      "icul": 9098,
      "usually": 9099,
      "enc": 9100,
      "Ġwax": 9101,
      "Ġthri": 9102,
      "system": 9103,
      "Ġ66": 9104,
      "Ġvag": 9105,
      "oug": 9106,
      "regard": 9107,
      "Ġdisgrace": 9108,
      "Ġcompr": 9109,
      "Ġodd": 9110,
      "ĠGoth": 9111,
      "east": 9112,
      "Ġ88": 9113,
      "During": 9114,
      "ĠNapoleon": 9115,
      "Ġprocured": 9116,
      "Ġdollars": 9117,
      "Ġsubsequently": 9118,
      "Ġcommencement": 9119,
      "inj": 9120,
      "Ġmud": 9121,
      "Ġpunish": 9122,
      "Ġpas": 9123,
      "ometer": 9124,
      "towards": 9125,
      "ĠSi": 9126,
      "Ġdia": 9127,
      "Ġexhibit": 9128,
      "Ġarrangements": 9129,
      "usal": 9130,
      "places": 9131,
      "itized": 9132,
      "fire": 9133,
      "ĠSav": 9134,
      "Ġsport": 9135,
      "Have": 9136,
      "Ġpious": 9137,
      "inners": 9138,
      "Ġlaying": 9139,
      "mort": 9140,
      "rod": 9141,
      "ĠAM": 9142,
      "hered": 9143,
      "health": 9144,
      "yne": 9145,
      "Mad": 9146,
      "Ġcomplaint": 9147,
      "ĠHan": 9148,
      "ĠBoy": 9149,
      "Ġconject": 9150,
      "Ġoccurrence": 9151,
      "bun": 9152,
      "allowed": 9153,
      "Ap": 9154,
      "Ġadvert": 9155,
      "Ġrav": 9156,
      "sett": 9157,
      "mighty": 9158,
      "Ġaudience": 9159,
      "mistry": 9160,
      "Ġhed": 9161,
      "Ġstairs": 9162,
      "Ġdivide": 9163,
      "poor": 9164,
      "Ġshield": 9165,
      "Ġconcealed": 9166,
      "Dec": 9167,
      "ouble": 9168,
      "Ġrespectable": 9169,
      "Ġclub": 9170,
      "Ġvoices": 9171,
      "Ġcustoms": 9172,
      "Ġsurgeon": 9173,
      "Ġachie": 9174,
      "bler": 9175,
      "knowledge": 9176,
      "Ġ62": 9177,
      "Ġcoin": 9178,
      "ĠIslands": 9179,
      "Ġdispute": 9180,
      "Ġ/.": 9181,
      "Ġsets": 9182,
      "ranch": 9183,
      "Ġpersuaded": 9184,
      "isse": 9185,
      "Ġ71": 9186,
      "Ġrepres": 9187,
      "ASS": 9188,
      "Ġpunct": 9189,
      "ĠInn": 9190,
      "alty": 9191,
      "Ġinquire": 9192,
      "Ġculture": 9193,
      "ristol": 9194,
      "Ġregarding": 9195,
      "ĠCongress": 9196,
      "giving": 9197,
      "Ġay": 9198,
      "icable": 9199,
      "Ġunlike": 9200,
      "creat": 9201,
      "ĠManchester": 9202,
      "bod": 9203,
      "+----": 9204,
      "Ġcheek": 9205,
      "turned": 9206,
      "Ġmotives": 9207,
      "ĠLiverpool": 9208,
      "First": 9209,
      "July": 9210,
      "Ġlone": 9211,
      "ods": 9212,
      "Ġmerchants": 9213,
      "Ġdetermination": 9214,
      "Ġsurrounding": 9215,
      "ensation": 9216,
      "ĠPan": 9217,
      "Ġproceeds": 9218,
      "bted": 9219,
      "faith": 9220,
      "Ġprimitive": 9221,
      "Ġedges": 9222,
      "CI": 9223,
      "verty": 9224,
      "fat": 9225,
      "colour": 9226,
      "anta": 9227,
      "net": 9228,
      "Ġbrow": 9229,
      "Ġarter": 9230,
      "grad": 9231,
      "Ġlb": 9232,
      "Ġcomfortable": 9233,
      "arson": 9234,
      "Ġclever": 9235,
      "Ġreception": 9236,
      "Ġapprehend": 9237,
      "ĠMas": 9238,
      "Ġincap": 9239,
      "nr": 9240,
      "Ġwrath": 9241,
      "ĠPitt": 9242,
      "gery": 9243,
      "ĠPract": 9244,
      "Ġmanaged": 9245,
      "continued": 9246,
      "Ġquad": 9247,
      "Ġblock": 9248,
      "ĠAny": 9249,
      "Ġthrust": 9250,
      "Ġbenef": 9251,
      "ampton": 9252,
      "Ġvillages": 9253,
      "phia": 9254,
      "cieties": 9255,
      "break": 9256,
      "Ġsubmitted": 9257,
      "home": 9258,
      "iage": 9259,
      "Page": 9260,
      "stri": 9261,
      "Ġacknowledge": 9262,
      "prof": 9263,
      "Ġash": 9264,
      "Ġhoney": 9265,
      "Ġblank": 9266,
      "eff": 9267,
      "OUN": 9268,
      "akespe": 9269,
      "hope": 9270,
      "Ġconquer": 9271,
      "Ġdemands": 9272,
      "iM": 9273,
      "Ġplane": 9274,
      "conc": 9275,
      "\",": 9276,
      "ĠHope": 9277,
      "Ġmostly": 9278,
      "Ġprobability": 9279,
      "oric": 9280,
      "preme": 9281,
      "igr": 9282,
      "Ġagreement": 9283,
      "Ġlateral": 9284,
      "ONDON": 9285,
      "iders": 9286,
      "Ġmamm": 9287,
      "Ġfab": 9288,
      "pared": 9289,
      "assador": 9290,
      "ĠBarn": 9291,
      "uesday": 9292,
      "Ġinvestigation": 9293,
      "Ġexhausted": 9294,
      "Ġray": 9295,
      "Ġstrangers": 9296,
      "Ġdeclaration": 9297,
      "Ġdivisions": 9298,
      "ione": 9299,
      "Ġsignific": 9300,
      "Ġseventy": 9301,
      "Ġsunk": 9302,
      "Ġimpat": 9303,
      "ĠRail": 9304,
      "Ġobtaining": 9305,
      "__": 9306,
      "Ġreflection": 9307,
      "LY": 9308,
      "zing": 9309,
      "Ġtribut": 9310,
      "Ġrebell": 9311,
      "ĠWel": 9312,
      "Ġdescribes": 9313,
      "Ġceremony": 9314,
      "Ġecclesiastical": 9315,
      "stud": 9316,
      "ĠMethod": 9317,
      "itic": 9318,
      "Ġcriticism": 9319,
      "Ġconsciousness": 9320,
      "Ġsubstant": 9321,
      "Feb": 9322,
      "seven": 9323,
      "Ġminor": 9324,
      "Ġadmission": 9325,
      "Ġnoon": 9326,
[...]
